{
  "version": "1.0",
  "truncation": null,
  "padding": null,
  "added_tokens": [
    {
      "id": 0,
      "content": "<pad>",
      "single_word": false,
      "lstrip": false,
      "rstrip": false,
      "normalized": false,
      "special": true
    },
    {
      "id": 1,
      "content": "</s>",
      "single_word": false,
      "lstrip": false,
      "rstrip": false,
      "normalized": false,
      "special": true
    },
    {
      "id": 2,
      "content": "<cls>",
      "single_word": false,
      "lstrip": false,
      "rstrip": false,
      "normalized": false,
      "special": true
    },
    {
      "id": 3,
      "content": "<unk>",
      "single_word": false,
      "lstrip": false,
      "rstrip": false,
      "normalized": false,
      "special": true
    },
    {
      "id": 4,
      "content": "[MASK]",
      "single_word": false,
      "lstrip": false,
      "rstrip": false,
      "normalized": false,
      "special": true
    }
  ],
  "normalizer": {
    "type": "BertNormalizer",
    "clean_text": true,
    "handle_chinese_chars": false,
    "strip_accents": false,
    "lowercase": false
  },
  "pre_tokenizer": {
    "type": "BertPreTokenizer"
  },
  "post_processor": null,
  "decoder": {
    "type": "WordPiece",
    "prefix": "##",
    "cleanup": true
  },
  "model": {
    "type": "WordPiece",
    "unk_token": "[UNK]",
    "continuing_subword_prefix": "##",
    "max_input_chars_per_word": 100,
    "vocab": {
      "<pad>": 0,
      "</s>": 1,
      "<cls>": 2,
      "<unk>": 3,
      "[MASK]": 4,
      "!": 5,
      "\"": 6,
      "#": 7,
      "%": 8,
      "&": 9,
      "'": 10,
      "(": 11,
      ")": 12,
      "*": 13,
      "+": 14,
      ",": 15,
      "-": 16,
      ".": 17,
      "/": 18,
      "0": 19,
      "1": 20,
      "2": 21,
      "3": 22,
      "4": 23,
      "5": 24,
      "6": 25,
      "7": 26,
      "8": 27,
      "9": 28,
      ":": 29,
      ";": 30,
      "<": 31,
      "=": 32,
      ">": 33,
      "?": 34,
      "@": 35,
      "A": 36,
      "B": 37,
      "C": 38,
      "D": 39,
      "E": 40,
      "F": 41,
      "G": 42,
      "H": 43,
      "I": 44,
      "J": 45,
      "K": 46,
      "L": 47,
      "M": 48,
      "N": 49,
      "O": 50,
      "P": 51,
      "Q": 52,
      "R": 53,
      "S": 54,
      "T": 55,
      "U": 56,
      "V": 57,
      "W": 58,
      "X": 59,
      "Y": 60,
      "Z": 61,
      "[": 62,
      "\\": 63,
      "]": 64,
      "^": 65,
      "_": 66,
      "a": 67,
      "b": 68,
      "c": 69,
      "d": 70,
      "e": 71,
      "f": 72,
      "g": 73,
      "h": 74,
      "i": 75,
      "j": 76,
      "k": 77,
      "l": 78,
      "m": 79,
      "n": 80,
      "o": 81,
      "p": 82,
      "q": 83,
      "r": 84,
      "s": 85,
      "t": 86,
      "u": 87,
      "v": 88,
      "w": 89,
      "x": 90,
      "y": 91,
      "z": 92,
      "{": 93,
      "|": 94,
      "}": 95,
      "~": 96,
      "¢": 97,
      "§": 98,
      "¨": 99,
      "«": 100,
      "®": 101,
      "°": 102,
      "²": 103,
      "´": 104,
      "º": 105,
      "»": 106,
      "½": 107,
      "Á": 108,
      "Ä": 109,
      "É": 110,
      "Í": 111,
      "Ó": 112,
      "×": 113,
      "Ú": 114,
      "Ý": 115,
      "à": 116,
      "á": 117,
      "â": 118,
      "ä": 119,
      "å": 120,
      "è": 121,
      "é": 122,
      "ê": 123,
      "í": 124,
      "î": 125,
      "ï": 126,
      "ó": 127,
      "ô": 128,
      "õ": 129,
      "ö": 130,
      "ú": 131,
      "ü": 132,
      "ý": 133,
      "ā": 134,
      "ă": 135,
      "Ć": 136,
      "ć": 137,
      "ċ": 138,
      "Č": 139,
      "č": 140,
      "Ď": 141,
      "ď": 142,
      "ĕ": 143,
      "Ė": 144,
      "ė": 145,
      "ę": 146,
      "Ě": 147,
      "ě": 148,
      "ġ": 149,
      "İ": 150,
      "ı": 151,
      "ĵ": 152,
      "ĺ": 153,
      "ľ": 154,
      "ł": 155,
      "ń": 156,
      "Ň": 157,
      "ň": 158,
      "ō": 159,
      "ő": 160,
      "ŕ": 161,
      "Ř": 162,
      "ř": 163,
      "Ś": 164,
      "ś": 165,
      "Š": 166,
      "š": 167,
      "Ť": 168,
      "ť": 169,
      "ū": 170,
      "ŭ": 171,
      "Ů": 172,
      "ů": 173,
      "ű": 174,
      "ź": 175,
      "ż": 176,
      "Ž": 177,
      "ž": 178,
      "ǁ": 179,
      "ǎ": 180,
      "ǐ": 181,
      "ǰ": 182,
      "ȧ": 183,
      "ȳ": 184,
      "˂": 185,
      "˃": 186,
      "ˇ": 187,
      "˚": 188,
      "˝": 189,
      "́": 190,
      "̇": 191,
      "̊": 192,
      "̌": 193,
      "͡": 194,
      "ў": 195,
      "ѣ": 196,
      "࿄": 197,
      "ḋ": 198,
      "ḿ": 199,
      "ṁ": 200,
      "ṅ": 201,
      "ṕ": 202,
      "ṙ": 203,
      "Ṡ": 204,
      "ṡ": 205,
      "ẏ": 206,
      "ẘ": 207,
      "ẙ": 208,
      "ụ": 209,
      "‒": 210,
      "–": 211,
      "‘": 212,
      "’": 213,
      "‚": 214,
      "“": 215,
      "”": 216,
      "„": 217,
      "…": 218,
      "←": 219,
      "→": 220,
      "⇒": 221,
      "−": 222,
      "∞": 223,
      "∩": 224,
      "►": 225,
      "◄": 226,
      "☺": 227,
      "☻": 228,
      "♥": 229,
      "⟹": 230,
      "##n": 231,
      "##ě": 232,
      "##d": 233,
      "##k": 234,
      "##u": 235,
      "##í": 236,
      "##s": 237,
      "##t": 238,
      "##e": 239,
      "##m": 240,
      "##z": 241,
      "##a": 242,
      "##b": 243,
      "##g": 244,
      "##r": 245,
      "##y": 246,
      "##o": 247,
      "##h": 248,
      "##á": 249,
      "##i": 250,
      "##l": 251,
      "##é": 252,
      "##p": 253,
      "##v": 254,
      "##O": 255,
      "##U": 256,
      "##Z": 257,
      "##E": 258,
      "##ž": 259,
      "##c": 260,
      "##ú": 261,
      "##š": 262,
      "##j": 263,
      "##ř": 264,
      "##č": 265,
      "##ý": 266,
      "##ó": 267,
      "##ů": 268,
      "##A": 269,
      "##P": 270,
      "##D": 271,
      "##L": 272,
      "##Á": 273,
      "##ň": 274,
      "##0": 275,
      "##8": 276,
      "##7": 277,
      "##Š": 278,
      "##Í": 279,
      "##f": 280,
      "##B": 281,
      "##I": 282,
      "##T": 283,
      "##R": 284,
      "##N": 285,
      "##K": 286,
      "##M": 287,
      "##H": 288,
      "##J": 289,
      "##Ž": 290,
      "##x": 291,
      "##Ř": 292,
      "##ď": 293,
      "##X": 294,
      "##ť": 295,
      "##G": 296,
      "##ẏ": 297,
      "##2": 298,
      "##4": 299,
      "##É": 300,
      "##S": 301,
      "##C": 302,
      "##V": 303,
      "##ˇ": 304,
      "##Ň": 305,
      "##3": 306,
      "##´": 307,
      "##ḿ": 308,
      "##w": 309,
      "##9": 310,
      "##Č": 311,
      "##1": 312,
      "##Y": 313,
      "##ä": 314,
      "##Ý": 315,
      "##Ě": 316,
      "##ľ": 317,
      "##ń": 318,
      "##5": 319,
      "##Ů": 320,
      "##́": 321,
      "##ż": 322,
      "##ǰ": 323,
      "##ć": 324,
      "##Ď": 325,
      "##ǐ": 326,
      "##6": 327,
      "##Ó": 328,
      "##ȧ": 329,
      "##ĕ": 330,
      "##♥": 331,
      "##ö": 332,
      "##W": 333,
      "##ė": 334,
      "##˚": 335,
      "##Ť": 336,
      "##q": 337,
      "##Q": 338,
      "##F": 339,
      "##à": 340,
      "##ł": 341,
      "##º": 342,
      "##►": 343,
      "##ụ": 344,
      "##ś": 345,
      "##ǎ": 346,
      "##ź": 347,
      "##ı": 348,
      "##ō": 349,
      "##°": 350,
      "##ü": 351,
      "##ṙ": 352,
      "##Ú": 353,
      "##ę": 354,
      "##ŕ": 355,
      "##Ė": 356,
      "##ẙ": 357,
      "##ï": 358,
      "##Ṡ": 359,
      "##¢": 360,
      "##ṁ": 361,
      "##̇": 362,
      "##˃": 363,
      "##å": 364,
      "##ê": 365,
      "##̌": 366,
      "##ċ": 367,
      "##ă": 368,
      "##â": 369,
      "##ȳ": 370,
      "##²": 371,
      "##ā": 372,
      "##̊": 373,
      "##͡": 374,
      "##Ä": 375,
      "##İ": 376,
      "##˝": 377,
      "##õ": 378,
      "##ĺ": 379,
      "##ô": 380,
      "##ǁ": 381,
      "##ẘ": 382,
      "##Ć": 383,
      "##×": 384,
      "##ѣ": 385,
      "##∞": 386,
      "##î": 387,
      "##è": 388,
      "##◄": 389,
      "##ű": 390,
      "##ő": 391,
      "##ŭ": 392,
      "##la": 393,
      "##em": 394,
      "##st": 395,
      "##en": 396,
      "##ou": 397,
      "##ch": 398,
      "##ov": 399,
      "##ra": 400,
      "na": 401,
      "se": 402,
      "je": 403,
      "##le": 404,
      "##li": 405,
      "##ak": 406,
      "##ro": 407,
      "ne": 408,
      "js": 409,
      "do": 410,
      "po": 411,
      "##in": 412,
      "##te": 413,
      "##am": 414,
      "##od": 415,
      "##ní": 416,
      "by": 417,
      "##at": 418,
      "to": 419,
      "##to": 420,
      "##ka": 421,
      "##dy": 422,
      "pro": 423,
      "##ím": 424,
      "##ně": 425,
      "##ře": 426,
      "##rá": 427,
      "jsem": 428,
      "##ám": 429,
      "##ce": 430,
      "##ko": 431,
      "##al": 432,
      "##el": 433,
      "##ho": 434,
      "##je": 435,
      "##ky": 436,
      "##ku": 437,
      "##ni": 438,
      "tak": 439,
      "##ud": 440,
      "st": 441,
      "za": 442,
      "##lo": 443,
      "##it": 444,
      "že": 445,
      "##no": 446,
      "##me": 447,
      "mo": 448,
      "ch": 449,
      "##il": 450,
      "##tě": 451,
      "mě": 452,
      "##va": 453,
      "##ři": 454,
      "##ne": 455,
      "##že": 456,
      "si": 457,
      "##id": 458,
      "##ří": 459,
      "##na": 460,
      "##by": 461,
      "##sk": 462,
      "##ci": 463,
      "vy": 464,
      "##jí": 465,
      "##ar": 466,
      "##ád": 467,
      "##po": 468,
      "##ší": 469,
      "ko": 470,
      "##lu": 471,
      "##vo": 472,
      "##de": 473,
      "ve": 474,
      "ně": 475,
      "##bo": 476,
      "##av": 477,
      "ale": 478,
      "##et": 479,
      "##er": 480,
      "##né": 481,
      "##ek": 482,
      "ob": 483,
      "##ět": 484,
      "jsme": 485,
      "mi": 486,
      "##dyž": 487,
      "##ad": 488,
      "sv": 489,
      "nej": 490,
      "jak": 491,
      "proto": 492,
      "ro": 493,
      "##lí": 494,
      "##us": 495,
      "##an": 496,
      "kte": 497,
      "##du": 498,
      "##ez": 499,
      "##ly": 500,
      "##ení": 501,
      "bud": 502,
      "##dě": 503,
      "##ný": 504,
      "bych": 505,
      "hod": 506,
      "od": 507,
      "##ji": 508,
      "##še": 509,
      "##ná": 510,
      "dob": 511,
      "te": 512,
      "##mi": 513,
      "ho": 514,
      "##as": 515,
      "##rav": 516,
      "tam": 517,
      "##ít": 518,
      "##át": 519,
      "##lov": 520,
      "při": 521,
      "##ze": 522,
      "pře": 523,
      "##ru": 524,
      "moc": 525,
      "##ama": 526,
      "##eme": 527,
      "protože": 528,
      "Je": 529,
      "##ič": 530,
      "ná": 531,
      "kter": 532,
      "##do": 533,
      "jed": 534,
      "##im": 535,
      "nem": 536,
      "dom": 537,
      "mám": 538,
      "##ic": 539,
      "vel": 540,
      "má": 541,
      "##nou": 542,
      "le": 543,
      "když": 544,
      "co": 545,
      "##ova": 546,
      "##ovat": 547,
      "##or": 548,
      "rod": 549,
      "##ila": 550,
      "##ví": 551,
      "##ůj": 552,
      "nebo": 553,
      "lid": 554,
      "Po": 555,
      "##zd": 556,
      "jsou": 557,
      "če": 558,
      "##ej": 559,
      "##ny": 560,
      "##ště": 561,
      "rád": 562,
      "ško": 563,
      "##ys": 564,
      "už": 565,
      "##sta": 566,
      "##uje": 567,
      "##št": 568,
      "##ých": 569,
      "##kou": 570,
      "##uj": 571,
      "##mě": 572,
      "##ké": 573,
      "ži": 574,
      "##lá": 575,
      "Na": 576,
      "Mo": 577,
      "kama": 578,
      "##iny": 579,
      "pr": 580,
      "##nu": 581,
      "##tu": 582,
      "byl": 583,
      "pra": 584,
      "##ina": 585,
      "##om": 586,
      "##ká": 587,
      "dě": 588,
      "##sto": 589,
      "Pra": 590,
      "##ské": 591,
      "##vě": 592,
      "sp": 593,
      "##ta": 594,
      "ka": 595,
      "##da": 596,
      "##is": 597,
      "##lou": 598,
      "vše": 599,
      "##ili": 600,
      "##ob": 601,
      "spo": 602,
      "##ová": 603,
      "mu": 604,
      "##mu": 605,
      "##lé": 606,
      "##cí": 607,
      "aby": 608,
      "ma": 609,
      "pří": 610,
      "jí": 611,
      "##inu": 612,
      "##lav": 613,
      "Ale": 614,
      "ta": 615,
      "den": 616,
      "hra": 617,
      "##si": 618,
      "##ký": 619,
      "roz": 620,
      "jako": 621,
      "##čí": 622,
      "taky": 623,
      "zá": 624,
      "##bí": 625,
      "živo": 626,
      "tě": 627,
      "##ry": 628,
      "jen": 629,
      "##ti": 630,
      "mus": 631,
      "stud": 632,
      "##ist": 633,
      "##lad": 634,
      "##tel": 635,
      "pak": 636,
      "##est": 637,
      "byla": 638,
      "##se": 639,
      "##žd": 640,
      "kamará": 641,
      "chod": 642,
      "Tak": 643,
      "ja": 644,
      "To": 645,
      "vý": 646,
      "pod": 647,
      "##či": 648,
      "Pro": 649,
      "##ové": 650,
      "##ši": 651,
      "prá": 652,
      "##lat": 653,
      "Když": 654,
      "##nost": 655,
      "##vá": 656,
      "##ba": 657,
      "kou": 658,
      "bylo": 659,
      "##hod": 660,
      "všech": 661,
      "##ep": 662,
      "ten": 663,
      "hodně": 664,
      "##di": 665,
      "##men": 666,
      "mů": 667,
      "##mí": 668,
      "ni": 669,
      "##tom": 670,
      "bude": 671,
      "Če": 672,
      "##led": 673,
      "20": 674,
      "##ma": 675,
      "By": 676,
      "vě": 677,
      "##rat": 678,
      "něk": 679,
      "ví": 680,
      "##oh": 681,
      "##íme": 682,
      "##ty": 683,
      "##ěk": 684,
      "##tek": 685,
      "krá": 686,
      "vz": 687,
      "##ol": 688,
      "##ál": 689,
      "mam": 690,
      "##ží": 691,
      "Ne": 692,
      "##ub": 693,
      "##roz": 694,
      "##ha": 695,
      "##lím": 696,
      "##jší": 697,
      "let": 698,
      "##če": 699,
      "ba": 700,
      "##ého": 701,
      "##vi": 702,
      "##prav": 703,
      "nap": 704,
      "##ená": 705,
      "ku": 706,
      "##ovi": 707,
      "Moje": 708,
      "##co": 709,
      "dobře": 710,
      "chtě": 711,
      "##be": 712,
      "hez": 713,
      "##lep": 714,
      "ráda": 715,
      "##áz": 716,
      "mí": 717,
      "##on": 718,
      "Mám": 719,
      "lí": 720,
      "##hy": 721,
      "##ve": 722,
      "ze": 723,
      "já": 724,
      "##ým": 725,
      "au": 726,
      "##oval": 727,
      "no": 728,
      "pos": 729,
      "dobr": 730,
      "člov": 731,
      "##vat": 732,
      "##ždy": 733,
      "také": 734,
      "pom": 735,
      "jin": 736,
      "tu": 737,
      "##um": 738,
      "před": 739,
      "##pad": 740,
      "sem": 741,
      "##zi": 742,
      "##es": 743,
      "zač": 744,
      "něj": 745,
      "dět": 746,
      "##rát": 747,
      "které": 748,
      "ty": 749,
      "ji": 750,
      "##uju": 751,
      "##zy": 752,
      "př": 753,
      "##stav": 754,
      "poz": 755,
      "dá": 756,
      "##vy": 757,
      "kdy": 758,
      "čas": 759,
      "##ri": 760,
      "##bi": 761,
      "##ýt": 762,
      "ještě": 763,
      "##stě": 764,
      "život": 765,
      "##ala": 766,
      "Jak": 767,
      "budu": 768,
      "##let": 769,
      "rad": 770,
      "##čit": 771,
      "nám": 772,
      "##bu": 773,
      "sou": 774,
      "mal": 775,
      "vid": 776,
      "pa": 777,
      "sko": 778,
      "velmi": 779,
      "řek": 780,
      "pot": 781,
      "##jím": 782,
      "Co": 783,
      "##líb": 784,
      "cel": 785,
      "di": 786,
      "mys": 787,
      "kde": 788,
      "##ste": 789,
      "prac": 790,
      "každ": 791,
      "##ový": 792,
      "Praze": 793,
      "není": 794,
      "##hu": 795,
      "##vní": 796,
      "##stí": 797,
      "něco": 798,
      "dí": 799,
      "ří": 800,
      "vla": 801,
      "doma": 802,
      "##ský": 803,
      "##noho": 804,
      "##pat": 805,
      "##ran": 806,
      "tele": 807,
      "##rad": 808,
      "##ším": 809,
      "sto": 810,
      "nás": 811,
      "cest": 812,
      "##čka": 813,
      "##áno": 814,
      "který": 815,
      "asi": 816,
      "##ům": 817,
      "##rt": 818,
      "##ém": 819,
      "moje": 820,
      "##alo": 821,
      "201": 822,
      "dost": 823,
      "##leč": 824,
      "kni": 825,
      "##ju": 826,
      "zd": 827,
      "zem": 828,
      "##ali": 829,
      "##sp": 830,
      "sk": 831,
      "##rov": 832,
      "nějak": 833,
      "##lem": 834,
      "##ži": 835,
      "poč": 836,
      "##lik": 837,
      "Ch": 838,
      "##nám": 839,
      "##ent": 840,
      "Eva": 841,
      "os": 842,
      "koup": 843,
      "kamarád": 844,
      "##my": 845,
      "být": 846,
      "nech": 847,
      "ru": 848,
      "##ově": 849,
      "##up": 850,
      "##žu": 851,
      "##luv": 852,
      "Můj": 853,
      "##sem": 854,
      "než": 855,
      "Ve": 856,
      "čer": 857,
      "##oc": 858,
      "##sti": 859,
      "##ena": 860,
      "##kem": 861,
      "##ter": 862,
      "va": 863,
      "Já": 864,
      "tře": 865,
      "##vu": 866,
      "krás": 867,
      "in": 868,
      "##za": 869,
      "hodin": 870,
      "00": 871,
      "2010": 872,
      "##klad": 873,
      "spolu": 874,
      "##nam": 875,
      "češt": 876,
      "Ka": 877,
      "##ené": 878,
      "Nej": 879,
      "bez": 880,
      "kon": 881,
      "jenom": 882,
      "##ční": 883,
      "Pak": 884,
      "až": 885,
      "##sí": 886,
      "mít": 887,
      "##děla": 888,
      "zp": 889,
      "##pe": 890,
      "moh": 891,
      "nik": 892,
      "##žit": 893,
      "##rod": 894,
      "rodič": 895,
      "##ubli": 896,
      "jeho": 897,
      "školy": 898,
      "všechno": 899,
      "můj": 900,
      "tady": 901,
      "jmen": 902,
      "##re": 903,
      "ven": 904,
      "##ovala": 905,
      "sme": 906,
      "##bič": 907,
      "##lepší": 908,
      "##vět": 909,
      "sta": 910,
      "dal": 911,
      "ry": 912,
      "nep": 913,
      "stra": 914,
      "člověk": 915,
      "kra": 916,
      "##chu": 917,
      "##dá": 918,
      "##ily": 919,
      "##sky": 920,
      "byd": 921,
      "##eně": 922,
      "toho": 923,
      "##ůz": 924,
      "dlou": 925,
      "##ver": 926,
      "hlav": 927,
      "##epubli": 928,
      "Mys": 929,
      "ča": 930,
      "Za": 931,
      "10": 932,
      "dru": 933,
      "##ot": 934,
      "##ině": 935,
      "##řed": 936,
      "##zdn": 937,
      "##žel": 938,
      "##cház": 939,
      "potom": 940,
      "##ním": 941,
      "lé": 942,
      "##oz": 943,
      "dne": 944,
      "měl": 945,
      "vždy": 946,
      "jíd": 947,
      "auto": 948,
      "li": 949,
      "##chni": 950,
      "byli": 951,
      "##ěl": 952,
      "tom": 953,
      "##sa": 954,
      "re": 955,
      "prob": 956,
      "##ovali": 957,
      "##ska": 958,
      "##jem": 959,
      "##hle": 960,
      "##ený": 961,
      "mají": 962,
      "jezd": 963,
      "bo": 964,
      "nic": 965,
      "##čer": 966,
      "děti": 967,
      "St": 968,
      "##ská": 969,
      "##dam": 970,
      "##bě": 971,
      "##áme": 972,
      "slu": 973,
      "##tej": 974,
      "může": 975,
      "škole": 976,
      "Proto": 977,
      "de": 978,
      "dů": 979,
      "vš": 980,
      "##val": 981,
      "vys": 982,
      "##ng": 983,
      "zajím": 984,
      "me": 985,
      "##ude": 986,
      "##pis": 987,
      "##inka": 988,
      "oblíb": 989,
      "lidé": 990,
      "bav": 991,
      "##zí": 992,
      "sam": 993,
      "##deme": 994,
      "##stli": 995,
      "teď": 996,
      "##tí": 997,
      "dov": 998,
      "růz": 999,
      "mnoho": 1000,
      "ti": 1001,
      "nev": 1002,
      "ani": 1003,
      "měla": 1004,
      "jdu": 1005,
      "mluv": 1006,
      "##chod": 1007,
      "##šel": 1008,
      "šli": 1009,
      "##cha": 1010,
      "Te": 1011,
      "##sy": 1012,
      "babič": 1013,
      "která": 1014,
      "město": 1015,
      "vo": 1016,
      "uči": 1017,
      "##cky": 1018,
      "##nosti": 1019,
      "musí": 1020,
      "televi": 1021,
      "třeba": 1022,
      "domů": 1023,
      "##ků": 1024,
      "##stat": 1025,
      "Ja": 1026,
      "##eni": 1027,
      "neby": 1028,
      "nejlepší": 1029,
      "##bal": 1030,
      "##ných": 1031,
      "mně": 1032,
      "##ček": 1033,
      "jazy": 1034,
      "Adam": 1035,
      "Má": 1036,
      "tr": 1037,
      "##ram": 1038,
      "ci": 1039,
      "my": 1040,
      "neb": 1041,
      "své": 1042,
      "prav": 1043,
      "pá": 1044,
      "lidi": 1045,
      "mož": 1046,
      "on": 1047,
      "každý": 1048,
      "du": 1049,
      "##ování": 1050,
      "pi": 1051,
      "par": 1052,
      "tat": 1053,
      "##nout": 1054,
      "Do": 1055,
      "Ko": 1056,
      "Kar": 1057,
      "##ěla": 1058,
      "##oví": 1059,
      "##ami": 1060,
      "##děl": 1061,
      "lidí": 1062,
      "##ství": 1063,
      "svět": 1064,
      "rodina": 1065,
      "Myslím": 1066,
      "nez": 1067,
      "##ct": 1068,
      "vod": 1069,
      "klu": 1070,
      "##čky": 1071,
      "republi": 1072,
      "##eno": 1073,
      "tro": 1074,
      "##nec": 1075,
      "sest": 1076,
      "jeden": 1077,
      "druh": 1078,
      "špat": 1079,
      "##liv": 1080,
      "poh": 1081,
      "té": 1082,
      "##inou": 1083,
      "##tá": 1084,
      "##ůl": 1085,
      "##sou": 1086,
      "##zit": 1087,
      "poř": 1088,
      "##lád": 1089,
      "##řeb": 1090,
      "slov": 1091,
      "vi": 1092,
      "##íš": 1093,
      "##rozen": 1094,
      "op": 1095,
      "##hra": 1096,
      "##ec": 1097,
      "budou": 1098,
      "jim": 1099,
      "rok": 1100,
      "##šichni": 1101,
      "##bor": 1102,
      "##ují": 1103,
      "Potom": 1104,
      "brat": 1105,
      "##dí": 1106,
      "##oup": 1107,
      "##niver": 1108,
      "děla": 1109,
      "##kov": 1110,
      "chtěla": 1111,
      "stro": 1112,
      "##nice": 1113,
      "odpo": 1114,
      "##vod": 1115,
      "chci": 1116,
      "br": 1117,
      "vět": 1118,
      "fil": 1119,
      "dovol": 1120,
      "##raz": 1121,
      "nov": 1122,
      "Pet": 1123,
      "##00": 1124,
      "Jed": 1125,
      "so": 1126,
      "##ouf": 1127,
      "zajímav": 1128,
      "ves": 1129,
      "prázdn": 1130,
      "chy": 1131,
      "abych": 1132,
      "těž": 1133,
      "oprav": 1134,
      "poko": 1135,
      "##skou": 1136,
      "první": 1137,
      "##kup": 1138,
      "kole": 1139,
      "##žeme": 1140,
      "##sku": 1141,
      "##ních": 1142,
      "##op": 1143,
      "##ezi": 1144,
      "ní": 1145,
      "něko": 1146,
      "mé": 1147,
      "nav": 1148,
      "pop": 1149,
      "domu": 1150,
      "kam": 1151,
      "mil": 1152,
      "##pa": 1153,
      "##nit": 1154,
      "stá": 1155,
      "práce": 1156,
      "jídlo": 1157,
      "dva": 1158,
      "##hoj": 1159,
      "chtěl": 1160,
      "Jsem": 1161,
      "sm": 1162,
      "sy": 1163,
      "někdy": 1164,
      "Mar": 1165,
      "star": 1166,
      "učitel": 1167,
      "##jed": 1168,
      "velký": 1169,
      "studovat": 1170,
      "vá": 1171,
      "##ách": 1172,
      "Vy": 1173,
      "sna": 1174,
      "##nější": 1175,
      "##vali": 1176,
      "přes": 1177,
      "##ští": 1178,
      "stej": 1179,
      "##ir": 1180,
      "večer": 1181,
      "máme": 1182,
      "líbí": 1183,
      "Kdy": 1184,
      "byt": 1185,
      "poli": 1186,
      "České": 1187,
      "zdrav": 1188,
      "##vala": 1189,
      "##ut": 1190,
      "##enou": 1191,
      "##dle": 1192,
      "##kon": 1193,
      "dělat": 1194,
      "##niverzit": 1195,
      "Tam": 1196,
      "ře": 1197,
      "##ležit": 1198,
      "jmenuje": 1199,
      "pou": 1200,
      "##lý": 1201,
      "jestli": 1202,
      "proč": 1203,
      "měli": 1204,
      "často": 1205,
      "šel": 1206,
      "##eny": 1207,
      "počít": 1208,
      "##vé": 1209,
      "bar": 1210,
      "##chy": 1211,
      "rodiče": 1212,
      "##umě": 1213,
      "##rý": 1214,
      "tomu": 1215,
      "##udu": 1216,
      "##ické": 1217,
      "##ie": 1218,
      "##cela": 1219,
      "##čas": 1220,
      "řekl": 1221,
      "##ory": 1222,
      "vlast": 1223,
      "##mo": 1224,
      "##ast": 1225,
      "víc": 1226,
      "##ného": 1227,
      "přije": 1228,
      "vů": 1229,
      "vol": 1230,
      "tý": 1231,
      "byly": 1232,
      "kdyby": 1233,
      "##zo": 1234,
      "##řej": 1235,
      "přá": 1236,
      "Chtě": 1237,
      "dlouho": 1238,
      "stát": 1239,
      "pí": 1240,
      "pení": 1241,
      "tím": 1242,
      "##lek": 1243,
      "30": 1244,
      "##dou": 1245,
      "fot": 1246,
      "19": 1247,
      "##vr": 1248,
      "obleč": 1249,
      "Rus": 1250,
      "##šli": 1251,
      "narozen": 1252,
      "##ned": 1253,
      "uč": 1254,
      "##cích": 1255,
      "svo": 1256,
      "někdo": 1257,
      "tři": 1258,
      "##uč": 1259,
      "##bec": 1260,
      "pořád": 1261,
      "uk": 1262,
      "##bil": 1263,
      "##ák": 1264,
      "##vid": 1265,
      "Ahoj": 1266,
      "Mě": 1267,
      "Ta": 1268,
      "Protože": 1269,
      "Rád": 1270,
      "nové": 1271,
      "ok": 1272,
      "##vají": 1273,
      "##vám": 1274,
      "##stá": 1275,
      "jet": 1276,
      "baví": 1277,
      "peníze": 1278,
      "dár": 1279,
      "Při": 1280,
      "jít": 1281,
      "velké": 1282,
      "Prahy": 1283,
      "všechny": 1284,
      "##ura": 1285,
      "nad": 1286,
      "##louch": 1287,
      "rozhod": 1288,
      "šla": 1289,
      "##má": 1290,
      "počíta": 1291,
      "at": 1292,
      "mezi": 1293,
      "všichni": 1294,
      "##pi": 1295,
      "svou": 1296,
      "maminka": 1297,
      "13": 1298,
      "up": 1299,
      "pla": 1300,
      "##rop": 1301,
      "nes": 1302,
      "myslím": 1303,
      "dosta": 1304,
      "jedno": 1305,
      "us": 1306,
      "půj": 1307,
      "##ince": 1308,
      "nikdy": 1309,
      "kr": 1310,
      "kdo": 1311,
      "tep": 1312,
      "trochu": 1313,
      "ke": 1314,
      "##děli": 1315,
      "uděla": 1316,
      "univerzit": 1317,
      "##stup": 1318,
      "##istor": 1319,
      "další": 1320,
      "##čku": 1321,
      "Ev": 1322,
      "da": 1323,
      "tří": 1324,
      "zase": 1325,
      "Teď": 1326,
      "opravdu": 1327,
      "15": 1328,
      "ra": 1329,
      "##hla": 1330,
      "jeji": 1331,
      "##ního": 1332,
      "skon": 1333,
      "televizi": 1334,
      "musím": 1335,
      "rych": 1336,
      "jednou": 1337,
      "12": 1338,
      "zam": 1339,
      "##áš": 1340,
      "potřeb": 1341,
      "##kat": 1342,
      "##uji": 1343,
      "##ujeme": 1344,
      "histor": 1345,
      "mod": 1346,
      "kamarády": 1347,
      "zkou": 1348,
      "veli": 1349,
      "dobrý": 1350,
      "čí": 1351,
      "##sím": 1352,
      "odp": 1353,
      "nemoc": 1354,
      "##staura": 1355,
      "české": 1356,
      "pat": 1357,
      "##kovi": 1358,
      "oblíbená": 1359,
      "##kal": 1360,
      "##kol": 1361,
      "země": 1362,
      "##den": 1363,
      "kras": 1364,
      "Pod": 1365,
      "mat": 1366,
      "chce": 1367,
      "nedo": 1368,
      "18": 1369,
      "##čně": 1370,
      "nemám": 1371,
      "Tě": 1372,
      "man": 1373,
      "##ken": 1374,
      "##bus": 1375,
      "##lej": 1376,
      "##nek": 1377,
      "skoro": 1378,
      "sebe": 1379,
      "svě": 1380,
      "##šky": 1381,
      "##ke": 1382,
      "restaura": 1383,
      "vůbec": 1384,
      "##ost": 1385,
      "##há": 1386,
      "vyso": 1387,
      "Od": 1388,
      "hol": 1389,
      "přij": 1390,
      "Každ": 1391,
      "11": 1392,
      "##gra": 1393,
      "procház": 1394,
      "Mam": 1395,
      "ote": 1396,
      "zví": 1397,
      "##ník": 1398,
      "##spě": 1399,
      "##nat": 1400,
      "##rčit": 1401,
      "##šla": 1402,
      "místo": 1403,
      "Hory": 1404,
      "pov": 1405,
      "zim": 1406,
      "rodinu": 1407,
      "věci": 1408,
      "##řit": 1409,
      "vypad": 1410,
      "jde": 1411,
      "minu": 1412,
      "##mír": 1413,
      "čt": 1414,
      "##sko": 1415,
      "##ltu": 1416,
      "##ými": 1417,
      "můžu": 1418,
      "Byl": 1419,
      "##ohu": 1420,
      "##pom": 1421,
      "pam": 1422,
      "##emí": 1423,
      "kteří": 1424,
      "lep": 1425,
      "poslouch": 1426,
      "ot": 1427,
      "problé": 1428,
      "Ten": 1429,
      "Už": 1430,
      "##ika": 1431,
      "mlad": 1432,
      "sr": 1433,
      "##nici": 1434,
      "náv": 1435,
      "##ledne": 1436,
      "tát": 1437,
      "sed": 1438,
      "jsi": 1439,
      "poje": 1440,
      "studi": 1441,
      "chodit": 1442,
      "##aly": 1443,
      "Proč": 1444,
      "vždycky": 1445,
      "Byla": 1446,
      "hezký": 1447,
      "##kra": 1448,
      "##lid": 1449,
      "dra": 1450,
      "##jít": 1451,
      "češtinu": 1452,
      "bě": 1453,
      "znam": 1454,
      "##bou": 1455,
      "##ůže": 1456,
      "Bylo": 1457,
      "##pí": 1458,
      "naše": 1459,
      "##ngli": 1460,
      "hud": 1461,
      "##ěli": 1462,
      "budeme": 1463,
      "jazyk": 1464,
      "##ust": 1465,
      "##lim": 1466,
      "Nem": 1467,
      "##ed": 1468,
      "##mé": 1469,
      "dvě": 1470,
      "pan": 1471,
      "##bav": 1472,
      "##řel": 1473,
      "města": 1474,
      "vyh": 1475,
      "obě": 1476,
      "obchod": 1477,
      "##ata": 1478,
      "##OV": 1479,
      "Chod": 1480,
      "##bra": 1481,
      "##říklad": 1482,
      "nejob": 1483,
      "zel": 1484,
      "##rz": 1485,
      "naps": 1486,
      "znám": 1487,
      "##nem": 1488,
      "##ace": 1489,
      "##ráv": 1490,
      "straš": 1491,
      "Dě": 1492,
      "ps": 1493,
      "pl": 1494,
      "ČR": 1495,
      "nepo": 1496,
      "##kud": 1497,
      "chla": 1498,
      "škola": 1499,
      "Praha": 1500,
      "společ": 1501,
      "kar": 1502,
      "##dob": 1503,
      "Ma": 1504,
      "ona": 1505,
      "##lez": 1506,
      "muž": 1507,
      "životě": 1508,
      "hla": 1509,
      "##čil": 1510,
      "##ovy": 1511,
      "##orm": 1512,
      "##ální": 1513,
      "kní": 1514,
      "##ovou": 1515,
      "##itu": 1516,
      "pomá": 1517,
      "tan": 1518,
      "##šte": 1519,
      "její": 1520,
      "spát": 1521,
      "Taky": 1522,
      "##oufám": 1523,
      "oby": 1524,
      "##kých": 1525,
      "##sob": 1526,
      "##xx": 1527,
      "##ských": 1528,
      "hlavně": 1529,
      "Tom": 1530,
      "zap": 1531,
      "česky": 1532,
      "kultu": 1533,
      "##vyk": 1534,
      "##ovní": 1535,
      "##nes": 1536,
      "les": 1537,
      "dobré": 1538,
      "##řejmě": 1539,
      "narozeniny": 1540,
      "Lí": 1541,
      "sob": 1542,
      "##nce": 1543,
      "##ilo": 1544,
      "svůj": 1545,
      "prázdniny": 1546,
      "jejich": 1547,
      "Mila": 1548,
      "ostat": 1549,
      "um": 1550,
      "##vý": 1551,
      "##vů": 1552,
      "době": 1553,
      "přek": 1554,
      "sport": 1555,
      "autobus": 1556,
      "oblečení": 1557,
      "Ob": 1558,
      "udě": 1559,
      "##znam": 1560,
      "jeli": 1561,
      "##kaz": 1562,
      "Nap": 1563,
      "dál": 1564,
      "zů": 1565,
      "podle": 1566,
      "200": 1567,
      "člově": 1568,
      "důležit": 1569,
      "Horymír": 1570,
      "ště": 1571,
      "##lně": 1572,
      "set": 1573,
      "nejví": 1574,
      "máš": 1575,
      "počas": 1576,
      "života": 1577,
      "hezky": 1578,
      "červ": 1579,
      "zahra": 1580,
      "podí": 1581,
      "kina": 1582,
      "##tal": 1583,
      "##rg": 1584,
      "##RA": 1585,
      "##enu": 1586,
      "##tele": 1587,
      "škol": 1588,
      "telef": 1589,
      "##rčitě": 1590,
      "měsí": 1591,
      "práci": 1592,
      "Dob": 1593,
      "uli": 1594,
      "##rou": 1595,
      "##án": 1596,
      "osob": 1597,
      "##átek": 1598,
      "městě": 1599,
      "##vad": 1600,
      "vyp": 1601,
      "stojí": 1602,
      "bí": 1603,
      "##vou": 1604,
      "Také": 1605,
      "vesel": 1606,
      "hrát": 1607,
      "celý": 1608,
      "##enější": 1609,
      "bu": 1610,
      "vám": 1611,
      "zep": 1612,
      "##ii": 1613,
      "##stu": 1614,
      "##teli": 1615,
      "No": 1616,
      "půl": 1617,
      "ráno": 1618,
      "##ár": 1619,
      "##len": 1620,
      "chodím": 1621,
      "výlet": 1622,
      "zak": 1623,
      "##cem": 1624,
      "kamarad": 1625,
      "film": 1626,
      "hry": 1627,
      "žád": 1628,
      "##ška": 1629,
      "hrad": 1630,
      "jiné": 1631,
      "Pr": 1632,
      "rozum": 1633,
      "paní": 1634,
      "##terne": 1635,
      "Něk": 1636,
      "pe": 1637,
      "##kod": 1638,
      "##rem": 1639,
      "hor": 1640,
      "pracovat": 1641,
      "fotbal": 1642,
      "##tem": 1643,
      "##ech": 1644,
      "veče": 1645,
      "různé": 1646,
      "17": 1647,
      "Pře": 1648,
      "sch": 1649,
      "##stel": 1650,
      "##kono": 1651,
      "##hor": 1652,
      "##líz": 1653,
      "hezké": 1654,
      "nějaké": 1655,
      "hrá": 1656,
      "řekla": 1657,
      "##lit": 1658,
      "postav": 1659,
      "atd": 1660,
      "nejoblíb": 1661,
      "Mus": 1662,
      "mého": 1663,
      "uvid": 1664,
      "ček": 1665,
      "jedna": 1666,
      "knih": 1667,
      "květ": 1668,
      "##ější": 1669,
      "stav": 1670,
      "nemoh": 1671,
      "knihy": 1672,
      "##dr": 1673,
      "docela": 1674,
      "můžeme": 1675,
      "dnes": 1676,
      "Ráda": 1677,
      "manžel": 1678,
      "nový": 1679,
      "oči": 1680,
      "sil": 1681,
      "##LA": 1682,
      "##lela": 1683,
      "##kala": 1684,
      "kterou": 1685,
      "##ický": 1686,
      "nich": 1687,
      "fu": 1688,
      "##ki": 1689,
      "více": 1690,
      "nikdo": 1691,
      "Každý": 1692,
      "Pa": 1693,
      "nád": 1694,
      "##nka": 1695,
      "##ají": 1696,
      "##ati": 1697,
      "##anu": 1698,
      "problem": 1699,
      "pokoj": 1700,
      "Fran": 1701,
      "mas": 1702,
      "hraju": 1703,
      "návště": 1704,
      "plav": 1705,
      "##py": 1706,
      "##cké": 1707,
      "##emu": 1708,
      "##střed": 1709,
      "##kuji": 1710,
      "kolem": 1711,
      "##zna": 1712,
      "##řím": 1713,
      "##ným": 1714,
      "pomoc": 1715,
      "14": 1716,
      "##kam": 1717,
      "##vka": 1718,
      "mili": 1719,
      "spou": 1720,
      "času": 1721,
      "##kama": 1722,
      "##rů": 1723,
      "##AK": 1724,
      "neu": 1725,
      "děl": 1726,
      "sní": 1727,
      "##ůsob": 1728,
      "obje": 1729,
      "kamarádi": 1730,
      "několik": 1731,
      "počítač": 1732,
      "hned": 1733,
      "váno": 1734,
      "##spo": 1735,
      "víken": 1736,
      "JE": 1737,
      "zv": 1738,
      "##pu": 1739,
      "##ůžu": 1740,
      "##for": 1741,
      "##nil": 1742,
      "domá": 1743,
      "dlouh": 1744,
      "##ohužel": 1745,
      "Nová": 1746,
      "fak": 1747,
      "ode": 1748,
      "slav": 1749,
      "##mav": 1750,
      "##aty": 1751,
      "##átky": 1752,
      "Nebo": 1753,
      "venku": 1754,
      "ex": 1755,
      "rada": 1756,
      "cí": 1757,
      "dům": 1758,
      "##hem": 1759,
      "##kali": 1760,
      "roce": 1761,
      "##zdrav": 1762,
      "mno": 1763,
      "##ková": 1764,
      "##jeme": 1765,
      "babička": 1766,
      "##rist": 1767,
      "##ok": 1768,
      "máma": 1769,
      "těch": 1770,
      "pracuje": 1771,
      "jste": 1772,
      "pěk": 1773,
      "leh": 1774,
      "rádi": 1775,
      "##rozumě": 1776,
      "světě": 1777,
      "##vůli": 1778,
      "##telé": 1779,
      "Moc": 1780,
      "##ozřejmě": 1781,
      "##pomně": 1782,
      "ak": 1783,
      "hled": 1784,
      "neza": 1785,
      "##ném": 1786,
      "kamara": 1787,
      "mohl": 1788,
      "mluvit": 1789,
      "republice": 1790,
      "počasí": 1791,
      "sám": 1792,
      "vl": 1793,
      "##hled": 1794,
      "##ovo": 1795,
      "představ": 1796,
      "##bilo": 1797,
      "radost": 1798,
      "interne": 1799,
      "rychle": 1800,
      "Ně": 1801,
      "tet": 1802,
      "##kami": 1803,
      "##žil": 1804,
      "##romě": 1805,
      "##tech": 1806,
      "Chtěla": 1807,
      "zvíř": 1808,
      "udělat": 1809,
      "Ba": 1810,
      "vrát": 1811,
      "člověka": 1812,
      "Br": 1813,
      "ov": 1814,
      "plá": 1815,
      "peně": 1816,
      "##šti": 1817,
      "příro": 1818,
      "odpově": 1819,
      "Milan": 1820,
      "Mu": 1821,
      "fa": 1822,
      "##kám": 1823,
      "##ul": 1824,
      "##vit": 1825,
      "jse": 1826,
      "prostě": 1827,
      "Kdyby": 1828,
      "sobě": 1829,
      "Vždy": 1830,
      "fo": 1831,
      "##té": 1832,
      "01": 1833,
      "dis": 1834,
      "##bní": 1835,
      "##vůj": 1836,
      "##liš": 1837,
      "##teč": 1838,
      "Ještě": 1839,
      "dovolenou": 1840,
      "Evrop": 1841,
      "nejoblíbenější": 1842,
      "tra": 1843,
      "##kla": 1844,
      "podob": 1845,
      "##byt": 1846,
      "vedle": 1847,
      "nejh": 1848,
      "##sed": 1849,
      "Jsou": 1850,
      "smu": 1851,
      "##vap": 1852,
      "lepší": 1853,
      "Tomáš": 1854,
      "str": 1855,
      "střed": 1856,
      "velkou": 1857,
      "dobrou": 1858,
      "začal": 1859,
      "všem": 1860,
      "Karlov": 1861,
      "Lid": 1862,
      "angli": 1863,
      "poví": 1864,
      "##šem": 1865,
      "##ekla": 1866,
      "##jednou": 1867,
      "Dom": 1868,
      "##lů": 1869,
      "kap": 1870,
      "posled": 1871,
      "Pří": 1872,
      "##cou": 1873,
      "##čet": 1874,
      "Mil": 1875,
      "Os": 1876,
      "lo": 1877,
      "norm": 1878,
      "zku": 1879,
      "úkol": 1880,
      "chví": 1881,
      "kom": 1882,
      "##ději": 1883,
      "muže": 1884,
      "pár": 1885,
      "Jen": 1886,
      "zlo": 1887,
      "Šemí": 1888,
      "##koj": 1889,
      "moře": 1890,
      "nemá": 1891,
      "školu": 1892,
      "například": 1893,
      "špatně": 1894,
      "ce": 1895,
      "cent": 1896,
      "učit": 1897,
      "zn": 1898,
      "##tr": 1899,
      "sty": 1900,
      "hodiny": 1901,
      "rodinou": 1902,
      "oni": 1903,
      "##lko": 1904,
      "##pr": 1905,
      "stře": 1906,
      "rodiny": 1907,
      "SE": 1908,
      "Váno": 1909,
      "lá": 1910,
      "mne": 1911,
      "##šku": 1912,
      "##čko": 1913,
      "##vot": 1914,
      "svého": 1915,
      "králov": 1916,
      "malé": 1917,
      "snad": 1918,
      "táta": 1919,
      "chlap": 1920,
      "Ame": 1921,
      "##ich": 1922,
      "##jeli": 1923,
      "##kách": 1924,
      "oslav": 1925,
      "nevím": 1926,
      "větš": 1927,
      "sobo": 1928,
      "kdybych": 1929,
      "##sme": 1930,
      "##ik": 1931,
      "##fo": 1932,
      "##ovan": 1933,
      "##tor": 1934,
      "dobrá": 1935,
      "Sta": 1936,
      "určitě": 1937,
      "##KA": 1938,
      "##ely": 1939,
      "připrav": 1940,
      "hraje": 1941,
      "pohád": 1942,
      "##řil": 1943,
      "##lal": 1944,
      "##log": 1945,
      "svém": 1946,
      "##lík": 1947,
      "koupit": 1948,
      "pís": 1949,
      "##her": 1950,
      "##ene": 1951,
      "##idlo": 1952,
      "##pomí": 1953,
      "##ského": 1954,
      "Stud": 1955,
      "##běh": 1956,
      "obyva": 1957,
      "Va": 1958,
      "brá": 1959,
      "##zor": 1960,
      "##ání": 1961,
      "obli": 1962,
      "nejd": 1963,
      "roky": 1964,
      "jednu": 1965,
      "univerzitě": 1966,
      "##spoň": 1967,
      "smut": 1968,
      "dar": 1969,
      "kám": 1970,
      "##šit": 1971,
      "##dej": 1972,
      "nejsou": 1973,
      "roku": 1974,
      "05": 1975,
      "Jo": 1976,
      "NA": 1977,
      "su": 1978,
      "##nd": 1979,
      "##ců": 1980,
      "Čech": 1981,
      "týden": 1982,
      "Doufám": 1983,
      "Rod": 1984,
      "zat": 1985,
      "##šek": 1986,
      "tento": 1987,
      "takové": 1988,
      "stě": 1989,
      "##dělá": 1990,
      "spoluž": 1991,
      "mohla": 1992,
      "tatí": 1993,
      "Petr": 1994,
      "překvap": 1995,
      "telefon": 1996,
      "pět": 1997,
      "psa": 1998,
      "##LI": 1999,
      "proh": 2000,
      "zavo": 2001,
      "##nej": 2002,
      "prázdnin": 2003,
      "hudbu": 2004,
      "Vel": 2005,
      "kvůli": 2006,
      "nud": 2007,
      "sí": 2008,
      "žít": 2009,
      "##šet": 2010,
      "##ťast": 2011,
      "něm": 2012,
      "nemus": 2013,
      "těším": 2014,
      "chodí": 2015,
      "mohli": 2016,
      "##rch": 2017,
      "##odu": 2018,
      "stůl": 2019,
      "nejak": 2020,
      "velká": 2021,
      "viděl": 2022,
      "Jir": 2023,
      "ním": 2024,
      "##vil": 2025,
      "narod": 2026,
      "problém": 2027,
      "bram": 2028,
      "Ča": 2029,
      "pon": 2030,
      "##ezčí": 2031,
      "učitelka": 2032,
      "oběd": 2033,
      "uz": 2034,
      "##lel": 2035,
      "divad": 2036,
      "říct": 2037,
      "bý": 2038,
      "dny": 2039,
      "hroz": 2040,
      "skup": 2041,
      "umě": 2042,
      "##kr": 2043,
      "##TE": 2044,
      "##átku": 2045,
      "muse": 2046,
      "zemi": 2047,
      "češtiny": 2048,
      "Těším": 2049,
      "Líbí": 2050,
      "sně": 2051,
      "##dat": 2052,
      "##ích": 2053,
      "rodině": 2054,
      "bydlí": 2055,
      "Rusku": 2056,
      "proti": 2057,
      "##nik": 2058,
      "tebe": 2059,
      "vlasy": 2060,
      "zpě": 2061,
      "nebude": 2062,
      "Hon": 2063,
      "##stoup": 2064,
      "##ových": 2065,
      "jel": 2066,
      "##iná": 2067,
      "mobil": 2068,
      "Tat": 2069,
      "rá": 2070,
      "##dět": 2071,
      "##slov": 2072,
      "##pra": 2073,
      "##žou": 2074,
      "zas": 2075,
      "##nad": 2076,
      "kolik": 2077,
      "dostal": 2078,
      "létě": 2079,
      "možnost": 2080,
      "Sam": 2081,
      "sku": 2082,
      "##nů": 2083,
      "##hou": 2084,
      "##hro": 2085,
      "##ratu": 2086,
      "naší": 2087,
      "pros": 2088,
      "##jet": 2089,
      "Jeho": 2090,
      "##stala": 2091,
      "##vání": 2092,
      "tenis": 2093,
      "ciz": 2094,
      "Jmen": 2095,
      "Vše": 2096,
      "noh": 2097,
      "sly": 2098,
      "##ani": 2099,
      "##áky": 2100,
      "##inek": 2101,
      "##nika": 2102,
      "##bory": 2103,
      "dárek": 2104,
      "plat": 2105,
      "změ": 2106,
      "##zu": 2107,
      "##vam": 2108,
      "##CH": 2109,
      "moři": 2110,
      "##řív": 2111,
      "leto": 2112,
      "##ysl": 2113,
      "jíst": 2114,
      "dostala": 2115,
      "půjdu": 2116,
      "PO": 2117,
      "Republi": 2118,
      "##krát": 2119,
      "nas": 2120,
      "měst": 2121,
      "svým": 2122,
      "dělá": 2123,
      "vidět": 2124,
      "slunce": 2125,
      "sobotu": 2126,
      "dala": 2127,
      "jo": 2128,
      "ká": 2129,
      "čty": 2130,
      "##čení": 2131,
      "##AM": 2132,
      "takový": 2133,
      "jednoho": 2134,
      "jinak": 2135,
      "vás": 2136,
      "ostatní": 2137,
      "Zá": 2138,
      "sva": 2139,
      "##su": 2140,
      "##gy": 2141,
      "##cie": 2142,
      "přem": 2143,
      "nechtě": 2144,
      "nebylo": 2145,
      "vlastní": 2146,
      "met": 2147,
      "vra": 2148,
      "zu": 2149,
      "Čí": 2150,
      "##hat": 2151,
      "naj": 2152,
      "český": 2153,
      "věc": 2154,
      "mamin": 2155,
      "dítě": 2156,
      "knihu": 2157,
      "nějaký": 2158,
      "boh": 2159,
      "##sek": 2160,
      "##ine": 2161,
      "zach": 2162,
      "##idel": 2163,
      "vyuč": 2164,
      "##icky": 2165,
      "skvě": 2166,
      "infor": 2167,
      "16": 2168,
      "##íl": 2169,
      "##go": 2170,
      "##EN": 2171,
      "##čt": 2172,
      "##rál": 2173,
      "stalo": 2174,
      "##deš": 2175,
      "##átka": 2176,
      "baz": 2177,
      "celou": 2178,
      "všude": 2179,
      "restaurace": 2180,
      "##OVA": 2181,
      "podívat": 2182,
      "##horší": 2183,
      "Budu": 2184,
      "ať": 2185,
      "##stal": 2186,
      "##ino": 2187,
      "zaji": 2188,
      "prez": 2189,
      "studen": 2190,
      "rušt": 2191,
      "stejně": 2192,
      "znamená": 2193,
      "My": 2194,
      "sni": 2195,
      "##adí": 2196,
      "spokoj": 2197,
      "krásné": 2198,
      "televize": 2199,
      "zdraví": 2200,
      "nejvíc": 2201,
      "jmé": 2202,
      "mnou": 2203,
      "situ": 2204,
      "vím": 2205,
      "či": 2206,
      "##zá": 2207,
      "dopis": 2208,
      "##dom": 2209,
      "pri": 2210,
      "námě": 2211,
      "myslí": 2212,
      "ruce": 2213,
      "##větší": 2214,
      "pivo": 2215,
      "Mart": 2216,
      "peněz": 2217,
      "informa": 2218,
      "DO": 2219,
      "Ona": 2220,
      "Vá": 2221,
      "čá": 2222,
      "##nal": 2223,
      "##znám": 2224,
      "##žila": 2225,
      "najednou": 2226,
      "nevě": 2227,
      "##telu": 2228,
      "takže": 2229,
      "přišel": 2230,
      "studuju": 2231,
      "student": 2232,
      "chyt": 2233,
      "procházku": 2234,
      "otev": 2235,
      "nejhezčí": 2236,
      "tvo": 2237,
      "zby": 2238,
      "škod": 2239,
      "##žím": 2240,
      "##ca": 2241,
      "##šlo": 2242,
      "##TO": 2243,
      "##lech": 2244,
      "lidem": 2245,
      "kup": 2246,
      "malý": 2247,
      "zajímavé": 2248,
      "##rozumění": 2249,
      "sup": 2250,
      "##bý": 2251,
      "##leko": 2252,
      "kab": 2253,
      "##čera": 2254,
      "kterém": 2255,
      "parku": 2256,
      "Ty": 2257,
      "Vz": 2258,
      "bře": 2259,
      "blíz": 2260,
      "##sit": 2261,
      "##io": 2262,
      "##váme": 2263,
      "##čej": 2264,
      "naši": 2265,
      "sebou": 2266,
      "##rob": 2267,
      "zav": 2268,
      "občas": 2269,
      "chodíme": 2270,
      "míst": 2271,
      "viděli": 2272,
      "říká": 2273,
      "##peč": 2274,
      "med": 2275,
      "NE": 2276,
      "oko": 2277,
      "čet": 2278,
      "##yt": 2279,
      "nakup": 2280,
      "jedu": 2281,
      "pozdrav": 2282,
      "chut": 2283,
      "led": 2284,
      "noci": 2285,
      "bratr": 2286,
      "štěstí": 2287,
      "Kdybych": 2288,
      "fir": 2289,
      "klid": 2290,
      "zde": 2291,
      "##LE": 2292,
      "##chá": 2293,
      "prince": 2294,
      "##káz": 2295,
      "koupil": 2296,
      "krásný": 2297,
      "odpoledne": 2298,
      "kníž": 2299,
      "hr": 2300,
      "umí": 2301,
      "##dce": 2302,
      "##man": 2303,
      "##zek": 2304,
      "##rak": 2305,
      "##řes": 2306,
      "take": 2307,
      "##ske": 2308,
      "##pon": 2309,
      "tedy": 2310,
      "Al": 2311,
      "Dí": 2312,
      "Li": 2313,
      "Roz": 2314,
      "tá": 2315,
      "vrat": 2316,
      "zji": 2317,
      "##zý": 2318,
      "##cit": 2319,
      "##jel": 2320,
      "hodinu": 2321,
      "dve": 2322,
      "Ži": 2323,
      "##OU": 2324,
      "##žen": 2325,
      "##šeno": 2326,
      "koupila": 2327,
      "Le": 2328,
      "Před": 2329,
      "dr": 2330,
      "##dé": 2331,
      "##tat": 2332,
      "##zel": 2333,
      "##inc": 2334,
      "zah": 2335,
      "##iti": 2336,
      "##ička": 2337,
      "Byd": 2338,
      "díky": 2339,
      "sestra": 2340,
      "##íšu": 2341,
      "pojedu": 2342,
      "poslední": 2343,
      "PR": 2344,
      "žena": 2345,
      "##sty": 2346,
      "postel": 2347,
      "##kuju": 2348,
      "##řili": 2349,
      "rozd": 2350,
      "máte": 2351,
      "##chází": 2352,
      "druhé": 2353,
      "přátel": 2354,
      "domácí": 2355,
      "prezid": 2356,
      "Asi": 2357,
      "Hod": 2358,
      "des": 2359,
      "čtu": 2360,
      "##nova": 2361,
      "##ur": 2362,
      "##zim": 2363,
      "##ré": 2364,
      "nevy": 2365,
      "polé": 2366,
      "##ing": 2367,
      "##alí": 2368,
      "##nul": 2369,
      "##isí": 2370,
      "někter": 2371,
      "např": 2372,
      "začala": 2373,
      "bratra": 2374,
      "skončí": 2375,
      "foto": 2376,
      "Ti": 2377,
      "hně": 2378,
      "##ěj": 2379,
      "##lod": 2380,
      "##EZ": 2381,
      "##NE": 2382,
      "koní": 2383,
      "bychom": 2384,
      "##věd": 2385,
      "pomoh": 2386,
      "##kovy": 2387,
      "tanc": 2388,
      "dělám": 2389,
      "náměstí": 2390,
      "an": 2391,
      "dře": 2392,
      "slo": 2393,
      "##ber": 2394,
      "##he": 2395,
      "##vím": 2396,
      "stat": 2397,
      "komu": 2398,
      "obraz": 2399,
      "jaké": 2400,
      "národ": 2401,
      "základ": 2402,
      "kurz": 2403,
      "nebyl": 2404,
      "pátek": 2405,
      "stále": 2406,
      "dárky": 2407,
      "chvíli": 2408,
      "Ji": 2409,
      "Koup": 2410,
      "##nky": 2411,
      "##ěst": 2412,
      "##kej": 2413,
      "##šim": 2414,
      "##čím": 2415,
      "##raději": 2416,
      "dokon": 2417,
      "##říve": 2418,
      "##adu": 2419,
      "##ičky": 2420,
      "##dali": 2421,
      "jich": 2422,
      "budouc": 2423,
      "velice": 2424,
      "Ameri": 2425,
      "šťast": 2426,
      "##jou": 2427,
      "##řem": 2428,
      "##ral": 2429,
      "nek": 2430,
      "##inky": 2431,
      "začí": 2432,
      "nejen": 2433,
      "##anou": 2434,
      "hosp": 2435,
      "výbor": 2436,
      "slova": 2437,
      "dělal": 2438,
      "Dobrý": 2439,
      "Se": 2440,
      "dce": 2441,
      "elek": 2442,
      "jas": 2443,
      "men": 2444,
      "##OD": 2445,
      "svých": 2446,
      "##any": 2447,
      "##ovaní": 2448,
      "Tady": 2449,
      "zima": 2450,
      "Ku": 2451,
      "mlu": 2452,
      "##třeb": 2453,
      "##zku": 2454,
      "##áci": 2455,
      "##šní": 2456,
      "##SK": 2457,
      "##levo": 2458,
      "##ety": 2459,
      "##dělí": 2460,
      "Byli": 2461,
      "##ved": 2462,
      "stole": 2463,
      "léto": 2464,
      "voj": 2465,
      "nebyla": 2466,
      "světa": 2467,
      "On": 2468,
      "jist": 2469,
      "##cka": 2470,
      "##šť": 2471,
      "##chop": 2472,
      "##nala": 2473,
      "##aví": 2474,
      "nemůžu": 2475,
      "letad": 2476,
      "pozor": 2477,
      "malá": 2478,
      "hlavní": 2479,
      "možná": 2480,
      "poslouchám": 2481,
      "studium": 2482,
      "Dnes": 2483,
      "pes": 2484,
      "sa": 2485,
      "##sil": 2486,
      "##ice": 2487,
      "##čila": 2488,
      "##ST": 2489,
      "##enka": 2490,
      "##chno": 2491,
      "poste": 2492,
      "##cet": 2493,
      "svátek": 2494,
      "pozná": 2495,
      "skří": 2496,
      "cizí": 2497,
      "navště": 2498,
      "Bar": 2499,
      "kla": 2500,
      "##kt": 2501,
      "##gram": 2502,
      "##cký": 2503,
      "##koly": 2504,
      "##nými": 2505,
      "spe": 2506,
      "někam": 2507,
      "Zač": 2508,
      "Jednou": 2509,
      "Chtěl": 2510,
      "třídy": 2511,
      "Doma": 2512,
      "An": 2513,
      "mou": 2514,
      "##řá": 2515,
      "##ýš": 2516,
      "##ujou": 2517,
      "prazdn": 2518,
      "spat": 2519,
      "##ností": 2520,
      "nimi": 2521,
      "konce": 2522,
      "jezdit": 2523,
      "Podle": 2524,
      "otec": 2525,
      "knihov": 2526,
      "Aby": 2527,
      "kro": 2528,
      "sho": 2529,
      "##ime": 2530,
      "##vku": 2531,
      "##tela": 2532,
      "##koliv": 2533,
      "##lost": 2534,
      "EH": 2535,
      "Ná": 2536,
      "jím": 2537,
      "sran": 2538,
      "##so": 2539,
      "##bit": 2540,
      "##lení": 2541,
      "##plně": 2542,
      "##jdu": 2543,
      "##lila": 2544,
      "##nění": 2545,
      "##ari": 2546,
      "hotelu": 2547,
      "letě": 2548,
      "Takže": 2549,
      "pozdě": 2550,
      "##rovna": 2551,
      "kamarádka": 2552,
      "brzo": 2553,
      "##graf": 2554,
      "návštěvu": 2555,
      "Až": 2556,
      "cu": 2557,
      "her": 2558,
      "sama": 2559,
      "čo": 2560,
      "##rom": 2561,
      "##ada": 2562,
      "##iče": 2563,
      "musíme": 2564,
      "##ovaly": 2565,
      "soused": 2566,
      "nějakou": 2567,
      "Chci": 2568,
      "nevid": 2569,
      "druhý": 2570,
      "této": 2571,
      "sym": 2572,
      "restauraci": 2573,
      "Osnova": 2574,
      "super": 2575,
      "23": 2576,
      "Ráno": 2577,
      "per": 2578,
      "puj": 2579,
      "##lka": 2580,
      "pole": 2581,
      "##alu": 2582,
      "konec": 2583,
      "jedn": 2584,
      "způsob": 2585,
      "strom": 2586,
      "popr": 2587,
      "teplo": 2588,
      "Někdy": 2589,
      "Martin": 2590,
      "hospod": 2591,
      "Bud": 2592,
      "Měla": 2593,
      "nim": 2594,
      "smě": 2595,
      "##kové": 2596,
      "##ja": 2597,
      "##XX": 2598,
      "jela": 2599,
      "pohod": 2600,
      "##ráž": 2601,
      "##říd": 2602,
      "obrá": 2603,
      "nejlep": 2604,
      "neměla": 2605,
      "málo": 2606,
      "##dala": 2607,
      "##dia": 2608,
      "krát": 2609,
      "turist": 2610,
      "čeština": 2611,
      "##vrtek": 2612,
      "##xxxx": 2613,
      "dlouhé": 2614,
      "Cel": 2615,
      "Všichni": 2616,
      "žid": 2617,
      "##vné": 2618,
      "##IN": 2619,
      "##lala": 2620,
      "##řeba": 2621,
      "##žet": 2622,
      "##poledne": 2623,
      "kop": 2624,
      "##dek": 2625,
      "Mož": 2626,
      "samo": 2627,
      "Kočka": 2628,
      "Maminka": 2629,
      "minut": 2630,
      "21": 2631,
      "Hra": 2632,
      "ovo": 2633,
      "Čer": 2634,
      "řid": 2635,
      "##tro": 2636,
      "##šně": 2637,
      "##šila": 2638,
      "##činu": 2639,
      "##ův": 2640,
      "##ůvod": 2641,
      "##lil": 2642,
      "##rost": 2643,
      "neroz": 2644,
      "poma": 2645,
      "##rás": 2646,
      "nemůže": 2647,
      "spí": 2648,
      "krásná": 2649,
      "Nejd": 2650,
      "důvod": 2651,
      "však": 2652,
      "různých": 2653,
      "navští": 2654,
      "volno": 2655,
      "kámo": 2656,
      "Nep": 2657,
      "jem": 2658,
      "jdeme": 2659,
      "ost": 2660,
      "rekla": 2661,
      "sal": 2662,
      "##tní": 2663,
      "##eb": 2664,
      "##gar": 2665,
      "##rtu": 2666,
      "##lz": 2667,
      "##šil": 2668,
      "##ňuje": 2669,
      "##ove": 2670,
      "nabí": 2671,
      "##letě": 2672,
      "doz": 2673,
      "##teří": 2674,
      "##poru": 2675,
      "hory": 2676,
      "lesa": 2677,
      "lidmi": 2678,
      "##ském": 2679,
      "##čita": 2680,
      "nepři": 2681,
      "neznám": 2682,
      "Nik": 2683,
      "cít": 2684,
      "fran": 2685,
      "jidlo": 2686,
      "kan": 2687,
      "tvůj": 2688,
      "zvyk": 2689,
      "##dem": 2690,
      "##žně": 2691,
      "##čili": 2692,
      "##teř": 2693,
      "##nečně": 2694,
      "##dech": 2695,
      "rodin": 2696,
      "děde": 2697,
      "budeš": 2698,
      "samozřejmě": 2699,
      "čís": 2700,
      "kamarady": 2701,
      "Ho": 2702,
      "Nak": 2703,
      "##bod": 2704,
      "##šení": 2705,
      "##cho": 2706,
      "##leži": 2707,
      "pokud": 2708,
      "##jící": 2709,
      "##ruh": 2710,
      "ktery": 2711,
      "##ická": 2712,
      "auta": 2713,
      "dětí": 2714,
      "cestovat": 2715,
      "dostat": 2716,
      "zpí": 2717,
      "lite": 2718,
      "kluk": 2719,
      "číst": 2720,
      "zelen": 2721,
      "spoustu": 2722,
      "Kč": 2723,
      "Ví": 2724,
      "mém": 2725,
      "##bli": 2726,
      "##vky": 2727,
      "##vili": 2728,
      "největší": 2729,
      "jezdím": 2730,
      "oblíbené": 2731,
      "myš": 2732,
      "exist": 2733,
      "##pomněli": 2734,
      "tatínek": 2735,
      "Sa": 2736,
      "dem": 2737,
      "min": 2738,
      "sen": 2739,
      "šest": 2740,
      "##čast": 2741,
      "procha": 2742,
      "##ština": 2743,
      "Mosk": 2744,
      "Česká": 2745,
      "boty": 2746,
      "vypadá": 2747,
      "pamat": 2748,
      "otáz": 2749,
      "Děkuji": 2750,
      "kníže": 2751,
      "Bohužel": 2752,
      "Hlav": 2753,
      "Mí": 2754,
      "Prá": 2755,
      "zm": 2756,
      "zi": 2757,
      "##zky": 2758,
      "##žší": 2759,
      "##šší": 2760,
      "moji": 2761,
      "##nav": 2762,
      "nejhorší": 2763,
      "kterých": 2764,
      "noc": 2765,
      "kniha": 2766,
      "##rovy": 2767,
      "##valy": 2768,
      "brus": 2769,
      "Měj": 2770,
      "důležité": 2771,
      "víkendu": 2772,
      "Spo": 2773,
      "bá": 2774,
      "dát": 2775,
      "hru": 2776,
      "nen": 2777,
      "nena": 2778,
      "pad": 2779,
      "čte": 2780,
      "##mou": 2781,
      "##pt": 2782,
      "##vič": 2783,
      "##ča": 2784,
      "sedí": 2785,
      "##nila": 2786,
      "##řila": 2787,
      "##ických": 2788,
      "##stava": 2789,
      "žije": 2790,
      "místě": 2791,
      "jiný": 2792,
      "##stěh": 2793,
      "noviny": 2794,
      "smr": 2795,
      "zkoušky": 2796,
      "vánoční": 2797,
      "blízko": 2798,
      "bohužel": 2799,
      "kal": 2800,
      "ly": 2801,
      "##lní": 2802,
      "##ovu": 2803,
      "##nic": 2804,
      "##avý": 2805,
      "lide": 2806,
      "prace": 2807,
      "spoj": 2808,
      "někde": 2809,
      "Máme": 2810,
      "##letí": 2811,
      "černé": 2812,
      "##0000": 2813,
      "matem": 2814,
      "rozumět": 2815,
      "zjist": 2816,
      "Kub": 2817,
      "Mi": 2818,
      "Rom": 2819,
      "Vid": 2820,
      "hle": 2821,
      "trá": 2822,
      "##bud": 2823,
      "##ck": 2824,
      "##ření": 2825,
      "nelí": 2826,
      "neco": 2827,
      "##řiklad": 2828,
      "koně": 2829,
      "oblé": 2830,
      "Nech": 2831,
      "cesty": 2832,
      "boj": 2833,
      "nebudu": 2834,
      "pravda": 2835,
      "větší": 2836,
      "filmy": 2837,
      "syn": 2838,
      "svoje": 2839,
      "moder": 2840,
      "problémy": 2841,
      "zvlá": 2842,
      "Vánoce": 2843,
      "ano": 2844,
      "bra": 2845,
      "la": 2846,
      "slad": 2847,
      "ři": 2848,
      "šp": 2849,
      "ješte": 2850,
      "doby": 2851,
      "počita": 2852,
      "chat": 2853,
      "nemají": 2854,
      "##tali": 2855,
      "přítel": 2856,
      "cestu": 2857,
      "Nejlepší": 2858,
      "vlastně": 2859,
      "fakt": 2860,
      "Něme": 2861,
      "střední": 2862,
      "zkušeno": 2863,
      "prezident": 2864,
      "BU": 2865,
      "Jin": 2866,
      "US": 2867,
      "lek": 2868,
      "neni": 2869,
      "##nku": 2870,
      "##bek": 2871,
      "##rně": 2872,
      "##hl": 2873,
      "##ladu": 2874,
      "ned": 2875,
      "toto": 2876,
      "proje": 2877,
      "prostřed": 2878,
      "dobu": 2879,
      "##dobí": 2880,
      "chodili": 2881,
      "již": 2882,
      "celé": 2883,
      "republiky": 2884,
      "okna": 2885,
      "půjdeme": 2886,
      "udělala": 2887,
      "patří": 2888,
      "psát": 2889,
      "BY": 2890,
      "hři": 2891,
      "ply": 2892,
      "tram": 2893,
      "##ále": 2894,
      "##iš": 2895,
      "##CE": 2896,
      "##les": 2897,
      "prosím": 2898,
      "##koli": 2899,
      "##alní": 2900,
      "cha": 2901,
      "##žela": 2902,
      "vez": 2903,
      "vzdělá": 2904,
      "Večer": 2905,
      "použí": 2906,
      "nového": 2907,
      "udělal": 2908,
      "nejvíce": 2909,
      "ulici": 2910,
      "maso": 2911,
      "internet": 2912,
      "styl": 2913,
      "čtyři": 2914,
      "ame": 2915,
      "cit": 2916,
      "úspě": 2917,
      "##jde": 2918,
      "##rac": 2919,
      "zastav": 2920,
      "##neč": 2921,
      "##ským": 2922,
      "vybra": 2923,
      "##pomen": 2924,
      "techni": 2925,
      "##kání": 2926,
      "případ": 2927,
      "tělo": 2928,
      "##tiž": 2929,
      "kraj": 2930,
      "strome": 2931,
      "##opak": 2932,
      "Nováková": 2933,
      "chlapci": 2934,
      "prázdninách": 2935,
      "fotograf": 2936,
      "shořel": 2937,
      "dav": 2938,
      "list": 2939,
      "oh": 2940,
      "pě": 2941,
      "tem": 2942,
      "úplně": 2943,
      "čist": 2944,
      "šaty": 2945,
      "##JE": 2946,
      "najít": 2947,
      "program": 2948,
      "##nech": 2949,
      "spad": 2950,
      "místa": 2951,
      "potrav": 2952,
      "celá": 2953,
      "říka": 2954,
      "000": 2955,
      "babičce": 2956,
      "slovo": 2957,
      "zajímavý": 2958,
      "přijela": 2959,
      "##zoru": 2960,
      "##acebo": 2961,
      "zahrani": 2962,
      "víkend": 2963,
      "speci": 2964,
      "25": 2965,
      "Dal": 2966,
      "Může": 2967,
      "Ro": 2968,
      "TO": 2969,
      "dám": 2970,
      "žad": 2971,
      "##vně": 2972,
      "##šak": 2973,
      "##rostřed": 2974,
      "doprav": 2975,
      "dort": 2976,
      "##něl": 2977,
      "chu": 2978,
      "měste": 2979,
      "vyná": 2980,
      "##ary": 2981,
      "hodná": 2982,
      "náš": 2983,
      "pravo": 2984,
      "každy": 2985,
      "zábav": 2986,
      "##bava": 2987,
      "hezká": 2988,
      "##žitek": 2989,
      "voda": 2990,
      "abychom": 2991,
      "těžké": 2992,
      "vysoké": 2993,
      "zeptat": 2994,
      "francou": 2995,
      "22": 2996,
      "Mé": 2997,
      "Vý": 2998,
      "kav": 2999,
      "tvr": 3000,
      "uva": 3001,
      "šly": 3002,
      "##ela": 3003,
      "##raží": 3004,
      "tolik": 3005,
      "##rád": 3006,
      "kolo": 3007,
      "Praž": 3008,
      "vzdu": 3009,
      "##buz": 3010,
      "zprá": 3011,
      "dělají": 3012,
      "čtvrtek": 3013,
      "strašně": 3014,
      "Novák": 3015,
      "##lkoho": 3016,
      "středu": 3017,
      "Často": 3018,
      "divadla": 3019,
      "mluví": 3020,
      "jednodu": 3021,
      "literatu": 3022,
      "Bo": 3023,
      "KO": 3024,
      "Kam": 3025,
      "MO": 3026,
      "dvo": 3027,
      "muj": 3028,
      "pus": 3029,
      "ptá": 3030,
      "unav": 3031,
      "##ana": 3032,
      "##vest": 3033,
      "nam": 3034,
      "nako": 3035,
      "##jezd": 3036,
      "přišla": 3037,
      "muze": 3038,
      "##álně": 3039,
      "vidím": 3040,
      "##jemně": 3041,
      "můžete": 3042,
      "někoho": 3043,
      "týd": 3044,
      "pojedeme": 3045,
      "večeři": 3046,
      "vlk": 3047,
      "disko": 3048,
      "oblib": 3049,
      "bohat": 3050,
      "Di": 3051,
      "##del": 3052,
      "##mus": 3053,
      "##ych": 3054,
      "##enky": 3055,
      "##enku": 3056,
      "pokra": 3057,
      "vyt": 3058,
      "##eru": 3059,
      "lese": 3060,
      "##štěstí": 3061,
      "děkuji": 3062,
      "##léd": 3063,
      "musel": 3064,
      "Máma": 3065,
      "nepří": 3066,
      "vody": 3067,
      "republika": 3068,
      "ulice": 3069,
      "Šemík": 3070,
      "centru": 3071,
      "čoko": 3072,
      "Ano": 3073,
      "Kon": 3074,
      "Měl": 3075,
      "be": 3076,
      "nut": 3077,
      "ukaz": 3078,
      "zám": 3079,
      "ši": 3080,
      "##vet": 3081,
      "##valo": 3082,
      "##jn": 3083,
      "##NA": 3084,
      "##KU": 3085,
      "##stra": 3086,
      "nau": 3087,
      "totiž": 3088,
      "sví": 3089,
      "domov": 3090,
      "prov": 3091,
      "vzta": 3092,
      "nos": 3093,
      "stará": 3094,
      "pohled": 3095,
      "těžký": 3096,
      "pokoje": 3097,
      "nohy": 3098,
      "Muj": 3099,
      "hou": 3100,
      "žit": 3101,
      "##slu": 3102,
      "##sled": 3103,
      "##eli": 3104,
      "##oo": 3105,
      "##ář": 3106,
      "##vis": 3107,
      "##stanu": 3108,
      "##roj": 3109,
      "##ame": 3110,
      "##jela": 3111,
      "##met": 3112,
      "##ard": 3113,
      "##ěti": 3114,
      "Jestli": 3115,
      "##víc": 3116,
      "##šich": 3117,
      "přin": 3118,
      "každé": 3119,
      "přesně": 3120,
      "holka": 3121,
      "##vykle": 3122,
      "internetu": 3123,
      "Petrovi": 3124,
      "vynález": 3125,
      "Kde": 3126,
      "mit": 3127,
      "pil": 3128,
      "##rní": 3129,
      "##žství": 3130,
      "##štej": 3131,
      "neví": 3132,
      "tohle": 3133,
      "strá": 3134,
      "koru": 3135,
      "svít": 3136,
      "##áta": 3137,
      "příklad": 3138,
      "jab": 3139,
      "podzim": 3140,
      "tuto": 3141,
      "začátku": 3142,
      "papí": 3143,
      "##pec": 3144,
      "brzy": 3145,
      "daleko": 3146,
      "autobusem": 3147,
      "##sloví": 3148,
      "zuby": 3149,
      "Bez": 3150,
      "Lu": 3151,
      "bl": 3152,
      "ekono": 3153,
      "hlou": 3154,
      "kři": 3155,
      "sním": 3156,
      "vál": 3157,
      "zná": 3158,
      "##tý": 3159,
      "##rka": 3160,
      "##én": 3161,
      "##TA": 3162,
      "##emi": 3163,
      "jede": 3164,
      "##lety": 3165,
      "stří": 3166,
      "##řít": 3167,
      "hrajeme": 3168,
      "zaplat": 3169,
      "čekat": 3170,
      "Evropy": 3171,
      "obyvatelé": 3172,
      "Samozřejmě": 3173,
      "Není": 3174,
      "Pav": 3175,
      "ha": 3176,
      "kdi": 3177,
      "obor": 3178,
      "pově": 3179,
      "tou": 3180,
      "vic": 3181,
      "##dit": 3182,
      "##ula": 3183,
      "##uto": 3184,
      "##ík": 3185,
      "##mět": 3186,
      "##žky": 3187,
      "dop": 3188,
      "pocit": 3189,
      "pochop": 3190,
      "##dev": 3191,
      "svými": 3192,
      "jaký": 3193,
      "##ítra": 3194,
      "neměl": 3195,
      "letech": 3196,
      "autem": 3197,
      "jiných": 3198,
      "dívat": 3199,
      "jídla": 3200,
      "mluvil": 3201,
      "vodu": 3202,
      "##oufam": 3203,
      "miluju": 3204,
      "květiny": 3205,
      "objev": 3206,
      "Tomášovi": 3207,
      "USA": 3208,
      "Mal": 3209,
      "Slov": 3210,
      "hu": 3211,
      "lav": 3212,
      "psy": 3213,
      "zt": 3214,
      "čin": 3215,
      "##nc": 3216,
      "##vno": 3217,
      "nedá": 3218,
      "měly": 3219,
      "vym": 3220,
      "##dela": 3221,
      "jakou": 3222,
      "hodný": 3223,
      "jedeme": 3224,
      "zábava": 3225,
      "chodil": 3226,
      "budete": 3227,
      "Českou": 3228,
      "jiného": 3229,
      "bydlet": 3230,
      "pravidel": 3231,
      "##ctví": 3232,
      "barvu": 3233,
      "narozenin": 3234,
      "okno": 3235,
      "usnad": 3236,
      "zamil": 3237,
      "zimě": 3238,
      "##rgani": 3239,
      "měsíc": 3240,
      "milion": 3241,
      "strej": 3242,
      "angličt": 3243,
      "ovoce": 3244,
      "Bě": 3245,
      "bi": 3246,
      "dro": 3247,
      "doufám": 3248,
      "dvou": 3249,
      "hovo": 3250,
      "né": 3251,
      "sla": 3252,
      "vlád": 3253,
      "##dní": 3254,
      "##ex": 3255,
      "##hnout": 3256,
      "##plo": 3257,
      "##jak": 3258,
      "##ůležit": 3259,
      "##IL": 3260,
      "##stva": 3261,
      "seri": 3262,
      "seznam": 3263,
      "neděli": 3264,
      "prof": 3265,
      "##nili": 3266,
      "názor": 3267,
      "nemo": 3268,
      "leží": 3269,
      "##nutí": 3270,
      "praci": 3271,
      "Prac": 3272,
      "správ": 3273,
      "studovala": 3274,
      "právě": 3275,
      "nechci": 3276,
      "bydlím": 3277,
      "jezdí": 3278,
      "zajimav": 3279,
      "Hodně": 3280,
      "pokrač": 3281,
      "Kdo": 3282,
      "TAK": 3283,
      "Up": 3284,
      "Zd": 3285,
      "rov": 3286,
      "úz": 3287,
      "žil": 3288,
      "##cím": 3289,
      "##čin": 3290,
      "##fi": 3291,
      "nest": 3292,
      "chle": 3293,
      "chud": 3294,
      "vyu": 3295,
      "něho": 3296,
      "##líd": 3297,
      "školi": 3298,
      "sprav": 3299,
      "maš": 3300,
      "můžou": 3301,
      "niko": 3302,
      "konci": 3303,
      "starší": 3304,
      "zaměst": 3305,
      "přijel": 3306,
      "furt": 3307,
      "zvířata": 3308,
      "zatím": 3309,
      "Díky": 3310,
      "II": 3311,
      "psi": 3312,
      "##klád": 3313,
      "##sá": 3314,
      "##zení": 3315,
      "##šly": 3316,
      "##ŘE": 3317,
      "dopad": 3318,
      "##ředu": 3319,
      "taký": 3320,
      "##var": 3321,
      "období": 3322,
      "nejraději": 3323,
      "legra": 3324,
      "kaž": 3325,
      "mamka": 3326,
      "chtěli": 3327,
      "##chut": 3328,
      "##ující": 3329,
      "odpoči": 3330,
      "přání": 3331,
      "počítači": 3332,
      "2009": 3333,
      "pondělí": 3334,
      "Honza": 3335,
      "poprvé": 3336,
      "nakonec": 3337,
      "Angli": 3338,
      "Tvůj": 3339,
      "bil": 3340,
      "kyt": 3341,
      "shro": 3342,
      "trad": 3343,
      "vadí": 3344,
      "zí": 3345,
      "##onec": 3346,
      "##žovat": 3347,
      "##cku": 3348,
      "##clav": 3349,
      "##DE": 3350,
      "##lika": 3351,
      "ner": 3352,
      "porad": 3353,
      "##cept": 3354,
      "mojí": 3355,
      "##nali": 3356,
      "##etu": 3357,
      "velmí": 3358,
      "Prahu": 3359,
      "věcí": 3360,
      "pomo": 3361,
      "dále": 3362,
      "zemí": 3363,
      "vysvět": 3364,
      "tatinek": 3365,
      "##dělám": 3366,
      "stromy": 3367,
      "pokoji": 3368,
      "##mážd": 3369,
      "matka": 3370,
      "nedorozumění": 3371,
      "Jenom": 3372,
      "zpěv": 3373,
      "dokonce": 3374,
      "Nakonec": 3375,
      "08": 3376,
      "Mů": 3377,
      "lu": 3378,
      "ste": 3379,
      "tř": 3380,
      "uš": 3381,
      "učí": 3382,
      "##hdy": 3383,
      "##žili": 3384,
      "##ovky": 3385,
      "nauč": 3386,
      "prost": 3387,
      "##rách": 3388,
      "takhle": 3389,
      "##idla": 3390,
      "##pomě": 3391,
      "koni": 3392,
      "##nání": 3393,
      "Čeština": 3394,
      "kamarádů": 3395,
      "straně": 3396,
      "Karl": 3397,
      "během": 3398,
      "Například": 3399,
      "červen": 3400,
      "školní": 3401,
      "bílé": 3402,
      "nádher": 3403,
      "překvapení": 3404,
      "situace": 3405,
      "kabel": 3406,
      "myšlen": 3407,
      "Kromě": 3408,
      "Táta": 3409,
      "lod": 3410,
      "ží": 3411,
      "##neme": 3412,
      "##zv": 3413,
      "##yní": 3414,
      "##hli": 3415,
      "##ených": 3416,
      "oblek": 3417,
      "dobrod": 3418,
      "##ickou": 3419,
      "Pokud": 3420,
      "tať": 3421,
      "kuchy": 3422,
      "líbilo": 3423,
      "třetí": 3424,
      "tohoto": 3425,
      "špatné": 3426,
      "koleji": 3427,
      "volný": 3428,
      "rozhodla": 3429,
      "nemohla": 3430,
      "Lidé": 3431,
      "normální": 3432,
      "##SKOVA": 3433,
      "BUSKOVA": 3434,
      "ekonomi": 3435,
      "24": 3436,
      "Ká": 3437,
      "Tvo": 3438,
      "Třeba": 3439,
      "Vys": 3440,
      "hude": 3441,
      "##vez": 3442,
      "##žený": 3443,
      "##ením": 3444,
      "##losti": 3445,
      "##ilí": 3446,
      "##nají": 3447,
      "##skem": 3448,
      "názoru": 3449,
      "rozumě": 3450,
      "chodim": 3451,
      "kouzel": 3452,
      "myslela": 3453,
      "Veli": 3454,
      "krásně": 3455,
      "učím": 3456,
      "povin": 3457,
      "drah": 3458,
      "pomáh": 3459,
      "První": 3460,
      "plavat": 3461,
      "písni": 3462,
      "salát": 3463,
      "alkoho": 3464,
      "ban": 3465,
      "dali": 3466,
      "om": 3467,
      "##nus": 3468,
      "##tav": 3469,
      "##pá": 3470,
      "##pou": 3471,
      "##šk": 3472,
      "##jdeme": 3473,
      "##lili": 3474,
      "dospě": 3475,
      "alespoň": 3476,
      "odjeli": 3477,
      "lev": 3478,
      "což": 3479,
      "##věr": 3480,
      "vědět": 3481,
      "vzal": 3482,
      "češtině": 3483,
      "hlavu": 3484,
      "cigar": 3485,
      "stejné": 3486,
      "Ruska": 3487,
      "rano": 3488,
      "napsat": 3489,
      "veselý": 3490,
      "fung": 3491,
      "fajn": 3492,
      "většinou": 3493,
      "spolužáky": 3494,
      "Republice": 3495,
      "vyučování": 3496,
      "amer": 3497,
      "shromážd": 3498,
      "Af": 3499,
      "Nový": 3500,
      "Plz": 3501,
      "Sou": 3502,
      "Zat": 3503,
      "del": 3504,
      "hlad": 3505,
      "jit": 3506,
      "ků": 3507,
      "zvy": 3508,
      "##onu": 3509,
      "##AD": 3510,
      "##ovku": 3511,
      "dok": 3512,
      "##bylo": 3513,
      "těm": 3514,
      "vzpomí": 3515,
      "Nevím": 3516,
      "líto": 3517,
      "##padá": 3518,
      "diplo": 3519,
      "století": 3520,
      "##terý": 3521,
      "vaří": 3522,
      "lépe": 3523,
      "možné": 3524,
      "bare": 3525,
      "svojí": 3526,
      "Tento": 3527,
      "##konoce": 3528,
      "cesta": 3529,
      "##cháze": 3530,
      "Bydlím": 3531,
      "postele": 3532,
      "chuť": 3533,
      "##štejn": 3534,
      "dobrodru": 3535,
      "Vl": 3536,
      "Včera": 3537,
      "aspoň": 3538,
      "ide": 3539,
      "pít": 3540,
      "ská": 3541,
      "slou": 3542,
      "utí": 3543,
      "zvo": 3544,
      "řika": 3545,
      "št": 3546,
      "##rku": 3547,
      "neob": 3548,
      "##kyně": 3549,
      "vyz": 3550,
      "##des": 3551,
      "sve": 3552,
      "nákup": 3553,
      "##ict": 3554,
      "##uješ": 3555,
      "Naše": 3556,
      "##tala": 3557,
      "mužeme": 3558,
      "hrat": 3559,
      "kamaráda": 3560,
      "podi": 3561,
      "předmět": 3562,
      "poznat": 3563,
      "každého": 3564,
      "soci": 3565,
      "##nitř": 3566,
      "potřebuju": 3567,
      "Nemám": 3568,
      "zůstat": 3569,
      "hrozně": 3570,
      "základní": 3571,
      "50": 3572,
      "Har": 3573,
      "Ukra": 3574,
      "rak": 3575,
      "úkoly": 3576,
      "žen": 3577,
      "##dlo": 3578,
      "##klo": 3579,
      "##tř": 3580,
      "##ym": 3581,
      "##lých": 3582,
      "##pě": 3583,
      "##pas": 3584,
      "##liz": 3585,
      "neva": 3586,
      "##inan": 3587,
      "##elo": 3588,
      "##kulka": 3589,
      "zab": 3590,
      "kohou": 3591,
      "obla": 3592,
      "protoze": 3593,
      "nemu": 3594,
      "mužu": 3595,
      "jízd": 3596,
      "zážitek": 3597,
      "##tivní": 3598,
      "výstav": 3599,
      "kur": 3600,
      "##umím": 3601,
      "potře": 3602,
      "pracovní": 3603,
      "rodiči": 3604,
      "nebez": 3605,
      "pouze": 3606,
      "studia": 3607,
      "spousta": 3608,
      "teta": 3609,
      "odpověď": 3610,
      "##domov": 3611,
      "Cest": 3612,
      "Dav": 3613,
      "Pan": 3614,
      "Tu": 3615,
      "Tr": 3616,
      "och": 3617,
      "peni": 3618,
      "##zn": 3619,
      "##ia": 3620,
      "##řád": 3621,
      "##čan": 3622,
      "##AR": 3623,
      "##AN": 3624,
      "##lan": 3625,
      "##stru": 3626,
      "jesky": 3627,
      "##oda": 3628,
      "##kola": 3629,
      "nejde": 3630,
      "ktere": 3631,
      "přísloví": 3632,
      "##ového": 3633,
      "##hali": 3634,
      "##vik": 3635,
      "##zace": 3636,
      "mohou": 3637,
      "##rodní": 3638,
      "staro": 3639,
      "můžeš": 3640,
      "svoji": 3641,
      "pořádku": 3642,
      "dostali": 3643,
      "dalších": 3644,
      "srp": 3645,
      "schop": 3646,
      "##prava": 3647,
      "informace": 3648,
      "polévka": 3649,
      "Jez": 3650,
      "Krá": 3651,
      "Vět": 3652,
      "dříve": 3653,
      "gram": 3654,
      "kli": 3655,
      "mr": 3656,
      "slep": 3657,
      "vstá": 3658,
      "ženy": 3659,
      "##ren": 3660,
      "##ceme": 3661,
      "##race": 3662,
      "##leli": 3663,
      "##lie": 3664,
      "##lib": 3665,
      "##tery": 3666,
      "##tečně": 3667,
      "Ježí": 3668,
      "kterým": 3669,
      "lesy": 3670,
      "tyden": 3671,
      "myslim": 3672,
      "pracov": 3673,
      "cestě": 3674,
      "ruz": 3675,
      "odpočí": 3676,
      "vesnice": 3677,
      "krasné": 3678,
      "chceš": 3679,
      "srdce": 3680,
      "umím": 3681,
      "nádraží": 3682,
      "problemy": 3683,
      "Vždycky": 3684,
      "Evropě": 3685,
      "museli": 3686,
      "skuteč": 3687,
      "část": 3688,
      "deset": 3689,
      "##devším": 3690,
      "Oni": 3691,
      "REZ": 3692,
      "SI": 3693,
      "bod": 3694,
      "pit": 3695,
      "vliv": 3696,
      "##íte": 3697,
      "##br": 3698,
      "##itel": 3699,
      "##vít": 3700,
      "##vej": 3701,
      "##KO": 3702,
      "##out": 3703,
      "polí": 3704,
      "##ini": 3705,
      "domě": 3706,
      "českou": 3707,
      "rozu": 3708,
      "kuře": 3709,
      "##ovalo": 3710,
      "začali": 3711,
      "přím": 3712,
      "viděla": 3713,
      "vají": 3714,
      "strach": 3715,
      "babičky": 3716,
      "jazyky": 3717,
      "bratran": 3718,
      "##kovou": 3719,
      "staré": 3720,
      "politi": 3721,
      "uklíz": 3722,
      "potřebujeme": 3723,
      "českého": 3724,
      "obchodu": 3725,
      "většina": 3726,
      "Jmenuje": 3727,
      "Harry": 3728,
      "Bude": 3729,
      "Vo": 3730,
      "Vím": 3731,
      "kromě": 3732,
      "mých": 3733,
      "vzd": 3734,
      "zlod": 3735,
      "zrovna": 3736,
      "##ip": 3737,
      "##čem": 3738,
      "##lava": 3739,
      "namě": 3740,
      "dosp": 3741,
      "##něli": 3742,
      "zad": 3743,
      "##ita": 3744,
      "##noce": 3745,
      "chrá": 3746,
      "vyb": 3747,
      "vych": 3748,
      "kolá": 3749,
      "kosí": 3750,
      "kofo": 3751,
      "##ekt": 3752,
      "Pos": 3753,
      "maji": 3754,
      "jaro": 3755,
      "leti": 3756,
      "##čeb": 3757,
      "typ": 3758,
      "Jako": 3759,
      "zdra": 3760,
      "nechod": 3761,
      "rybní": 3762,
      "Kolik": 3763,
      "sestry": 3764,
      "dělala": 3765,
      "Jednoho": 3766,
      "média": 3767,
      "zdravý": 3768,
      "těchto": 3769,
      "##ovaný": 3770,
      "jméno": 3771,
      "sranda": 3772,
      "číslo": 3773,
      "kavár": 3774,
      "ZA": 3775,
      "bou": 3776,
      "ema": 3777,
      "lam": 3778,
      "mama": 3779,
      "oz": 3780,
      "organi": 3781,
      "vti": 3782,
      "zla": 3783,
      "##itek": 3784,
      "##cko": 3785,
      "##ovka": 3786,
      "našel": 3787,
      "seznám": 3788,
      "pož": 3789,
      "##inci": 3790,
      "##kař": 3791,
      "##rála": 3792,
      "kostel": 3793,
      "##deli": 3794,
      "##šela": 3795,
      "##ičku": 3796,
      "náro": 3797,
      "##stane": 3798,
      "mag": 3799,
      "mali": 3800,
      "hračka": 3801,
      "výlety": 3802,
      "napad": 3803,
      "skok": 3804,
      "diva": 3805,
      "vařit": 3806,
      "inze": 3807,
      "Myslim": 3808,
      "dnešní": 3809,
      "babičkou": 3810,
      "sestru": 3811,
      "pořad": 3812,
      "ředi": 3813,
      "vánoce": 3814,
      "Babič": 3815,
      "povíd": 3816,
      "komp": 3817,
      "brambory": 3818,
      "bazé": 3819,
      "škoda": 3820,
      "Další": 3821,
      "El": 3822,
      "Egy": 3823,
      "Jení": 3824,
      "Pep": 3825,
      "cvič": 3826,
      "deme": 3827,
      "pud": 3828,
      "pek": 3829,
      "pova": 3830,
      "sý": 3831,
      "sma": 3832,
      "tmav": 3833,
      "udá": 3834,
      "ukáz": 3835,
      "včera": 3836,
      "zítra": 3837,
      "člá": 3838,
      "Ří": 3839,
      "##ěji": 3840,
      "##iku": 3841,
      "##pově": 3842,
      "##jna": 3843,
      "##čít": 3844,
      "##čkou": 3845,
      "##fon": 3846,
      "##amat": 3847,
      "##něj": 3848,
      "##cii": 3849,
      "vyj": 3850,
      "##ark": 3851,
      "koho": 3852,
      "obrov": 3853,
      "rost": 3854,
      "##lovna": 3855,
      "##ujete": 3856,
      "Byly": 3857,
      "100": 3858,
      "dneska": 3859,
      "důchod": 3860,
      "republiku": 3861,
      "viken": 3862,
      "##razili": 3863,
      "Petra": 3864,
      "svobod": 3865,
      "dostane": 3866,
      "tradi": 3867,
      "narodil": 3868,
      "Tato": 3869,
      "Všechno": 3870,
      "skříň": 3871,
      "Možná": 3872,
      "moderní": 3873,
      "vzduch": 3874,
      "Ukraj": 3875,
      "David": 3876,
      "Určitě": 3877,
      "ap": 3878,
      "bor": 3879,
      "hlu": 3880,
      "nič": 3881,
      "píšu": 3882,
      "sle": 3883,
      "##eň": 3884,
      "##mím": 3885,
      "##bila": 3886,
      "##ůž": 3887,
      "##stý": 3888,
      "##enej": 3889,
      "##ravo": 3890,
      "naš": 3891,
      "##lice": 3892,
      "##níci": 3893,
      "němu": 3894,
      "mimo": 3895,
      "##lové": 3896,
      "příběh": 3897,
      "##esti": 3898,
      "chodila": 3899,
      "##letá": 3900,
      "jmeno": 3901,
      "mluvím": 3902,
      "novou": 3903,
      "pomáhat": 3904,
      "##atiku": 3905,
      "fakul": 3906,
      "pěkné": 3907,
      "cuk": 3908,
      "dozvě": 3909,
      "vzdělání": 3910,
      "případě": 3911,
      "pravopis": 3912,
      "Dráž": 3913,
      "He": 3914,
      "Kní": 3915,
      "Vám": 3916,
      "ab": 3917,
      "arch": 3918,
      "ber": 3919,
      "las": 3920,
      "or": 3921,
      "voz": 3922,
      "##tou": 3923,
      "##gu": 3924,
      "##hlá": 3925,
      "##vak": 3926,
      "##vát": 3927,
      "##NI": 3928,
      "nachází": 3929,
      "naopak": 3930,
      "poj": 3931,
      "##inách": 3932,
      "##hoře": 3933,
      "##hoty": 3934,
      "zaj": 3935,
      "most": 3936,
      "konečně": 3937,
      "objed": 3938,
      "svat": 3939,
      "nejk": 3940,
      "teda": 3941,
      "##ovatel": 3942,
      "září": 3943,
      "##čilo": 3944,
      "##div": 3945,
      "napro": 3946,
      "chtějí": 3947,
      "hezkou": 3948,
      "Jaké": 3949,
      "souhla": 3950,
      "nechce": 3951,
      "bezdomov": 3952,
      "kontro": 3953,
      "bole": 3954,
      "##běr": 3955,
      "Japon": 3956,
      "pravdu": 3957,
      "tata": 3958,
      "kluci": 3959,
      "sestř": 3960,
      "uklid": 3961,
      "uplně": 3962,
      "třídě": 3963,
      "Děkuju": 3964,
      "hlas": 3965,
      "žádné": 3966,
      "žádný": 3967,
      "hledat": 3968,
      "musela": 3969,
      "Číně": 3970,
      "rozdíl": 3971,
      "Koncept": 3972,
      "korun": 3973,
      "##ůležitější": 3974,
      "In": 3975,
      "bila": 3976,
      "dní": 3977,
      "ml": 3978,
      "mlád": 3979,
      "pis": 3980,
      "ras": 3981,
      "sbí": 3982,
      "##zní": 3983,
      "##aci": 3984,
      "##EL": 3985,
      "##žení": 3986,
      "##cu": 3987,
      "##šu": 3988,
      "##čim": 3989,
      "##NÍ": 3990,
      "##raf": 3991,
      "napo": 3992,
      "##atika": 3993,
      "sice": 3994,
      "vedou": 3995,
      "nejsem": 3996,
      "##děj": 3997,
      "hodne": 3998,
      "tamější": 3999,
      "Její": 4000,
      "kterého": 4001,
      "ležel": 4002,
      "čest": 4003,
      "spis": 4004,
      "##sef": 4005,
      "##hoda": 4006,
      "##ment": 4007,
      "##hala": 4008,
      "radio": 4009,
      "součas": 4010,
      "nikde": 4011,
      "druž": 4012,
      "tomto": 4013,
      "nebyli": 4014,
      "klubu": 4015,
      "špatný": 4016,
      "opal": 4017,
      "Petrovy": 4018,
      "starý": 4019,
      "osobnost": 4020,
      "čeká": 4021,
      "Jirkovi": 4022,
      "studenti": 4023,
      "PRO": 4024,
      "Nikdy": 4025,
      "smrti": 4026,
      "charak": 4027,
      "usnadňuje": 4028,
      "Boh": 4029,
      "Unc": 4030,
      "Zem": 4031,
      "cenu": 4032,
      "hlá": 4033,
      "krat": 4034,
      "křes": 4035,
      "pu": 4036,
      "rez": 4037,
      "seme": 4038,
      "všich": 4039,
      "zlep": 4040,
      "Ček": 4041,
      "##dý": 4042,
      "##sat": 4043,
      "##zdu": 4044,
      "##hrad": 4045,
      "##lear": 4046,
      "##řeli": 4047,
      "stráv": 4048,
      "chlad": 4049,
      "chtela": 4050,
      "##lích": 4051,
      "ted": 4052,
      "přišli": 4053,
      "neměli": 4054,
      "##ované": 4055,
      "prů": 4056,
      "význam": 4057,
      "autom": 4058,
      "soud": 4059,
      "malou": 4060,
      "řekli": 4061,
      "ryby": 4062,
      "Rusko": 4063,
      "Odpoledne": 4064,
      "Paní": 4065,
      "tvoje": 4066,
      "Život": 4067,
      "navštěv": 4068,
      "prazdniny": 4069,
      "nabíd": 4070,
      "existuje": 4071,
      "nelíbí": 4072,
      "přines": 4073,
      "Karlštejn": 4074,
      "email": 4075,
      "Unclear": 4076,
      "Auto": 4077,
      "kř": 4078,
      "lou": 4079,
      "mel": 4080,
      "obo": 4081,
      "rus": 4082,
      "tim": 4083,
      "tisí": 4084,
      "zna": 4085,
      "zvi": 4086,
      "##kový": 4087,
      "##sle": 4088,
      "##zdy": 4089,
      "##lám": 4090,
      "##EM": 4091,
      "##žas": 4092,
      "##čné": 4093,
      "##čkem": 4094,
      "##NO": 4095,
      "nazý": 4096,
      "popis": 4097,
      "##řilo": 4098,
      "##lověk": 4099,
      "přesto": 4100,
      "##iční": 4101,
      "jedin": 4102,
      "uži": 4103,
      "##lout": 4104,
      "Prostě": 4105,
      "bask": 4106,
      "začalo": 4107,
      "přa": 4108,
      "Vedle": 4109,
      "čaj": 4110,
      "služ": 4111,
      "dovolené": 4112,
      "Jeden": 4113,
      "velkým": 4114,
      "upřím": 4115,
      "kultury": 4116,
      "nemohl": 4117,
      "představit": 4118,
      "příroda": 4119,
      "královna": 4120,
      "Josef": 4121,
      "Velké": 4122,
      "káva": 4123,
      "zachrá": 4124,
      "sympat": 4125,
      "zvlášt": 4126,
      "zahraničí": 4127,
      "naučit": 4128,
      "Zdrav": 4129,
      "Tvoje": 4130,
      "hudební": 4131,
      "diplom": 4132,
      "Drážď": 4133,
      "Minu": 4134,
      "Nez": 4135,
      "Vla": 4136,
      "pas": 4137,
      "uvě": 4138,
      "zr": 4139,
      "##sně": 4140,
      "##tím": 4141,
      "##os": 4142,
      "##však": 4143,
      "##čný": 4144,
      "##fu": 4145,
      "##leží": 4146,
      "##elí": 4147,
      "##itě": 4148,
      "chtel": 4149,
      "obra": 4150,
      "roční": 4151,
      "horách": 4152,
      "českých": 4153,
      "žili": 4154,
      "praž": 4155,
      "příští": 4156,
      "koupat": 4157,
      "král": 4158,
      "čase": 4159,
      "malí": 4160,
      "dostá": 4161,
      "zdá": 4162,
      "rodičů": 4163,
      "party": 4164,
      "##livý": 4165,
      "##paněl": 4166,
      "Město": 4167,
      "historii": 4168,
      "vysoký": 4169,
      "procházky": 4170,
      "sedm": 4171,
      "našeho": 4172,
      "obyčej": 4173,
      "měsíce": 4174,
      "nechtěla": 4175,
      "dveře": 4176,
      "Kuba": 4177,
      "pujdu": 4178,
      "židle": 4179,
      "27": 4180,
      "Den": 4181,
      "Doufam": 4182,
      "Itá": 4183,
      "Nic": 4184,
      "Ru": 4185,
      "Uz": 4186,
      "fy": 4187,
      "hvě": 4188,
      "kvali": 4189,
      "trav": 4190,
      "vých": 4191,
      "zda": 4192,
      "řict": 4193,
      "##dal": 4194,
      "##zovat": 4195,
      "##ig": 4196,
      "##AT": 4197,
      "##rodu": 4198,
      "dome": 4199,
      "##inami": 4200,
      "takovou": 4201,
      "##neční": 4202,
      "vybí": 4203,
      "přestěh": 4204,
      "jedné": 4205,
      "nemáme": 4206,
      "záj": 4207,
      "někteří": 4208,
      "letní": 4209,
      "životní": 4210,
      "vidí": 4211,
      "končí": 4212,
      "ryb": 4213,
      "##jemný": 4214,
      "sluš": 4215,
      "filmu": 4216,
      "památky": 4217,
      "disku": 4218,
      "Rodiče": 4219,
      "okolí": 4220,
      "menší": 4221,
      "knihovny": 4222,
      "Jinak": 4223,
      "Vltav": 4224,
      "##itektu": 4225,
      "Ce": 4226,
      "Křes": 4227,
      "Lenka": 4228,
      "Or": 4229,
      "al": 4230,
      "smí": 4231,
      "tv": 4232,
      "udělám": 4233,
      "vžd": 4234,
      "##sic": 4235,
      "##had": 4236,
      "##ER": 4237,
      "##emoc": 4238,
      "##rali": 4239,
      "jeto": 4240,
      "neko": 4241,
      "dolů": 4242,
      "polo": 4243,
      "taková": 4244,
      "##lor": 4245,
      "chování": 4246,
      "##vaj": 4247,
      "##byl": 4248,
      "##vost": 4249,
      "##eti": 4250,
      "jedli": 4251,
      "nema": 4252,
      "velky": 4253,
      "##koup": 4254,
      "pry": 4255,
      "##lépe": 4256,
      "zájem": 4257,
      "jaře": 4258,
      "Češi": 4259,
      "napřiklad": 4260,
      "nosí": 4261,
      "dává": 4262,
      "sourozen": 4263,
      "##stech": 4264,
      "nechá": 4265,
      "rodičům": 4266,
      "Stra": 4267,
      "oblíbený": 4268,
      "nebud": 4269,
      "park": 4270,
      "Marie": 4271,
      "přijde": 4272,
      "zvíře": 4273,
      "mladší": 4274,
      "vyhrál": 4275,
      "manželka": 4276,
      "rádio": 4277,
      "Rodina": 4278,
      "ruštině": 4279,
      "shromáždili": 4280,
      "40": 4281,
      "Chy": 4282,
      "Dále": 4283,
      "Rych": 4284,
      "Tři": 4285,
      "abi": 4286,
      "kned": 4287,
      "pust": 4288,
      "##žka": 4289,
      "##cům": 4290,
      "##čce": 4291,
      "našla": 4292,
      "poku": 4293,
      "##celá": 4294,
      "mělo": 4295,
      "##áda": 4296,
      "obvykle": 4297,
      "roze": 4298,
      "hodno": 4299,
      "Prosím": 4300,
      "dobre": 4301,
      "pomalu": 4302,
      "pani": 4303,
      "října": 4304,
      "osm": 4305,
      "kamarádkou": 4306,
      "Každy": 4307,
      "sami": 4308,
      "volá": 4309,
      "Jedna": 4310,
      "##pag": 4311,
      "přijedeš": 4312,
      "kres": 4313,
      "historka": 4314,
      "hlava": 4315,
      "Musím": 4316,
      "kamaradi": 4317,
      "zvířat": 4318,
      "smutná": 4319,
      "nemusí": 4320,
      "studenty": 4321,
      "nakupovat": 4322,
      "hrd": 4323,
      "začíná": 4324,
      "Budeme": 4325,
      "řidič": 4326,
      "##ležite": 4327,
      "francouz": 4328,
      "zdravot": 4329,
      "vtip": 4330,
      "Be": 4331,
      "Druh": 4332,
      "KD": 4333,
      "Vě": 4334,
      "fan": 4335,
      "očí": 4336,
      "py": 4337,
      "tráv": 4338,
      "ut": 4339,
      "Úvod": 4340,
      "čím": 4341,
      "##kově": 4342,
      "##ané": 4343,
      "##př": 4344,
      "##ven": 4345,
      "##žít": 4346,
      "##čely": 4347,
      "##chny": 4348,
      "##atku": 4349,
      "##rán": 4350,
      "##jedu": 4351,
      "##nerg": 4352,
      "vydat": 4353,
      "kost": 4354,
      "##luš": 4355,
      "##etlé": 4356,
      "ktera": 4357,
      "kteři": 4358,
      "##náct": 4359,
      "přišlo": 4360,
      "domy": 4361,
      "lidstva": 4362,
      "##stali": 4363,
      "Česku": 4364,
      "aut": 4365,
      "Jaký": 4366,
      "pracoval": 4367,
      "cestovní": 4368,
      "jídel": 4369,
      "pán": 4370,
      "možna": 4371,
      "trošku": 4372,
      "snaží": 4373,
      "přijet": 4374,
      "učení": 4375,
      "nesm": 4376,
      "Evou": 4377,
      "nemocnice": 4378,
      "vypadat": 4379,
      "srd": 4380,
      "osobně": 4381,
      "horší": 4382,
      "Francie": 4383,
      "znalo": 4384,
      "pohádky": 4385,
      "nejdůležitější": 4386,
      "přemýš": 4387,
      "břehu": 4388,
      "zmrz": 4389,
      "hovořil": 4390,
      "Velikonoce": 4391,
      "Zatím": 4392,
      "Egyp": 4393,
      "63": 4394,
      "Děti": 4395,
      "RO": 4396,
      "Sil": 4397,
      "Univerzit": 4398,
      "Vi": 4399,
      "ar": 4400,
      "dřív": 4401,
      "energ": 4402,
      "facebo": 4403,
      "hlí": 4404,
      "láz": 4405,
      "mar": 4406,
      "mez": 4407,
      "nu": 4408,
      "ope": 4409,
      "ri": 4410,
      "##kl": 4411,
      "##knout": 4412,
      "##sli": 4413,
      "##bili": 4414,
      "##ga": 4415,
      "##oku": 4416,
      "##lku": 4417,
      "##škou": 4418,
      "##LO": 4419,
      "neda": 4420,
      "pol": 4421,
      "##níky": 4422,
      "bys": 4423,
      "##alou": 4424,
      "zapomně": 4425,
      "mohu": 4426,
      "chal": 4427,
      "##nejší": 4428,
      "##říž": 4429,
      "koč": 4430,
      "koší": 4431,
      "roman": 4432,
      "##lovat": 4433,
      "především": 4434,
      "nápad": 4435,
      "náladu": 4436,
      "##štinu": 4437,
      "žijí": 4438,
      "space": 4439,
      "příbuz": 4440,
      "jás": 4441,
      "nosím": 4442,
      "kdyz": 4443,
      "soutě": 4444,
      "řízek": 4445,
      "##teré": 4446,
      "Star": 4447,
      "nevim": 4448,
      "navšti": 4449,
      "okam": 4450,
      "historické": 4451,
      "napsal": 4452,
      "lesní": 4453,
      "sníh": 4454,
      "znak": 4455,
      "Jirkovy": 4456,
      "maminku": 4457,
      "##zábav": 4458,
      "princezna": 4459,
      "některé": 4460,
      "letadlo": 4461,
      "Nejdřív": 4462,
      "kalhoty": 4463,
      "hřiště": 4464,
      "diskote": 4465,
      "Můžeme": 4466,
      "potřebu": 4467,
      "Větš": 4468,
      "přímo": 4469,
      "Křesom": 4470,
      "CH": 4471,
      "La": 4472,
      "Pi": 4473,
      "cm": 4474,
      "eva": 4475,
      "ga": 4476,
      "hub": 4477,
      "jdou": 4478,
      "kru": 4479,
      "zni": 4480,
      "zbo": 4481,
      "čemu": 4482,
      "ša": 4483,
      "##kli": 4484,
      "##tů": 4485,
      "##mem": 4486,
      "##mil": 4487,
      "##hů": 4488,
      "##lky": 4489,
      "##vrt": 4490,
      "##řka": 4491,
      "##čily": 4492,
      "##AL": 4493,
      "##str": 4494,
      "##ovým": 4495,
      "##rají": 4496,
      "poto": 4497,
      "##kají": 4498,
      "##žek": 4499,
      "##ádu": 4500,
      "kočka": 4501,
      "##ery": 4502,
      "##adi": 4503,
      "velkých": 4504,
      "##inach": 4505,
      "přítele": 4506,
      "##kým": 4507,
      "človek": 4508,
      "##esp": 4509,
      "říkal": 4510,
      "vlak": 4511,
      "dostanu": 4512,
      "bavit": 4513,
      "tato": 4514,
      "klukama": 4515,
      "dovolená": 4516,
      "několika": 4517,
      "smysl": 4518,
      "syst": 4519,
      "syna": 4520,
      "použi": 4521,
      "píše": 4522,
      "vyhrála": 4523,
      "společnosti": 4524,
      "setkání": 4525,
      "zahradě": 4526,
      "buď": 4527,
      "mnoha": 4528,
      "ponděli": 4529,
      "ledna": 4530,
      "knížka": 4531,
      "##xxxxxxxx": 4532,
      "těloc": 4533,
      "pomoci": 4534,
      "penize": 4535,
      "Ať": 4536,
      "Ani": 4537,
      "Dne": 4538,
      "Evo": 4539,
      "Hor": 4540,
      "Rak": 4541,
      "So": 4542,
      "Vš": 4543,
      "ahoj": 4544,
      "dat": 4545,
      "ital": 4546,
      "nyní": 4547,
      "sli": 4548,
      "zalo": 4549,
      "úžas": 4550,
      "Člověk": 4551,
      "šan": 4552,
      "##kovat": 4553,
      "##káme": 4554,
      "##zdo": 4555,
      "##gen": 4556,
      "##vem": 4557,
      "##jit": 4558,
      "##IT": 4559,
      "##ME": 4560,
      "##lada": 4561,
      "našli": 4562,
      "##lic": 4563,
      "##kyt": 4564,
      "stal": 4565,
      "strav": 4566,
      "stup": 4567,
      "chvil": 4568,
      "měsic": 4569,
      "kola": 4570,
      "##deň": 4571,
      "svet": 4572,
      "doba": 4573,
      "tež": 4574,
      "##láš": 4575,
      "Morav": 4576,
      "sportu": 4577,
      "životu": 4578,
      "studoval": 4579,
      "##latý": 4580,
      "Česko": 4581,
      "stolu": 4582,
      "koupali": 4583,
      "zpátky": 4584,
      "stane": 4585,
      "Zajím": 4586,
      "libi": 4587,
      "##sah": 4588,
      "dovo": 4589,
      "dovolenu": 4590,
      "zajímavá": 4591,
      "méně": 4592,
      "fotky": 4593,
      "Měli": 4594,
      "plno": 4595,
      "zeptal": 4596,
      "rozumně": 4597,
      "hráli": 4598,
      "silnici": 4599,
      "Lidi": 4600,
      "oslavu": 4601,
      "Závěr": 4602,
      "Rozhod": 4603,
      "navštívit": 4604,
      "##bekist": 4605,
      "prostředí": 4606,
      "pusu": 4607,
      "nebezpeč": 4608,
      "architektu": 4609,
      "pryč": 4610,
      "Bel": 4611,
      "Mně": 4612,
      "Oprav": 4613,
      "Par": 4614,
      "Re": 4615,
      "dnů": 4616,
      "far": 4617,
      "kat": 4618,
      "ozý": 4619,
      "ur": 4620,
      "umy": 4621,
      "ňá": 4622,
      "##vrop": 4623,
      "##ško": 4624,
      "neod": 4625,
      "pok": 4626,
      "##niku": 4627,
      "##noci": 4628,
      "##skat": 4629,
      "##aná": 4630,
      "přijít": 4631,
      "Pol": 4632,
      "Pop": 4633,
      "hradu": 4634,
      "můž": 4635,
      "líbi": 4636,
      "poziti": 4637,
      "raději": 4638,
      "myslel": 4639,
      "dívka": 4640,
      "vlakem": 4641,
      "ruku": 4642,
      "Kateř": 4643,
      "slun": 4644,
      "jazyka": 4645,
      "##piš": 4646,
      "univerzitu": 4647,
      "Občas": 4648,
      "plán": 4649,
      "přírodu": 4650,
      "Milá": 4651,
      "centra": 4652,
      "Amer": 4653,
      "##logie": 4654,
      "obyvatel": 4655,
      "darky": 4656,
      "Čechách": 4657,
      "slyšet": 4658,
      "maminkou": 4659,
      "hnědé": 4660,
      "klas": 4661,
      "Hlavně": 4662,
      "charakter": 4663,
      "Uzbekist": 4664,
      "jásavý": 4665,
      "Jsme": 4666,
      "Můžu": 4667,
      "adr": 4668,
      "blo": 4669,
      "fod": 4670,
      "of": 4671,
      "ochut": 4672,
      "pů": 4673,
      "ple": 4674,
      "pet": 4675,
      "rep": 4676,
      "zh": 4677,
      "Šli": 4678,
      "šat": 4679,
      "žlu": 4680,
      "##kům": 4681,
      "##mm": 4682,
      "##rné": 4683,
      "##opis": 4684,
      "##EK": 4685,
      "##50": 4686,
      "##stře": 4687,
      "##stna": 4688,
      "nato": 4689,
      "jest": 4690,
      "nesp": 4691,
      "pobyt": 4692,
      "byste": 4693,
      "tobě": 4694,
      "stoup": 4695,
      "chceme": 4696,
      "##ekl": 4697,
      "občan": 4698,
      "##use": 4699,
      "dobry": 4700,
      "hora": 4701,
      "přitel": 4702,
      "##zeň": 4703,
      "přev": 4704,
      "děkuju": 4705,
      "záchod": 4706,
      "zákaz": 4707,
      "##hody": 4708,
      "mamince": 4709,
      "řekne": 4710,
      "##živ": 4711,
      "jezdíme": 4712,
      "mluvili": 4713,
      "trén": 4714,
      "Mari": 4715,
      "Vyše": 4716,
      "řeč": 4717,
      "přijeli": 4718,
      "hlavě": 4719,
      "Muž": 4720,
      "Karlovy": 4721,
      "platit": 4722,
      "skvělé": 4723,
      "našich": 4724,
      "anděl": 4725,
      "symbo": 4726,
      "##XXXX": 4727,
      "chatu": 4728,
      "Vyso": 4729,
      "nevadí": 4730,
      "Jezd": 4731,
      "zlato": 4732,
      "basket": 4733,
      "##zábavnější": 4734,
      "CO": 4735,
      "Mat": 4736,
      "PS": 4737,
      "evrop": 4738,
      "mó": 4739,
      "mletá": 4740,
      "nou": 4741,
      "nově": 4742,
      "tva": 4743,
      "tvá": 4744,
      "vstup": 4745,
      "zalí": 4746,
      "čem": 4747,
      "##kova": 4748,
      "##mý": 4749,
      "##zka": 4750,
      "##hi": 4751,
      "##žuje": 4752,
      "##cení": 4753,
      "##řily": 4754,
      "##fa": 4755,
      "##ťa": 4756,
      "##ovna": 4757,
      "##ovát": 4758,
      "bytu": 4759,
      "projet": 4760,
      "##něp": 4761,
      "##itá": 4762,
      "##byla": 4763,
      "vyrozumění": 4764,
      "obilí": 4765,
      "nejlépe": 4766,
      "##líky": 4767,
      "##jim": 4768,
      "##ejt": 4769,
      "spíš": 4770,
      "zách": 4771,
      "mame": 4772,
      "tyto": 4773,
      "Jakou": 4774,
      "malo": 4775,
      "celého": 4776,
      "2011": 4777,
      "nechal": 4778,
      "černý": 4779,
      "druhy": 4780,
      "chyb": 4781,
      "těžko": 4782,
      "barvy": 4783,
      "univerzity": 4784,
      "chlapec": 4785,
      "společen": 4786,
      "sportovní": 4787,
      "Horymírův": 4788,
      "setkat": 4789,
      "##drej": 4790,
      "pomoct": 4791,
      "mnohem": 4792,
      "##prve": 4793,
      "Stastna": 4794,
      "brambo": 4795,
      "prosince": 4796,
      "situaci": 4797,
      "Vás": 4798,
      "bratranec": 4799,
      "Koupila": 4800,
      "dcera": 4801,
      "hospody": 4802,
      "jemně": 4803,
      "dědeček": 4804,
      "zpráva": 4805,
      "Plzni": 4806,
      "dospěl": 4807,
      "inzerát": 4808,
      "ředitel": 4809,
      "Babička": 4810,
      "tradice": 4811,
      "nejkrás": 4812,
      "Rakou": 4813,
      "Ber": 4814,
      "De": 4815,
      "Kra": 4816,
      "Koh": 4817,
      "Mno": 4818,
      "Op": 4819,
      "Sp": 4820,
      "VI": 4821,
      "dž": 4822,
      "dam": 4823,
      "dub": 4824,
      "fi": 4825,
      "festi": 4826,
      "he": 4827,
      "hnus": 4828,
      "km": 4829,
      "kre": 4830,
      "ran": 4831,
      "sáz": 4832,
      "uni": 4833,
      "univer": 4834,
      "vam": 4835,
      "úterý": 4836,
      "##dám": 4837,
      "##rty": 4838,
      "##ánu": 4839,
      "##cti": 4840,
      "##čtu": 4841,
      "##lali": 4842,
      "##chou": 4843,
      "##ovské": 4844,
      "našt": 4845,
      "##roděj": 4846,
      "neh": 4847,
      "##teri": 4848,
      "##ton": 4849,
      "##tost": 4850,
      "##nictví": 4851,
      "##řim": 4852,
      "##neho": 4853,
      "##jížd": 4854,
      "něme": 4855,
      "##eta": 4856,
      "##šeli": 4857,
      "přece": 4858,
      "Pot": 4859,
      "česká": 4860,
      "##kého": 4861,
      "spl": 4862,
      "##dají": 4863,
      "příliš": 4864,
      "roztom": 4865,
      "musim": 4866,
      "##telné": 4867,
      "vzdy": 4868,
      "posí": 4869,
      "poskyt": 4870,
      "kdyš": 4871,
      "časopis": 4872,
      "##riky": 4873,
      "dívám": 4874,
      "cestou": 4875,
      "kamarádem": 4876,
      "čerst": 4877,
      "starat": 4878,
      "libí": 4879,
      "babičku": 4880,
      "Dostala": 4881,
      "Karlík": 4882,
      "Marcela": 4883,
      "barva": 4884,
      "zkoušku": 4885,
      "poslouchat": 4886,
      "společnost": 4887,
      "kulturu": 4888,
      "vyprá": 4889,
      "vrátit": 4890,
      "odpověd": 4891,
      "kámen": 4892,
      "divadlo": 4893,
      "kupovat": 4894,
      "Vzadu": 4895,
      "četla": 4896,
      "tábo": 4897,
      "koníček": 4898,
      "lyž": 4899,
      "svítí": 4900,
      "dobrodružství": 4901,
      "Silvest": 4902,
      "Bu": 4903,
      "Ci": 4904,
      "Du": 4905,
      "Jan": 4906,
      "Sr": 4907,
      "Sy": 4908,
      "avšak": 4909,
      "bal": 4910,
      "finan": 4911,
      "mým": 4912,
      "pudu": 4913,
      "působ": 4914,
      "umi": 4915,
      "ukon": 4916,
      "vlá": 4917,
      "vis": 4918,
      "še": 4919,
      "Že": 4920,
      "žila": 4921,
      "##ěd": 4922,
      "##kce": 4923,
      "##ín": 4924,
      "##ína": 4925,
      "##tak": 4926,
      "##zem": 4927,
      "##rej": 4928,
      "##yš": 4929,
      "##ps": 4930,
      "##ET": 4931,
      "##šili": 4932,
      "##RO": 4933,
      "##91": 4934,
      "##rala": 4935,
      "jez": 4936,
      "neře": 4937,
      "neud": 4938,
      "doká": 4939,
      "##něly": 4940,
      "##loha": 4941,
      "vyprav": 4942,
      "vybav": 4943,
      "kosi": 4944,
      "koste": 4945,
      "##mile": 4946,
      "Poz": 4947,
      "prací": 4948,
      "##stopad": 4949,
      "muži": 4950,
      "##lého": 4951,
      "maj": 4952,
      "záv": 4953,
      "zápas": 4954,
      "studuje": 4955,
      "Take": 4956,
      "jinou": 4957,
      "Jaká": 4958,
      "##zdniny": 4959,
      "##cházka": 4960,
      "zajímá": 4961,
      "##enice": 4962,
      "Adame": 4963,
      "##kových": 4964,
      "kamen": 4965,
      "polit": 4966,
      "státu": 4967,
      "potřebuje": 4968,
      "modré": 4969,
      "holky": 4970,
      "hudba": 4971,
      "peč": 4972,
      "pěkně": 4973,
      "nezapomen": 4974,
      "fará": 4975,
      "Studuju": 4976,
      "obličej": 4977,
      "prohléd": 4978,
      "sněhu": 4979,
      "svačinu": 4980,
      "otevř": 4981,
      "knížku": 4982,
      "pomohl": 4983,
      "posteli": 4984,
      "Celý": 4985,
      "ostrov": 4986,
      "počitač": 4987,
      "papír": 4988,
      "Sloven": 4989,
      "milionů": 4990,
      "vajíčka": 4991,
      "rybníka": 4992,
      "Všude": 4993,
      "26": 4994,
      "Betlé": 4995,
      "Kou": 4996,
      "MI": 4997,
      "Nov": 4998,
      "Nav": 4999,
      "ST": 5000,
      "Snad": 5001,
      "VŠ": 5002,
      "ceny": 5003,
      "eh": 5004,
      "hře": 5005,
      "hum": 5006,
      "klí": 5007,
      "kině": 5008,
      "lez": 5009,
      "mý": 5010,
      "oc": 5011,
      "tlu": 5012,
      "uši": 5013,
      "určit": 5014,
      "ubyt": 5015,
      "Řec": 5016,
      "šlo": 5017,
      "##být": 5018,
      "##rve": 5019,
      "##hal": 5020,
      "##pl": 5021,
      "##vila": 5022,
      "##čata": 5023,
      "##ón": 5024,
      "##fe": 5025,
      "##MA": 5026,
      "##VO": 5027,
      "##stvo": 5028,
      "##che": 5029,
      "##ovol": 5030,
      "jejím": 5031,
      "doporu": 5032,
      "##inku": 5033,
      "bytě": 5034,
      "##řela": 5035,
      "##nim": 5036,
      "##nikou": 5037,
      "stý": 5038,
      "motý": 5039,
      "##vaní": 5040,
      "vystoup": 5041,
      "##luje": 5042,
      "mist": 5043,
      "##dění": 5044,
      "##ase": 5045,
      "náz": 5046,
      "pre": 5047,
      "princ": 5048,
      "##lét": 5049,
      "mail": 5050,
      "víno": 5051,
      "##hají": 5052,
      "poslat": 5053,
      "začne": 5054,
      "začina": 5055,
      "kterými": 5056,
      "černo": 5057,
      "bydli": 5058,
      "dela": 5059,
      "##čeká": 5060,
      "onemoc": 5061,
      "opak": 5062,
      "opět": 5063,
      "chybí": 5064,
      "vážně": 5065,
      "uklí": 5066,
      "čín": 5067,
      "čtení": 5068,
      "studiu": 5069,
      "jazykové": 5070,
      "pomáhá": 5071,
      "důležitá": 5072,
      "měsíců": 5073,
      "buch": 5074,
      "##roměst": 5075,
      "Brna": 5076,
      "##lův": 5077,
      "narodila": 5078,
      "ráj": 5079,
      "medvě": 5080,
      "chutná": 5081,
      "koníčky": 5082,
      "Americe": 5083,
      "jistě": 5084,
      "kancelá": 5085,
      "Německa": 5086,
      "technické": 5087,
      "vytvo": 5088,
      "zámek": 5089,
      "huma": 5090,
      "Uprostřed": 5091,
      "nikoho": 5092,
      "zaměstna": 5093,
      "kabelku": 5094,
      "divadle": 5095,
      "Druhý": 5096,
      "MU": 5097,
      "PŘ": 5098,
      "bich": 5099,
      "cen": 5100,
      "hní": 5101,
      "pili": 5102,
      "psem": 5103,
      "původ": 5104,
      "ram": 5105,
      "sled": 5106,
      "zbra": 5107,
      "šu": 5108,
      "##knu": 5109,
      "##sátka": 5110,
      "##min": 5111,
      "##bře": 5112,
      "##ony": 5113,
      "##hlí": 5114,
      "##hová": 5115,
      "##ér": 5116,
      "##žku": 5117,
      "##říme": 5118,
      "##IČ": 5119,
      "##KY": 5120,
      "##star": 5121,
      "najím": 5122,
      "jeze": 5123,
      "##lin": 5124,
      "##ros": 5125,
      "neo": 5126,
      "poda": 5127,
      "##rák": 5128,
      "##rám": 5129,
      "##kočil": 5130,
      "##nička": 5131,
      "veci": 5132,
      "rom": 5133,
      "nemys": 5134,
      "uží": 5135,
      "##lán": 5136,
      "Monikou": 5137,
      "kazd": 5138,
      "##sice": 5139,
      "zážit": 5140,
      "výraz": 5141,
      "věku": 5142,
      "##onat": 5143,
      "##stěji": 5144,
      "skočil": 5145,
      "řeknu": 5146,
      "celkem": 5147,
      "dikt": 5148,
      "každou": 5149,
      "zdar": 5150,
      "koupel": 5151,
      "vaše": 5152,
      "strava": 5153,
      "strany": 5154,
      "lékař": 5155,
      "mněl": 5156,
      "Máš": 5157,
      "druhou": 5158,
      "bratrem": 5159,
      "odpočinu": 5160,
      "řeky": 5161,
      "přátelé": 5162,
      "rozhodl": 5163,
      "upí": 5164,
      "chcete": 5165,
      "přijdu": 5166,
      "karty": 5167,
      "osobní": 5168,
      "cíl": 5169,
      "ovlád": 5170,
      "ovšem": 5171,
      "umění": 5172,
      "okolo": 5173,
      "četl": 5174,
      "komuni": 5175,
      "samostat": 5176,
      "čokolád": 5177,
      "Pracuje": 5178,
      "každej": 5179,
      "naprosto": 5180,
      "ležely": 5181,
      "křoví": 5182,
      "Dra": 5183,
      "Lé": 5184,
      "Mezi": 5185,
      "hř": 5186,
      "jar": 5187,
      "kře": 5188,
      "mlé": 5189,
      "mýt": 5190,
      "oživ": 5191,
      "pát": 5192,
      "pej": 5193,
      "utek": 5194,
      "uspě": 5195,
      "vs": 5196,
      "vít": 5197,
      "Šel": 5198,
      "ští": 5199,
      "##ab": 5200,
      "##rna": 5201,
      "##áku": 5202,
      "##předu": 5203,
      "##jt": 5204,
      "##řad": 5205,
      "##čkovi": 5206,
      "##stní": 5207,
      "nesta": 5208,
      "dojem": 5209,
      "##atu": 5210,
      "prodá": 5211,
      "##vaji": 5212,
      "##vor": 5213,
      "##voj": 5214,
      "ved": 5215,
      "obdiv": 5216,
      "mámou": 5217,
      "žiju": 5218,
      "průvod": 5219,
      "spal": 5220,
      "všeho": 5221,
      "musi": 5222,
      "##hodu": 5223,
      "bab": 5224,
      "dětem": 5225,
      "celém": 5226,
      "nějaká": 5227,
      "Nejraději": 5228,
      "Nejzábavnější": 5229,
      "bezpeč": 5230,
      "##žitě": 5231,
      "jmenoval": 5232,
      "bydlela": 5233,
      "reali": 5234,
      "různý": 5235,
      "tren": 5236,
      "vodě": 5237,
      "polici": 5238,
      "##mož": 5239,
      "raj": 5240,
      "krasná": 5241,
      "památek": 5242,
      "nepotřeb": 5243,
      "ostatních": 5244,
      "Napřiklad": 5245,
      "Napravo": 5246,
      "lehké": 5247,
      "podobné": 5248,
      "loď": 5249,
      "láska": 5250,
      "mobilní": 5251,
      "klidně": 5252,
      "Aleno": 5253,
      "stromů": 5254,
      "reklama": 5255,
      "##ebest": 5256,
      "Místo": 5257,
      "plyš": 5258,
      "stromeček": 5259,
      "potraviny": 5260,
      "písničky": 5261,
      "barev": 5262,
      "koláče": 5263,
      "požad": 5264,
      "sýr": 5265,
      "Kníže": 5266,
      "laska": 5267,
      "28": 5268,
      "And": 5269,
      "Facebo": 5270,
      "Oba": 5271,
      "Pe": 5272,
      "Umím": 5273,
      "bilo": 5274,
      "hlod": 5275,
      "ome": 5276,
      "ota": 5277,
      "vse": 5278,
      "Šla": 5279,
      "Ště": 5280,
      "##eho": 5281,
      "##gati": 5282,
      "##hly": 5283,
      "##pal": 5284,
      "##žoval": 5285,
      "##enta": 5286,
      "nakoup": 5287,
      "ses": 5288,
      "##leg": 5289,
      "dokáz": 5290,
      "##ink": 5291,
      "##inec": 5292,
      "prod": 5293,
      "##lob": 5294,
      "##říz": 5295,
      "##det": 5296,
      "##etnam": 5297,
      "##nách": 5298,
      "##zeli": 5299,
      "##icka": 5300,
      "Pozdrav": 5301,
      "##kém": 5302,
      "Najednou": 5303,
      "Nalevo": 5304,
      "prům": 5305,
      "děje": 5306,
      "##iska": 5307,
      "závod": 5308,
      "##ister": 5309,
      "věděl": 5310,
      "pomůže": 5311,
      "dětství": 5312,
      "později": 5313,
      "pozvání": 5314,
      "rado": 5315,
      "potí": 5316,
      "stačí": 5317,
      "probud": 5318,
      "jezdil": 5319,
      "jezdili": 5320,
      "musíte": 5321,
      "trest": 5322,
      "duby": 5323,
      "světla": 5324,
      "světlo": 5325,
      "vodou": 5326,
      "těžká": 5327,
      "prvním": 5328,
      "někomu": 5329,
      "milá": 5330,
      "smrt": 5331,
      "teprve": 5332,
      "historie": 5333,
      "veliké": 5334,
      "nemocný": 5335,
      "nemocnici": 5336,
      "vysokou": 5337,
      "##méně": 5338,
      "Chodím": 5339,
      "kultura": 5340,
      "Horymírovi": 5341,
      "Princ": 5342,
      "večeře": 5343,
      "uviděl": 5344,
      "Franti": 5345,
      "neumí": 5346,
      "odešli": 5347,
      "vrátil": 5348,
      "Staroměst": 5349,
      "brambor": 5350,
      "skupina": 5351,
      "uměl": 5352,
      "##pravo": 5353,
      "Všechny": 5354,
      "kávu": 5355,
      "jménem": 5356,
      "nevěděl": 5357,
      "princez": 5358,
      "dřevě": 5359,
      "Moskvě": 5360,
      "vybral": 5361,
      "speciali": 5362,
      "nutné": 5363,
      "tradiční": 5364,
      "Královna": 5365,
      "pití": 5366,
      "bazénu": 5367,
      "fakultě": 5368,
      "fodbal": 5369,
      "festival": 5370,
      "diktát": 5371,
      "LI": 5372,
      "MÁ": 5373,
      "MAM": 5374,
      "Ni": 5375,
      "Pat": 5376,
      "Vstup": 5377,
      "VRA": 5378,
      "Voda": 5379,
      "blí": 5380,
      "sé": 5381,
      "ska": 5382,
      "tre": 5383,
      "učeb": 5384,
      "zne": 5385,
      "zru": 5386,
      "zvu": 5387,
      "zoo": 5388,
      "##rky": 5389,
      "##hel": 5390,
      "##cé": 5391,
      "##jku": 5392,
      "##RÁ": 5393,
      "##ŽE": 5394,
      "##raj": 5395,
      "našem": 5396,
      "sejdeme": 5397,
      "neš": 5398,
      "neděla": 5399,
      "##odob": 5400,
      "promě": 5401,
      "##nilo": 5402,
      "stan": 5403,
      "stran": 5404,
      "strý": 5405,
      "zapomě": 5406,
      "chcí": 5407,
      "vyhra": 5408,
      "##poj": 5409,
      "##avá": 5410,
      "##adě": 5411,
      "budem": 5412,
      "tehdy": 5413,
      "děj": 5414,
      "muzi": 5415,
      "denní": 5416,
      "Česka": 5417,
      "pane": 5418,
      "##roveň": 5419,
      "kamarádky": 5420,
      "nechat": 5421,
      "nepře": 5422,
      "listopad": 5423,
      "samoz": 5424,
      "Konečně": 5425,
      "vesnici": 5426,
      "popel": 5427,
      "kamo": 5428,
      "dvacet": 5429,
      "skončila": 5430,
      "minulý": 5431,
      "mladý": 5432,
      "umět": 5433,
      "horko": 5434,
      "nemohli": 5435,
      "snída": 5436,
      "Babi": 5437,
      "přírodě": 5438,
      "znovu": 5439,
      "království": 5440,
      "nechtěl": 5441,
      "zbytek": 5442,
      "pozdravem": 5443,
      "pomohla": 5444,
      "šťastný": 5445,
      "výborně": 5446,
      "navštěvu": 5447,
      "prochazku": 5448,
      "fotografii": 5449,
      "MOJE": 5450,
      "muzeum": 5451,
      "třpy": 5452,
      "drahé": 5453,
      "alkohol": 5454,
      "kurzy": 5455,
      "vikendu": 5456,
      "Cesta": 5457,
      "zboží": 5458,
      "Opravdu": 5459,
      "roztomil": 5460,
      "29": 5461,
      "Chu": 5462,
      "Hned": 5463,
      "JAK": 5464,
      "Mas": 5465,
      "Mej": 5466,
      "PAK": 5467,
      "Ra": 5468,
      "Sko": 5469,
      "Sez": 5470,
      "ako": 5471,
      "for": 5472,
      "oce": 5473,
      "pal": 5474,
      "resp": 5475,
      "umož": 5476,
      "včas": 5477,
      "zb": 5478,
      "Španěl": 5479,
      "##eo": 5480,
      "##ací": 5481,
      "##blí": 5482,
      "##gi": 5483,
      "##rny": 5484,
      "##hne": 5485,
      "##ác": 5486,
      "##ála": 5487,
      "##líme": 5488,
      "##řa": 5489,
      "##čná": 5490,
      "##ÍM": 5491,
      "##fer": 5492,
      "##fek": 5493,
      "##NĚ": 5494,
      "##ché": 5495,
      "##rab": 5496,
      "##leh": 5497,
      "##lina": 5498,
      "nedě": 5499,
      "dokud": 5500,
      "zastá": 5501,
      "měk": 5502,
      "vystav": 5503,
      "vybor": 5504,
      "rostli": 5505,
      "##anti": 5506,
      "##lym": 5507,
      "budovy": 5508,
      "Potřeb": 5509,
      "přís": 5510,
      "příjem": 5511,
      "tabu": 5512,
      "denně": 5513,
      "záko": 5514,
      "japon": 5515,
      "výstava": 5516,
      "##hodou": 5517,
      "vzhled": 5518,
      "mamkou": 5519,
      "nosit": 5520,
      "jiná": 5521,
      "papou": 5522,
      "potkal": 5523,
      "myslet": 5524,
      "stoji": 5525,
      "sklád": 5526,
      "Kaza": 5527,
      "##běhu": 5528,
      "sluní": 5529,
      "slušně": 5530,
      "všim": 5531,
      "Máte": 5532,
      "parky": 5533,
      "milí": 5534,
      "teplé": 5535,
      "skončil": 5536,
      "holč": 5537,
      "holku": 5538,
      "Každé": 5539,
      "hudby": 5540,
      "Francou": 5541,
      "kapky": 5542,
      "Příští": 5543,
      "nejdřív": 5544,
      "nuda": 5545,
      "městem": 5546,
      "metrem": 5547,
      "dítětem": 5548,
      "spokojený": 5549,
      "chytrý": 5550,
      "Amerika": 5551,
      "Andrej": 5552,
      "Kubula": 5553,
      "zkušenosti": 5554,
      "Pražský": 5555,
      "literaturu": 5556,
      "vztah": 5557,
      "kdiž": 5558,
      "narozeninám": 5559,
      "Během": 5560,
      "povinnosti": 5561,
      "##lizko": 5562,
      "kohout": 5563,
      "vybrat": 5564,
      "##fung": 5565,
      "hvězd": 5566,
      "vždicky": 5567,
      "adres": 5568,
      "nejkrásnější": 5569,
      "Hrad": 5570,
      "Kor": 5571,
      "KAM": 5572,
      "Nad": 5573,
      "Pou": 5574,
      "VY": 5575,
      "dou": 5576,
      "dvak": 5577,
      "kvu": 5578,
      "kvet": 5579,
      "lan": 5580,
      "psí": 5581,
      "tla": 5582,
      "zmi": 5583,
      "žá": 5584,
      "##ěly": 5585,
      "##smě": 5586,
      "##gent": 5587,
      "##hrá": 5588,
      "##pak": 5589,
      "##vce": 5590,
      "##form": 5591,
      "##BO": 5592,
      "##BA": 5593,
      "##linu": 5594,
      "nerozumě": 5595,
      "neštěstí": 5596,
      "post": 5597,
      "podě": 5598,
      "polov": 5599,
      "postup": 5600,
      "##teční": 5601,
      "stál": 5602,
      "zají": 5603,
      "cht": 5604,
      "chem": 5605,
      "##nebo": 5606,
      "vyrá": 5607,
      "vylet": 5608,
      "ver": 5609,
      "oba": 5610,
      "svá": 5611,
      "svátky": 5612,
      "nejv": 5613,
      "rohy": 5614,
      "tebou": 5615,
      "hokej": 5616,
      "připomí": 5617,
      "nápis": 5618,
      "##icí": 5619,
      "##yslet": 5620,
      "prší": 5621,
      "hrala": 5622,
      "hrají": 5623,
      "##tiv": 5624,
      "muset": 5625,
      "kamarádech": 5626,
      "jara": 5627,
      "podnika": 5628,
      "koukám": 5629,
      "mamce": 5630,
      "semnou": 5631,
      "##esky": 5632,
      "dětmi": 5633,
      "každá": 5634,
      "cestování": 5635,
      "zdvo": 5636,
      "##cházím": 5637,
      "samé": 5638,
      "duležit": 5639,
      "piz": 5640,
      "Karlův": 5641,
      "novin": 5642,
      "opravd": 5643,
      "##mos": 5644,
      "přijede": 5645,
      "##pilo": 5646,
      "uprostřed": 5647,
      "nesmí": 5648,
      "##lejbal": 5649,
      "zelené": 5650,
      "karkulka": 5651,
      "zůstal": 5652,
      "veselá": 5653,
      "zakáz": 5654,
      "domác": 5655,
      "dlouhý": 5656,
      "přírody": 5657,
      "Vánoční": 5658,
      "##ovaná": 5659,
      "ruština": 5660,
      "Václav": 5661,
      "Leto": 5662,
      "Koupil": 5663,
      "budoucnost": 5664,
      "dceru": 5665,
      "elektř": 5666,
      "Možna": 5667,
      "pěšky": 5668,
      "ztrat": 5669,
      "doktor": 5670,
      "lampa": 5671,
      "Pepa": 5672,
      "Hero": 5673,
      "nazývá": 5674,
      "zvláštní": 5675,
      "Křesomysl": 5676,
      "ozývaly": 5677,
      "Itali": 5678,
      "Ky": 5679,
      "Krist": 5680,
      "Mluv": 5681,
      "Pí": 5682,
      "Zep": 5683,
      "bří": 5684,
      "bít": 5685,
      "blá": 5686,
      "cena": 5687,
      "drá": 5688,
      "ditě": 5689,
      "gu": 5690,
      "gene": 5691,
      "hro": 5692,
      "kri": 5693,
      "mrt": 5694,
      "ono": 5695,
      "očeká": 5696,
      "pta": 5697,
      "zú": 5698,
      "zve": 5699,
      "účet": 5700,
      "##novat": 5701,
      "##dlí": 5702,
      "##íí": 5703,
      "##zuje": 5704,
      "##ag": 5705,
      "##bily": 5706,
      "##žní": 5707,
      "##šný": 5708,
      "##ůh": 5709,
      "##CI": 5710,
      "##stud": 5711,
      "navíc": 5712,
      "sešli": 5713,
      "nel": 5714,
      "##aman": 5715,
      "##kož": 5716,
      "##jede": 5717,
      "##jedeme": 5718,
      "stala": 5719,
      "##noční": 5720,
      "chlu": 5721,
      "měsice": 5722,
      "##řiv": 5723,
      "##bytek": 5724,
      "##armo": 5725,
      "##ětí": 5726,
      "romá": 5727,
      "odvá": 5728,
      "odliš": 5729,
      "Jeli": 5730,
      "velmy": 5731,
      "##ovací": 5732,
      "čeka": 5733,
      "děda": 5734,
      "závis": 5735,
      "##istika": 5736,
      "kuch": 5737,
      "tyd": 5738,
      "potre": 5739,
      "každém": 5740,
      "zemřel": 5741,
      "Nejhorší": 5742,
      "léky": 5743,
      "učitele": 5744,
      "jazyku": 5745,
      "piv": 5746,
      "nových": 5747,
      "milý": 5748,
      "policie": 5749,
      "##ického": 5750,
      "přáteli": 5751,
      "199": 5752,
      "##vající": 5753,
      "jednot": 5754,
      "usmí": 5755,
      "udělali": 5756,
      "##hlas": 5757,
      "krasný": 5758,
      "čtvrt": 5759,
      "nejoblib": 5760,
      "mužou": 5761,
      "udělá": 5762,
      "Někdo": 5763,
      "děláme": 5764,
      "JED": 5765,
      "tety": 5766,
      "Brně": 5767,
      "povídá": 5768,
      "##prvé": 5769,
      "pohádka": 5770,
      "zavolat": 5771,
      "cizích": 5772,
      "pohodl": 5773,
      "spíše": 5774,
      "Nikdo": 5775,
      "cítím": 5776,
      "kancela": 5777,
      "Sax": 5778,
      "špin": 5779,
      "zkušenost": 5780,
      "jablko": 5781,
      "správně": 5782,
      "dopadlo": 5783,
      "vedoucí": 5784,
      "Dneska": 5785,
      "Vstupní": 5786,
      "BO": 5787,
      "Ir": 5788,
      "Jí": 5789,
      "Kni": 5790,
      "Klu": 5791,
      "Náš": 5792,
      "Slav": 5793,
      "Smet": 5794,
      "ad": 5795,
      "cz": 5796,
      "hus": 5797,
      "jiny": 5798,
      "nená": 5799,
      "plo": 5800,
      "růž": 5801,
      "sá": 5802,
      "tma": 5803,
      "tzv": 5804,
      "var": 5805,
      "zra": 5806,
      "zub": 5807,
      "zvý": 5808,
      "Řekla": 5809,
      "##umí": 5810,
      "##mark": 5811,
      "##haly": 5812,
      "##ií": 5813,
      "##pit": 5814,
      "##vný": 5815,
      "##žené": 5816,
      "##šné": 5817,
      "##činou": 5818,
      "##ňovat": 5819,
      "##IS": 5820,
      "##HO": 5821,
      "##ČI": 5822,
      "##raci": 5823,
      "naroz": 5824,
      "ser": 5825,
      "jsne": 5826,
      "dod": 5827,
      "dopoledne": 5828,
      "potě": 5829,
      "##tec": 5830,
      "##terá": 5831,
      "##tory": 5832,
      "proc": 5833,
      "vyře": 5834,
      "##aru": 5835,
      "oble": 5836,
      "svím": 5837,
      "nejbli": 5838,
      "odbor": 5839,
      "tex": 5840,
      "tetě": 5841,
      "##átko": 5842,
      "velka": 5843,
      "##lách": 5844,
      "##nula": 5845,
      "prase": 5846,
      "##louho": 5847,
      "podla": 5848,
      "vzala": 5849,
      "Neb": 5850,
      "jinde": 5851,
      "začatku": 5852,
      "dávno": 5853,
      "##rie": 5854,
      "##rig": 5855,
      "radši": 5856,
      "námi": 5857,
      "pana": 5858,
      "zemích": 5859,
      "černou": 5860,
      "zpět": 5861,
      "různá": 5862,
      "Jano": 5863,
      "svému": 5864,
      "těžší": 5865,
      "starých": 5866,
      "přijedu": 5867,
      "učila": 5868,
      "rozhodli": 5869,
      "jednom": 5870,
      "zkoušel": 5871,
      "vysoko": 5872,
      "##kras": 5873,
      "obchodě": 5874,
      "plné": 5875,
      "nepos": 5876,
      "##lezl": 5877,
      "mužem": 5878,
      "##znamená": 5879,
      "zůstala": 5880,
      "půlnoci": 5881,
      "zakop": 5882,
      "##cemi": 5883,
      "návštěvní": 5884,
      "lehčí": 5885,
      "ovliv": 5886,
      "##vame": 5887,
      "bazenu": 5888,
      "místní": 5889,
      "##bere": 5890,
      "jasné": 5891,
      "nejlepši": 5892,
      "otázka": 5893,
      "Spolu": 5894,
      "##00000000": 5895,
      "drog": 5896,
      "pokračovat": 5897,
      "myšlenky": 5898,
      "taťka": 5899,
      "skutečnosti": 5900,
      "letiště": 5901,
      "systém": 5902,
      "dospělý": 5903,
      "farář": 5904,
      "názory": 5905,
      "HO": 5906,
      "Hav": 5907,
      "Ju": 5908,
      "Jonat": 5909,
      "Kvůli": 5910,
      "O2": 5911,
      "Sk": 5912,
      "Sv": 5913,
      "Uvid": 5914,
      "Var": 5915,
      "bat": 5916,
      "bři": 5917,
      "hy": 5918,
      "ky": 5919,
      "Škola": 5920,
      "Šebest": 5921,
      "##mně": 5922,
      "##zen": 5923,
      "##zou": 5924,
      "##zná": 5925,
      "##ham": 5926,
      "##hám": 5927,
      "##áp": 5928,
      "##žim": 5929,
      "##cít": 5930,
      "##řen": 5931,
      "##čina": 5932,
      "##čků": 5933,
      "##xi": 5934,
      "##ema": 5935,
      "##ovor": 5936,
      "sešit": 5937,
      "##letu": 5938,
      "##lii": 5939,
      "negati": 5940,
      "dorazili": 5941,
      "poch": 5942,
      "poby": 5943,
      "##oden": 5944,
      "##tostí": 5945,
      "##rání": 5946,
      "mění": 5947,
      "##želi": 5948,
      "vystup": 5949,
      "koneč": 5950,
      "vepř": 5951,
      "obý": 5952,
      "##ang": 5953,
      "##aný": 5954,
      "hodina": 5955,
      "odpad": 5956,
      "tero": 5957,
      "##lovi": 5958,
      "přijím": 5959,
      "##zev": 5960,
      "##ičce": 5961,
      "##ičko": 5962,
      "nemů": 5963,
      "##nych": 5964,
      "Moji": 5965,
      "děd": 5966,
      "spi": 5967,
      "##ismus": 5968,
      "mateř": 5969,
      "přídu": 5970,
      "hrajem": 5971,
      "Toto": 5972,
      "podpo": 5973,
      "podmí": 5974,
      "##latí": 5975,
      "koukat": 5976,
      "tenhle": 5977,
      "noční": 5978,
      "divá": 5979,
      "cestuju": 5980,
      "sklad": 5981,
      "koupím": 5982,
      "rukou": 5983,
      "krásnou": 5984,
      "Nejvíc": 5985,
      "delat": 5986,
      "musíš": 5987,
      "##livé": 5988,
      "stromu": 5989,
      "Petří": 5990,
      "kolej": 5991,
      "koleje": 5992,
      "řeka": 5993,
      "oblečeni": 5994,
      "krou": 5995,
      "napsát": 5996,
      "strašidlo": 5997,
      "psal": 5998,
      "Mají": 5999,
      "sportovat": 6000,
      "člověku": 6001,
      "červený": 6002,
      "bun": 6003,
      "Někteří": 6004,
      "hráč": 6005,
      "postavit": 6006,
      "uvidíme": 6007,
      "množství": 6008,
      "Karlova": 6009,
      "anglicky": 6010,
      "Miluju": 6011,
      "Šemíkovi": 6012,
      "Vanoce": 6013,
      "darek": 6014,
      "pěti": 6015,
      "mobilu": 6016,
      "platí": 6017,
      "čtyř": 6018,
      "firmě": 6019,
      "polévku": 6020,
      "budoucnosti": 6021,
      "spadl": 6022,
      "Můžeš": 6023,
      "Můžete": 6024,
      "odpočivat": 6025,
      "Kája": 6026,
      "kůň": 6027,
      "zvyky": 6028,
      "srpna": 6029,
      "zloděj": 6030,
      "Čekám": 6031,
      "tisíc": 6032,
      "KDY": 6033,
      "vydatná": 6034,
      "nouzi": 6035,
      "humanit": 6036,
      "zdarma": 6037,
      "oživly": 6038,
      "hlodav": 6039,
      "Chut": 6040,
      "kvuli": 6041,
      "70": 6042,
      "Fa": 6043,
      "Hez": 6044,
      "Kři": 6045,
      "Let": 6046,
      "Půj": 6047,
      "SP": 6048,
      "Té": 6049,
      "Uděla": 6050,
      "dni": 6051,
      "eště": 6052,
      "hust": 6053,
      "hrom": 6054,
      "mla": 6055,
      "pen": 6056,
      "rý": 6057,
      "tel": 6058,
      "vem": 6059,
      "včely": 6060,
      "úk": 6061,
      "ší": 6062,
      "##dli": 6063,
      "##smu": 6064,
      "##anech": 6065,
      "##res": 6066,
      "##oby": 6067,
      "##pla": 6068,
      "##UT": 6069,
      "##žný": 6070,
      "##žlout": 6071,
      "##žanti": 6072,
      "##čel": 6073,
      "##ňují": 6074,
      "##sté": 6075,
      "##enti": 6076,
      "nastoup": 6077,
      "seděla": 6078,
      "seděl": 6079,
      "##aky": 6080,
      "##roje": 6081,
      "neli": 6082,
      "neumě": 6083,
      "nefung": 6084,
      "proce": 6085,
      "##kot": 6086,
      "##alně": 6087,
      "##niky": 6088,
      "##nicích": 6089,
      "zaz": 6090,
      "zaš": 6091,
      "##jíž": 6092,
      "kočku": 6093,
      "rokem": 6094,
      "hodí": 6095,
      "##mila": 6096,
      "hot": 6097,
      "##átů": 6098,
      "přiz": 6099,
      "přiletě": 6100,
      "##domí": 6101,
      "Popiš": 6102,
      "##oběd": 6103,
      "spotřeb": 6104,
      "hrano": 6105,
      "hraji": 6106,
      "záleží": 6107,
      "podporu": 6108,
      "Procházka": 6109,
      "všechni": 6110,
      "##die": 6111,
      "Bydle": 6112,
      "##tekli": 6113,
      "##čeli": 6114,
      "babí": 6115,
      "##burg": 6116,
      "souk": 6117,
      "pracují": 6118,
      "nikam": 6119,
      "neprac": 6120,
      "stranu": 6121,
      "dnech": 6122,
      "zajíma": 6123,
      "meho": 6124,
      "bavili": 6125,
      "##chach": 6126,
      "trvá": 6127,
      "pravidla": 6128,
      "Dokon": 6129,
      "mému": 6130,
      "zdravé": 6131,
      "řešit": 6132,
      "##uměly": 6133,
      "##rývá": 6134,
      "státní": 6135,
      "rozhodnutí": 6136,
      "atmos": 6137,
      "plavala": 6138,
      "usly": 6139,
      "dale": 6140,
      "třída": 6141,
      "2007": 6142,
      "##koda": 6143,
      "večera": 6144,
      "masa": 6145,
      "Vždyť": 6146,
      "takového": 6147,
      "stěh": 6148,
      "tatín": 6149,
      "psaní": 6150,
      "prohlí": 6151,
      "zavolal": 6152,
      "Velmi": 6153,
      "nudím": 6154,
      "nemusím": 6155,
      "rána": 6156,
      "Jmenuju": 6157,
      "Republiky": 6158,
      "vyučovaní": 6159,
      "NEJ": 6160,
      "tancovat": 6161,
      "Sever": 6162,
      "elekt": 6163,
      "letadla": 6164,
      "Začal": 6165,
      "Neptu": 6166,
      "otázku": 6167,
      "Prázdniny": 6168,
      "Spoj": 6169,
      "nenud": 6170,
      "Kubiku": 6171,
      "BYCH": 6172,
      "úspěch": 6173,
      "říkají": 6174,
      "městech": 6175,
      "diskoté": 6176,
      "vymys": 6177,
      "profes": 6178,
      "chleba": 6179,
      "nikomu": 6180,
      "cigarety": 6181,
      "ideální": 6182,
      "předměty": 6183,
      "rozutekli": 6184,
      "naměstí": 6185,
      "Vltavy": 6186,
      "vlády": 6187,
      "humor": 6188,
      "průmys": 6189,
      "listopadu": 6190,
      "Bal": 6191,
      "Baví": 6192,
      "Ex": 6193,
      "Fil": 6194,
      "Fer": 6195,
      "KU": 6196,
      "Kla": 6197,
      "Kry": 6198,
      "Krás": 6199,
      "Ov": 6200,
      "PC": 6201,
      "ROD": 6202,
      "SK": 6203,
      "Sin": 6204,
      "Tep": 6205,
      "Ze": 6206,
      "bla": 6207,
      "bli": 6208,
      "fon": 6209,
      "filo": 6210,
      "ház": 6211,
      "klou": 6212,
      "oto": 6213,
      "obory": 6214,
      "pav": 6215,
      "skou": 6216,
      "vr": 6217,
      "visí": 6218,
      "vstanu": 6219,
      "zně": 6220,
      "Čt": 6221,
      "řád": 6222,
      "##nt": 6223,
      "##sla": 6224,
      "##son": 6225,
      "##ební": 6226,
      "##bá": 6227,
      "##pky": 6228,
      "##vek": 6229,
      "##cká": 6230,
      "##čist": 6231,
      "##čuji": 6232,
      "##ňe": 6233,
      "##NY": 6234,
      "##stů": 6235,
      "##ranu": 6236,
      "##razi": 6237,
      "##razí": 6238,
      "neumím": 6239,
      "dohro": 6240,
      "pohy": 6241,
      "postava": 6242,
      "##tev": 6243,
      "##tebo": 6244,
      "projít": 6245,
      "##nich": 6246,
      "zabi": 6247,
      "zabil": 6248,
      "zažil": 6249,
      "motor": 6250,
      "měj": 6251,
      "vyděla": 6252,
      "vydělá": 6253,
      "vyrob": 6254,
      "##vobod": 6255,
      "vet": 6256,
      "vese": 6257,
      "největ": 6258,
      "nejkras": 6259,
      "kterem": 6260,
      "nemluv": 6261,
      "leg": 6262,
      "##ujem": 6263,
      "prakt": 6264,
      "přírod": 6265,
      "příjemně": 6266,
      "##istuje": 6267,
      "##telka": 6268,
      "podstat": 6269,
      "##ovém": 6270,
      "##mady": 6271,
      "##čeka": 6272,
      "napíšu": 6273,
      "lídi": 6274,
      "tyg": 6275,
      "pozvala": 6276,
      "radi": 6277,
      "soubory": 6278,
      "divné": 6279,
      "pracuju": 6280,
      "vlaku": 6281,
      "##radl": 6282,
      "##šími": 6283,
      "##lečení": 6284,
      "nechala": 6285,
      "inteli": 6286,
      "mohlo": 6287,
      "bydlim": 6288,
      "Zavo": 6289,
      "Tele": 6290,
      "volejbal": 6291,
      "Karkulka": 6292,
      "neznam": 6293,
      "sestrou": 6294,
      "druhém": 6295,
      "témě": 6296,
      "brý": 6297,
      "Petrov": 6298,
      "učitelky": 6299,
      "snažit": 6300,
      "polica": 6301,
      "Podzim": 6302,
      "manžela": 6303,
      "holkama": 6304,
      "draho": 6305,
      "společně": 6306,
      "sportov": 6307,
      "autobusu": 6308,
      "2008": 6309,
      "veselé": 6310,
      "uviděla": 6311,
      "staví": 6312,
      "slavnosti": 6313,
      "hledá": 6314,
      "tetou": 6315,
      "vrátili": 6316,
      "Milý": 6317,
      "písmo": 6318,
      "nejaký": 6319,
      "býval": 6320,
      "skupiny": 6321,
      "informaci": 6322,
      "firmu": 6323,
      "firmy": 6324,
      "dveří": 6325,
      "Bardej": 6326,
      "Domaž": 6327,
      "Hlavní": 6328,
      "dopravní": 6329,
      "nepřítel": 6330,
      "houby": 6331,
      "strejda": 6332,
      "legrace": 6333,
      "uklízet": 6334,
      "kavárny": 6335,
      "cukrov": 6336,
      "zajmav": 6337,
      "současné": 6338,
      "semestr": 6339,
      "jediný": 6340,
      "služby": 6341,
      "chalup": 6342,
      "##hůru": 6343,
      "tělocvik": 6344,
      "hnízdo": 6345,
      "požadav": 6346,
      "SS": 6347,
      "Vary": 6348,
      "Zv": 6349,
      "anebo": 6350,
      "bob": 6351,
      "brát": 6352,
      "bot": 6353,
      "houp": 6354,
      "kus": 6355,
      "ková": 6356,
      "nová": 6357,
      "omá": 6358,
      "pest": 6359,
      "pec": 6360,
      "plech": 6361,
      "vé": 6362,
      "úto": 6363,
      "Čím": 6364,
      "čis": 6365,
      "člen": 6366,
      "Škoda": 6367,
      "šta": 6368,
      "##ění": 6369,
      "##dím": 6370,
      "##dan": 6371,
      "##drý": 6372,
      "##sm": 6373,
      "##sud": 6374,
      "##sala": 6375,
      "##ály": 6376,
      "##plat": 6377,
      "##žné": 6378,
      "##ša": 6379,
      "##šce": 6380,
      "##jní": 6381,
      "##óny": 6382,
      "##DD": 6383,
      "##LU": 6384,
      "##fé": 6385,
      "##SE": 6386,
      "##enci": 6387,
      "seděli": 6388,
      "jež": 6389,
      "##lex": 6390,
      "##aka": 6391,
      "nehod": 6392,
      "dole": 6393,
      "poklad": 6394,
      "##kor": 6395,
      "taki": 6396,
      "##uda": 6397,
      "##vaha": 6398,
      "##vačka": 6399,
      "vyro": 6400,
      "vyko": 6401,
      "vykou": 6402,
      "kopec": 6403,
      "##dete": 6404,
      "obu": 6405,
      "mila": 6406,
      "rosy": 6407,
      "odděl": 6408,
      "odvez": 6409,
      "přibli": 6410,
      "přestá": 6411,
      "přečet": 6412,
      "##rum": 6413,
      "##amarád": 6414,
      "Jeji": 6415,
      "čech": 6416,
      "čepi": 6417,
      "prý": 6418,
      "spě": 6419,
      "##čích": 6420,
      "##istr": 6421,
      "Tohle": 6422,
      "kouz": 6423,
      "Český": 6424,
      "Čechy": 6425,
      "Česke": 6426,
      "vznik": 6427,
      "vzhůru": 6428,
      "Nes": 6429,
      "líst": 6430,
      "dobrých": 6431,
      "životem": 6432,
      "mysli": 6433,
      "pracovala": 6434,
      "říkala": 6435,
      "domací": 6436,
      "##žilo": 6437,
      "ruské": 6438,
      "čert": 6439,
      "hodině": 6440,
      "Kana": 6441,
      "čaroděj": 6442,
      "##hledu": 6443,
      "sluneční": 6444,
      "medi": 6445,
      "##šelo": 6446,
      "nebyly": 6447,
      "jazyků": 6448,
      "téma": 6449,
      "chyby": 6450,
      "těžke": 6451,
      "stejnou": 6452,
      "velkého": 6453,
      "nesly": 6454,
      "veliký": 6455,
      "odpov": 6456,
      "nemocná": 6457,
      "Mamka": 6458,
      "povid": 6459,
      "otce": 6460,
      "mladá": 6461,
      "sednout": 6462,
      "znamena": 6463,
      "##bral": 6464,
      "zahradu": 6465,
      "rozumím": 6466,
      "květinami": 6467,
      "neuvě": 6468,
      "cíli": 6469,
      "císa": 6470,
      "sáma": 6471,
      "normalní": 6472,
      "lásku": 6473,
      "Stať": 6474,
      "Čau": 6475,
      "Tatinek": 6476,
      "děláš": 6477,
      "národů": 6478,
      "elektr": 6479,
      "koncert": 6480,
      "krátké": 6481,
      "důvodu": 6482,
      "zjistili": 6483,
      "řiká": 6484,
      "vybrala": 6485,
      "objevila": 6486,
      "rozuměl": 6487,
      "slouží": 6488,
      "bratrancem": 6489,
      "Voj": 6490,
      "##amatuju": 6491,
      "##enejší": 6492,
      "spisovatel": 6493,
      "##sledy": 6494,
      "##pagety": 6495,
      "znalosti": 6496,
      "zapomněl": 6497,
      "pozitivní": 6498,
      "Uzbekistánu": 6499,
      "Patri": 6500,
      "Kazach": 6501,
      "dvakrát": 6502,
      "Herodes": 6503,
      "zúčast": 6504,
      "Brat": 6505,
      "For": 6506,
      "HRA": 6507,
      "Ke": 6508,
      "Kalou": 6509,
      "Mnoho": 6510,
      "Obě": 6511,
      "Por": 6512,
      "Sna": 6513,
      "Val": 6514,
      "Vol": 6515,
      "Zim": 6516,
      "az": 6517,
      "bit": 6518,
      "dé": 6519,
      "dnu": 6520,
      "eko": 6521,
      "hád": 6522,
      "lit": 6523,
      "ozna": 6524,
      "pt": 6525,
      "pul": 6526,
      "vim": 6527,
      "vstav": 6528,
      "šť": 6529,
      "žel": 6530,
      "##nov": 6531,
      "##nuje": 6532,
      "##sol": 6533,
      "##tky": 6534,
      "##tne": 6535,
      "##zet": 6536,
      "##ač": 6537,
      "##oná": 6538,
      "##ium": 6539,
      "##ld": 6540,
      "##vni": 6541,
      "##šl": 6542,
      "##čany": 6543,
      "##AV": 6544,
      "nak": 6545,
      "nadá": 6546,
      "jej": 6547,
      "##ron": 6548,
      "pomě": 6549,
      "pojed": 6550,
      "##níků": 6551,
      "##atin": 6552,
      "toje": 6553,
      "##ráda": 6554,
      "##kosti": 6555,
      "##elka": 6556,
      "##kus": 6557,
      "##nie": 6558,
      "##niční": 6559,
      "takto": 6560,
      "stí": 6561,
      "střel": 6562,
      "zac": 6563,
      "zauj": 6564,
      "zabí": 6565,
      "chovat": 6566,
      "chová": 6567,
      "##těla": 6568,
      "##are": 6569,
      "##ádí": 6570,
      "svuj": 6571,
      "nejvy": 6572,
      "budí": 6573,
      "odmě": 6574,
      "tech": 6575,
      "nemam": 6576,
      "mámě": 6577,
      "##icích": 6578,
      "Popis": 6579,
      "Nahoře": 6580,
      "praze": 6581,
      "spím": 6582,
      "všední": 6583,
      "mana": 6584,
      "tanec": 6585,
      "těmi": 6586,
      "chodské": 6587,
      "výrob": 6588,
      "kouřit": 6589,
      "Nevě": 6590,
      "##ubec": 6591,
      "##rozum": 6592,
      "##pravy": 6593,
      "##pravit": 6594,
      "kucha": 6595,
      "cely": 6596,
      "##radši": 6597,
      "##spí": 6598,
      "nějakého": 6599,
      "kamarádku": 6600,
      "Největší": 6601,
      "hlavy": 6602,
      "léta": 6603,
      "boží": 6604,
      "sluch": 6605,
      "##ball": 6606,
      "kluka": 6607,
      "##enost": 6608,
      "špatná": 6609,
      "##hradu": 6610,
      "stejný": 6611,
      "##chyb": 6612,
      "dárku": 6613,
      "počítače": 6614,
      "atak": 6615,
      "univerzita": 6616,
      "vysoká": 6617,
      "dvěma": 6618,
      "napsala": 6619,
      "kultur": 6620,
      "ostatním": 6621,
      "Obvykle": 6622,
      "počasi": 6623,
      "Dobře": 6624,
      "zeptala": 6625,
      "Musí": 6626,
      "Musíme": 6627,
      "##atiky": 6628,
      "##kamy": 6629,
      "pěkný": 6630,
      "##klady": 6631,
      "podobná": 6632,
      "Tomášovy": 6633,
      "##fone": 6634,
      "Studovala": 6635,
      "změnit": 6636,
      "metro": 6637,
      "##NEC": 6638,
      "dřevo": 6639,
      "Jihla": 6640,
      "Ameriky": 6641,
      "turistů": 6642,
      "nerozum": 6643,
      "Viděl": 6644,
      "tramvají": 6645,
      "unavený": 6646,
      "svíč": 6647,
      "drogy": 6648,
      "seriál": 6649,
      "profe": 6650,
      "Anglie": 6651,
      "rakov": 6652,
      "zabít": 6653,
      "jeskyně": 6654,
      "cvičení": 6655,
      "důchodu": 6656,
      "Vlast": 6657,
      "sourozence": 6658,
      "Betléma": 6659,
      "##břeží": 6660,
      "##starší": 6661,
      "samozřej": 6662,
      "Smetan": 6663,
      "nejbližší": 6664,
      "sešity": 6665,
      "Dokonce": 6666,
      "Da": 6667,
      "EU": 6668,
      "Mex": 6669,
      "Nor": 6670,
      "Rad": 6671,
      "Sm": 6672,
      "Slo": 6673,
      "Sest": 6674,
      "Sluš": 6675,
      "VE": 6676,
      "Zam": 6677,
      "am": 6678,
      "blizko": 6679,
      "dy": 6680,
      "jé": 6681,
      "ošk": 6682,
      "tám": 6683,
      "zpo": 6684,
      "zvě": 6685,
      "zlý": 6686,
      "zved": 6687,
      "ŘEK": 6688,
      "Škol": 6689,
      "##meme": 6690,
      "##zím": 6691,
      "##zně": 6692,
      "##hnu": 6693,
      "##vin": 6694,
      "##cen": 6695,
      "##čá": 6696,
      "##ÁD": 6697,
      "##ňů": 6698,
      "##NU": 6699,
      "##SI": 6700,
      "##stej": 6701,
      "##enec": 6702,
      "##rag": 6703,
      "##raly": 6704,
      "neex": 6705,
      "##ráz": 6706,
      "##ničky": 6707,
      "zaznamená": 6708,
      "##vapilo": 6709,
      "vydá": 6710,
      "vydr": 6711,
      "vyrost": 6712,
      "##jíst": 6713,
      "##luji": 6714,
      "##der": 6715,
      "##dec": 6716,
      "##avé": 6717,
      "oblí": 6718,
      "jaká": 6719,
      "hodné": 6720,
      "##mis": 6721,
      "##mim": 6722,
      "horo": 6723,
      "holu": 6724,
      "přitom": 6725,
      "přikr": 6726,
      "Ješte": 6727,
      "domluv": 6728,
      "##více": 6729,
      "Počas": 6730,
      "Pořád": 6731,
      "prou": 6732,
      "dědou": 6733,
      "max": 6734,
      "příspě": 6735,
      "příjdu": 6736,
      "výro": 6737,
      "prázd": 6738,
      "##bali": 6739,
      "vzbud": 6740,
      "zežlout": 6741,
      "jiným": 6742,
      "předná": 6743,
      "začin": 6744,
      "##rice": 6745,
      "potřeba": 6746,
      "říkali": 6747,
      "##radou": 6748,
      "stoho": 6749,
      "skla": 6750,
      "počet": 6751,
      "Chce": 6752,
      "vanoce": 6753,
      "inform": 6754,
      "rytí": 6755,
      "častěji": 6756,
      "dneš": 6757,
      "box": 6758,
      "důle": 6759,
      "mluvila": 6760,
      "voní": 6761,
      "trené": 6762,
      "klub": 6763,
      "dovolena": 6764,
      "váš": 6765,
      "Vyprav": 6766,
      "státy": 6767,
      "států": 6768,
      "písem": 6769,
      "pořádně": 6770,
      "nadher": 6771,
      "rozhodně": 6772,
      "rady": 6773,
      "velikono": 6774,
      "odpoví": 6775,
      "světe": 6776,
      "##hání": 6777,
      "mladé": 6778,
      "draky": 6779,
      "panel": 6780,
      "strašid": 6781,
      "Mach": 6782,
      "hlasy": 6783,
      "jelikož": 6784,
      "žádnou": 6785,
      "hrál": 6786,
      "postavu": 6787,
      "postavy": 6788,
      "##ickým": 6789,
      "nezajím": 6790,
      "pláži": 6791,
      "SEM": 6792,
      "králové": 6793,
      "spokojená": 6794,
      "škodí": 6795,
      "kabát": 6796,
      "knížky": 6797,
      "Libí": 6798,
      "komunika": 6799,
      "nekdo": 6800,
      "Barbu": 6801,
      "prazdnin": 6802,
      "krok": 6803,
      "neviděla": 6804,
      "nejlepším": 6805,
      "Právě": 6806,
      "matematiku": 6807,
      "hledala": 6808,
      "Německu": 6809,
      "širo": 6810,
      "provoz": 6811,
      "pověst": 6812,
      "III": 6813,
      "funguje": 6814,
      "americké": 6815,
      "##cházeli": 6816,
      "kuřecí": 6817,
      "vzdál": 6818,
      "kofola": 6819,
      "bere": 6820,
      "sestřenice": 6821,
      "všichní": 6822,
      "Minulý": 6823,
      "zrc": 6824,
      "##lorbal": 6825,
      "zdravotní": 6826,
      "zmrzlinu": 6827,
      "facebooku": 6828,
      "Kohou": 6829,
      "Mnozí": 6830,
      "Facebook": 6831,
      "Pozdravuj": 6832,
      "brýle": 6833,
      "zežloutlo": 6834,
      "Bí": 6835,
      "Děla": 6836,
      "Ha": 6837,
      "Her": 6838,
      "Jel": 6839,
      "OB": 6840,
      "Rada": 6841,
      "Stej": 6842,
      "Znám": 6843,
      "bas": 6844,
      "bio": 6845,
      "bejt": 6846,
      "cy": 6847,
      "dží": 6848,
      "had": 6849,
      "klo": 6850,
      "kilo": 6851,
      "kino": 6852,
      "omy": 6853,
      "ohro": 6854,
      "tari": 6855,
      "ude": 6856,
      "vas": 6857,
      "vhod": 6858,
      "vrch": 6859,
      "zád": 6860,
      "zlí": 6861,
      "zcela": 6862,
      "účast": 6863,
      "ŠKO": 6864,
      "##nak": 6865,
      "##sad": 6866,
      "##zer": 6867,
      "##bat": 6868,
      "##gran": 6869,
      "##pý": 6870,
      "##prá": 6871,
      "##vily": 6872,
      "##žíme": 6873,
      "##žily": 6874,
      "##řin": 6875,
      "##řadí": 6876,
      "##číme": 6877,
      "##čkách": 6878,
      "##DĚ": 6879,
      "##RE": 6880,
      "##ďte": 6881,
      "##stan": 6882,
      "##ouště": 6883,
      "naz": 6884,
      "nahoře": 6885,
      "naoběd": 6886,
      "##lec": 6887,
      "##roda": 6888,
      "##roti": 6889,
      "nevi": 6890,
      "##odní": 6891,
      "progra": 6892,
      "##kují": 6893,
      "##nicí": 6894,
      "strat": 6895,
      "moř": 6896,
      "##těz": 6897,
      "##port": 6898,
      "kocou": 6899,
      "##božen": 6900,
      "obslu": 6901,
      "mim": 6902,
      "nejdu": 6903,
      "roste": 6904,
      "##ance": 6905,
      "hop": 6906,
      "připomněli": 6907,
      "přeji": 6908,
      "##ovani": 6909,
      "Postup": 6910,
      "čekal": 6911,
      "##káže": 6912,
      "děv": 6913,
      "kaši": 6914,
      "##ována": 6915,
      "##lém": 6916,
      "tajem": 6917,
      "rozh": 6918,
      "##vák": 6919,
      "věd": 6920,
      "vzít": 6921,
      "lety": 6922,
      "pomů": 6923,
      "jiní": 6924,
      "dávat": 6925,
      "dávají": 6926,
      "násled": 6927,
      "asist": 6928,
      "##spíš": 6929,
      "kamarádkami": 6930,
      "##rech": 6931,
      "smese": 6932,
      "stanice": 6933,
      "člověkem": 6934,
      "libilo": 6935,
      "bolí": 6936,
      "##zích": 6937,
      "Jaro": 6938,
      "duch": 6939,
      "duše": 6940,
      "piš": 6941,
      "nezná": 6942,
      "vice": 6943,
      "opu": 6944,
      "dělali": 6945,
      "novy": 6946,
      "zajímavých": 6947,
      "##paň": 6948,
      "stálo": 6949,
      "zdravím": 6950,
      "vlastnosti": 6951,
      "Evro": 6952,
      "procházet": 6953,
      "běžel": 6954,
      "##OVI": 6955,
      "Chodské": 6956,
      "Chodíme": 6957,
      "Líz": 6958,
      "června": 6959,
      "ulicích": 6960,
      "kamaradka": 6961,
      "Přesně": 6962,
      "manželku": 6963,
      "fun": 6964,
      "Pane": 6965,
      "dlouhou": 6966,
      "akce": 6967,
      "Muže": 6968,
      "stylu": 6969,
      "brány": 6970,
      "smutné": 6971,
      "smutný": 6972,
      "suk": 6973,
      "zavolala": 6974,
      "sílu": 6975,
      "letos": 6976,
      "tábor": 6977,
      "některých": 6978,
      "kurzu": 6979,
      "poznáš": 6980,
      "Romové": 6981,
      "hledali": 6982,
      "KONEC": 6983,
      "oblibené": 6984,
      "území": 6985,
      "taťkou": 6986,
      "drahý": 6987,
      "dokto": 6988,
      "srpnu": 6989,
      "zadarmo": 6990,
      "Drážďanech": 6991,
      "uvědom": 6992,
      "Itálii": 6993,
      "fyzi": 6994,
      "lázně": 6995,
      "okamžitě": 6996,
      "potřebují": 6997,
      "##jíždí": 6998,
      "kostela": 6999,
      "nezapomenu": 7000,
      "František": 7001,
      "učebnice": 7002,
      "Skoro": 7003,
      "akorát": 7004,
      "chtít": 7005,
      "dodnes": 7006,
      "Neptun": 7007,
      "Kubikula": 7008,
      "dohromady": 7009,
      "Kohoutek": 7010,
      "31": 7011,
      "Bý": 7012,
      "Bouf": 7013,
      "Cít": 7014,
      "Dá": 7015,
      "Dru": 7016,
      "Evu": 7017,
      "Fu": 7018,
      "Hrá": 7019,
      "Hol": 7020,
      "Ital": 7021,
      "Jde": 7022,
      "Me": 7023,
      "ME": 7024,
      "Prav": 7025,
      "Pes": 7026,
      "Roc": 7027,
      "Sej": 7028,
      "Vlevo": 7029,
      "Zví": 7030,
      "bom": 7031,
      "bre": 7032,
      "cho": 7033,
      "douf": 7034,
      "doufam": 7035,
      "et": 7036,
      "fou": 7037,
      "gr": 7038,
      "hip": 7039,
      "klad": 7040,
      "lze": 7041,
      "noví": 7042,
      "sak": 7043,
      "srov": 7044,
      "schod": 7045,
      "tvou": 7046,
      "the": 7047,
      "Řekl": 7048,
      "Šmou": 7049,
      "šam": 7050,
      "ŽE": 7051,
      "##nní": 7052,
      "##dar": 7053,
      "##mys": 7054,
      "##az": 7055,
      "##ař": 7056,
      "##rek": 7057,
      "##iz": 7058,
      "##per": 7059,
      "##vra": 7060,
      "##šíme": 7061,
      "##řů": 7062,
      "##BY": 7063,
      "##CEZ": 7064,
      "##stři": 7065,
      "##rana": 7066,
      "nab": 7067,
      "nazor": 7068,
      "sejít": 7069,
      "nekou": 7070,
      "nebe": 7071,
      "nebi": 7072,
      "podo": 7073,
      "poledne": 7074,
      "##odpově": 7075,
      "probí": 7076,
      "##jek": 7077,
      "char": 7078,
      "chteli": 7079,
      "vyhod": 7080,
      "kosti": 7081,
      "##voř": 7082,
      "##vota": 7083,
      "vej": 7084,
      "##avy": 7085,
      "mik": 7086,
      "##adla": 7087,
      "nejznám": 7088,
      "rohu": 7089,
      "##líp": 7090,
      "##lína": 7091,
      "hodní": 7092,
      "dobří": 7093,
      "host": 7094,
      "hoši": 7095,
      "##zela": 7096,
      "přeje": 7097,
      "##ruš": 7098,
      "domova": 7099,
      "Poh": 7100,
      "čeho": 7101,
      "češi": 7102,
      "čechy": 7103,
      "##ejte": 7104,
      "##ujte": 7105,
      "##mění": 7106,
      "prud": 7107,
      "prvé": 7108,
      "pršelo": 7109,
      "kaš": 7110,
      "maz": 7111,
      "hrali": 7112,
      "rozliš": 7113,
      "západ": 7114,
      "##isti": 7115,
      "výu": 7116,
      "##váte": 7117,
      "všechna": 7118,
      "víš": 7119,
      "mír": 7120,
      "místech": 7121,
      "notebo": 7122,
      "poslou": 7123,
      "poslala": 7124,
      "dobrého": 7125,
      "tyhle": 7126,
      "maly": 7127,
      "vlajku": 7128,
      "Chtela": 7129,
      "vanoční": 7130,
      "krásne": 7131,
      "##zaci": 7132,
      "Nejen": 7133,
      "Nejvíce": 7134,
      "kontak": 7135,
      "##eněj": 7136,
      "hlavním": 7137,
      "jezdim": 7138,
      "bojí": 7139,
      "volat": 7140,
      "mněli": 7141,
      "nebaví": 7142,
      "pišu": 7143,
      "Kofo": 7144,
      "kluz": 7145,
      "druhá": 7146,
      "##razil": 7147,
      "kamá": 7148,
      "miluje": 7149,
      "Marii": 7150,
      "snažím": 7151,
      "zdravými": 7152,
      "volném": 7153,
      "učili": 7154,
      "##stále": 7155,
      "teple": 7156,
      "skončilo": 7157,
      "rychlé": 7158,
      "nemocní": 7159,
      "povo": 7160,
      "zimní": 7161,
      "vypada": 7162,
      "tátou": 7163,
      "psat": 7164,
      "plátů": 7165,
      "Max": 7166,
      "jejích": 7167,
      "Milana": 7168,
      "umřel": 7169,
      "červené": 7170,
      "hradby": 7171,
      "Přesto": 7172,
      "Přeju": 7173,
      "uvidět": 7174,
      "čekám": 7175,
      "května": 7176,
      "##ckého": 7177,
      "milionu": 7178,
      "několikrát": 7179,
      "Oslav": 7180,
      "bráchou": 7181,
      "zato": 7182,
      "nejaké": 7183,
      "změnil": 7184,
      "snim": 7185,
      "studentů": 7186,
      "studentka": 7187,
      "sanit": 7188,
      "##soby": 7189,
      "turisty": 7190,
      "židli": 7191,
      "Hraju": 7192,
      "Nejdříve": 7193,
      "kámoš": 7194,
      "salám": 7195,
      "zeleninu": 7196,
      "Víd": 7197,
      "Vídeň": 7198,
      "Nechci": 7199,
      "listí": 7200,
      "zahraniční": 7201,
      "zábavy": 7202,
      "##strast": 7203,
      "blb": 7204,
      "zaplatit": 7205,
      "kdiš": 7206,
      "nerv": 7207,
      "lux": 7208,
      "oblasti": 7209,
      "výstavy": 7210,
      "##zniny": 7211,
      "pudeme": 7212,
      "článek": 7213,
      "absol": 7214,
      "bolest": 7215,
      "čestinu": 7216,
      "Země": 7217,
      "Itálie": 7218,
      "nebudou": 7219,
      "srdci": 7220,
      "Egyptě": 7221,
      "diskoteku": 7222,
      "Většinou": 7223,
      "šanci": 7224,
      "Vyšehrad": 7225,
      "řečeno": 7226,
      "poskytl": 7227,
      "potíže": 7228,
      "zapoměla": 7229,
      "Kore": 7230,
      "potreb": 7231,
      "úklid": 7232,
      "téměř": 7233,
      "Jejich": 7234,
      "02": 7235,
      "06": 7236,
      "Ar": 7237,
      "ALE": 7238,
      "BI": 7239,
      "JÍ": 7240,
      "Jdu": 7241,
      "Nek": 7242,
      "Naví": 7243,
      "Nyní": 7244,
      "TV": 7245,
      "Ven": 7246,
      "Zak": 7247,
      "há": 7248,
      "hal": 7249,
      "ju": 7250,
      "jid": 7251,
      "jemu": 7252,
      "lov": 7253,
      "pude": 7254,
      "píš": 7255,
      "rů": 7256,
      "tým": 7257,
      "tri": 7258,
      "val": 7259,
      "vstoup": 7260,
      "vino": 7261,
      "vubec": 7262,
      "zej": 7263,
      "zob": 7264,
      "ztem": 7265,
      "zvěd": 7266,
      "ženu": 7267,
      "##dl": 7268,
      "##ínek": 7269,
      "##sal": 7270,
      "##sim": 7271,
      "##tra": 7272,
      "##tily": 7273,
      "##zum": 7274,
      "##bší": 7275,
      "##rce": 7276,
      "##oru": 7277,
      "##áli": 7278,
      "##ána": 7279,
      "##vých": 7280,
      "##vnitř": 7281,
      "##OO": 7282,
      "##OR": 7283,
      "##čena": 7284,
      "##LÁ": 7285,
      "##NK": 7286,
      "##ovar": 7287,
      "naro": 7288,
      "nalevo": 7289,
      "jeteli": 7290,
      "##rok": 7291,
      "nesou": 7292,
      "dostav": 7293,
      "doprava": 7294,
      "posti": 7295,
      "##tely": 7296,
      "##kar": 7297,
      "##každ": 7298,
      "produ": 7299,
      "##nědlo": 7300,
      "##nily": 7301,
      "sti": 7302,
      "zažila": 7303,
      "chlé": 7304,
      "##vané": 7305,
      "vyšší": 7306,
      "##adlo": 7307,
      "nejstarší": 7308,
      "odva": 7309,
      "dobra": 7310,
      "techno": 7311,
      "přečtu": 7312,
      "mockrát": 7313,
      "název": 7314,
      "##ick": 7315,
      "lesí": 7316,
      "lidech": 7317,
      "Pojedu": 7318,
      "žijou": 7319,
      "pramen": 7320,
      "Pravo": 7321,
      "##dava": 7322,
      "##ován": 7323,
      "##ováni": 7324,
      "mate": 7325,
      "příde": 7326,
      "chodíš": 7327,
      "##šilo": 7328,
      "kouří": 7329,
      "věřit": 7330,
      "krále": 7331,
      "vzali": 7332,
      "vzděla": 7333,
      "vzadu": 7334,
      "vzpomen": 7335,
      "vzlét": 7336,
      "Nepo": 7337,
      "##čela": 7338,
      "hezkých": 7339,
      "##rii": 7340,
      "souse": 7341,
      "malých": 7342,
      "malého": 7343,
      "para": 7344,
      "paře": 7345,
      "divat": 7346,
      "2012": 7347,
      "##ověku": 7348,
      "vařím": 7349,
      "Kaž": 7350,
      "dlouhá": 7351,
      "rela": 7352,
      "jezdila": 7353,
      "def": 7354,
      "meč": 7355,
      "samot": 7356,
      "nevý": 7357,
      "vozy": 7358,
      "Jana": 7359,
      "možnosti": 7360,
      "světlé": 7361,
      "špatnou": 7362,
      "odpočin": 7363,
      "navzá": 7364,
      "popsat": 7365,
      "učitelkou": 7366,
      "vůně": 7367,
      "přátele": 7368,
      "##stánu": 7369,
      "##louchám": 7370,
      "krku": 7371,
      "Podě": 7372,
      "1891": 7373,
      "zimu": 7374,
      "mladí": 7375,
      "mladším": 7376,
      "Nemoh": 7377,
      "známky": 7378,
      "plný": 7379,
      "kulturní": 7380,
      "štěně": 7381,
      "měsíci": 7382,
      "bílá": 7383,
      "silnice": 7384,
      "plavu": 7385,
      "akci": 7386,
      "Brzy": 7387,
      "##tečné": 7388,
      "chvíly": 7389,
      "##logické": 7390,
      "Studium": 7391,
      "Joze": 7392,
      "spolužák": 7393,
      "skutečně": 7394,
      "cizině": 7395,
      "slyšel": 7396,
      "svatek": 7397,
      "skvělý": 7398,
      "chutné": 7399,
      "Levor": 7400,
      "prezidenta": 7401,
      "##vědčení": 7402,
      "národní": 7403,
      "supermark": 7404,
      "pujdeme": 7405,
      "obráz": 7406,
      "obrázky": 7407,
      "matematika": 7408,
      "bohatý": 7409,
      "##metrů": 7410,
      "angličtinu": 7411,
      "nemoci": 7412,
      "zaměstnání": 7413,
      "prostor": 7414,
      "kuchyně": 7415,
      "rozuměli": 7416,
      "delší": 7417,
      "barevné": 7418,
      "kohoutek": 7419,
      "Ježíš": 7420,
      "chránit": 7421,
      "povídáme": 7422,
      "komplex": 7423,
      "Interne": 7424,
      "naposledy": 7425,
      "nebudeme": 7426,
      "nedaleko": 7427,
      "soutěž": 7428,
      "chvilku": 7429,
      "Američ": 7430,
      "charakteristika": 7431,
      "zhnědlo": 7432,
      "zalíbilo": 7433,
      "vzdycky": 7434,
      "Léto": 7435,
      "průvodce": 7436,
      "respekt": 7437,
      "##lympi": 7438,
      "domácnosti": 7439,
      "břízy": 7440,
      "spotřebovali": 7441,
      "Spojené": 7442,
      "oddělení": 7443,
      "rytíř": 7444,
      "navzájem": 7445,
      "Levorova": 7446,
      "04": 7447,
      "3D": 7448,
      "35": 7449,
      "500": 7450,
      "Ačko": 7451,
      "DE": 7452,
      "Dlouho": 7453,
      "HOD": 7454,
      "JI": 7455,
      "JS": 7456,
      "Kr": 7457,
      "Koz": 7458,
      "Lo": 7459,
      "MA": 7460,
      "Mou": 7461,
      "Man": 7462,
      "NI": 7463,
      "Oprava": 7464,
      "Pur": 7465,
      "Sh": 7466,
      "Sly": 7467,
      "Tich": 7468,
      "Však": 7469,
      "aš": 7470,
      "bon": 7471,
      "blý": 7472,
      "deti": 7473,
      "florbal": 7474,
      "gym": 7475,
      "mes": 7476,
      "nor": 7477,
      "oří": 7478,
      "opat": 7479,
      "očim": 7480,
      "plu": 7481,
      "pyt": 7482,
      "tvé": 7483,
      "ulo": 7484,
      "uče": 7485,
      "víme": 7486,
      "zlat": 7487,
      "zkon": 7488,
      "zkla": 7489,
      "útery": 7490,
      "úsmě": 7491,
      "Čet": 7492,
      "čl": 7493,
      "žáci": 7494,
      "##ěě": 7495,
      "##ělo": 7496,
      "##kři": 7497,
      "##tt": 7498,
      "##tve": 7499,
      "##eka": 7500,
      "##au": 7501,
      "##ilej": 7502,
      "##žná": 7503,
      "##cent": 7504,
      "##DI": 7505,
      "##ft": 7506,
      "##RI": 7507,
      "##CO": 7508,
      "##11": 7509,
      "##las": 7510,
      "##chle": 7511,
      "##chat": 7512,
      "##ovník": 7513,
      "##ledu": 7514,
      "##leta": 7515,
      "porod": 7516,
      "bytostí": 7517,
      "prožil": 7518,
      "##áma": 7519,
      "##nis": 7520,
      "##nické": 7521,
      "zapo": 7522,
      "##itím": 7523,
      "##nora": 7524,
      "##řive": 7525,
      "vydali": 7526,
      "vyčist": 7527,
      "##art": 7528,
      "korop": 7529,
      "##volá": 7530,
      "vever": 7531,
      "něčem": 7532,
      "obsah": 7533,
      "misto": 7534,
      "svát": 7535,
      "budov": 7536,
      "##děly": 7537,
      "odjel": 7538,
      "hoře": 7539,
      "##lova": 7540,
      "připad": 7541,
      "přibuz": 7542,
      "přeju": 7543,
      "Jela": 7544,
      "##iči": 7545,
      "návr": 7546,
      "náhodou": 7547,
      "nářadí": 7548,
      "jedná": 7549,
      "##imo": 7550,
      "Pom": 7551,
      "##lání": 7552,
      "Naštěstí": 7553,
      "##tul": 7554,
      "těšim": 7555,
      "chodi": 7556,
      "chodily": 7557,
      "Takový": 7558,
      "výkon": 7559,
      "koukam": 7560,
      "víte": 7561,
      "##álních": 7562,
      "Nedá": 7563,
      "kulat": 7564,
      "líbil": 7565,
      "líbý": 7566,
      "líbit": 7567,
      "zeď": 7568,
      "posil": 7569,
      "semi": 7570,
      "##zite": 7571,
      "dětský": 7572,
      "pozů": 7573,
      "pozvat": 7574,
      "poznala": 7575,
      "soustrast": 7576,
      "potká": 7577,
      "potkali": 7578,
      "divali": 7579,
      "divám": 7580,
      "díval": 7581,
      "knize": 7582,
      "Kate": 7583,
      "konku": 7584,
      "##pela": 7585,
      "kraji": 7586,
      "bydlení": 7587,
      "##cházet": 7588,
      "sluneč": 7589,
      "devět": 7590,
      "media": 7591,
      "různými": 7592,
      "volal": 7593,
      "učiteli": 7594,
      "mněla": 7595,
      "piju": 7596,
      "partne": 7597,
      "Konec": 7598,
      "slovy": 7599,
      "větvi": 7600,
      "chyba": 7601,
      "chybu": 7602,
      "přesol": 7603,
      "přeskočil": 7604,
      "pouště": 7605,
      "učim": 7606,
      "ukraj": 7607,
      "Připrav": 7608,
      "plan": 7609,
      "historických": 7610,
      "##kev": 7611,
      "Horymí": 7612,
      "povod": 7613,
      "posloucham": 7614,
      "poslouchali": 7615,
      "sedět": 7616,
      "##ustil": 7617,
      "Chodové": 7618,
      "strašidel": 7619,
      "psala": 7620,
      "školství": 7621,
      "bílou": 7622,
      "Prince": 7623,
      "hrála": 7624,
      "stavby": 7625,
      "##drž": 7626,
      "silný": 7627,
      "zvlád": 7628,
      "slavné": 7629,
      "pěkná": 7630,
      "fotek": 7631,
      "kapsy": 7632,
      "písmen": 7633,
      "spolužáci": 7634,
      "prohlíd": 7635,
      "zachra": 7636,
      "DOB": 7637,
      "Vzpomí": 7638,
      "místnosti": 7639,
      "přátelský": 7640,
      "jasně": 7641,
      "mluvi": 7642,
      "herec": 7643,
      "způsobem": 7644,
      "zvykla": 7645,
      "Víc": 7646,
      "##čané": 7647,
      "chatě": 7648,
      "tramva": 7649,
      "Rose": 7650,
      "šikov": 7651,
      "vztahy": 7652,
      "Malá": 7653,
      "pravidelně": 7654,
      "nádherné": 7655,
      "kouzelnou": 7656,
      "omlou": 7657,
      "sociální": 7658,
      "odpočívat": 7659,
      "kofolu": 7660,
      "komplik": 7661,
      "obrovský": 7662,
      "vikend": 7663,
      "bordel": 7664,
      "sledu": 7665,
      "pravopisných": 7666,
      "souhlasím": 7667,
      "Japonsku": 7668,
      "automob": 7669,
      "diplomce": 7670,
      "smích": 7671,
      "nekolik": 7672,
      "pyl": 7673,
      "nebezpečné": 7674,
      "Polsku": 7675,
      "Marián": 7676,
      "novější": 7677,
      "sázel": 7678,
      "neuděla": 7679,
      "ovládání": 7680,
      "jarní": 7681,
      "treba": 7682,
      "humanitní": 7683,
      "hranolky": 7684,
      "Ovšem": 7685,
      "největším": 7686,
      "plechových": 7687,
      "nerozumně": 7688,
      "Pravopis": 7689,
      "očima": 7690,
      "koroptve": 7691,
      "38": 7692,
      "Eli": 7693,
      "Kat": 7694,
      "LÉ": 7695,
      "Mich": 7696,
      "Nas": 7697,
      "Om": 7698,
      "Rok": 7699,
      "Ste": 7700,
      "Slu": 7701,
      "Set": 7702,
      "Svět": 7703,
      "Tvá": 7704,
      "Vpravo": 7705,
      "Zdá": 7706,
      "ZOO": 7707,
      "bro": 7708,
      "fol": 7709,
      "jíme": 7710,
      "kov": 7711,
      "kas": 7712,
      "kté": 7713,
      "mra": 7714,
      "pel": 7715,
      "tal": 7716,
      "ter": 7717,
      "ták": 7718,
      "uvo": 7719,
      "udela": 7720,
      "von": 7721,
      "včet": 7722,
      "zní": 7723,
      "zbí": 7724,
      "zdi": 7725,
      "špagety": 7726,
      "##nský": 7727,
      "##dil": 7728,
      "##ínka": 7729,
      "##sce": 7730,
      "##sila": 7731,
      "##eš": 7732,
      "##mat": 7733,
      "##mit": 7734,
      "##mít": 7735,
      "##aa": 7736,
      "##rus": 7737,
      "##oro": 7738,
      "##huje": 7739,
      "##áků": 7740,
      "##pka": 7741,
      "##podob": 7742,
      "##OL": 7743,
      "##řata": 7744,
      "##čk": 7745,
      "##činky": 7746,
      "##ózní": 7747,
      "##stou": 7748,
      "##enty": 7749,
      "##rada": 7750,
      "naho": 7751,
      "sex": 7752,
      "jeste": 7753,
      "##lely": 7754,
      "##liky": 7755,
      "nešlo": 7756,
      "doku": 7757,
      "poho": 7758,
      "##níka": 7759,
      "##níku": 7760,
      "bysme": 7761,
      "prot": 7762,
      "proz": 7763,
      "##jezdu": 7764,
      "stre": 7765,
      "##lomou": 7766,
      "chaty": 7767,
      "##ski": 7768,
      "vytr": 7769,
      "vybud": 7770,
      "kol": 7771,
      "kome": 7772,
      "##deček": 7773,
      "##etrov": 7774,
      "obed": 7775,
      "sval": 7776,
      "nejhor": 7777,
      "hodim": 7778,
      "odsou": 7779,
      "teto": 7780,
      "hotel": 7781,
      "přiští": 7782,
      "##ica": 7783,
      "Pomá": 7784,
      "školou": 7785,
      "kamarat": 7786,
      "##inace": 7787,
      "kašt": 7788,
      "mala": 7789,
      "tahle": 7790,
      "tajemně": 7791,
      "##kými": 7792,
      "zároveň": 7793,
      "těšila": 7794,
      "##tiku": 7795,
      "##telně": 7796,
      "prác": 7797,
      "práva": 7798,
      "kousek": 7799,
      "vězení": 7800,
      "##ubilej": 7801,
      "bali": 7802,
      "kuli": 7803,
      "míň": 7804,
      "poslal": 7805,
      "dival": 7806,
      "vlašt": 7807,
      "dostanou": 7808,
      "nějaky": 7809,
      "spoluby": 7810,
      "Kaf": 7811,
      "končit": 7812,
      "liška": 7813,
      "všemu": 7814,
      "mnohokrát": 7815,
      "nevz": 7816,
      "Tehdy": 7817,
      "vona": 7818,
      "dělaj": 7819,
      "větve": 7820,
      "Jedno": 7821,
      "učitelku": 7822,
      "Kdyz": 7823,
      "police": 7824,
      "polibek": 7825,
      "zdravě": 7826,
      "řešení": 7827,
      "##ropetrov": 7828,
      "půjde": 7829,
      "155": 7830,
      "rači": 7831,
      "restaurací": 7832,
      "památ": 7833,
      "poslouchá": 7834,
      "drak": 7835,
      "obchody": 7836,
      "obchodů": 7837,
      "známá": 7838,
      "tance": 7839,
      "setka": 7840,
      "veselými": 7841,
      "žádná": 7842,
      "miliony": 7843,
      "neustále": 7844,
      "##okrat": 7845,
      "akti": 7846,
      "Mužu": 7847,
      "fale": 7848,
      "##tečný": 7849,
      "trag": 7850,
      "podobně": 7851,
      "podobný": 7852,
      "##sedli": 7853,
      "Karlově": 7854,
      "log": 7855,
      "normálně": 7856,
      "mužete": 7857,
      "královně": 7858,
      "pohádku": 7859,
      "##logii": 7860,
      "Vaclav": 7861,
      "suš": 7862,
      "##TEL": 7863,
      "zpěvačka": 7864,
      "Tatry": 7865,
      "ciziny": 7866,
      "Jmenuji": 7867,
      "nasní": 7868,
      "tvoří": 7869,
      "zavř": 7870,
      "vratil": 7871,
      "budoucna": 7872,
      "##vedl": 7873,
      "vojen": 7874,
      "vojáky": 7875,
      "poprve": 7876,
      "obrázku": 7877,
      "Červ": 7878,
      "neznámí": 7879,
      "dědečka": 7880,
      "zeleniny": 7881,
      "zelenina": 7882,
      "nenech": 7883,
      "padá": 7884,
      "kalen": 7885,
      "lyžovat": 7886,
      "nelíbilo": 7887,
      "ohně": 7888,
      "jednoduché": 7889,
      "ptáci": 7890,
      "týdny": 7891,
      "lavičce": 7892,
      "psycho": 7893,
      "##sáhle": 7894,
      "legrační": 7895,
      "poradit": 7896,
      "Afriky": 7897,
      "##desát": 7898,
      "gramatiku": 7899,
      "vstávat": 7900,
      "událost": 7901,
      "vyjad": 7902,
      "křeslo": 7903,
      "přinesl": 7904,
      "Zdraví": 7905,
      "Rychle": 7906,
      "hrdin": 7907,
      "fanta": 7908,
      "Vietnam": 7909,
      "okamži": 7910,
      "##něpru": 7911,
      "##něpropetrov": 7912,
      "Silvestra": 7913,
      "prohlédnout": 7914,
      "Slovensko": 7915,
      "podařilo": 7916,
      "Andre": 7917,
      "podnikatel": 7918,
      "Jonatán": 7919,
      "Svátky": 7920,
      "pobytu": 7921,
      "terorist": 7922,
      "profesor": 7923,
      "Film": 7924,
      "Oběd": 7925,
      "označ": 7926,
      "kuchař": 7927,
      "profesi": 7928,
      "přikrčili": 7929,
      "tarif": 7930,
      "Navíc": 7931,
      "Purkyně": 7932,
      "09": 7933,
      "BA": 7934,
      "Bla": 7935,
      "Ed": 7936,
      "Hu": 7937,
      "Mami": 7938,
      "OS": 7939,
      "Ota": 7940,
      "Ostat": 7941,
      "Pé": 7942,
      "Pla": 7943,
      "Pátek": 7944,
      "Ry": 7945,
      "Sim": 7946,
      "Svou": 7947,
      "TE": 7948,
      "Vpředu": 7949,
      "bran": 7950,
      "hm": 7951,
      "ham": 7952,
      "krav": 7953,
      "klik": 7954,
      "kříž": 7955,
      "pep": 7956,
      "pstru": 7957,
      "sne": 7958,
      "tová": 7959,
      "tvar": 7960,
      "ucha": 7961,
      "vit": 7962,
      "vnitř": 7963,
      "zk": 7964,
      "zbud": 7965,
      "úlo": 7966,
      "##íny": 7967,
      "##sní": 7968,
      "##svít": 7969,
      "##zni": 7970,
      "##znu": 7971,
      "##zoval": 7972,
      "##aš": 7973,
      "##ady": 7974,
      "##gr": 7975,
      "##gani": 7976,
      "##hně": 7977,
      "##ávat": 7978,
      "##vim": 7979,
      "##UP": 7980,
      "##car": 7981,
      "##JÍ": 7982,
      "##VA": 7983,
      "##stov": 7984,
      "##stvi": 7985,
      "##ovně": 7986,
      "##raná": 7987,
      "##rami": 7988,
      "##ler": 7989,
      "##rot": 7990,
      "dota": 7991,
      "pobav": 7992,
      "poříd": 7993,
      "##teři": 7994,
      "propad": 7995,
      "##nět": 7996,
      "##něnka": 7997,
      "takoví": 7998,
      "zavod": 7999,
      "##lostí": 8000,
      "##itali": 8001,
      "chra": 8002,
      "##nete": 8003,
      "##idu": 8004,
      "##bych": 8005,
      "##byli": 8006,
      "vytá": 8007,
      "##luví": 8008,
      "##dečně": 8009,
      "obsa": 8010,
      "obklo": 8011,
      "nejza": 8012,
      "roků": 8013,
      "##usy": 8014,
      "odstěh": 8015,
      "##nácti": 8016,
      "##asy": 8017,
      "přip": 8018,
      "přiběh": 8019,
      "náhle": 8020,
      "nález": 8021,
      "nábytek": 8022,
      "nábožen": 8023,
      "velko": 8024,
      "lepe": 8025,
      "Poprvé": 8026,
      "čekali": 8027,
      "školách": 8028,
      "Mojí": 8029,
      "spa": 8030,
      "##obec": 8031,
      "abyste": 8032,
      "hral": 8033,
      "hradě": 8034,
      "zákon": 8035,
      "muslim": 8036,
      "##čivo": 8037,
      "##vál": 8038,
      "vzor": 8039,
      "hezčí": 8040,
      "míč": 8041,
      "autě": 8042,
      "poznal": 8043,
      "kdysi": 8044,
      "##bice": 8045,
      "skoly": 8046,
      "potkala": 8047,
      "dívali": 8048,
      "dívala": 8049,
      "dívky": 8050,
      "cestuje": 8051,
      "Chtel": 8052,
      "osud": 8053,
      "kamarádama": 8054,
      "kamarádům": 8055,
      "##uper": 8056,
      "čerti": 8057,
      "krásných": 8058,
      "indi": 8059,
      "způ": 8060,
      "strana": 8061,
      "kralov": 8062,
      "čast": 8063,
      "autor": 8064,
      "reg": 8065,
      "důležite": 8066,
      "zajímalo": 8067,
      "mela": 8068,
      "bavi": 8069,
      "ticho": 8070,
      "##chazí": 8071,
      "Jack": 8072,
      "nejlepších": 8073,
      "tatin": 8074,
      "Dopis": 8075,
      "budoucí": 8076,
      "dělam": 8077,
      "novinky": 8078,
      "navšte": 8079,
      "kameny": 8080,
      "stává": 8081,
      "sms": 8082,
      "baru": 8083,
      "Přijela": 8084,
      "##pire": 8085,
      "kriti": 8086,
      "dají": 8087,
      "matur": 8088,
      "##ména": 8089,
      "obědě": 8090,
      "##OVÁ": 8091,
      "známých": 8092,
      "důležitý": 8093,
      "telefonu": 8094,
      "Přes": 8095,
      "Francii": 8096,
      "JELI": 8097,
      "odešel": 8098,
      "cíle": 8099,
      "mnoh": 8100,
      "hledám": 8101,
      "hledal": 8102,
      "představení": 8103,
      "Něm": 8104,
      "Nějak": 8105,
      "zvířátka": 8106,
      "Brno": 8107,
      "trap": 8108,
      "všemi": 8109,
      "lož": 8110,
      "Jenže": 8111,
      "zločin": 8112,
      "chlapce": 8113,
      "obliče": 8114,
      "Čechů": 8115,
      "tatínka": 8116,
      "bývá": 8117,
      "zaslou": 8118,
      "možností": 8119,
      "najdu": 8120,
      "ruštinu": 8121,
      "čápi": 8122,
      "nevěděla": 8123,
      "chytrá": 8124,
      "zbytečně": 8125,
      "medvěd": 8126,
      "četné": 8127,
      "vratila": 8128,
      "Představ": 8129,
      "zahrát": 8130,
      "přátelství": 8131,
      "pomohli": 8132,
      "tancovali": 8133,
      "šťastná": 8134,
      "výborné": 8135,
      "vojáci": 8136,
      "pozorovali": 8137,
      "srand": 8138,
      "perfek": 8139,
      "způsobil": 8140,
      "##INCEZ": 8141,
      "minim": 8142,
      "tráva": 8143,
      "oblékat": 8144,
      "zkušeností": 8145,
      "##išu": 8146,
      "literatura": 8147,
      "svíčky": 8148,
      "pilně": 8149,
      "zamilovala": 8150,
      "##fici": 8151,
      "##fier": 8152,
      "nestud": 8153,
      "spraved": 8154,
      "červenci": 8155,
      "lodi": 8156,
      "dospělí": 8157,
      "dospělá": 8158,
      "pracovit": 8159,
      "body": 8160,
      "smažený": 8161,
      "tmavé": 8162,
      "události": 8163,
      "chladno": 8164,
      "facebook": 8165,
      "navštivit": 8166,
      "##xxxxxxxxxxxxxxxx": 8167,
      "Kateřina": 8168,
      "##XXXXXXXX": 8169,
      "Vysoké": 8170,
      "bramborov": 8171,
      "klíč": 8172,
      "motýly": 8173,
      "medvědi": 8174,
      "jezera": 8175,
      "pejsek": 8176,
      "strýc": 8177,
      "Babiš": 8178,
      "třpytily": 8179,
      "zákony": 8180,
      "Saxana": 8181,
      "Irska": 8182,
      "Šebestová": 8183,
      "KDYŽ": 8184,
      "Téma": 8185,
      "Ferd": 8186,
      "##razilo": 8187,
      "vesele": 8188,
      "inteligent": 8189,
      "pecka": 8190,
      "obuvi": 8191,
      "neuvěři": 8192,
      "Evropa": 8193,
      "Bouffier": 8194,
      "gril": 8195,
      "Nedávno": 8196,
      "03": 8197,
      "45": 8198,
      "90": 8199,
      "Ang": 8200,
      "Dál": 8201,
      "HA": 8202,
      "Jar": 8203,
      "Lá": 8204,
      "Láz": 8205,
      "Pl": 8206,
      "Pov": 8207,
      "Past": 8208,
      "PRA": 8209,
      "Píšu": 8210,
      "Přá": 8211,
      "Si": 8212,
      "Super": 8213,
      "Vů": 8214,
      "Víš": 8215,
      "balí": 8216,
      "beru": 8217,
      "det": 8218,
      "graf": 8219,
      "kit": 8220,
      "nohu": 8221,
      "pé": 8222,
      "pád": 8223,
      "pru": 8224,
      "pala": 8225,
      "plej": 8226,
      "san": 8227,
      "sraz": 8228,
      "tis": 8229,
      "titu": 8230,
      "ume": 8231,
      "uděl": 8232,
      "vst": 8233,
      "vin": 8234,
      "vtom": 8235,
      "vším": 8236,
      "zčer": 8237,
      "zkam": 8238,
      "Čas": 8239,
      "##nalo": 8240,
      "##naly": 8241,
      "##kát": 8242,
      "##uz": 8243,
      "##tně": 8244,
      "##tře": 8245,
      "##mal": 8246,
      "##zt": 8247,
      "##zká": 8248,
      "##zují": 8249,
      "##bít": 8250,
      "##rest": 8251,
      "##oprav": 8252,
      "##hned": 8253,
      "##vým": 8254,
      "##ženo": 8255,
      "##škách": 8256,
      "##jíme": 8257,
      "##jdou": 8258,
      "##čen": 8259,
      "##LÍ": 8260,
      "##ňte": 8261,
      "##ňost": 8262,
      "##fika": 8263,
      "##II": 8264,
      "##MU": 8265,
      "##JI": 8266,
      "##ďar": 8267,
      "##land": 8268,
      "##ence": 8269,
      "##ous": 8270,
      "##chal": 8271,
      "##ovej": 8272,
      "naštěstí": 8273,
      "nahlas": 8274,
      "sever": 8275,
      "jesli": 8276,
      "##livě": 8277,
      "nerad": 8278,
      "posta": 8279,
      "##amě": 8280,
      "##ráme": 8281,
      "##ránu": 8282,
      "takových": 8283,
      "morav": 8284,
      "moment": 8285,
      "chvili": 8286,
      "##vací": 8287,
      "##ident": 8288,
      "##volu": 8289,
      "##deř": 8290,
      "##ere": 8291,
      "##eri": 8292,
      "obět": 8293,
      "mista": 8294,
      "nejlíp": 8295,
      "roh": 8296,
      "odkaz": 8297,
      "teor": 8298,
      "přestat": 8299,
      "moct": 8300,
      "jedou": 8301,
      "jedny": 8302,
      "cokoliv": 8303,
      "Poté": 8304,
      "čekala": 8305,
      "##štině": 8306,
      "žiji": 8307,
      "Narod": 8308,
      "Mohla": 8309,
      "pršet": 8310,
      "##nuli": 8311,
      "prach": 8312,
      "kate": 8313,
      "##daj": 8314,
      "male": 8315,
      "hračky": 8316,
      "hrajou": 8317,
      "těší": 8318,
      "těles": 8319,
      "##tik": 8320,
      "musime": 8321,
      "výt": 8322,
      "výsled": 8323,
      "výběr": 8324,
      "##dilo": 8325,
      "Čechach": 8326,
      "věž": 8327,
      "věděla": 8328,
      "vzni": 8329,
      "vzty": 8330,
      "##olf": 8331,
      "##haj": 8332,
      "líbila": 8333,
      "##zici": 8334,
      "začnu": 8335,
      "pozna": 8336,
      "Jakub": 8337,
      "pali": 8338,
      "patek": 8339,
      "pastu": 8340,
      "pastý": 8341,
      "divo": 8342,
      "mysleli": 8343,
      "říci": 8344,
      "cestují": 8345,
      "zdroj": 8346,
      "skl": 8347,
      "skři": 8348,
      "oslava": 8349,
      "ruka": 8350,
      "hodinách": 8351,
      "##resi": 8352,
      "##dář": 8353,
      "liší": 8354,
      "Stře": 8355,
      "vysvědčení": 8356,
      "bavilo": 8357,
      "různe": 8358,
      "Tedy": 8359,
      "##statky": 8360,
      "cibu": 8361,
      "parkovi": 8362,
      "tatinka": 8363,
      "Dostal": 8364,
      "Kobyla": 8365,
      "vodop": 8366,
      "troj": 8367,
      "sestře": 8368,
      "stroj": 8369,
      "navr": 8370,
      "snažila": 8371,
      "přesvěd": 8372,
      "stejne": 8373,
      "řece": 8374,
      "týká": 8375,
      "194": 8376,
      "učil": 8377,
      "ukli": 8378,
      "plane": 8379,
      "plamen": 8380,
      "veliká": 8381,
      "patřili": 8382,
      "patřily": 8383,
      "##lejte": 8384,
      "známé": 8385,
      "plod": 8386,
      "Oblečení": 8387,
      "setkala": 8388,
      "##rgy": 8389,
      "zaklad": 8390,
      "silvest": 8391,
      "##ickými": 8392,
      "milió": 8393,
      "zvlad": 8394,
      "slavit": 8395,
      "##pomněl": 8396,
      "aktu": 8397,
      "##hledanou": 8398,
      "Britá": 8399,
      "Muze": 8400,
      "Mužeme": 8401,
      "Karlových": 8402,
      "chlapcích": 8403,
      "nejaky": 8404,
      "hrozné": 8405,
      "##nikovat": 8406,
      "maminky": 8407,
      "snima": 8408,
      "břeh": 8409,
      "března": 8410,
      "Libi": 8411,
      "vratit": 8412,
      "slohová": 8413,
      "##řemi": 8414,
      "Začala": 8415,
      "knihovně": 8416,
      "cukr": 8417,
      "neviděl": 8418,
      "polevka": 8419,
      "polevku": 8420,
      "reklamu": 8421,
      "reklamy": 8422,
      "demokrat": 8423,
      "Moskvy": 8424,
      "pamatky": 8425,
      "bruslí": 8426,
      "zvláště": 8427,
      "vezmu": 8428,
      "potravin": 8429,
      "dvoj": 8430,
      "Diky": 8431,
      "zámku": 8432,
      "##slední": 8433,
      "křik": 8434,
      "válce": 8435,
      "války": 8436,
      "dopl": 8437,
      "Malý": 8438,
      "strejdou": 8439,
      "vláda": 8440,
      "zajimavé": 8441,
      "kytky": 8442,
      "stez": 8443,
      "žívot": 8444,
      "pomáhal": 8445,
      "vzpomínali": 8446,
      "##cházela": 8447,
      "vyzkou": 8448,
      "seznámit": 8449,
      "vyjád": 8450,
      "apod": 8451,
      "hlubo": 8452,
      "berou": 8453,
      "mláde": 8454,
      "opalovat": 8455,
      "Bohdan": 8456,
      "rusky": 8457,
      "sympatický": 8458,
      "fyz": 8459,
      "nechápu": 8460,
      "arm": 8461,
      "lázní": 8462,
      "košík": 8463,
      "Většina": 8464,
      "vyprávě": 8465,
      "kazdý": 8466,
      "prodlou": 8467,
      "Staroměstské": 8468,
      "Seznám": 8469,
      "umožňuje": 8470,
      "rostliny": 8471,
      "Francouz": 8472,
      "guláš": 8473,
      "nelze": 8474,
      "jednotliv": 8475,
      "##odenní": 8476,
      "Fazo": 8477,
      "neznamená": 8478,
      "přibližně": 8479,
      "opuště": 8480,
      "Sejdeme": 8481,
      "absolv": 8482,
      "##NKOVA": 8483,
      "Jozef": 8484,
      "LÉTO": 8485,
      "včetně": 8486,
      "JELINKOVA": 8487,
      "perfektní": 8488,
      "Ferdinan": 8489,
      "300": 8490,
      "Au": 8491,
      "At": 8492,
      "Ben": 8493,
      "Bil": 8494,
      "Bůh": 8495,
      "Chor": 8496,
      "Dět": 8497,
      "Fak": 8498,
      "Gab": 8499,
      "Hled": 8500,
      "Just": 8501,
      "Kom": 8502,
      "Mer": 8503,
      "Mez": 8504,
      "Osob": 8505,
      "Otec": 8506,
      "Olomou": 8507,
      "STA": 8508,
      "Vez": 8509,
      "Vstá": 8510,
      "ble": 8511,
      "bát": 8512,
      "bili": 8513,
      "dlu": 8514,
      "dáme": 8515,
      "hav": 8516,
      "ihned": 8517,
      "jě": 8518,
      "lva": 8519,
      "mem": 8520,
      "mrz": 8521,
      "nudu": 8522,
      "oran": 8523,
      "pila": 8524,
      "pěst": 8525,
      "rí": 8526,
      "rek": 8527,
      "sná": 8528,
      "uví": 8529,
      "vrtu": 8530,
      "zřejmě": 8531,
      "úkoli": 8532,
      "řep": 8533,
      "Šp": 8534,
      "špí": 8535,
      "žol": 8536,
      "##dů": 8537,
      "##kě": 8538,
      "##krat": 8539,
      "##tám": 8540,
      "##bet": 8541,
      "##gh": 8542,
      "##okra": 8543,
      "##hlav": 8544,
      "##hnul": 8545,
      "##álu": 8546,
      "##ici": 8547,
      "##pé": 8548,
      "##ES": 8549,
      "##žovali": 8550,
      "##šen": 8551,
      "##řát": 8552,
      "##řená": 8553,
      "##řství": 8554,
      "##čuje": 8555,
      "##ůraz": 8556,
      "##ňi": 8557,
      "##fle": 8558,
      "##fie": 8559,
      "##TI": 8560,
      "##HA": 8561,
      "##lanec": 8562,
      "##ovkou": 8563,
      "nakr": 8564,
      "seh": 8565,
      "jely": 8566,
      "##ling": 8567,
      "nepat": 8568,
      "došli": 8569,
      "poně": 8570,
      "pono": 8571,
      "##tože": 8572,
      "##kach": 8573,
      "proha": 8574,
      "proste": 8575,
      "prodej": 8576,
      "##ími": 8577,
      "##něn": 8578,
      "##rác": 8579,
      "##ráti": 8580,
      "##cest": 8581,
      "##elu": 8582,
      "chá": 8583,
      "chov": 8584,
      "##řilost": 8585,
      "##nact": 8586,
      "##ardy": 8587,
      "##ádě": 8588,
      "koři": 8589,
      "komen": 8590,
      "komí": 8591,
      "##adit": 8592,
      "nejra": 8593,
      "nejroz": 8594,
      "nejradši": 8595,
      "nejspíš": 8596,
      "hodna": 8597,
      "odjela": 8598,
      "##lová": 8599,
      "přiklad": 8600,
      "přez": 8601,
      "nemohu": 8602,
      "neboť": 8603,
      "Poli": 8604,
      "česku": 8605,
      "##ejší": 8606,
      "##stavala": 8607,
      "pred": 8608,
      "prachy": 8609,
      "sprá": 8610,
      "kavar": 8611,
      "##isem": 8612,
      "sporty": 8613,
      "abys": 8614,
      "příš": 8615,
      "taneční": 8616,
      "rozk": 8617,
      "rozvoj": 8618,
      "závě": 8619,
      "živote": 8620,
      "##telný": 8621,
      "##čite": 8622,
      "koukal": 8623,
      "New": 8624,
      "bažanti": 8625,
      "##pravu": 8626,
      "napravo": 8627,
      "líde": 8628,
      "##vec": 8629,
      "dobrovol": 8630,
      "jinými": 8631,
      "přednost": 8632,
      "dáva": 8633,
      "##rika": 8634,
      "##rista": 8635,
      "##bur": 8636,
      "součá": 8637,
      "malování": 8638,
      "pracovali": 8639,
      "dív": 8640,
      "dívá": 8641,
      "říkat": 8642,
      "říkám": 8643,
      "##patky": 8644,
      "stolní": 8645,
      "cestovala": 8646,
      "zemská": 8647,
      "koupim": 8648,
      "koupili": 8649,
      "##myšl": 8650,
      "nechut": 8651,
      "mohly": 8652,
      "jmenem": 8653,
      "nepou": 8654,
      "vždyť": 8655,
      "##běhy": 8656,
      "dovnitř": 8657,
      "tip": 8658,
      "##chodem": 8659,
      "jazykem": 8660,
      "trvalo": 8661,
      "tričko": 8662,
      "ciká": 8663,
      "pravdě": 8664,
      "pije": 8665,
      "druhým": 8666,
      "též": 8667,
      "##táček": 8668,
      "slovan": 8669,
      "##rozeniny": 8670,
      "sokoly": 8671,
      "zajímavého": 8672,
      "těžky": 8673,
      "prvního": 8674,
      "##pady": 8675,
      "smlou": 8676,
      "##vést": 8677,
      "volného": 8678,
      "přála": 8679,
      "##učil": 8680,
      "ukrývá": 8681,
      "uspo": 8682,
      "##hlasím": 8683,
      "modrá": 8684,
      "patře": 8685,
      "patnáct": 8686,
      "##háněli": 8687,
      "lepši": 8688,
      "otci": 8689,
      "zelená": 8690,
      "zelenou": 8691,
      "2006": 8692,
      "zahrady": 8693,
      "telefo": 8694,
      "vypouště": 8695,
      "bílí": 8696,
      "veselých": 8697,
      "kamaradkou": 8698,
      "Pani": 8699,
      "plavání": 8700,
      "##znala": 8701,
      "miliard": 8702,
      "počítačem": 8703,
      "lehce": 8704,
      "akvá": 8705,
      "ovce": 8706,
      "odpověděl": 8707,
      "podobného": 8708,
      "povída": 8709,
      "##šema": 8710,
      "loni": 8711,
      "NATO": 8712,
      "zavoněly": 8713,
      "##šetř": 8714,
      "skupin": 8715,
      "Tatínek": 8716,
      "rády": 8717,
      "nohou": 8718,
      "skvěle": 8719,
      "čisto": 8720,
      "myslíte": 8721,
      "##OUP": 8722,
      "PRÁ": 8723,
      "PRINCEZ": 8724,
      "##vedla": 8725,
      "koncerty": 8726,
      "nevidím": 8727,
      "##letěl": 8728,
      "dědečkovi": 8729,
      "##ležitost": 8730,
      "##ruhé": 8731,
      "spojených": 8732,
      "Kubu": 8733,
      "lekce": 8734,
      "projevy": 8735,
      "prostředky": 8736,
      "city": 8737,
      "fotografie": 8738,
      "uvařit": 8739,
      "zprávu": 8740,
      "MOC": 8741,
      "blbo": 8742,
      "znát": 8743,
      "pochopit": 8744,
      "nedávno": 8745,
      "rovnou": 8746,
      "nestalo": 8747,
      "získá": 8748,
      "naučil": 8749,
      "července": 8750,
      "kuchyni": 8751,
      "ruzné": 8752,
      "zlodě": 8753,
      "letišti": 8754,
      "malin": 8755,
      "článku": 8756,
      "Ukrajiny": 8757,
      "kontrolu": 8758,
      "spisova": 8759,
      "PROTO": 8760,
      "navštěvovat": 8761,
      "přatel": 8762,
      "zachránil": 8763,
      "zájmy": 8764,
      "volání": 8765,
      "Egypta": 8766,
      "chaloup": 8767,
      "romant": 8768,
      "potřebuji": 8769,
      "koupaliště": 8770,
      "symbol": 8771,
      "posílat": 8772,
      "stýská": 8773,
      "radostí": 8774,
      "bramborový": 8775,
      "adresa": 8776,
      "nerozuměla": 8777,
      "duležité": 8778,
      "Letos": 8779,
      "1992": 8780,
      "Nebudu": 8781,
      "Petřín": 8782,
      "zašuměly": 8783,
      "RODIČ": 8784,
      "Petrových": 8785,
      "Zvlá": 8786,
      "manaže": 8787,
      "Jihlava": 8788,
      "Slušnost": 8789,
      "maxim": 8790,
      "Barbucha": 8791,
      "džíny": 8792,
      "asistent": 8793,
      "Venda": 8794,
      "##každé": 8795,
      "talent": 8796,
      "##ubilejní": 8797,
      "vyjadř": 8798,
      "způsoby": 8799,
      "Pastý": 8800,
      "36": 8801,
      "Ad": 8802,
      "Bi": 8803,
      "Car": 8804,
      "Dala": 8805,
      "Kdi": 8806,
      "KAR": 8807,
      "Mc": 8808,
      "Nelí": 8809,
      "Obec": 8810,
      "Olympi": 8811,
      "Rá": 8812,
      "Su": 8813,
      "SM": 8814,
      "Sed": 8815,
      "SME": 8816,
      "TI": 8817,
      "Tře": 8818,
      "The": 8819,
      "Vál": 8820,
      "Venku": 8821,
      "ZŠ": 8822,
      "Zítra": 8823,
      "ag": 8824,
      "bohu": 8825,
      "fe": 8826,
      "fanou": 8827,
      "hov": 8828,
      "hově": 8829,
      "hesky": 8830,
      "klá": 8831,
      "lít": 8832,
      "ny": 8833,
      "oznám": 8834,
      "ohe": 8835,
      "ofici": 8836,
      "sh": 8837,
      "sleč": 8838,
      "td": 8839,
      "tém": 8840,
      "utr": 8841,
      "vší": 8842,
      "vari": 8843,
      "zdo": 8844,
      "úrov": 8845,
      "úřed": 8846,
      "února": 8847,
      "čar": 8848,
      "šok": 8849,
      "##kci": 8850,
      "##ktor": 8851,
      "##sů": 8852,
      "##slím": 8853,
      "##ten": 8854,
      "##tam": 8855,
      "##tit": 8856,
      "##tovat": 8857,
      "##zat": 8858,
      "##zemí": 8859,
      "##bro": 8860,
      "##blík": 8861,
      "##rí": 8862,
      "##ris": 8863,
      "##rovi": 8864,
      "##áž": 8865,
      "##álil": 8866,
      "##ite": 8867,
      "##iště": 8868,
      "##pen": 8869,
      "##pku": 8870,
      "##pád": 8871,
      "##víme": 8872,
      "##UJE": 8873,
      "##ZE": 8874,
      "##šovat": 8875,
      "##jo": 8876,
      "##jé": 8877,
      "##jsem": 8878,
      "##čo": 8879,
      "##čené": 8880,
      "##čková": 8881,
      "##óó": 8882,
      "##lak": 8883,
      "##stvím": 8884,
      "##stanou": 8885,
      "##chů": 8886,
      "##rava": 8887,
      "##razit": 8888,
      "seg": 8889,
      "seš": 8890,
      "sedi": 8891,
      "neho": 8892,
      "neče": 8893,
      "nedeli": 8894,
      "dooprav": 8895,
      "poš": 8896,
      "##níkem": 8897,
      "##tofon": 8898,
      "prote": 8899,
      "proží": 8900,
      "propa": 8901,
      "##ceti": 8902,
      "##all": 8903,
      "##alé": 8904,
      "##kur": 8905,
      "zava": 8906,
      "zaby": 8907,
      "zaříd": 8908,
      "mostu": 8909,
      "##ilu": 8910,
      "vymě": 8911,
      "vyrazili": 8912,
      "##arda": 8913,
      "##ádka": 8914,
      "kočky": 8915,
      "kober": 8916,
      "vešk": 8917,
      "obec": 8918,
      "občany": 8919,
      "migran": 8920,
      "svem": 8921,
      "nejm": 8922,
      "nejprve": 8923,
      "##ant": 8924,
      "##anc": 8925,
      "##anů": 8926,
      "##anel": 8927,
      "##eza": 8928,
      "##eník": 8929,
      "hodil": 8930,
      "odnes": 8931,
      "##návat": 8932,
      "honě": 8933,
      "horu": 8934,
      "přijem": 8935,
      "přihlá": 8936,
      "připoj": 8937,
      "##ičí": 8938,
      "nábřeží": 8939,
      "jedla": 8940,
      "jedině": 8941,
      "más": 8942,
      "##víhaly": 8943,
      "##nym": 8944,
      "##štění": 8945,
      "##štím": 8946,
      "Mohl": 8947,
      "prsty": 8948,
      "princi": 8949,
      "prasátka": 8950,
      "##káš": 8951,
      "##tah": 8952,
      "kadeř": 8953,
      "##daleko": 8954,
      "spole": 8955,
      "rozpo": 8956,
      "rozděl": 8957,
      "rozděli": 8958,
      "zástup": 8959,
      "##sech": 8960,
      "Taký": 8961,
      "Toki": 8962,
      "podvod": 8963,
      "právo": 8964,
      "kouknout": 8965,
      "##ěkých": 8966,
      "vznika": 8967,
      "##žík": 8968,
      "Nedaleko": 8969,
      "baby": 8970,
      "napína": 8971,
      "##ovice": 8972,
      "mírně": 8973,
      "líp": 8974,
      "##veče": 8975,
      "dobrej": 8976,
      "jiném": 8977,
      "předtím": 8978,
      "##zik": 8979,
      "začaly": 8980,
      "začiná": 8981,
      "přál": 8982,
      "dáv": 8983,
      "časem": 8984,
      "##buji": 8985,
      "malovat": 8986,
      "papr": 8987,
      "dívam": 8988,
      "##skými": 8989,
      "zdůraz": 8990,
      "zdvíhaly": 8991,
      "nějakých": 8992,
      "koupí": 8993,
      "vaší": 8994,
      "bezpe": 8995,
      "konat": 8996,
      "konzer": 8997,
      "jmenovala": 8998,
      "jídlem": 8999,
      "jezdíš": 9000,
      "bojím": 9001,
      "detek": 9002,
      "delal": 9003,
      "vysko": 9004,
      "bavíme": 9005,
      "samá": 9006,
      "jazyce": 9007,
      "trvat": 9008,
      "parf": 9009,
      "Doporu": 9010,
      "Koněpru": 9011,
      "světle": 9012,
      "špatného": 9013,
      "##tář": 9014,
      "bratři": 9015,
      "Petro": 9016,
      "zajímavou": 9017,
      "pokojí": 9018,
      "níz": 9019,
      "médi": 9020,
      "vážím": 9021,
      "policii": 9022,
      "Českého": 9023,
      "1950": 9024,
      "třicet": 9025,
      "plac": 9026,
      "teplá": 9027,
      "velikonoce": 9028,
      "vypadalo": 9029,
      "draka": 9030,
      "běžela": 9031,
      "vyhled": 9032,
      "Chodí": 9033,
      "společného": 9034,
      "mužů": 9035,
      "pomáhali": 9036,
      "kulturou": 9037,
      "důležitější": 9038,
      "štěkot": 9039,
      "bílý": 9040,
      "pev": 9041,
      "květina": 9042,
      "novými": 9043,
      "problemů": 9044,
      "JEN": 9045,
      "cír": 9046,
      "lehnout": 9047,
      "vlka": 9048,
      "vrátila": 9049,
      "pláž": 9050,
      "stres": 9051,
      "nemáte": 9052,
      "cele": 9053,
      "problémů": 9054,
      "uměle": 9055,
      "cizinec": 9056,
      "změnila": 9057,
      "Republika": 9058,
      "metra": 9059,
      "vrací": 9060,
      "Čína": 9061,
      "Číny": 9062,
      "najit": 9063,
      "Liška": 9064,
      "Žije": 9065,
      "##incovna": 9066,
      "##ějš": 9067,
      "##bert": 9068,
      "komunikovat": 9069,
      "budoucnu": 9070,
      "Abych": 9071,
      "Náv": 9072,
      "here": 9073,
      "nabízí": 9074,
      "cítit": 9075,
      "demokra": 9076,
      "prochaz": 9077,
      "matematiky": 9078,
      "zjistila": 9079,
      "počitači": 9080,
      "prezidentka": 9081,
      "hřišti": 9082,
      "vezme": 9083,
      "ohňost": 9084,
      "spadla": 9085,
      "žadný": 9086,
      "vzduchu": 9087,
      "unavená": 9088,
      "týdně": 9089,
      "proved": 9090,
      "každému": 9091,
      "angličtiny": 9092,
      "využí": 9093,
      "nervo": 9094,
      "pomocí": 9095,
      "vysvětlit": 9096,
      "lodě": 9097,
      "omluv": 9098,
      "levnější": 9099,
      "podivat": 9100,
      "jeskynní": 9101,
      "schopni": 9102,
      "rozumí": 9103,
      "organizace": 9104,
      "Jeník": 9105,
      "sestřen": 9106,
      "strávit": 9107,
      "Zdravím": 9108,
      "Drážďan": 9109,
      "##lorus": 9110,
      "zdravotnictví": 9111,
      "nesmysl": 9112,
      "stupňů": 9113,
      "svetr": 9114,
      "Bella": 9115,
      "umyju": 9116,
      "záchran": 9117,
      "společenské": 9118,
      "tábora": 9119,
      "působí": 9120,
      "ostrově": 9121,
      "ubytování": 9122,
      "onemocní": 9123,
      "vítr": 9124,
      "nestačí": 9125,
      "radosti": 9126,
      "snídani": 9127,
      "holčička": 9128,
      "Italii": 9129,
      "Písku": 9130,
      "narození": 9131,
      "podlaha": 9132,
      "přijímací": 9133,
      "nemůžeme": 9134,
      "skladby": 9135,
      "Chutná": 9136,
      "atmosfé": 9137,
      "Severního": 9138,
      "blaho": 9139,
      "tygři": 9140,
      "Bardejov": 9141,
      "střelce": 9142,
      "strašidlech": 9143,
      "komunikace": 9144,
      "Stejně": 9145,
      "zádech": 9146,
      "defin": 9147,
      "konkuren": 9148,
      "ukrajin": 9149,
      "spolubydlí": 9150,
      "aktivit": 9151,
      "##sáhlejší": 9152,
      "##rgyz": 9153,
      "Británie": 9154,
      "vešker": 9155,
      "400": 9156,
      "BÝ": 9157,
      "FI": 9158,
      "Hed": 9159,
      "IV": 9160,
      "Iva": 9161,
      "KA": 9162,
      "Kan": 9163,
      "Král": 9164,
      "MÍ": 9165,
      "NO": 9166,
      "Ot": 9167,
      "OD": 9168,
      "Ony": 9169,
      "Ond": 9170,
      "Přem": 9171,
      "PŘE": 9172,
      "TU": 9173,
      "TAM": 9174,
      "Ur": 9175,
      "Zů": 9176,
      "Zrovna": 9177,
      "Zlatý": 9178,
      "aka": 9179,
      "ačko": 9180,
      "bak": 9181,
      "bily": 9182,
      "cca": 9183,
      "dých": 9184,
      "htt": 9185,
      "lim": 9186,
      "lust": 9187,
      "ony": 9188,
      "okou": 9189,
      "ping": 9190,
      "rty": 9191,
      "smi": 9192,
      "slů": 9193,
      "scé": 9194,
      "uprav": 9195,
      "upad": 9196,
      "vsi": 9197,
      "zě": 9198,
      "zím": 9199,
      "zje": 9200,
      "Čáp": 9201,
      "žal": 9202,
      "##nci": 9203,
      "##ktu": 9204,
      "##sl": 9205,
      "##sel": 9206,
      "##sej": 9207,
      "##slav": 9208,
      "##tku": 9209,
      "##atech": 9210,
      "##bky": 9211,
      "##hno": 9212,
      "##áva": 9213,
      "##iko": 9214,
      "##lf": 9215,
      "##lým": 9216,
      "##éé": 9217,
      "##ému": 9218,
      "##pro": 9219,
      "##vic": 9220,
      "##ckou": 9221,
      "##cke": 9222,
      "##ckých": 9223,
      "##šků": 9224,
      "##jte": 9225,
      "##jmu": 9226,
      "##čká": 9227,
      "##DY": 9228,
      "##ŘI": 9229,
      "##VE": 9230,
      "##VI": 9231,
      "##VĚ": 9232,
      "##stroj": 9233,
      "##chi": 9234,
      "##chý": 9235,
      "##chla": 9236,
      "##ovce": 9237,
      "##raži": 9238,
      "nase": 9239,
      "najíst": 9240,
      "##ley": 9241,
      "##lev": 9242,
      "##lete": 9243,
      "##livost": 9244,
      "##rosil": 9245,
      "net": 9246,
      "neří": 9247,
      "nesti": 9248,
      "nepom": 9249,
      "dos": 9250,
      "doka": 9251,
      "pode": 9252,
      "poly": 9253,
      "polet": 9254,
      "##odle": 9255,
      "##atě": 9256,
      "topit": 9257,
      "##tora": 9258,
      "##kalo": 9259,
      "##kaři": 9260,
      "procházeli": 9261,
      "##kosí": 9262,
      "##kula": 9263,
      "##niho": 9264,
      "stmí": 9265,
      "zapom": 9266,
      "zabav": 9267,
      "zaříz": 9268,
      "##ité": 9269,
      "mor": 9270,
      "##tější": 9271,
      "koleč": 9272,
      "koment": 9273,
      "##voří": 9274,
      "##box": 9275,
      "občané": 9276,
      "nejméně": 9277,
      "##usu": 9278,
      "##and": 9279,
      "##antní": 9280,
      "##lynu": 9281,
      "##dělat": 9282,
      "hodit": 9283,
      "odjezd": 9284,
      "teť": 9285,
      "##asný": 9286,
      "##loval": 9287,
      "jedená": 9288,
      "domněnka": 9289,
      "##ovají": 9290,
      "rodice": 9291,
      "Pon": 9292,
      "českým": 9293,
      "##štní": 9294,
      "Naopak": 9295,
      "##tuna": 9296,
      "##tují": 9297,
      "pras": 9298,
      "všeobec": 9299,
      "##obí": 9300,
      "##ováno": 9301,
      "materi": 9302,
      "příběhy": 9303,
      "tašky": 9304,
      "hranice": 9305,
      "rozlou": 9306,
      "rozma": 9307,
      "zákla": 9308,
      "zásad": 9309,
      "chodime": 9310,
      "Takové": 9311,
      "jahod": 9312,
      "koukali": 9313,
      "##menuje": 9314,
      "##mentu": 9315,
      "2000": 9316,
      "vědí": 9317,
      "vína": 9318,
      "vzpom": 9319,
      "vzpomněli": 9320,
      "##žíš": 9321,
      "##uber": 9322,
      "##čeho": 9323,
      "napí": 9324,
      "hezka": 9325,
      "##ázel": 9326,
      "míru": 9327,
      "lídí": 9328,
      "líbily": 9329,
      "zed": 9330,
      "noze": 9331,
      "človeka": 9332,
      "předem": 9333,
      "začátek": 9334,
      "tyčí": 9335,
      "##stavu": 9336,
      "pozem": 9337,
      "poznám": 9338,
      "dával": 9339,
      "Jakmile": 9340,
      "soudce": 9341,
      "vide": 9342,
      "##jímav": 9343,
      "div": 9344,
      "##ovými": 9345,
      "stolem": 9346,
      "cestoval": 9347,
      "cestujeme": 9348,
      "dosti": 9349,
      "nějakém": 9350,
      "kamarádce": 9351,
      "vaz": 9352,
      "vago": 9353,
      "vařila": 9354,
      "vaření": 9355,
      "třetím": 9356,
      "konf": 9357,
      "venkově": 9358,
      "statek": 9359,
      "stanici": 9360,
      "hlavou": 9361,
      "Myslela": 9362,
      "Začí": 9363,
      "vyslov": 9364,
      "oblíbenou": 9365,
      "Ted": 9366,
      "Teším": 9367,
      "voli": 9368,
      "trvala": 9369,
      "pravé": 9370,
      "piva": 9371,
      "Docela": 9372,
      "klukem": 9373,
      "sestři": 9374,
      "pohad": 9375,
      "Petře": 9376,
      "zajímave": 9377,
      "prvních": 9378,
      "níc": 9379,
      "popula": 9380,
      "smů": 9381,
      "zdravá": 9382,
      "##končí": 9383,
      "##astro": 9384,
      "pořádek": 9385,
      "dárků": 9386,
      "rozhodnout": 9387,
      "132": 9388,
      "usmě": 9389,
      "krk": 9390,
      "krim": 9391,
      "150": 9392,
      "zkoušek": 9393,
      "matky": 9394,
      "##busem": 9395,
      "svěd": 9396,
      "##naté": 9397,
      "vypadají": 9398,
      "čtvr": 9399,
      "Tenhle": 9400,
      "návratu": 9401,
      "Nemůžu": 9402,
      "Chodský": 9403,
      "zelený": 9404,
      "zapnu": 9405,
      "Milanem": 9406,
      "překvapilo": 9407,
      "Naproti": 9408,
      "setká": 9409,
      "červnu": 9410,
      "kamaradů": 9411,
      "kamaradky": 9412,
      "pečivo": 9413,
      "schůz": 9414,
      "uvidím": 9415,
      "manželem": 9416,
      "plavky": 9417,
      "objevy": 9418,
      "objevil": 9419,
      "zvla": 9420,
      "odejít": 9421,
      "odešly": 9422,
      "nezapomě": 9423,
      "##hledem": 9424,
      "##hledná": 9425,
      "odpovědět": 9426,
      "Milan2": 9427,
      "Domov": 9428,
      "posledních": 9429,
      "zkusit": 9430,
      "komfor": 9431,
      "cela": 9432,
      "celej": 9433,
      "##ovaných": 9434,
      "##ovaným": 9435,
      "připravím": 9436,
      "připravit": 9437,
      "připravovat": 9438,
      "surov": 9439,
      "Čechová": 9440,
      "překvapená": 9441,
      "síť": 9442,
      "rákosí": 9443,
      "##prac": 9444,
      "proslu": 9445,
      "cizince": 9446,
      "slyším": 9447,
      "přemyš": 9448,
      "Čín": 9449,
      "najde": 9450,
      "##ENÍ": 9451,
      "snimi": 9452,
      "tvor": 9453,
      "březnu": 9454,
      "zavřít": 9455,
      "dřeva": 9456,
      "obrazku": 9457,
      "dcerou": 9458,
      "voják": 9459,
      "letadlem": 9460,
      "nima": 9461,
      "pohodě": 9462,
      "zelenin": 9463,
      "pamatuju": 9464,
      "zivot": 9465,
      "báje": 9466,
      "zjistil": 9467,
      "Viděla": 9468,
      "přítelkyně": 9469,
      "vezmeme": 9470,
      "používat": 9471,
      "zastavit": 9472,
      "stromech": 9473,
      "davá": 9474,
      "žadné": 9475,
      "muzea": 9476,
      "Lukáš": 9477,
      "Pavlov": 9478,
      "zamiloval": 9479,
      "Bělorus": 9480,
      "chlebí": 9481,
      "zatímco": 9482,
      "dopadne": 9483,
      "každe": 9484,
      "získa": 9485,
      "poradí": 9486,
      "nádherná": 9487,
      "##zvem": 9488,
      "alkoholu": 9489,
      "vzpomínám": 9490,
      "jízdenku": 9491,
      "Trna": 9492,
      "slepice": 9493,
      "##vejte": 9494,
      "ozdob": 9495,
      "magister": 9496,
      "pudem": 9497,
      "ukázat": 9498,
      "Říká": 9499,
      "rostou": 9500,
      "Ukrajině": 9501,
      "pojmen": 9502,
      "bezdomovce": 9503,
      "bezdomovci": 9504,
      "křesle": 9505,
      "##dýž": 9506,
      "strávil": 9507,
      "průběhu": 9508,
      "automat": 9509,
      "oboru": 9510,
      "Neza": 9511,
      "obyčejně": 9512,
      "domeček": 9513,
      "Univerzita": 9514,
      "hlídat": 9515,
      "operá": 9516,
      "Staré": 9517,
      "použivat": 9518,
      "Sobo": 9519,
      "měsiců": 9520,
      "Pardu": 9521,
      "ňáký": 9522,
      "slunný": 9523,
      "tváře": 9524,
      "chybět": 9525,
      "dubna": 9526,
      "splnil": 9527,
      "Srdečně": 9528,
      "doporučuji": 9529,
      "motýli": 9530,
      "uklízí": 9531,
      "zbraně": 9532,
      "šun": 9533,
      "křeh": 9534,
      "omez": 9535,
      "roztomilé": 9536,
      "Rano": 9537,
      "připomíná": 9538,
      "krize": 9539,
      "Kluci": 9540,
      "dědovi": 9541,
      "Půjdu": 9542,
      "neuměl": 9543,
      "policaj": 9544,
      "požadavkům": 9545,
      "kovář": 9546,
      "pestré": 9547,
      "čepice": 9548,
      "Nevěděla": 9549,
      "Mexiko": 9550,
      "holubi": 9551,
      "Počasí": 9552,
      "Vypravování": 9553,
      "cykli": 9554,
      "kilometrů": 9555,
      "nabid": 9556,
[...]
