{
  "version": "1.0",
  "truncation": null,
  "padding": null,
  "added_tokens": [
    {
      "id": 0,
      "content": "[PAD]",
      "single_word": false,
      "lstrip": false,
      "rstrip": false,
      "normalized": false,
      "special": true
    },
    {
      "id": 1,
      "content": "[CLS]",
      "single_word": false,
      "lstrip": false,
      "rstrip": false,
      "normalized": false,
      "special": true
    },
    {
      "id": 2,
      "content": "[SEP]",
      "single_word": false,
      "lstrip": false,
      "rstrip": false,
      "normalized": false,
      "special": true
    },
    {
      "id": 3,
      "content": "[UNK]",
      "single_word": false,
      "lstrip": false,
      "rstrip": false,
      "normalized": false,
      "special": true
    },
    {
      "id": 4,
      "content": "[MASK]",
      "single_word": false,
      "lstrip": false,
      "rstrip": false,
      "normalized": false,
      "special": true
    }
  ],
  "normalizer": {
    "type": "BertNormalizer",
    "clean_text": true,
    "handle_chinese_chars": false,
    "strip_accents": false,
    "lowercase": false
  },
  "pre_tokenizer": {
    "type": "BertPreTokenizer"
  },
  "post_processor": {
    "type": "TemplateProcessing",
    "single": [
      {
        "SpecialToken": {
          "id": "[CLS]",
          "type_id": 0
        }
      },
      {
        "Sequence": {
          "id": "A",
          "type_id": 0
        }
      },
      {
        "SpecialToken": {
          "id": "[SEP]",
          "type_id": 0
        }
      }
    ],
    "pair": [
      {
        "SpecialToken": {
          "id": "[CLS]",
          "type_id": 0
        }
      },
      {
        "Sequence": {
          "id": "A",
          "type_id": 0
        }
      },
      {
        "SpecialToken": {
          "id": "[SEP]",
          "type_id": 0
        }
      },
      {
        "Sequence": {
          "id": "B",
          "type_id": 1
        }
      },
      {
        "SpecialToken": {
          "id": "[SEP]",
          "type_id": 1
        }
      }
    ],
    "special_tokens": {
      "[CLS]": {
        "id": "[CLS]",
        "ids": [
          1
        ],
        "tokens": [
          "[CLS]"
        ]
      },
      "[SEP]": {
        "id": "[SEP]",
        "ids": [
          2
        ],
        "tokens": [
          "[SEP]"
        ]
      }
    }
  },
  "decoder": {
    "type": "WordPiece",
    "prefix": "##",
    "cleanup": true
  },
  "model": {
    "type": "WordPiece",
    "unk_token": "[UNK]",
    "continuing_subword_prefix": "##",
    "max_input_chars_per_word": 100,
    "vocab": {
      "[PAD]": 0,
      "[CLS]": 1,
      "[SEP]": 2,
      "[UNK]": 3,
      "[MASK]": 4,
      "!": 5,
      "\"": 6,
      "#": 7,
      "$": 8,
      "%": 9,
      "&": 10,
      "'": 11,
      "(": 12,
      ")": 13,
      "*": 14,
      "+": 15,
      ",": 16,
      "-": 17,
      ".": 18,
      "/": 19,
      "0": 20,
      "1": 21,
      "2": 22,
      "3": 23,
      "4": 24,
      "5": 25,
      "6": 26,
      "7": 27,
      "8": 28,
      "9": 29,
      ":": 30,
      ";": 31,
      "<": 32,
      "=": 33,
      ">": 34,
      "?": 35,
      "@": 36,
      "A": 37,
      "B": 38,
      "C": 39,
      "D": 40,
      "E": 41,
      "F": 42,
      "G": 43,
      "H": 44,
      "I": 45,
      "J": 46,
      "K": 47,
      "L": 48,
      "M": 49,
      "N": 50,
      "O": 51,
      "P": 52,
      "Q": 53,
      "R": 54,
      "S": 55,
      "T": 56,
      "U": 57,
      "V": 58,
      "W": 59,
      "X": 60,
      "Y": 61,
      "Z": 62,
      "[": 63,
      "\\": 64,
      "]": 65,
      "^": 66,
      "_": 67,
      "`": 68,
      "a": 69,
      "b": 70,
      "c": 71,
      "d": 72,
      "e": 73,
      "f": 74,
      "g": 75,
      "h": 76,
      "i": 77,
      "j": 78,
      "k": 79,
      "l": 80,
      "m": 81,
      "n": 82,
      "o": 83,
      "p": 84,
      "q": 85,
      "r": 86,
      "s": 87,
      "t": 88,
      "u": 89,
      "v": 90,
      "w": 91,
      "x": 92,
      "y": 93,
      "z": 94,
      "{": 95,
      "}": 96,
      "~": 97,
      "¡": 98,
      "£": 99,
      "§": 100,
      "¨": 101,
      "©": 102,
      "ª": 103,
      "¬": 104,
      "®": 105,
      "°": 106,
      "±": 107,
      "²": 108,
      "³": 109,
      "µ": 110,
      "·": 111,
      "¹": 112,
      "º": 113,
      "¼": 114,
      "½": 115,
      "¾": 116,
      "¿": 117,
      "À": 118,
      "Á": 119,
      "Â": 120,
      "Ä": 121,
      "Å": 122,
      "Æ": 123,
      "Ç": 124,
      "È": 125,
      "É": 126,
      "Ë": 127,
      "Ì": 128,
      "Í": 129,
      "Î": 130,
      "Ï": 131,
      "Ð": 132,
      "Ñ": 133,
      "Ò": 134,
      "Ó": 135,
      "Ô": 136,
      "Ö": 137,
      "×": 138,
      "Ø": 139,
      "Ú": 140,
      "Ü": 141,
      "Ý": 142,
      "Þ": 143,
      "ß": 144,
      "à": 145,
      "á": 146,
      "â": 147,
      "ã": 148,
      "ä": 149,
      "å": 150,
      "æ": 151,
      "ç": 152,
      "è": 153,
      "é": 154,
      "ê": 155,
      "ë": 156,
      "ì": 157,
      "í": 158,
      "î": 159,
      "ï": 160,
      "ð": 161,
      "ñ": 162,
      "ò": 163,
      "ó": 164,
      "ô": 165,
      "õ": 166,
      "ö": 167,
      "÷": 168,
      "ø": 169,
      "ù": 170,
      "ú": 171,
      "û": 172,
      "ü": 173,
      "ý": 174,
      "þ": 175,
      "ÿ": 176,
      "Ā": 177,
      "ā": 178,
      "Ă": 179,
      "ă": 180,
      "Ą": 181,
      "ą": 182,
      "Ć": 183,
      "ć": 184,
      "Č": 185,
      "č": 186,
      "Ď": 187,
      "ď": 188,
      "Đ": 189,
      "đ": 190,
      "Ē": 191,
      "ē": 192,
      "ĕ": 193,
      "ė": 194,
      "Ę": 195,
      "ę": 196,
      "Ě": 197,
      "ě": 198,
      "ğ": 199,
      "ģ": 200,
      "ħ": 201,
      "ĩ": 202,
      "ī": 203,
      "ĭ": 204,
      "į": 205,
      "İ": 206,
      "ı": 207,
      "ķ": 208,
      "ĸ": 209,
      "Ĺ": 210,
      "ĺ": 211,
      "ļ": 212,
      "Ľ": 213,
      "ľ": 214,
      "Ł": 215,
      "ł": 216,
      "Ń": 217,
      "ń": 218,
      "ņ": 219,
      "Ň": 220,
      "ň": 221,
      "ŋ": 222,
      "ō": 223,
      "ŏ": 224,
      "Ő": 225,
      "ő": 226,
      "œ": 227,
      "Ŕ": 228,
      "ŕ": 229,
      "Ř": 230,
      "ř": 231,
      "Ś": 232,
      "ś": 233,
      "Ş": 234,
      "ş": 235,
      "Š": 236,
      "š": 237,
      "Ţ": 238,
      "ţ": 239,
      "Ť": 240,
      "ť": 241,
      "ũ": 242,
      "ū": 243,
      "ŭ": 244,
      "Ů": 245,
      "ů": 246,
      "Ű": 247,
      "ű": 248,
      "ų": 249,
      "Ź": 250,
      "ź": 251,
      "Ż": 252,
      "ż": 253,
      "Ž": 254,
      "ž": 255,
      "ƚ": 256,
      "ơ": 257,
      "ư": 258,
      "ǀ": 259,
      "ǎ": 260,
      "ǐ": 261,
      "ǒ": 262,
      "ǔ": 263,
      "ǫ": 264,
      "ǿ": 265,
      "ȃ": 266,
      "Ș": 267,
      "ș": 268,
      "Ț": 269,
      "ț": 270,
      "ə": 271,
      "ɛ": 272,
      "ɡ": 273,
      "ɪ": 274,
      "ʏ": 275,
      "ʹ": 276,
      "ʻ": 277,
      "ʼ": 278,
      "ʽ": 279,
      "˂": 280,
      "˃": 281,
      "ˇ": 282,
      "ˈ": 283,
      "ˊ": 284,
      "ˌ": 285,
      "˚": 286,
      "˝": 287,
      "̀": 288,
      "́": 289,
      "̈": 290,
      "̊": 291,
      "̌": 292,
      "̓": 293,
      "̧": 294,
      "̶": 295,
      "Ά": 296,
      "Ή": 297,
      "Ί": 298,
      "Ό": 299,
      "Ώ": 300,
      "Α": 301,
      "Γ": 302,
      "Δ": 303,
      "Ε": 304,
      "Η": 305,
      "Ι": 306,
      "Κ": 307,
      "Λ": 308,
      "Μ": 309,
      "Ν": 310,
      "Ο": 311,
      "Π": 312,
      "Ρ": 313,
      "Σ": 314,
      "Τ": 315,
      "Φ": 316,
      "ά": 317,
      "έ": 318,
      "ή": 319,
      "ί": 320,
      "α": 321,
      "β": 322,
      "γ": 323,
      "δ": 324,
      "ε": 325,
      "ζ": 326,
      "η": 327,
      "θ": 328,
      "ι": 329,
      "κ": 330,
      "λ": 331,
      "μ": 332,
      "ν": 333,
      "ξ": 334,
      "ο": 335,
      "π": 336,
      "ρ": 337,
      "ς": 338,
      "σ": 339,
      "τ": 340,
      "υ": 341,
      "φ": 342,
      "χ": 343,
      "ψ": 344,
      "ω": 345,
      "А": 346,
      "Б": 347,
      "В": 348,
      "Г": 349,
      "Д": 350,
      "Е": 351,
      "Ж": 352,
      "З": 353,
      "И": 354,
      "Й": 355,
      "К": 356,
      "Л": 357,
      "М": 358,
      "Н": 359,
      "О": 360,
      "П": 361,
      "Р": 362,
      "С": 363,
      "Т": 364,
      "У": 365,
      "Ф": 366,
      "Х": 367,
      "Ц": 368,
      "Ч": 369,
      "Ш": 370,
      "Э": 371,
      "Ю": 372,
      "Я": 373,
      "а": 374,
      "б": 375,
      "в": 376,
      "г": 377,
      "д": 378,
      "е": 379,
      "ж": 380,
      "з": 381,
      "и": 382,
      "й": 383,
      "к": 384,
      "л": 385,
      "м": 386,
      "н": 387,
      "о": 388,
      "п": 389,
      "р": 390,
      "с": 391,
      "т": 392,
      "у": 393,
      "ф": 394,
      "х": 395,
      "ц": 396,
      "ч": 397,
      "ш": 398,
      "щ": 399,
      "ъ": 400,
      "ы": 401,
      "ь": 402,
      "э": 403,
      "ю": 404,
      "я": 405,
      "ё": 406,
      "є": 407,
      "і": 408,
      "ї": 409,
      "ҫ": 410,
      "ӧ": 411,
      "մ": 412,
      "ְ": 413,
      "ִ": 414,
      "ֵ": 415,
      "ֶ": 416,
      "ַ": 417,
      "ָ": 418,
      "ֹ": 419,
      "ּ": 420,
      "־": 421,
      "ׁ": 422,
      "ׂ": 423,
      "ׅ": 424,
      "א": 425,
      "ב": 426,
      "ד": 427,
      "ה": 428,
      "ו": 429,
      "ז": 430,
      "ח": 431,
      "ט": 432,
      "י": 433,
      "ך": 434,
      "כ": 435,
      "ל": 436,
      "ם": 437,
      "מ": 438,
      "ן": 439,
      "נ": 440,
      "ס": 441,
      "ע": 442,
      "צ": 443,
      "ק": 444,
      "ר": 445,
      "ש": 446,
      "ת": 447,
      "״": 448,
      "ا": 449,
      "ب": 450,
      "ت": 451,
      "ح": 452,
      "ر": 453,
      "س": 454,
      "ش": 455,
      "ص": 456,
      "ض": 457,
      "ع": 458,
      "ك": 459,
      "ل": 460,
      "م": 461,
      "ن": 462,
      "ه": 463,
      "و": 464,
      "ى": 465,
      "ي": 466,
      "َ": 467,
      "ْ": 468,
      "ก": 469,
      "ง": 470,
      "บ": 471,
      "ว": 472,
      "า": 473,
      "แ": 474,
      "้": 475,
      "Ꭷ": 476,
      "Ꮦ": 477,
      "Ꮶ": 478,
      "᠆": 479,
      "ḱ": 480,
      "ḿ": 481,
      "ṇ": 482,
      "ṣ": 483,
      "ṭ": 484,
      "ạ": 485,
      "ả": 486,
      "ẩ": 487,
      "ẽ": 488,
      "ế": 489,
      "ề": 490,
      "ễ": 491,
      "ệ": 492,
      "ị": 493,
      "ồ": 494,
      "ổ": 495,
      "ộ": 496,
      "ờ": 497,
      "ở": 498,
      "ợ": 499,
      "ụ": 500,
      "ứ": 501,
      "ừ": 502,
      "ἀ": 503,
      "ἐ": 504,
      "ἡ": 505,
      "ἰ": 506,
      "ἴ": 507,
      "ὐ": 508,
      "ὰ": 509,
      "ὸ": 510,
      "ῶ": 511,
      "‐": 512,
      "‑": 513,
      "‒": 514,
      "―": 515,
      "‛": 516,
      "‟": 517,
      "†": 518,
      "•": 519,
      "‰": 520,
      "‱": 521,
      "′": 522,
      "″": 523,
      "›": 524,
      "‼": 525,
      "⁄": 526,
      "⁰": 527,
      "⁶": 528,
      "⁺": 529,
      "₂": 530,
      "€": 531,
      "⃣": 532,
      "№": 533,
      "™": 534,
      "⅓": 535,
      "⅔": 536,
      "→": 537,
      "∅": 538,
      "∇": 539,
      "−": 540,
      "∗": 541,
      "∙": 542,
      "∞": 543,
      "≈": 544,
      "⋌": 545,
      "⌀": 546,
      "⎔": 547,
      "⏩": 548,
      "⏪": 549,
      "─": 550,
      "■": 551,
      "▪": 552,
      "▲": 553,
      "▸": 554,
      "►": 555,
      "◄": 556,
      "◆": 557,
      "◎": 558,
      "●": 559,
      "◼": 560,
      "☀": 561,
      "★": 562,
      "☘": 563,
      "☛": 564,
      "☝": 565,
      "☯": 566,
      "☹": 567,
      "☺": 568,
      "♀": 569,
      "♂": 570,
      "♠": 571,
      "♡": 572,
      "♥": 573,
      "♦": 574,
      "⚕": 575,
      "⚗": 576,
      "⚠": 577,
      "⚪": 578,
      "⚰": 579,
      "⚽": 580,
      "⛓": 581,
      "✂": 582,
      "✅": 583,
      "✈": 584,
      "✉": 585,
      "✊": 586,
      "✋": 587,
      "✌": 588,
      "✔": 589,
      "✖": 590,
      "✗": 591,
      "✝": 592,
      "✨": 593,
      "✱": 594,
      "❄": 595,
      "❆": 596,
      "❓": 597,
      "❖": 598,
      "❗": 599,
      "❤": 600,
      "➕": 601,
      "➖": 602,
      "➡": 603,
      "➤": 604,
      "⠀": 605,
      "⤵": 606,
      "⬆": 607,
      "⬇": 608,
      "⭐": 609,
      "【": 610,
      "】": 611,
      "ア": 612,
      "イ": 613,
      "シ": 614,
      "ス": 615,
      "タ": 616,
      "チ": 617,
      "ツ": 618,
      "ド": 619,
      "ネ": 620,
      "ハ": 621,
      "モ": 622,
      "ン": 623,
      "ー": 624,
      "事": 625,
      "共": 626,
      "十": 627,
      "南": 628,
      "叶": 629,
      "呂": 630,
      "和": 631,
      "喫": 632,
      "国": 633,
      "圣": 634,
      "在": 635,
      "大": 636,
      "字": 637,
      "屁": 638,
      "崴": 639,
      "師": 640,
      "店": 641,
      "建": 642,
      "文": 643,
      "明": 644,
      "架": 645,
      "樂": 646,
      "河": 647,
      "油": 648,
      "洪": 649,
      "烧": 650,
      "熊": 651,
      "现": 652,
      "禪": 653,
      "简": 654,
      "総": 655,
      "经": 656,
      "茶": 657,
      "许": 658,
      "貓": 659,
      "酪": 660,
      "重": 661,
      "阪": 662,
      "靖": 663,
      "革": 664,
      "領": 665,
      "館": 666,
      "鸣": 667,
      "감": 668,
      "개": 669,
      "계": 670,
      "고": 671,
      "기": 672,
      "까": 673,
      "께": 674,
      "꽃": 675,
      "놓": 676,
      "니": 677,
      "다": 678,
      "동": 679,
      "드": 680,
      "들": 681,
      "디": 682,
      "랐": 683,
      "로": 684,
      "름": 685,
      "림": 686,
      "마": 687,
      "막": 688,
      "물": 689,
      "부": 690,
      "분": 691,
      "불": 692,
      "생": 693,
      "세": 694,
      "수": 695,
      "습": 696,
      "시": 697,
      "식": 698,
      "아": 699,
      "어": 700,
      "었": 701,
      "올": 702,
      "요": 703,
      "운": 704,
      "으": 705,
      "은": 706,
      "음": 707,
      "의": 708,
      "이": 709,
      "인": 710,
      "전": 711,
      "중": 712,
      "즐": 713,
      "지": 714,
      "창": 715,
      "터": 716,
      "평": 717,
      "포": 718,
      "픽": 719,
      "함": 720,
      "회": 721,
      "ﬁ": 722,
      "ﬂ": 723,
      "️": 724,
      "，": 725,
      "￼": 726,
      "🃏": 727,
      "🇦": 728,
      "🇨": 729,
      "🇩": 730,
      "🇪": 731,
      "🇬": 732,
      "🇮": 733,
      "🇰": 734,
      "🇱": 735,
      "🇳": 736,
      "🇵": 737,
      "🇷": 738,
      "🇸": 739,
      "🇹": 740,
      "🇺": 741,
      "🇿": 742,
      "🌈": 743,
      "🌊": 744,
      "🌑": 745,
      "🌞": 746,
      "🌡": 747,
      "🌪": 748,
      "🌹": 749,
      "🍀": 750,
      "🍎": 751,
      "🍒": 752,
      "🍝": 753,
      "🍳": 754,
      "🍺": 755,
      "🍻": 756,
      "🍾": 757,
      "🎆": 758,
      "🎈": 759,
      "🎉": 760,
      "🎊": 761,
      "🎤": 762,
      "🎥": 763,
      "🎩": 764,
      "🎬": 765,
      "🎭": 766,
      "🎯": 767,
      "🎶": 768,
      "🏅": 769,
      "🏆": 770,
      "🏖": 771,
      "🏳": 772,
      "🏻": 773,
      "🏼": 774,
      "🏽": 775,
      "🏾": 776,
      "🏿": 777,
      "🐎": 778,
      "🐠": 779,
      "🐿": 780,
      "👇": 781,
      "👈": 782,
      "👉": 783,
      "👊": 784,
      "👌": 785,
      "👍": 786,
      "👏": 787,
      "👑": 788,
      "👗": 789,
      "👦": 790,
      "👧": 791,
      "👨": 792,
      "👩": 793,
      "👭": 794,
      "👯": 795,
      "👸": 796,
      "💁": 797,
      "💃": 798,
      "💋": 799,
      "💎": 800,
      "💏": 801,
      "💖": 802,
      "💙": 803,
      "💚": 804,
      "💛": 805,
      "💜": 806,
      "💡": 807,
      "💣": 808,
      "💥": 809,
      "💪": 810,
      "💫": 811,
      "💭": 812,
      "💯": 813,
      "📌": 814,
      "📝": 815,
      "📷": 816,
      "📸": 817,
      "📺": 818,
      "📽": 819,
      "🔒": 820,
      "🔛": 821,
      "🔞": 822,
      "🔥": 823,
      "🔧": 824,
      "🔴": 825,
      "🔹": 826,
      "🕯": 827,
      "🕺": 828,
      "🖖": 829,
      "🖤": 830,
      "😀": 831,
      "😁": 832,
      "😂": 833,
      "😃": 834,
      "😄": 835,
      "😅": 836,
      "😈": 837,
      "😉": 838,
      "😊": 839,
      "😍": 840,
      "😎": 841,
      "😐": 842,
      "😒": 843,
      "😔": 844,
      "😘": 845,
      "😜": 846,
      "😢": 847,
      "😤": 848,
      "😥": 849,
      "😨": 850,
      "😫": 851,
      "😭": 852,
      "😮": 853,
      "😯": 854,
      "😱": 855,
      "😲": 856,
      "😳": 857,
      "🙂": 858,
      "🙃": 859,
      "🙄": 860,
      "🙅": 861,
      "🙈": 862,
      "🙉": 863,
      "🙊": 864,
      "🙋": 865,
      "🙌": 866,
      "🙏": 867,
      "🚒": 868,
      "🚿": 869,
      "🛥": 870,
      "🛫": 871,
      "🤑": 872,
      "🤔": 873,
      "🤗": 874,
      "🤘": 875,
      "🤙": 876,
      "🤞": 877,
      "🤟": 878,
      "🤣": 879,
      "🤦": 880,
      "🤪": 881,
      "🤬": 882,
      "🤷": 883,
      "🤺": 884,
      "🥂": 885,
      "🥇": 886,
      "🥈": 887,
      "🥉": 888,
      "🥊": 889,
      "🥤": 890,
      "🦃": 891,
      "🦄": 892,
      "🦋": 893,
      "🦌": 894,
      "##d": 895,
      "##č": 896,
      "##e": 897,
      "##r": 898,
      "##p": 899,
      "##á": 900,
      "##v": 901,
      "##a": 902,
      "##c": 903,
      "##í": 904,
      "##u": 905,
      "##n": 906,
      "##o": 907,
      "##ř": 908,
      "##i": 909,
      "##l": 910,
      "##b": 911,
      "##ý": 912,
      "##h": 913,
      "##ň": 914,
      "##t": 915,
      "##s": 916,
      "##m": 917,
      "##z": 918,
      "##é": 919,
      "##g": 920,
      "##j": 921,
      "##k": 922,
      "##š": 923,
      "##N": 924,
      "##y": 925,
      "##̌": 926,
      "##́": 927,
      "##ž": 928,
      "##ú": 929,
      "##x": 930,
      "##8": 931,
      "##5": 932,
      "##9": 933,
      "##R": 934,
      "##A": 935,
      "##T": 936,
      "##I": 937,
      "##Š": 938,
      "##E": 939,
      "##K": 940,
      "##P": 941,
      "##S": 942,
      "##O": 943,
      "##ů": 944,
      "##ě": 945,
      "##1": 946,
      "##f": 947,
      "##w": 948,
      "##Z": 949,
      "##ľ": 950,
      "##7": 951,
      "##ť": 952,
      "##M": 953,
      "##D": 954,
      "##ñ": 955,
      "##ä": 956,
      "##ĺ": 957,
      "##2": 958,
      "##−": 959,
      "##3": 960,
      "##ď": 961,
      "##q": 962,
      "##X": 963,
      "##0": 964,
      "##G": 965,
      "##ó": 966,
      "##H": 967,
      "##Y": 968,
      "##о": 969,
      "##п": 970,
      "##у": 971,
      "##т": 972,
      "##н": 973,
      "##й": 974,
      "##6": 975,
      "##4": 976,
      "##V": 977,
      "##L": 978,
      "##C": 979,
      "##U": 980,
      "##W": 981,
      "##ö": 982,
      "##B": 983,
      "##Č": 984,
      "##F": 985,
      "##ć": 986,
      "##ü": 987,
      "##Ö": 988,
      "##Á": 989,
      "##Í": 990,
      "##ń": 991,
      "##Ú": 992,
      "##👏": 993,
      "##🏻": 994,
      "##Q": 995,
      "##J": 996,
      "##♀": 997,
      "##️": 998,
      "##ł": 999,
      "##É": 1000,
      "##ч": 1001,
      "##в": 1002,
      "##ы": 1003,
      "##ʼ": 1004,
      "##ô": 1005,
      "##Ě": 1006,
      "##Ř": 1007,
      "##Ý": 1008,
      "##ø": 1009,
      "##Ž": 1010,
      "##ŕ": 1011,
      "##™": 1012,
      "##😍": 1013,
      "##Ů": 1014,
      "##ê": 1015,
      "##°": 1016,
      "##и": 1017,
      "##е": 1018,
      "##с": 1019,
      "##к": 1020,
      "##ю": 1021,
      "##я": 1022,
      "##Ť": 1023,
      "##å": 1024,
      "##☺": 1025,
      "##×": 1026,
      "##â": 1027,
      "##ő": 1028,
      "##ű": 1029,
      "##đ": 1030,
      "##ś": 1031,
      "##¨": 1032,
      "##б": 1033,
      "##р": 1034,
      "##а": 1035,
      "##л": 1036,
      "##Ň": 1037,
      "##ˇ": 1038,
      "##€": 1039,
      "##ß": 1040,
      "##ę": 1041,
      "##®": 1042,
      "##º": 1043,
      "##ì": 1044,
      "##è": 1045,
      "##˝": 1046,
      "##🙉": 1047,
      "##🙊": 1048,
      "##î": 1049,
      "##ş": 1050,
      "##ı": 1051,
      "##ż": 1052,
      "##ï": 1053,
      "##ç": 1054,
      "##õ": 1055,
      "##У": 1056,
      "##С": 1057,
      "##ь": 1058,
      "##х": 1059,
      "##ą": 1060,
      "##Ô": 1061,
      "##æ": 1062,
      "##ð": 1063,
      "##ạ": 1064,
      "##ă": 1065,
      "##ğ": 1066,
      "##щ": 1067,
      "##д": 1068,
      "##г": 1069,
      "##☝": 1070,
      "##ë": 1071,
      "##з": 1072,
      "##̊": 1073,
      "##ὰ": 1074,
      "##ρ": 1075,
      "##µ": 1076,
      "##ĕ": 1077,
      "##ʻ": 1078,
      "##ш": 1079,
      "##̈": 1080,
      "##ư": 1081,
      "##ơ": 1082,
      "##Ç": 1083,
      "##🇿": 1084,
      "##☘": 1085,
      "##Ü": 1086,
      "##😂": 1087,
      "##ā": 1088,
      "##Ĺ": 1089,
      "##ò": 1090,
      "##ė": 1091,
      "##м": 1092,
      "##Ľ": 1093,
      "##К": 1094,
      "##ﬁ": 1095,
      "##🏽": 1096,
      "##Ñ": 1097,
      "##ū": 1098,
      "##⚽": 1099,
      "##❄": 1100,
      "##🦌": 1101,
      "##ֶ": 1102,
      "##ח": 1103,
      "##ם": 1104,
      "##ã": 1105,
      "##ō": 1106,
      "##ù": 1107,
      "##Ø": 1108,
      "##α": 1109,
      "##Ó": 1110,
      "##❖": 1111,
      "##ī": 1112,
      "##ё": 1113,
      "##Р": 1114,
      "##ж": 1115,
      "##à": 1116,
      "##ẽ": 1117,
      "##η": 1118,
      "##ὐ": 1119,
      "##δ": 1120,
      "##і": 1121,
      "##Ś": 1122,
      "##🔞": 1123,
      "##ц": 1124,
      "##ș": 1125,
      "##🎉": 1126,
      "##🎊": 1127,
      "##시": 1128,
      "##Ń": 1129,
      "##❤": 1130,
      "##📺": 1131,
      "##ḱ": 1132,
      "##ņ": 1133,
      "##ụ": 1134,
      "##¬": 1135,
      "##²": 1136,
      "##А": 1137,
      "##È": 1138,
      "##ứ": 1139,
      "##들": 1140,
      "##었": 1141,
      "##습": 1142,
      "##니": 1143,
      "##다": 1144,
      "##🌹": 1145,
      "##이": 1146,
      "##🤪": 1147,
      "##💙": 1148,
      "##ӧ": 1149,
      "##ا": 1150,
      "##ي": 1151,
      "##ˈ": 1152,
      "##ɡ": 1153,
      "##Ď": 1154,
      "##ē": 1155,
      "##👗": 1156,
      "##ǔ": 1157,
      "##ź": 1158,
      "##🙏": 1159,
      "##💚": 1160,
      "##П": 1161,
      "##❓": 1162,
      "##❗": 1163,
      "##ồ": 1164,
      "##⁶": 1165,
      "##ț": 1166,
      "##⬆": 1167,
      "##М": 1168,
      "##ǐ": 1169,
      "##ế": 1170,
      "##Э": 1171,
      "##ф": 1172,
      "##ﬂ": 1173,
      "##简": 1174,
      "##明": 1175,
      "##İ": 1176,
      "##̶": 1177,
      "##➕": 1178,
      "##🇸": 1179,
      "##🇰": 1180,
      "##💯": 1181,
      "##🔹": 1182,
      "##ǎ": 1183,
      "##🇱": 1184,
      "##Ă": 1185,
      "##😅": 1186,
      "##🙈": 1187,
      "##평": 1188,
      "##창": 1189,
      "##🐠": 1190,
      "##ת": 1191,
      "##ה": 1192,
      "##놓": 1193,
      "##아": 1194,
      "##지": 1195,
      "##고": 1196,
      "##Ł": 1197,
      "##😔": 1198,
      "##ל": 1199,
      "##ợ": 1200,
      "##÷": 1201,
      "##₂": 1202,
      "##û": 1203,
      "##ש": 1204,
      "##ׁ": 1205,
      "##י": 1206,
      "##🍾": 1207,
      "##🥂": 1208,
      "##🍻": 1209,
      "##🤗": 1210,
      "##ン": 1211,
      "##ス": 1212,
      "##タ": 1213,
      "##ー": 1214,
      "##ハ": 1215,
      "##♂": 1216,
      "##😭": 1217,
      "##😱": 1218,
      "##🤬": 1219,
      "##ħ": 1220,
      "##Ŕ": 1221,
      "##🏖": 1222,
      "##🌞": 1223,
      "##🌡": 1224,
      "##ƚ": 1225,
      "##ṣ": 1226,
      "##🏼": 1227,
      "##נ": 1228,
      "##ך": 1229,
      "##ở": 1230,
      "##Η": 1231,
      "##ǿ": 1232,
      "##³": 1233,
      "##⁄": 1234,
      "##ḿ": 1235,
      "##🎶": 1236,
      "##💪": 1237,
      "##ệ": 1238,
      "##ل": 1239,
      "##ه": 1240,
      "##Ź": 1241,
      "##ק": 1242,
      "##ן": 1243,
      "##В": 1244,
      "##Т": 1245,
      "##🤺": 1246,
      "##🇨": 1247,
      "##ộ": 1248,
      "##ả": 1249,
      "##계": 1250,
      "##인": 1251,
      "##의": 1252,
      "##😊": 1253,
      "##⬇": 1254,
      "##ر": 1255,
      "##ب": 1256,
      "##ن": 1257,
      "##😄": 1258,
      "##ờ": 1259,
      "##¼": 1260,
      "##🇩": 1261,
      "##Я": 1262,
      "##ע": 1263,
      "##ω": 1264,
      "##ά": 1265,
      "##ν": 1266,
      "##ι": 1267,
      "##Ć": 1268,
      "##א": 1269,
      "##ъ": 1270,
      "##מ": 1271,
      "##ו": 1272,
      "##ר": 1273,
      "##Φ": 1274,
      "##Ρ": 1275,
      "##Ο": 1276,
      "##Δ": 1277,
      "##Ί": 1278,
      "##Τ": 1279,
      "##ή": 1280,
      "##⁰": 1281,
      "##ţ": 1282,
      "##포": 1283,
      "##✖": 1284,
      "##ك": 1285,
      "##و": 1286,
      "##ت": 1287,
      "##ų": 1288,
      "##🇺": 1289,
      "##Å": 1290,
      "##😐": 1291,
      "##👌": 1292,
      "##👇": 1293,
      "##Ä": 1294,
      "##😉": 1295,
      "##ừ": 1296,
      "##디": 1297,
      "##어": 1298,
      "##צ": 1299,
      "##⤵": 1300,
      "##름": 1301,
      "##운": 1302,
      "##洪": 1303,
      "##鸣": 1304,
      "##ễ": 1305,
      "##Д": 1306,
      "##꽃": 1307,
      "##Ż": 1308,
      "##🌈": 1309,
      "##þ": 1310,
      "##🙂": 1311,
      "##∙": 1312,
      "##ẩ": 1313,
      "##า": 1314,
      "##ง": 1315,
      "##แ": 1316,
      "##ก": 1317,
      "##้": 1318,
      "##ว": 1319,
      "##👭": 1320,
      "##👊": 1321,
      "##Â": 1322,
      "##ִ": 1323,
      "##ב": 1324,
      "##ְ": 1325,
      "##🏆": 1326,
      "##Й": 1327,
      "##🤣": 1328,
      "##🇹": 1329,
      "##중": 1330,
      "##로": 1331,
      "##Σ": 1332,
      "##ἰ": 1333,
      "##ד": 1334,
      "##♥": 1335,
      "##Ï": 1336,
      "##음": 1337,
      "##은": 1338,
      "##ʽ": 1339,
      "##β": 1340,
      "##̀": 1341,
      "##Μ": 1342,
      "##Ή": 1343,
      "##😈": 1344,
      "##ї": 1345,
      "##λ": 1346,
      "##μ": 1347,
      "##ο": 1348,
      "##ί": 1349,
      "##🚿": 1350,
      "##부": 1351,
      "##터": 1352,
      "##♡": 1353,
      "##🤦": 1354,
      "##랐": 1355,
      "##동": 1356,
      "##으": 1357,
      "##َ": 1358,
      "##س": 1359,
      "##ْ": 1360,
      "##ļ": 1361,
      "##靖": 1362,
      "##崴": 1363,
      "##🥇": 1364,
      "##œ": 1365,
      "##ª": 1366,
      "##Ε": 1367,
      "##Ι": 1368,
      "##Ώ": 1369,
      "##Ν": 1370,
      "##Α": 1371,
      "##😥": 1372,
      "##😢": 1373,
      "##😫": 1374,
      "##Е": 1375,
      "##Н": 1376,
      "##є": 1377,
      "##ҫ": 1378,
      "##大": 1379,
      "##阪": 1380,
      "##イ": 1381,
      "##ド": 1382,
      "##ネ": 1383,
      "##シ": 1384,
      "##ア": 1385,
      "##共": 1386,
      "##和": 1387,
      "##国": 1388,
      "##総": 1389,
      "##領": 1390,
      "##事": 1391,
      "##館": 1392,
      "##🌊": 1393,
      "##Ò": 1394,
      "##ׂ": 1395,
      "##כ": 1396,
      "##師": 1397,
      "##屁": 1398,
      "##Ц": 1399,
      "##熊": 1400,
      "##貓": 1401,
      "##분": 1402,
      "##까": 1403,
      "##ŏ": 1404,
      "##🇵": 1405,
      "##ə": 1406,
      "##🕺": 1407,
      "##💃": 1408,
      "##ṭ": 1409,
      "##Л": 1410,
      "##👍": 1411,
      "##ȃ": 1412,
      "##🤙": 1413,
      "##🏾": 1414,
      "##Ш": 1415,
      "##ε": 1416,
      "##ÿ": 1417,
      "##ἴ": 1418,
      "##κ": 1419,
      "##ề": 1420,
      "##υ": 1421,
      "##⃣": 1422,
      "##ֵ": 1423,
      "##ּ": 1424,
      "##Ę": 1425,
      "##🤷": 1426,
      "##ˊ": 1427,
      "##¹": 1428,
      "##π": 1429,
      "##ũ": 1430,
      "##ĩ": 1431,
      "##🔥": 1432,
      "##✌": 1433,
      "##τ": 1434,
      "##σ": 1435,
      "##ض": 1436,
      "##ح": 1437,
      "##ى": 1438,
      "##✊": 1439,
      "##🏿": 1440,
      "##ị": 1441,
      "##🇷": 1442,
      "##😯": 1443,
      "##😲": 1444,
      "##😮": 1445,
      "##😳": 1446,
      "##회": 1447,
      "##식": 1448,
      "##ט": 1449,
      "##ַ": 1450,
      "##ס": 1451,
      "##ֹ": 1452,
      "##Ą": 1453,
      "##ṇ": 1454,
      "##￼": 1455,
      "##ῶ": 1456,
      "##γ": 1457,
      "##ς": 1458,
      "##ǒ": 1459,
      "##💋": 1460,
      "##˂": 1461,
      "##Ì": 1462,
      "##👨": 1463,
      "##👩": 1464,
      "##👧": 1465,
      "##👦": 1466,
      "##河": 1467,
      "##南": 1468,
      "##文": 1469,
      "##革": 1470,
      "##重": 1471,
      "##现": 1472,
      "##ɪ": 1473,
      "##έ": 1474,
      "##ὸ": 1475,
      "##👉": 1476,
      "##油": 1477,
      "##😨": 1478,
      "##圣": 1479,
      "##经": 1480,
      "##十": 1481,
      "##字": 1482,
      "##架": 1483,
      "##م": 1484,
      "##🛥": 1485,
      "##🔒": 1486,
      "##մ": 1487,
      "##Ꮦ": 1488,
      "##Ꭷ": 1489,
      "##©": 1490,
      "##😀": 1491,
      "##ŭ": 1492,
      "##ָ": 1493,
      "##χ": 1494,
      "##ζ": 1495,
      "##ĭ": 1496,
      "##ˌ": 1497,
      "##ʏ": 1498,
      "##🔴": 1499,
      "##モ": 1500,
      "##チ": 1501,
      "##喫": 1502,
      "##茶": 1503,
      "##店": 1504,
      "##θ": 1505,
      "##😁": 1506,
      "##🎤": 1507,
      "##½": 1508,
      "##ķ": 1509,
      "##О": 1510,
      "##Ф": 1511,
      "##🎆": 1512,
      "##Æ": 1513,
      "##≈": 1514,
      "##👸": 1515,
      "##ʹ": 1516,
      "##🎬": 1517,
      "##🎥": 1518,
      "##🎈": 1519,
      "##ז": 1520,
      "##ổ": 1521,
      "##🤞": 1522,
      "##🥤": 1523,
      "##올": 1524,
      "##림": 1525,
      "##픽": 1526,
      "##Б": 1527,
      "##Г": 1528,
      "##Ό": 1529,
      "##🇳": 1530,
      "##建": 1531,
      "##Λ": 1532,
      "##께": 1533,
      "##즐": 1534,
      "##기": 1535,
      "##세": 1536,
      "##요": 1537,
      "##☹": 1538,
      "##🥈": 1539,
      "##🥉": 1540,
      "##ģ": 1541,
      "##💎": 1542,
      "##st": 1543,
      "##ov": 1544,
      "##ní": 1545,
      "##ch": 1546,
      "##le": 1547,
      "##ou": 1548,
      "##la": 1549,
      "##ra": 1550,
      "##en": 1551,
      "po": 1552,
      "##ro": 1553,
      "##li": 1554,
      "na": 1555,
      "##te": 1556,
      "ne": 1557,
      "se": 1558,
      "##ho": 1559,
      "##em": 1560,
      "##ed": 1561,
      "##sk": 1562,
      "##ak": 1563,
      "##in": 1564,
      "př": 1565,
      "do": 1566,
      "##ce": 1567,
      "##an": 1568,
      "##al": 1569,
      "##ně": 1570,
      "je": 1571,
      "##at": 1572,
      "pro": 1573,
      "##rá": 1574,
      "##it": 1575,
      "##on": 1576,
      "##or": 1577,
      "##il": 1578,
      "za": 1579,
      "##ci": 1580,
      "##od": 1581,
      "to": 1582,
      "st": 1583,
      "##er": 1584,
      "##ku": 1585,
      "##et": 1586,
      "##el": 1587,
      "##ni": 1588,
      "##no": 1589,
      "##jí": 1590,
      "##ad": 1591,
      "vy": 1592,
      "##ka": 1593,
      "by": 1594,
      "##lo": 1595,
      "##ky": 1596,
      "že": 1597,
      "##ar": 1598,
      "##ých": 1599,
      "##ti": 1600,
      "##je": 1601,
      "##de": 1602,
      "##ší": 1603,
      "##né": 1604,
      "##om": 1605,
      "kte": 1606,
      "##ře": 1607,
      "ro": 1608,
      "##na": 1609,
      "##vě": 1610,
      "##po": 1611,
      "##va": 1612,
      "##to": 1613,
      "##ek": 1614,
      "##ří": 1615,
      "##ck": 1616,
      "##id": 1617,
      "ob": 1618,
      "##dy": 1619,
      "pr": 1620,
      "od": 1621,
      "##cí": 1622,
      "js": 1623,
      "pod": 1624,
      "##lu": 1625,
      "##es": 1626,
      "##lá": 1627,
      "##ru": 1628,
      "##tě": 1629,
      "##ová": 1630,
      "##av": 1631,
      "##mi": 1632,
      "##ná": 1633,
      "tak": 1634,
      "##ez": 1635,
      "zá": 1636,
      "##ské": 1637,
      "##sti": 1638,
      "##ob": 1639,
      "ná": 1640,
      "##mě": 1641,
      "kter": 1642,
      "##me": 1643,
      "##ko": 1644,
      "##ent": 1645,
      "##mu": 1646,
      "##ení": 1647,
      "##ové": 1648,
      "ve": 1649,
      "##by": 1650,
      "##vo": 1651,
      "si": 1652,
      "##as": 1653,
      "ně": 1654,
      "vý": 1655,
      "##ist": 1656,
      "##ál": 1657,
      "##ím": 1658,
      "##vá": 1659,
      "jak": 1660,
      "ale": 1661,
      "mě": 1662,
      "##že": 1663,
      "##dě": 1664,
      "při": 1665,
      "##am": 1666,
      "##ři": 1667,
      "##ví": 1668,
      "před": 1669,
      "##ým": 1670,
      "##át": 1671,
      "##uje": 1672,
      "##is": 1673,
      "mo": 1674,
      "bu": 1675,
      "##ká": 1676,
      "##ova": 1677,
      "##ji": 1678,
      "##nu": 1679,
      "pří": 1680,
      "##rav": 1681,
      "jed": 1682,
      "roz": 1683,
      "##da": 1684,
      "##ech": 1685,
      "##tí": 1686,
      "##led": 1687,
      "##tu": 1688,
      "ch": 1689,
      "nej": 1690,
      "##ta": 1691,
      "##lí": 1692,
      "##bo": 1693,
      "##ze": 1694,
      "##vní": 1695,
      "##nou": 1696,
      "sv": 1697,
      "##est": 1698,
      "##ého": 1699,
      "##ili": 1700,
      "##ly": 1701,
      "##ne": 1702,
      "##ný": 1703,
      "##ny": 1704,
      "##ri": 1705,
      "##čí": 1706,
      "##ční": 1707,
      "##du": 1708,
      "##tel": 1709,
      "##ovat": 1710,
      "mu": 1711,
      "##ém": 1712,
      "kon": 1713,
      "##pad": 1714,
      "##bu": 1715,
      "vš": 1716,
      "##kon": 1717,
      "Po": 1718,
      "sou": 1719,
      "spo": 1720,
      "##im": 1721,
      "##lad": 1722,
      "##up": 1723,
      "vě": 1724,
      "in": 1725,
      "##ej": 1726,
      "##hod": 1727,
      "sp": 1728,
      "mí": 1729,
      "##ním": 1730,
      "už": 1731,
      "ni": 1732,
      "##ba": 1733,
      "##ád": 1734,
      "##ště": 1735,
      "##ty": 1736,
      "ko": 1737,
      "##nost": 1738,
      "##lov": 1739,
      "##ick": 1740,
      "má": 1741,
      "re": 1742,
      "jako": 1743,
      "jsem": 1744,
      "##oval": 1745,
      "##ma": 1746,
      "20": 1747,
      "##ních": 1748,
      "let": 1749,
      "##ali": 1750,
      "##rov": 1751,
      "kdy": 1752,
      "##oru": 1753,
      "##ží": 1754,
      "##mo": 1755,
      "##dá": 1756,
      "který": 1757,
      "které": 1758,
      "##ran": 1759,
      "ho": 1760,
      "vo": 1761,
      "Na": 1762,
      "##stav": 1763,
      "##vr": 1764,
      "##vy": 1765,
      "##do": 1766,
      "##ují": 1767,
      "##ků": 1768,
      "co": 1769,
      "##lou": 1770,
      "min": 1771,
      "##ry": 1772,
      "##sí": 1773,
      "##sp": 1774,
      "##ský": 1775,
      "ví": 1776,
      "##ut": 1777,
      "vz": 1778,
      "te": 1779,
      "##řed": 1780,
      "tr": 1781,
      "##jší": 1782,
      "ma": 1783,
      "jsou": 1784,
      "##mí": 1785,
      "bude": 1786,
      "##prav": 1787,
      "##ila": 1788,
      "lid": 1789,
      "##vět": 1790,
      "nebo": 1791,
      "##bě": 1792,
      "##kou": 1793,
      "##ec": 1794,
      "jen": 1795,
      "##nosti": 1796,
      "##ev": 1797,
      "##ič": 1798,
      "##sta": 1799,
      "ka": 1800,
      "##ie": 1801,
      "##sled": 1802,
      "##stup": 1803,
      "##rát": 1804,
      "jsme": 1805,
      "##tá": 1806,
      "poli": 1807,
      "##ování": 1808,
      "aby": 1809,
      "##lav": 1810,
      "prá": 1811,
      "##ilo": 1812,
      "##kov": 1813,
      "jeho": 1814,
      "##má": 1815,
      "##sob": 1816,
      "##pu": 1817,
      "##sto": 1818,
      "pot": 1819,
      "##pe": 1820,
      "##ter": 1821,
      "##iz": 1822,
      "##alší": 1823,
      "##še": 1824,
      "dě": 1825,
      "##ního": 1826,
      "##ům": 1827,
      "také": 1828,
      "##ných": 1829,
      "##hu": 1830,
      "pra": 1831,
      "ji": 1832,
      "##ud": 1833,
      "##bí": 1834,
      "podle": 1835,
      "##ved": 1836,
      "Če": 1837,
      "vel": 1838,
      "##klad": 1839,
      "##vod": 1840,
      "Je": 1841,
      "bý": 1842,
      "##iv": 1843,
      "byl": 1844,
      "##os": 1845,
      "##ského": 1846,
      "kom": 1847,
      "##raz": 1848,
      "##sku": 1849,
      "##ovan": 1850,
      "##ve": 1851,
      "##oz": 1852,
      "##lem": 1853,
      "##dou": 1854,
      "cel": 1855,
      "##ská": 1856,
      "##leč": 1857,
      "##op": 1858,
      "ze": 1859,
      "poz": 1860,
      "další": 1861,
      "če": 1862,
      "##re": 1863,
      "nap": 1864,
      "hod": 1865,
      "##ot": 1866,
      "ří": 1867,
      "tě": 1868,
      "tu": 1869,
      "##jem": 1870,
      "##ené": 1871,
      "zp": 1872,
      "až": 1873,
      "##žit": 1874,
      "##ala": 1875,
      "##ina": 1876,
      "le": 1877,
      "která": 1878,
      "##alo": 1879,
      "##ám": 1880,
      "##dí": 1881,
      "##ir": 1882,
      "##ální": 1883,
      "##ově": 1884,
      "201": 1885,
      "moh": 1886,
      "##my": 1887,
      "##ských": 1888,
      "než": 1889,
      "Pod": 1890,
      "##ab": 1891,
      "##ruh": 1892,
      "bez": 1893,
      "nep": 1894,
      "##iná": 1895,
      "##hra": 1896,
      "##cích": 1897,
      "Pro": 1898,
      "proto": 1899,
      "##rů": 1900,
      "##koli": 1901,
      "##ného": 1902,
      "mili": 1903,
      "##ha": 1904,
      "##emi": 1905,
      "##kem": 1906,
      "##ůže": 1907,
      "##val": 1908,
      "##řej": 1909,
      "##itu": 1910,
      "##lat": 1911,
      "##iny": 1912,
      "##ět": 1913,
      "##tek": 1914,
      "##ový": 1915,
      "Pra": 1916,
      "##hy": 1917,
      "řek": 1918,
      "##ok": 1919,
      "##ic": 1920,
      "něj": 1921,
      "##zí": 1922,
      "op": 1923,
      "##zna": 1924,
      "první": 1925,
      "pů": 1926,
      "##se": 1927,
      "když": 1928,
      "##ost": 1929,
      "mez": 1930,
      "##ství": 1931,
      "stra": 1932,
      "jin": 1933,
      "přes": 1934,
      "##lé": 1935,
      "##ig": 1936,
      "ak": 1937,
      "##rop": 1938,
      "##men": 1939,
      "##si": 1940,
      "společ": 1941,
      "##pr": 1942,
      "##há": 1943,
      "##sla": 1944,
      "##nes": 1945,
      "bylo": 1946,
      "nez": 1947,
      "uved": 1948,
      "být": 1949,
      "##un": 1950,
      "tom": 1951,
      "dů": 1952,
      "##sa": 1953,
      "##for": 1954,
      "bo": 1955,
      "##oup": 1956,
      "##ace": 1957,
      "zd": 1958,
      "##kt": 1959,
      "či": 1960,
      "##cent": 1961,
      "něk": 1962,
      "##cké": 1963,
      "##last": 1964,
      "##chá": 1965,
      "druh": 1966,
      "ži": 1967,
      "##00": 1968,
      "ještě": 1969,
      "##sko": 1970,
      "To": 1971,
      "vlá": 1972,
      "kde": 1973,
      "ani": 1974,
      "##čas": 1975,
      "pou": 1976,
      "byla": 1977,
      "pře": 1978,
      "stát": 1979,
      "##chod": 1980,
      "není": 1981,
      "zač": 1982,
      "dost": 1983,
      "pak": 1984,
      "##ste": 1985,
      "##ena": 1986,
      "##itel": 1987,
      "dob": 1988,
      "##ia": 1989,
      "##ol": 1990,
      "hla": 1991,
      "19": 1992,
      "St": 1993,
      "však": 1994,
      "roce": 1995,
      "##jich": 1996,
      "##dr": 1997,
      "##nější": 1998,
      "té": 1999,
      "##ul": 2000,
      "##ur": 2001,
      "##len": 2002,
      "koru": 2003,
      "zem": 2004,
      "tý": 2005,
      "##ich": 2006,
      "mož": 2007,
      "##rod": 2008,
      "toho": 2009,
      "##vrop": 2010,
      "##ezid": 2011,
      "##stí": 2012,
      "##let": 2013,
      "##če": 2014,
      "##ček": 2015,
      "roku": 2016,
      "##vat": 2017,
      "tím": 2018,
      "##zi": 2019,
      "budou": 2020,
      "ten": 2021,
      "##kud": 2022,
      "může": 2023,
      "své": 2024,
      "##nit": 2025,
      "##stě": 2026,
      "##eme": 2027,
      "proti": 2028,
      "##art": 2029,
      "dí": 2030,
      "rozhod": 2031,
      "Ne": 2032,
      "##ových": 2033,
      "##ys": 2034,
      "##ct": 2035,
      "##ovala": 2036,
      "mezi": 2037,
      "##mé": 2038,
      "##ovi": 2039,
      "##zení": 2040,
      "ved": 2041,
      "sk": 2042,
      "všech": 2043,
      "vys": 2044,
      "případ": 2045,
      "stá": 2046,
      "##ska": 2047,
      "##rit": 2048,
      "jedno": 2049,
      "##isí": 2050,
      "korun": 2051,
      "jejich": 2052,
      "##ana": 2053,
      "##čně": 2054,
      "##ár": 2055,
      "ex": 2056,
      "##di": 2057,
      "##ovou": 2058,
      "##spě": 2059,
      "##pl": 2060,
      "##luv": 2061,
      "##mer": 2062,
      "politi": 2063,
      "##gra": 2064,
      "##kaz": 2065,
      "kteří": 2066,
      "##hrá": 2067,
      "##ového": 2068,
      "de": 2069,
      "sku": 2070,
      "vá": 2071,
      "##ezident": 2072,
      "##hled": 2073,
      "##cie": 2074,
      "Podle": 2075,
      "##bli": 2076,
      "pa": 2077,
      "##tem": 2078,
      "sy": 2079,
      "mi": 2080,
      "nad": 2081,
      "##inu": 2082,
      "##vů": 2083,
      "##ců": 2084,
      "řekl": 2085,
      "##ži": 2086,
      "##či": 2087,
      "##us": 2088,
      "##ily": 2089,
      "svě": 2090,
      "##řeba": 2091,
      "procent": 2092,
      "Jak": 2093,
      "##vají": 2094,
      "os": 2095,
      "jí": 2096,
      "##co": 2097,
      "##zd": 2098,
      "##vot": 2099,
      "sa": 2100,
      "##ovali": 2101,
      "tam": 2102,
      "##tej": 2103,
      "ru": 2104,
      "##án": 2105,
      "lé": 2106,
      "##ená": 2107,
      "Za": 2108,
      "rod": 2109,
      "##nout": 2110,
      "##ině": 2111,
      "##šení": 2112,
      "##um": 2113,
      "##and": 2114,
      "čá": 2115,
      "##edy": 2116,
      "An": 2117,
      "##rat": 2118,
      "sam": 2119,
      "##rg": 2120,
      "ty": 2121,
      "des": 2122,
      "prav": 2123,
      "vět": 2124,
      "minist": 2125,
      "fir": 2126,
      "nás": 2127,
      "##ený": 2128,
      "vlast": 2129,
      "##tech": 2130,
      "##žd": 2131,
      "##hem": 2132,
      "##ké": 2133,
      "její": 2134,
      "##čit": 2135,
      "##stat": 2136,
      "dva": 2137,
      "tomu": 2138,
      "Ale": 2139,
      "##ším": 2140,
      "více": 2141,
      "Ma": 2142,
      "zv": 2143,
      "##oci": 2144,
      "##hla": 2145,
      "##bor": 2146,
      "##čet": 2147,
      "hra": 2148,
      "tisí": 2149,
      "posled": 2150,
      "##pa": 2151,
      "##ady": 2152,
      "prezident": 2153,
      "##nice": 2154,
      "mno": 2155,
      "##ing": 2156,
      "ní": 2157,
      "##log": 2158,
      "čt": 2159,
      "prac": 2160,
      "ta": 2161,
      "##skou": 2162,
      "##ver": 2163,
      "##iš": 2164,
      "##ným": 2165,
      "pov": 2166,
      "Ně": 2167,
      "prost": 2168,
      "##ické": 2169,
      "##říklad": 2170,
      "lidí": 2171,
      "bě": 2172,
      "##vé": 2173,
      "##ik": 2174,
      "záp": 2175,
      "tři": 2176,
      "protože": 2177,
      "několi": 2178,
      "Ch": 2179,
      "Do": 2180,
      "aut": 2181,
      "##lep": 2182,
      "di": 2183,
      "##vůli": 2184,
      "zat": 2185,
      "milion": 2186,
      "měl": 2187,
      "##lém": 2188,
      "##ych": 2189,
      "##sed": 2190,
      "##ští": 2191,
      "mají": 2192,
      "##ub": 2193,
      "kra": 2194,
      "##aly": 2195,
      "čer": 2196,
      "##kla": 2197,
      "##chy": 2198,
      "čas": 2199,
      "prob": 2200,
      "Evrop": 2201,
      "cest": 2202,
      "stav": 2203,
      "infor": 2204,
      "##řet": 2205,
      "##ast": 2206,
      "Kdy": 2207,
      "žád": 2208,
      "nemo": 2209,
      "##ření": 2210,
      "##mp": 2211,
      "##tor": 2212,
      "sta": 2213,
      "##lení": 2214,
      "##sky": 2215,
      "Mo": 2216,
      "spolu": 2217,
      "##kra": 2218,
      "##eny": 2219,
      "##van": 2220,
      "##chu": 2221,
      "##ion": 2222,
      "##sou": 2223,
      "##nutí": 2224,
      "##ském": 2225,
      "Nej": 2226,
      "dá": 2227,
      "tra": 2228,
      "hrá": 2229,
      "čty": 2230,
      "musí": 2231,
      "##jící": 2232,
      "##vali": 2233,
      "zápas": 2234,
      "##pom": 2235,
      "slu": 2236,
      "Ve": 2237,
      "nov": 2238,
      "##roz": 2239,
      "ře": 2240,
      "vů": 2241,
      "##káz": 2242,
      "##su": 2243,
      "uvedl": 2244,
      "##ši": 2245,
      "##nil": 2246,
      "##řel": 2247,
      "sto": 2248,
      "##rob": 2249,
      "##vou": 2250,
      "##hlá": 2251,
      "nich": 2252,
      "au": 2253,
      "tedy": 2254,
      "Ji": 2255,
      "##eně": 2256,
      "##ber": 2257,
      "##čka": 2258,
      "osob": 2259,
      "##žel": 2260,
      "vyš": 2261,
      "##ková": 2262,
      "pat": 2263,
      "dnes": 2264,
      "stej": 2265,
      "##ice": 2266,
      "##řad": 2267,
      "třeba": 2268,
      "prů": 2269,
      "kvůli": 2270,
      "##vu": 2271,
      "dlou": 2272,
      "ško": 2273,
      "chy": 2274,
      "##ner": 2275,
      "mluv": 2276,
      "pop": 2277,
      "Bab": 2278,
      "##loven": 2279,
      "##ými": 2280,
      "##ležit": 2281,
      "rad": 2282,
      "##žení": 2283,
      "Mar": 2284,
      "například": 2285,
      "sch": 2286,
      "nějak": 2287,
      "ke": 2288,
      "##jed": 2289,
      "Ka": 2290,
      "seb": 2291,
      "sil": 2292,
      "##ném": 2293,
      "tisíc": 2294,
      "sm": 2295,
      "##měr": 2296,
      "Zá": 2297,
      "##ard": 2298,
      "představ": 2299,
      "kam": 2300,
      "nech": 2301,
      "neby": 2302,
      "##tní": 2303,
      "##ující": 2304,
      "an": 2305,
      "Tak": 2306,
      "##čil": 2307,
      "##aci": 2308,
      "zna": 2309,
      "##álně": 2310,
      "##zor": 2311,
      "ov": 2312,
      "##lní": 2313,
      "čtvr": 2314,
      "##nění": 2315,
      "sí": 2316,
      "zí": 2317,
      "vol": 2318,
      "pla": 2319,
      "##stoup": 2320,
      "nedo": 2321,
      "proje": 2322,
      "##tiž": 2323,
      "##ůst": 2324,
      "##oni": 2325,
      "##zná": 2326,
      "každ": 2327,
      "##zy": 2328,
      "Vy": 2329,
      "##ér": 2330,
      "totiž": 2331,
      "##měst": 2332,
      "##tr": 2333,
      "již": 2334,
      "míst": 2335,
      "##tiv": 2336,
      "bych": 2337,
      "dem": 2338,
      "##sté": 2339,
      "##sil": 2340,
      "##ané": 2341,
      "par": 2342,
      "problém": 2343,
      "změ": 2344,
      "##por": 2345,
      "nabí": 2346,
      "prov": 2347,
      "mod": 2348,
      "podob": 2349,
      "##nik": 2350,
      "##fi": 2351,
      "zahra": 2352,
      "##lán": 2353,
      "##jen": 2354,
      "##čení": 2355,
      "pomo": 2356,
      "##řád": 2357,
      "velmi": 2358,
      "místo": 2359,
      "##ách": 2360,
      "##inan": 2361,
      "##rch": 2362,
      "##cký": 2363,
      "což": 2364,
      "##yní": 2365,
      "fun": 2366,
      "nám": 2367,
      "dvě": 2368,
      "##pra": 2369,
      "asi": 2370,
      "nic": 2371,
      "##ag": 2372,
      "Když": 2373,
      "Ru": 2374,
      "##měř": 2375,
      "##rom": 2376,
      "mít": 2377,
      "##ít": 2378,
      "Zem": 2379,
      "##ovní": 2380,
      "##liv": 2381,
      "kont": 2382,
      "střed": 2383,
      "bod": 2384,
      "nik": 2385,
      "##nov": 2386,
      "týd": 2387,
      "vod": 2388,
      "##kr": 2389,
      "říká": 2390,
      "Pr": 2391,
      "Od": 2392,
      "In": 2393,
      "##ráv": 2394,
      "##tele": 2395,
      "##ává": 2396,
      "vid": 2397,
      "Ná": 2398,
      "##entu": 2399,
      "##hle": 2400,
      "chtě": 2401,
      "##ene": 2402,
      "tele": 2403,
      "úč": 2404,
      "##jde": 2405,
      "cz": 2406,
      "##hl": 2407,
      "##ždy": 2408,
      "##pí": 2409,
      "lidé": 2410,
      "lo": 2411,
      "##sá": 2412,
      "##rost": 2413,
      "##eno": 2414,
      "situ": 2415,
      "mé": 2416,
      "##peč": 2417,
      "##dal": 2418,
      "sna": 2419,
      "##ůsob": 2420,
      "##rán": 2421,
      "By": 2422,
      "několik": 2423,
      "jim": 2424,
      "soci": 2425,
      "den": 2426,
      "##děli": 2427,
      "##ností": 2428,
      "##eň": 2429,
      "##teč": 2430,
      "úto": 2431,
      "##nání": 2432,
      "##nat": 2433,
      "##sad": 2434,
      "Pet": 2435,
      "nes": 2436,
      "##věd": 2437,
      "dom": 2438,
      "##nici": 2439,
      "##bra": 2440,
      "##man": 2441,
      "##ník": 2442,
      "##stra": 2443,
      "##ane": 2444,
      "li": 2445,
      "měsí": 2446,
      "letech": 2447,
      "##publi": 2448,
      "bud": 2449,
      "##lik": 2450,
      "Bo": 2451,
      "##uni": 2452,
      "svět": 2453,
      "skup": 2454,
      "met": 2455,
      "soud": 2456,
      "##šel": 2457,
      "zatím": 2458,
      "##čky": 2459,
      "mluvčí": 2460,
      "amer": 2461,
      "##ovo": 2462,
      "pá": 2463,
      "zná": 2464,
      "org": 2465,
      "##šem": 2466,
      "##ii": 2467,
      "kole": 2468,
      "Jed": 2469,
      "##ale": 2470,
      "kterou": 2471,
      "##zem": 2472,
      "##řit": 2473,
      "##imo": 2474,
      "##lož": 2475,
      "neu": 2476,
      "##roj": 2477,
      "rok": 2478,
      "minu": 2479,
      "něco": 2480,
      "##šť": 2481,
      "obchod": 2482,
      "šp": 2483,
      "##inou": 2484,
      "Co": 2485,
      "stud": 2486,
      "ur": 2487,
      "##řejmě": 2488,
      "##ůj": 2489,
      "##oda": 2490,
      "Pokud": 2491,
      "hlav": 2492,
      "dokon": 2493,
      "15": 2494,
      "tvr": 2495,
      "##NO": 2496,
      "##lově": 2497,
      "součas": 2498,
      "sob": 2499,
      "##víc": 2500,
      "mus": 2501,
      "Re": 2502,
      "##ari": 2503,
      "##ín": 2504,
      "měla": 2505,
      "nev": 2506,
      "mal": 2507,
      "Babiš": 2508,
      "kli": 2509,
      "sed": 2510,
      "nebu": 2511,
      "##erst": 2512,
      "klu": 2513,
      "cí": 2514,
      "##rad": 2515,
      "ag": 2516,
      "ČS": 2517,
      "jste": 2518,
      "informa": 2519,
      "rych": 2520,
      "##jeme": 2521,
      "jeden": 2522,
      "třet": 2523,
      "##ání": 2524,
      "život": 2525,
      "##zu": 2526,
      "Jan": 2527,
      "byly": 2528,
      "##bec": 2529,
      "##zku": 2530,
      "##ence": 2531,
      "premi": 2532,
      "hlavní": 2533,
      "dál": 2534,
      "##děl": 2535,
      "Při": 2536,
      "zdra": 2537,
      "##cky": 2538,
      "veřej": 2539,
      "ote": 2540,
      "finan": 2541,
      "nevy": 2542,
      "společnosti": 2543,
      "chce": 2544,
      "přest": 2545,
      "##řeb": 2546,
      "zákon": 2547,
      "##losti": 2548,
      "republi": 2549,
      "stále": 2550,
      "##tra": 2551,
      "dvou": 2552,
      "10": 2553,
      "##cha": 2554,
      "##ory": 2555,
      "##kové": 2556,
      "##enci": 2557,
      "pě": 2558,
      "ANO": 2559,
      "řad": 2560,
      "nyní": 2561,
      "##lád": 2562,
      "##za": 2563,
      "obje": 2564,
      "právě": 2565,
      "fil": 2566,
      "nové": 2567,
      "##nd": 2568,
      "země": 2569,
      "vyp": 2570,
      "##vi": 2571,
      "ti": 2572,
      "200": 2573,
      "##hru": 2574,
      "deset": 2575,
      "vyu": 2576,
      "Te": 2577,
      "Br": 2578,
      "zak": 2579,
      "##ity": 2580,
      "##cem": 2581,
      "##té": 2582,
      "##éf": 2583,
      "##tká": 2584,
      "##anou": 2585,
      "Ko": 2586,
      "mlad": 2587,
      "##vis": 2588,
      "červ": 2589,
      "##ůž": 2590,
      "větš": 2591,
      "##aniz": 2592,
      "##ati": 2593,
      "Tru": 2594,
      "##ckého": 2595,
      "Fran": 2596,
      "přek": 2597,
      "US": 2598,
      "##aně": 2599,
      "man": 2600,
      "krá": 2601,
      "měli": 2602,
      "získ": 2603,
      "odp": 2604,
      "trest": 2605,
      "pl": 2606,
      "způsob": 2607,
      "##voj": 2608,
      "tech": 2609,
      "mohou": 2610,
      "##ckých": 2611,
      "Před": 2612,
      "##fer": 2613,
      "##az": 2614,
      "ode": 2615,
      "zab": 2616,
      "Vý": 2617,
      "##lit": 2618,
      "##ským": 2619,
      "době": 2620,
      "zahrani": 2621,
      "tro": 2622,
      "někter": 2623,
      "hlas": 2624,
      "Spo": 2625,
      "##odu": 2626,
      "##těz": 2627,
      "##ický": 2628,
      "čtyři": 2629,
      "doprav": 2630,
      "dop": 2631,
      "oprav": 2632,
      "velk": 2633,
      "##rt": 2634,
      "uni": 2635,
      "pouze": 2636,
      "Ten": 2637,
      "##eb": 2638,
      "ča": 2639,
      "##enou": 2640,
      "těch": 2641,
      "postup": 2642,
      "pět": 2643,
      "##sal": 2644,
      "tým": 2645,
      "##istor": 2646,
      "milionů": 2647,
      "sez": 2648,
      "část": 2649,
      "##mat": 2650,
      "##sle": 2651,
      "cent": 2652,
      "Ja": 2653,
      "kolem": 2654,
      "##mou": 2655,
      "##oto": 2656,
      "připrav": 2657,
      "násled": 2658,
      "##vatel": 2659,
      "##nan": 2660,
      "##slav": 2661,
      "prostřed": 2662,
      "řed": 2663,
      "nepo": 2664,
      "moc": 2665,
      "fot": 2666,
      "##krát": 2667,
      "##ort": 2668,
      "pož": 2669,
      "rek": 2670,
      "konce": 2671,
      "nem": 2672,
      "##cká": 2673,
      "##lekt": 2674,
      "mimo": 2675,
      "##gu": 2676,
      "strany": 2677,
      "##ák": 2678,
      "##ených": 2679,
      "##kách": 2680,
      "muž": 2681,
      "star": 2682,
      "Kar": 2683,
      "nemá": 2684,
      "##leb": 2685,
      "##dní": 2686,
      "byli": 2687,
      "##nem": 2688,
      "nemoc": 2689,
      "12": 2690,
      "dobr": 2691,
      "##vyš": 2692,
      "##esti": 2693,
      "##ůz": 2694,
      "##roveň": 2695,
      "##žil": 2696,
      "náv": 2697,
      "posla": 2698,
      "kro": 2699,
      "Bu": 2700,
      "och": 2701,
      "##šlo": 2702,
      "##race": 2703,
      "teď": 2704,
      "cen": 2705,
      "rá": 2706,
      "##onu": 2707,
      "##děla": 2708,
      "oko": 2709,
      "skon": 2710,
      "##ktu": 2711,
      "led": 2712,
      "tento": 2713,
      "##átku": 2714,
      "dr": 2715,
      "##větší": 2716,
      "během": 2717,
      "případě": 2718,
      "##tů": 2719,
      "##vý": 2720,
      "člově": 2721,
      "Tom": 2722,
      "##šit": 2723,
      "##stá": 2724,
      "Ob": 2725,
      "##sem": 2726,
      "práce": 2727,
      "poslední": 2728,
      "histor": 2729,
      "##ované": 2730,
      "člen": 2731,
      "no": 2732,
      "zaměst": 2733,
      "domá": 2734,
      "##čních": 2735,
      "kraj": 2736,
      "##řil": 2737,
      "vlastní": 2738,
      "##SD": 2739,
      "##oš": 2740,
      "gó": 2741,
      "##he": 2742,
      "##son": 2743,
      "kou": 2744,
      "stan": 2745,
      "těž": 2746,
      "lí": 2747,
      "svou": 2748,
      "šéf": 2749,
      "uz": 2750,
      "jiné": 2751,
      "pokud": 2752,
      "##konom": 2753,
      "##rodní": 2754,
      "jde": 2755,
      "Mu": 2756,
      "##nad": 2757,
      "USA": 2758,
      "dne": 2759,
      "##sy": 2760,
      "dobře": 2761,
      "Li": 2762,
      "18": 2763,
      "##kce": 2764,
      "hodno": 2765,
      "elekt": 2766,
      "podni": 2767,
      "##eni": 2768,
      "##hruba": 2769,
      "ban": 2770,
      "##ato": 2771,
      "navíc": 2772,
      "živo": 2773,
      "progra": 2774,
      "hodně": 2775,
      "##opak": 2776,
      "Praze": 2777,
      "organiz": 2778,
      "Pře": 2779,
      "##mín": 2780,
      "##níků": 2781,
      "vždy": 2782,
      "všechny": 2783,
      "##chází": 2784,
      "Jen": 2785,
      "##vání": 2786,
      "Lu": 2787,
      "##čer": 2788,
      "zda": 2789,
      "dalších": 2790,
      "kdo": 2791,
      "##au": 2792,
      "Zeman": 2793,
      "svého": 2794,
      "##liš": 2795,
      "##bal": 2796,
      "této": 2797,
      "##hov": 2798,
      "býval": 2799,
      "mys": 2800,
      "přit": 2801,
      "pí": 2802,
      "##ář": 2803,
      "##jít": 2804,
      "rov": 2805,
      "vyt": 2806,
      "komuni": 2807,
      "podí": 2808,
      "vysvět": 2809,
      "##ráž": 2810,
      "zap": 2811,
      "provoz": 2812,
      "vůbec": 2813,
      "my": 2814,
      "up": 2815,
      "##slu": 2816,
      "tří": 2817,
      "postav": 2818,
      "##ceti": 2819,
      "spe": 2820,
      "Sou": 2821,
      "##ned": 2822,
      "pořád": 2823,
      "vše": 2824,
      "11": 2825,
      "měst": 2826,
      "##prá": 2827,
      "ministerst": 2828,
      "něm": 2829,
      "demok": 2830,
      "2018": 2831,
      "##sah": 2832,
      "ekonom": 2833,
      "České": 2834,
      "##ovém": 2835,
      "Mě": 2836,
      "##pli": 2837,
      "víc": 2838,
      "du": 2839,
      "výro": 2840,
      "##nila": 2841,
      "##čku": 2842,
      "ČSSD": 2843,
      "Vá": 2844,
      "##ňuje": 2845,
      "##ron": 2846,
      "##ment": 2847,
      "zhruba": 2848,
      "auto": 2849,
      "druhé": 2850,
      "nemě": 2851,
      "jas": 2852,
      "##žně": 2853,
      "##dek": 2854,
      "list": 2855,
      "##lon": 2856,
      "Něme": 2857,
      "základ": 2858,
      "##cela": 2859,
      "úspě": 2860,
      "##ději": 2861,
      "vlády": 2862,
      "##stru": 2863,
      "##obil": 2864,
      "##plo": 2865,
      "šest": 2866,
      "##spo": 2867,
      "##raž": 2868,
      "Ho": 2869,
      "##tkání": 2870,
      "##jet": 2871,
      "##dob": 2872,
      "krit": 2873,
      "30": 2874,
      "##net": 2875,
      "boj": 2876,
      "##andid": 2877,
      "##ga": 2878,
      "půl": 2879,
      "svých": 2880,
      "##hou": 2881,
      "##lil": 2882,
      "Mart": 2883,
      "##teri": 2884,
      "br": 2885,
      "služ": 2886,
      "Jiří": 2887,
      "##lez": 2888,
      "děti": 2889,
      "zprá": 2890,
      "poku": 2891,
      "##řilo": 2892,
      "##tivní": 2893,
      "kvali": 2894,
      "##hdy": 2895,
      "otá": 2896,
      "obě": 2897,
      "letos": 2898,
      "plat": 2899,
      "##inky": 2900,
      "##tal": 2901,
      "##letí": 2902,
      "##lek": 2903,
      "díky": 2904,
      "her": 2905,
      "já": 2906,
      "##níci": 2907,
      "praž": 2908,
      "##evším": 2909,
      "zde": 2910,
      "kan": 2911,
      "##hlí": 2912,
      "##čan": 2913,
      "##plně": 2914,
      "##lepší": 2915,
      "##bav": 2916,
      "zůst": 2917,
      "##drž": 2918,
      "zku": 2919,
      "bezpeč": 2920,
      "čin": 2921,
      "závod": 2922,
      "otev": 2923,
      "světa": 2924,
      "##čá": 2925,
      "Praha": 2926,
      "oby": 2927,
      "Trump": 2928,
      "##ond": 2929,
      "vyj": 2930,
      "chví": 2931,
      "##lím": 2932,
      "policie": 2933,
      "zra": 2934,
      "##rál": 2935,
      "úda": 2936,
      "##omet": 2937,
      "rád": 2938,
      "takže": 2939,
      "přím": 2940,
      "##icky": 2941,
      "med": 2942,
      "firmy": 2943,
      "##krač": 2944,
      "##idič": 2945,
      "hor": 2946,
      "téměř": 2947,
      "##eč": 2948,
      "##št": 2949,
      "##nými": 2950,
      "Nov": 2951,
      "##cím": 2952,
      "##ichni": 2953,
      "##ovalo": 2954,
      "umě": 2955,
      "Pav": 2956,
      "vás": 2957,
      "inter": 2958,
      "kr": 2959,
      "om": 2960,
      "Roz": 2961,
      "největší": 2962,
      "prohlá": 2963,
      "vi": 2964,
      "ček": 2965,
      "##ických": 2966,
      "##áz": 2967,
      "nejen": 2968,
      "čtvrt": 2969,
      "dokonce": 2970,
      "uli": 2971,
      "nabíd": 2972,
      "svůj": 2973,
      "stejně": 2974,
      "vedení": 2975,
      "dří": 2976,
      "ku": 2977,
      "##znam": 2978,
      "Sp": 2979,
      "##šet": 2980,
      "##nal": 2981,
      "##ata": 2982,
      "města": 2983,
      "mist": 2984,
      "##dil": 2985,
      "pos": 2986,
      "návr": 2987,
      "sice": 2988,
      "for": 2989,
      "##jist": 2990,
      "důvod": 2991,
      "##oví": 2992,
      "polici": 2993,
      "##ely": 2994,
      "potvr": 2995,
      "pár": 2996,
      "sebe": 2997,
      "přitom": 2998,
      "EU": 2999,
      "poč": 3000,
      "##vid": 3001,
      "13": 3002,
      "sr": 3003,
      "##nict": 3004,
      "soutě": 3005,
      "zvý": 3006,
      "14": 3007,
      "##álních": 3008,
      "zdravot": 3009,
      "uvedla": 3010,
      "Mich": 3011,
      "##ezent": 3012,
      "Ta": 3013,
      "často": 3014,
      "kandid": 3015,
      "především": 3016,
      "vám": 3017,
      "mohl": 3018,
      "loni": 3019,
      "bran": 3020,
      "vítěz": 3021,
      "##inále": 3022,
      "Já": 3023,
      "předsed": 3024,
      "růz": 3025,
      "##pozi": 3026,
      "spí": 3027,
      "úřad": 3028,
      "evrop": 3029,
      "Le": 3030,
      "výkon": 3031,
      "působ": 3032,
      "jednot": 3033,
      "každý": 3034,
      "Česku": 3035,
      "odmí": 3036,
      "pokrač": 3037,
      "nakon": 3038,
      "Amer": 3039,
      "ja": 3040,
      "##ích": 3041,
      "zase": 3042,
      "miliar": 3043,
      "Brit": 3044,
      "##ici": 3045,
      "Pří": 3046,
      "výraz": 3047,
      "##min": 3048,
      "nebude": 3049,
      "ostat": 3050,
      "Kr": 3051,
      "oh": 3052,
      "určit": 3053,
      "##ivní": 3054,
      "##ývá": 3055,
      "dodal": 3056,
      "div": 3057,
      "nakonec": 3058,
      "va": 3059,
      "autor": 3060,
      "##hat": 3061,
      "možné": 3062,
      "##lan": 3063,
      "##ozřejmě": 3064,
      "ředitel": 3065,
      "##ména": 3066,
      "da": 3067,
      "větší": 3068,
      "výsled": 3069,
      "##ckou": 3070,
      "fak": 3071,
      "##stli": 3072,
      "##aví": 3073,
      "##én": 3074,
      "trené": 3075,
      "tur": 3076,
      "vla": 3077,
      "##stém": 3078,
      "hlavně": 3079,
      "roky": 3080,
      "dos": 3081,
      "##les": 3082,
      "odbor": 3083,
      "části": 3084,
      "místě": 3085,
      "původ": 3086,
      "##kod": 3087,
      "##ise": 3088,
      "16": 3089,
      "Kon": 3090,
      "##lý": 3091,
      "autom": 3092,
      "##méně": 3093,
      "##tečně": 3094,
      "##kro": 3095,
      "##koliv": 3096,
      "##ovaly": 3097,
      "lety": 3098,
      "17": 3099,
      "ovšem": 3100,
      "vyšet": 3101,
      "plán": 3102,
      "pan": 3103,
      "##stu": 3104,
      "al": 3105,
      "naše": 3106,
      "patří": 3107,
      "##čila": 3108,
      "##aj": 3109,
      "25": 3110,
      "neb": 3111,
      "##pis": 3112,
      "pravid": 3113,
      "Sloven": 3114,
      "##ef": 3115,
      "pode": 3116,
      "kap": 3117,
      "##sty": 3118,
      "##dala": 3119,
      "##uk": 3120,
      "##mys": 3121,
      "začí": 3122,
      "speci": 3123,
      "##poč": 3124,
      "##novu": 3125,
      "posledních": 3126,
      "chod": 3127,
      "tady": 3128,
      "##ovatel": 3129,
      "voleb": 3130,
      "ar": 3131,
      "Pa": 3132,
      "##pozor": 3133,
      "##átor": 3134,
      "##rati": 3135,
      "české": 3136,
      "##ge": 3137,
      "##teli": 3138,
      "##kup": 3139,
      "##dělá": 3140,
      "důležit": 3141,
      "vypad": 3142,
      "##ovky": 3143,
      "Má": 3144,
      "reg": 3145,
      "procenta": 3146,
      "##mov": 3147,
      "přev": 3148,
      "##hor": 3149,
      "prode": 3150,
      "##ony": 3151,
      "##eníze": 3152,
      "kontro": 3153,
      "##ického": 3154,
      "voz": 3155,
      "vál": 3156,
      "zákaz": 3157,
      "ozná": 3158,
      "jist": 3159,
      "##šla": 3160,
      "lep": 3161,
      "ČR": 3162,
      "##per": 3163,
      "máme": 3164,
      "dis": 3165,
      "##cou": 3166,
      "noviná": 3167,
      "ktor": 3168,
      "##cti": 3169,
      "##osti": 3170,
      "Bar": 3171,
      "pon": 3172,
      "plá": 3173,
      "Petr": 3174,
      "polov": 3175,
      "##vest": 3176,
      "jej": 3177,
      "##vky": 3178,
      "##kci": 3179,
      "Mi": 3180,
      "Lid": 3181,
      "jedin": 3182,
      "žen": 3183,
      "##čního": 3184,
      "so": 3185,
      "zt": 3186,
      "##pě": 3187,
      "##letý": 3188,
      "Al": 3189,
      "minul": 3190,
      "návště": 3191,
      "##kům": 3192,
      "ozna": 3193,
      "objev": 3194,
      "##cen": 3195,
      "##kal": 3196,
      "produ": 3197,
      "##ovým": 3198,
      "##skyt": 3199,
      "Pl": 3200,
      "společnost": 3201,
      "##byt": 3202,
      "obdob": 3203,
      "##ij": 3204,
      "jednání": 3205,
      "letoš": 3206,
      "nejlepší": 3207,
      "prý": 3208,
      "Už": 3209,
      "##álu": 3210,
      "opět": 3211,
      "##nů": 3212,
      "##šek": 3213,
      "Poli": 3214,
      "on": 3215,
      "blí": 3216,
      "vzta": 3217,
      "##bou": 3218,
      "pad": 3219,
      "##šen": 3220,
      "gene": 3221,
      "##viz": 3222,
      "##ická": 3223,
      "dosta": 3224,
      "nikdy": 3225,
      "Rad": 3226,
      "údaj": 3227,
      "poté": 3228,
      "##cení": 3229,
      "##kli": 3230,
      "##olog": 3231,
      "per": 3232,
      "ps": 3233,
      "hled": 3234,
      "##ovy": 3235,
      "##četně": 3236,
      "velké": 3237,
      "prof": 3238,
      "##zra": 3239,
      "systém": 3240,
      "řidič": 3241,
      "úplně": 3242,
      "##ovaž": 3243,
      "##jím": 3244,
      "##cit": 3245,
      "##cet": 3246,
      "##prvé": 3247,
      "práci": 3248,
      "celé": 3249,
      "počí": 3250,
      "##rou": 3251,
      "ost": 3252,
      "podmín": 3253,
      "##rní": 3254,
      "připom": 3255,
      "##isk": 3256,
      "svo": 3257,
      "##klá": 3258,
      "##nic": 3259,
      "neza": 3260,
      "ČT": 3261,
      "trochu": 3262,
      "Čech": 3263,
      "Tomá": 3264,
      "##hli": 3265,
      "fung": 3266,
      "využí": 3267,
      "výrob": 3268,
      "opravdu": 3269,
      "##jení": 3270,
      "##raci": 3271,
      "sně": 3272,
      "svým": 3273,
      "obla": 3274,
      "##gy": 3275,
      "třetí": 3276,
      "náro": 3277,
      "potřeb": 3278,
      "su": 3279,
      "##uj": 3280,
      "##aliz": 3281,
      "léka": 3282,
      "Ba": 3283,
      "rám": 3284,
      "##end": 3285,
      "slov": 3286,
      "schop": 3287,
      "chvíli": 3288,
      "##dit": 3289,
      "dodá": 3290,
      "kni": 3291,
      "svém": 3292,
      "peníze": 3293,
      "včetně": 3294,
      "osm": 3295,
      "prezidenta": 3296,
      "##šil": 3297,
      "snad": 3298,
      "upozor": 3299,
      "Ví": 3300,
      "přij": 3301,
      "sport": 3302,
      "sám": 3303,
      "řekla": 3304,
      "zástup": 3305,
      "pre": 3306,
      "##mů": 3307,
      "dopl": 3308,
      "##stů": 3309,
      "##žší": 3310,
      "šan": 3311,
      "sedm": 3312,
      "hodin": 3313,
      "muse": 3314,
      "jedn": 3315,
      "bře": 3316,
      "##ff": 3317,
      "všechno": 3318,
      "##vala": 3319,
      "agentu": 3320,
      "##padu": 3321,
      "Cel": 3322,
      "##řů": 3323,
      "vyh": 3324,
      "men": 3325,
      "stojí": 3326,
      "##štění": 3327,
      "##ovaný": 3328,
      "květ": 3329,
      "zví": 3330,
      "##koho": 3331,
      "##py": 3332,
      "foto": 3333,
      "##lů": 3334,
      "hned": 3335,
      "později": 3336,
      "##šli": 3337,
      "premiér": 3338,
      "znovu": 3339,
      "##ilomet": 3340,
      "manžel": 3341,
      "pu": 3342,
      "##prac": 3343,
      "##teg": 3344,
      "##ton": 3345,
      "vyz": 3346,
      "použí": 3347,
      "všichni": 3348,
      "zaměstnan": 3349,
      "##pod": 3350,
      "##otu": 3351,
      "##kam": 3352,
      "Prá": 3353,
      "Proto": 3354,
      "bar": 3355,
      "##elu": 3356,
      "dostal": 3357,
      "##nej": 3358,
      "závě": 3359,
      "nedá": 3360,
      "špat": 3361,
      "miliardy": 3362,
      "##ejména": 3363,
      "ukáz": 3364,
      "abych": 3365,
      "nav": 3366,
      "něme": 3367,
      "repr": 3368,
      "několika": 3369,
      "##prve": 3370,
      "aktiv": 3371,
      "##rie": 3372,
      "člověk": 3373,
      "ot": 3374,
      "##běh": 3375,
      "nejsou": 3376,
      "zách": 3377,
      "dota": 3378,
      "##pro": 3379,
      "##lost": 3380,
      "##řá": 3381,
      "##cház": 3382,
      "pohy": 3383,
      "Vel": 3384,
      "zároveň": 3385,
      "jestli": 3386,
      "čí": 3387,
      "##čem": 3388,
      "pěti": 3389,
      "Min": 3390,
      "##kovi": 3391,
      "mig": 3392,
      "veli": 3393,
      "##čním": 3394,
      "##atím": 3395,
      "otáz": 3396,
      "##hrál": 3397,
      "tomto": 3398,
      "##nému": 3399,
      "loň": 3400,
      "utkání": 3401,
      "sní": 3402,
      "pri": 3403,
      "ba": 3404,
      "##vyšší": 3405,
      "##jní": 3406,
      "vláda": 3407,
      "Par": 3408,
      "věci": 3409,
      "##čů": 3410,
      "občan": 3411,
      "Čí": 3412,
      "##éra": 3413,
      "##kami": 3414,
      "proč": 3415,
      "rámci": 3416,
      "někdo": 3417,
      "kri": 3418,
      "umí": 3419,
      "možná": 3420,
      "##poru": 3421,
      "##ca": 3422,
      "Ku": 3423,
      "##lin": 3424,
      "##žní": 3425,
      "##ince": 3426,
      "pohled": 3427,
      "##chop": 3428,
      "pracovní": 3429,
      "##nerg": 3430,
      "lá": 3431,
      "ver": 3432,
      "týden": 3433,
      "##spoň": 3434,
      "##řízení": 3435,
      "hosp": 3436,
      "Martin": 3437,
      "uzav": 3438,
      "kul": 3439,
      "sociální": 3440,
      "dola": 3441,
      "Něk": 3442,
      "##kají": 3443,
      "tehdy": 3444,
      "jedna": 3445,
      "situace": 3446,
      "##líb": 3447,
      "smlou": 3448,
      "hok": 3449,
      "##žen": 3450,
      "##cháze": 3451,
      "Nem": 3452,
      "##her": 3453,
      "lepší": 3454,
      "dobu": 3455,
      "hy": 3456,
      "50": 3457,
      "koup": 3458,
      "ním": 3459,
      "##rální": 3460,
      "##rem": 3461,
      "part": 3462,
      "##áni": 3463,
      "##asič": 3464,
      "##eta": 3465,
      "##zeň": 3466,
      "dlouho": 3467,
      "sebou": 3468,
      "##luje": 3469,
      "##bs": 3470,
      "poda": 3471,
      "Ber": 3472,
      "##ant": 3473,
      "##mená": 3474,
      "lig": 3475,
      "##xi": 3476,
      "čtyř": 3477,
      "odh": 3478,
      "Prahy": 3479,
      "světě": 3480,
      "Jeho": 3481,
      "##vyk": 3482,
      "kilomet": 3483,
      "jednou": 3484,
      "##lech": 3485,
      "mám": 3486,
      "zájem": 3487,
      "považ": 3488,
      "##enti": 3489,
      "mělo": 3490,
      "reprezent": 3491,
      "tvrdí": 3492,
      "přid": 3493,
      "naopak": 3494,
      "Vo": 3495,
      "2016": 3496,
      "##res": 3497,
      "rychle": 3498,
      "zemi": 3499,
      "sled": 3500,
      "##átu": 3501,
      "Sam": 3502,
      "doby": 3503,
      "Mez": 3504,
      "zastup": 3505,
      "mohli": 3506,
      "správ": 3507,
      "vých": 3508,
      "##řes": 3509,
      "nový": 3510,
      "týmu": 3511,
      "vyšetř": 3512,
      "vznik": 3513,
      "##vap": 3514,
      "##tom": 3515,
      "Jaro": 3516,
      "##lová": 3517,
      "##něž": 3518,
      "000": 3519,
      "Dav": 3520,
      "##vesti": 3521,
      "oblasti": 3522,
      "aj": 3523,
      "možnost": 3524,
      "začátku": 3525,
      "příští": 3526,
      "zahraničí": 3527,
      "zcela": 3528,
      "příliš": 3529,
      "leg": 3530,
      "ser": 3531,
      "##kraj": 3532,
      "pros": 3533,
      "situaci": 3534,
      "tla": 3535,
      "řízení": 3536,
      "And": 3537,
      "vysok": 3538,
      "zejména": 3539,
      "##kyně": 3540,
      "počet": 3541,
      "samozřejmě": 3542,
      "arch": 3543,
      "as": 3544,
      "##ude": 3545,
      "##hodu": 3546,
      "##zni": 3547,
      "##nolog": 3548,
      "##veřej": 3549,
      "21": 3550,
      "přímo": 3551,
      "krát": 3552,
      "doma": 3553,
      "##ani": 3554,
      "dra": 3555,
      "##lých": 3556,
      "lze": 3557,
      "rozhodnutí": 3558,
      "Kč": 3559,
      "nemu": 3560,
      "Další": 3561,
      "##ler": 3562,
      "##be": 3563,
      "##las": 3564,
      "##ovací": 3565,
      "sko": 3566,
      "##ujeme": 3567,
      "poprvé": 3568,
      "soudu": 3569,
      "##lymp": 3570,
      "##ord": 3571,
      "Let": 3572,
      "titu": 3573,
      "##nech": 3574,
      "jinak": 3575,
      "Milo": 3576,
      "##rání": 3577,
      "Au": 3578,
      "odpově": 3579,
      "stí": 3580,
      "Vš": 3581,
      "##met": 3582,
      "##zemí": 3583,
      "Se": 3584,
      "bychom": 3585,
      "Ro": 3586,
      "##skos": 3587,
      "##rně": 3588,
      "vytvo": 3589,
      "skuteč": 3590,
      "obra": 3591,
      "ter": 3592,
      "Ty": 3593,
      "celý": 3594,
      "##šní": 3595,
      "##čné": 3596,
      "nikdo": 3597,
      "##kti": 3598,
      "voj": 3599,
      "techni": 3600,
      "##eru": 3601,
      "##alu": 3602,
      "##ede": 3603,
      "slav": 3604,
      "lidi": 3605,
      "podpor": 3606,
      "mat": 3607,
      "##pust": 3608,
      "##važ": 3609,
      "oček": 3610,
      "prvním": 3611,
      "nut": 3612,
      "##zv": 3613,
      "rodič": 3614,
      "res": 3615,
      "brit": 3616,
      "##hledem": 3617,
      "pom": 3618,
      "##tila": 3619,
      "##hnout": 3620,
      "zemí": 3621,
      "##ps": 3622,
      "##ouf": 3623,
      "nimi": 3624,
      "##xu": 3625,
      "domácí": 3626,
      "##ký": 3627,
      "kdyby": 3628,
      "minut": 3629,
      "poslan": 3630,
      "##ren": 3631,
      "takové": 3632,
      "##šky": 3633,
      "omez": 3634,
      "období": 3635,
      "hnutí": 3636,
      "účast": 3637,
      "ČTK": 3638,
      "199": 3639,
      "##lova": 3640,
      "energ": 3641,
      "Zatím": 3642,
      "##elo": 3643,
      "##inci": 3644,
      "zach": 3645,
      "vstup": 3646,
      "Sa": 3647,
      "##tím": 3648,
      "##hodob": 3649,
      "obv": 3650,
      "rozdí": 3651,
      "těchto": 3652,
      "##vaz": 3653,
      "dříve": 3654,
      "##dělí": 3655,
      "##pon": 3656,
      "maji": 3657,
      "investi": 3658,
      "akci": 3659,
      "úter": 3660,
      "##ií": 3661,
      "vrát": 3662,
      "mohla": 3663,
      "zlo": 3664,
      "rak": 3665,
      "večer": 3666,
      "sobě": 3667,
      "bezpečnost": 3668,
      "##ickou": 3669,
      "##kat": 3670,
      "fotbal": 3671,
      "jednoho": 3672,
      "tohoto": 3673,
      "##sek": 3674,
      "Sta": 3675,
      "státní": 3676,
      "##ary": 3677,
      "##oucí": 3678,
      "státu": 3679,
      "hokej": 3680,
      "poskyt": 3681,
      "škol": 3682,
      "pi": 3683,
      "vnit": 3684,
      "poš": 3685,
      "internet": 3686,
      "bodů": 3687,
      "##couz": 3688,
      "inform": 3689,
      "##kace": 3690,
      "sprá": 3691,
      "##zdu": 3692,
      "100": 3693,
      "jich": 3694,
      "Pe": 3695,
      "méně": 3696,
      "spoluprá": 3697,
      "tém": 3698,
      "poh": 3699,
      "Bě": 3700,
      "dítě": 3701,
      "koali": 3702,
      "informace": 3703,
      "##lín": 3704,
      "##kali": 3705,
      "První": 3706,
      "Jo": 3707,
      "budouc": 3708,
      "##jišť": 3709,
      "##čník": 3710,
      "Du": 3711,
      "at": 3712,
      "nebyl": 3713,
      "film": 3714,
      "projekt": 3715,
      "##ůvod": 3716,
      "##ůžeme": 3717,
      "##rd": 3718,
      "Sch": 3719,
      "##vola": 3720,
      "vzni": 3721,
      "gól": 3722,
      "opat": 3723,
      "##ška": 3724,
      "Vě": 3725,
      "##čen": 3726,
      "soupe": 3727,
      "##bali": 3728,
      "jež": 3729,
      "##jezd": 3730,
      "##kré": 3731,
      "polo": 3732,
      "podpo": 3733,
      "##cko": 3734,
      "##ple": 3735,
      "profes": 3736,
      "22": 3737,
      "sú": 3738,
      "ope": 3739,
      "dět": 3740,
      "požad": 3741,
      "##dále": 3742,
      "voli": 3743,
      "abs": 3744,
      "spoj": 3745,
      "##verz": 3746,
      "Němec": 3747,
      "telef": 3748,
      "kultu": 3749,
      "mas": 3750,
      "##lie": 3751,
      "stří": 3752,
      "růst": 3753,
      "##dají": 3754,
      "sen": 3755,
      "##hody": 3756,
      "vlastně": 3757,
      "##estival": 3758,
      "názor": 3759,
      "##dat": 3760,
      "##bách": 3761,
      "##ita": 3762,
      "konci": 3763,
      "ok": 3764,
      "můžete": 3765,
      "##spí": 3766,
      "řešení": 3767,
      "##obod": 3768,
      "vyjád": 3769,
      "##ke": 3770,
      "rež": 3771,
      "pred": 3772,
      "Tr": 3773,
      "dolarů": 3774,
      "peně": 3775,
      "lev": 3776,
      "##han": 3777,
      "navr": 3778,
      "##podob": 3779,
      "##graf": 3780,
      "odmít": 3781,
      "##řila": 3782,
      "republiky": 3783,
      "jaké": 3784,
      "##ekt": 3785,
      "skupiny": 3786,
      "parla": 3787,
      "obyvatel": 3788,
      "##romě": 3789,
      "trhu": 3790,
      "##mil": 3791,
      "invest": 3792,
      "##rii": 3793,
      "miliard": 3794,
      "rozhov": 3795,
      "Evropské": 3796,
      "##hlas": 3797,
      "##ostí": 3798,
      "smě": 3799,
      "stře": 3800,
      "televiz": 3801,
      "##dejší": 3802,
      "problémy": 3803,
      "##čili": 3804,
      "##zvan": 3805,
      "tuto": 3806,
      "čeká": 3807,
      "##ován": 3808,
      "skvě": 3809,
      "sc": 3810,
      "##onal": 3811,
      "prostředí": 3812,
      "##čin": 3813,
      "pozor": 3814,
      "2017": 3815,
      "září": 3816,
      "Pi": 3817,
      "##pově": 3818,
      "kar": 3819,
      "mnoho": 3820,
      "technolog": 3821,
      "Tomáš": 3822,
      "dlouhodob": 3823,
      "##lání": 3824,
      "program": 3825,
      "hrát": 3826,
      "Ham": 3827,
      "Británi": 3828,
      "##hů": 3829,
      "právní": 3830,
      "milionu": 3831,
      "budeme": 3832,
      "sobotu": 3833,
      "##ten": 3834,
      "Mat": 3835,
      "##vím": 3836,
      "snaží": 3837,
      "znám": 3838,
      "Kom": 3839,
      "výstav": 3840,
      "dovo": 3841,
      "pátek": 3842,
      "vyšší": 3843,
      "Tu": 3844,
      "##nili": 3845,
      "služby": 3846,
      "##hé": 3847,
      "##něn": 3848,
      "##avy": 3849,
      "##vědom": 3850,
      "ves": 3851,
      "##ral": 3852,
      "##ovaných": 3853,
      "##leg": 3854,
      "prim": 3855,
      "##razil": 3856,
      "##sně": 3857,
      "##stické": 3858,
      "měly": 3859,
      "středu": 3860,
      "##var": 3861,
      "dopad": 3862,
      "##ůmys": 3863,
      "eu": 3864,
      "hasič": 3865,
      "##entů": 3866,
      "firma": 3867,
      "sla": 3868,
      "##DS": 3869,
      "##ější": 3870,
      "00": 3871,
      "##alí": 3872,
      "fanou": 3873,
      "##dět": 3874,
      "olymp": 3875,
      "střel": 3876,
      "dětí": 3877,
      "##dání": 3878,
      "##poj": 3879,
      "Me": 3880,
      "byd": 3881,
      "dub": 3882,
      "##lomou": 3883,
      "začal": 3884,
      "##amp": 3885,
      "Jos": 3886,
      "##ore": 3887,
      "vide": 3888,
      "##poled": 3889,
      "tri": 3890,
      "Ar": 3891,
      "některé": 3892,
      "##žila": 3893,
      "zmí": 3894,
      "##děpodob": 3895,
      "sty": 3896,
      "Čer": 3897,
      "##klady": 3898,
      "běž": 3899,
      "eur": 3900,
      "##áci": 3901,
      "##átky": 3902,
      "##vno": 3903,
      "Jenže": 3904,
      "jehož": 3905,
      "##teř": 3906,
      "jednodu": 3907,
      "dce": 3908,
      "nebylo": 3909,
      "##nictví": 3910,
      "říj": 3911,
      "24": 3912,
      "listo": 3913,
      "##jímav": 3914,
      "##bní": 3915,
      "minulosti": 3916,
      "zveřej": 3917,
      "smr": 3918,
      "umo": 3919,
      "##stva": 3920,
      "partner": 3921,
      "##žili": 3922,
      "David": 3923,
      "ústav": 3924,
      "40": 3925,
      "##isté": 3926,
      "věn": 3927,
      "pondělí": 3928,
      "žádné": 3929,
      "Mí": 3930,
      "aktu": 3931,
      "moder": 3932,
      "ven": 3933,
      "exist": 3934,
      "##dech": 3935,
      "##více": 3936,
      "Vác": 3937,
      "ned": 3938,
      "uvá": 3939,
      "pok": 3940,
      "tisk": 3941,
      "##jíž": 3942,
      "la": 3943,
      "pam": 3944,
      "##io": 3945,
      "Hra": 3946,
      "přesto": 3947,
      "##kám": 3948,
      "spou": 3949,
      "##smu": 3950,
      "##aný": 3951,
      "##ará": 3952,
      "akce": 3953,
      "##skosloven": 3954,
      "jednu": 3955,
      "##oc": 3956,
      "některých": 3957,
      "českých": 3958,
      "rovněž": 3959,
      "jedné": 3960,
      "podstat": 3961,
      "ry": 3962,
      "Pak": 3963,
      "nepři": 3964,
      "blíz": 3965,
      "vra": 3966,
      "##átní": 3967,
      "##ika": 3968,
      "Zd": 3969,
      "zásad": 3970,
      "zkou": 3971,
      "us": 3972,
      "##dali": 3973,
      "##ľa": 3974,
      "popu": 3975,
      "okam": 3976,
      "police": 3977,
      "##blí": 3978,
      "nor": 3979,
      "roli": 3980,
      "##ES": 3981,
      "zne": 3982,
      "les": 3983,
      "nejd": 3984,
      "##dce": 3985,
      "##boru": 3986,
      "##teří": 3987,
      "ženy": 3988,
      "součá": 3989,
      "##lené": 3990,
      "##ada": 3991,
      "##ceme": 3992,
      "tradi": 3993,
      "význam": 3994,
      "povin": 3995,
      "divá": 3996,
      "přístup": 3997,
      "doku": 3998,
      "město": 3999,
      "místa": 4000,
      "vl": 4001,
      "času": 4002,
      "##jedná": 4003,
      "plo": 4004,
      "kterým": 4005,
      "stal": 4006,
      "ide": 4007,
      "23": 4008,
      "Andr": 4009,
      "divad": 4010,
      "celou": 4011,
      "Pavel": 4012,
      "nového": 4013,
      "sděli": 4014,
      "zru": 4015,
      "stup": 4016,
      "níž": 4017,
      "metrů": 4018,
      "My": 4019,
      "velký": 4020,
      "##oby": 4021,
      "naš": 4022,
      "zvo": 4023,
      "století": 4024,
      "ochra": 4025,
      "##ang": 4026,
      "##celá": 4027,
      "podporu": 4028,
      "dělat": 4029,
      "tyto": 4030,
      "vyso": 4031,
      "chtějí": 4032,
      "stě": 4033,
      "ODS": 4034,
      "Šp": 4035,
      "##álním": 4036,
      "naj": 4037,
      "kterého": 4038,
      "##íme": 4039,
      "##ong": 4040,
      "##ara": 4041,
      "nějaké": 4042,
      "##nos": 4043,
      "překvap": 4044,
      "##řím": 4045,
      "Ju": 4046,
      "##ine": 4047,
      "zřejmě": 4048,
      "deseti": 4049,
      "prakti": 4050,
      "zvlá": 4051,
      "##dom": 4052,
      "Kromě": 4053,
      "##og": 4054,
      "samot": 4055,
      "##mysl": 4056,
      "jmé": 4057,
      "Není": 4058,
      "vidě": 4059,
      "##uji": 4060,
      "zastav": 4061,
      "minim": 4062,
      "##mají": 4063,
      "Ze": 4064,
      "##nám": 4065,
      "trenér": 4066,
      "života": 4067,
      "##roje": 4068,
      "dobré": 4069,
      "##řili": 4070,
      "##kom": 4071,
      "hroz": 4072,
      "základní": 4073,
      "platí": 4074,
      "předch": 4075,
      "##vor": 4076,
      "zby": 4077,
      "##acebo": 4078,
      "pravidel": 4079,
      "přesvěd": 4080,
      "spíše": 4081,
      "zákona": 4082,
      "##kovou": 4083,
      "##kových": 4084,
      "##éru": 4085,
      "sloven": 4086,
      "proce": 4087,
      "Mys": 4088,
      "kor": 4089,
      "předseda": 4090,
      "jmen": 4091,
      "meziná": 4092,
      "##fici": 4093,
      "úterý": 4094,
      "kari": 4095,
      "Jako": 4096,
      "otevř": 4097,
      "tvo": 4098,
      "##skými": 4099,
      "nechtě": 4100,
      "##níky": 4101,
      "podařilo": 4102,
      "kterých": 4103,
      "##ají": 4104,
      "##rozí": 4105,
      "##zdy": 4106,
      "##endu": 4107,
      "Novinky": 4108,
      "zbra": 4109,
      "hvě": 4110,
      "chtěl": 4111,
      "skutečně": 4112,
      "rez": 4113,
      "##gli": 4114,
      "##líč": 4115,
      "naší": 4116,
      "##chyb": 4117,
      "##kově": 4118,
      "So": 4119,
      "ciz": 4120,
      "stavu": 4121,
      "zastupitel": 4122,
      "ministr": 4123,
      "##vající": 4124,
      "Kra": 4125,
      "úspěš": 4126,
      "desít": 4127,
      "strán": 4128,
      "konkré": 4129,
      "kau": 4130,
      "trén": 4131,
      "konku": 4132,
      "koment": 4133,
      "Vz": 4134,
      "obrov": 4135,
      "školy": 4136,
      "jenž": 4137,
      "festival": 4138,
      "nových": 4139,
      "##mit": 4140,
      "tran": 4141,
      "mil": 4142,
      "scé": 4143,
      "##roni": 4144,
      "udá": 4145,
      "celkem": 4146,
      "##cům": 4147,
      "##kl": 4148,
      "domu": 4149,
      "##enty": 4150,
      "východ": 4151,
      "##žal": 4152,
      "kab": 4153,
      "zákla": 4154,
      "slo": 4155,
      "průmys": 4156,
      "ako": 4157,
      "##ezpeč": 4158,
      "zahá": 4159,
      "Dom": 4160,
      "##ními": 4161,
      "vidět": 4162,
      "souvis": 4163,
      "informací": 4164,
      "##městí": 4165,
      "Dra": 4166,
      "rodin": 4167,
      "motor": 4168,
      "region": 4169,
      "fran": 4170,
      "čtvrtek": 4171,
      "##vek": 4172,
      "povo": 4173,
      "##mentu": 4174,
      "##saz": 4175,
      "udě": 4176,
      "vystoup": 4177,
      "nemocnice": 4178,
      "druhou": 4179,
      "uděla": 4180,
      "##tý": 4181,
      "##vak": 4182,
      "Op": 4183,
      "psych": 4184,
      "rest": 4185,
      "pořad": 4186,
      "##edl": 4187,
      "prostor": 4188,
      "médi": 4189,
      "srp": 4190,
      "zav": 4191,
      "nejvyšší": 4192,
      "výrazně": 4193,
      "centru": 4194,
      "test": 4195,
      "zalo": 4196,
      "##hužel": 4197,
      "##hr": 4198,
      "prote": 4199,
      "opak": 4200,
      "##ovaná": 4201,
      "New": 4202,
      "automobil": 4203,
      "prostě": 4204,
      "rozdíl": 4205,
      "prod": 4206,
      "výbě": 4207,
      "tou": 4208,
      "pomá": 4209,
      "vozid": 4210,
      "vr": 4211,
      "vzpom": 4212,
      "##til": 4213,
      "nena": 4214,
      "mnohem": 4215,
      "druhý": 4216,
      "Af": 4217,
      "teplo": 4218,
      "Dě": 4219,
      "Dí": 4220,
      "hospod": 4221,
      "dostat": 4222,
      "##any": 4223,
      "##ckém": 4224,
      "vyhlá": 4225,
      "oba": 4226,
      "nád": 4227,
      "##iky": 4228,
      "##ův": 4229,
      "##ismu": 4230,
      "listopadu": 4231,
      "##skem": 4232,
      "##ap": 4233,
      "##tili": 4234,
      "pát": 4235,
      "SP": 4236,
      "##ja": 4237,
      "##rý": 4238,
      "kandidát": 4239,
      "##káže": 4240,
      "národ": 4241,
      "žena": 4242,
      "##lace": 4243,
      "podnika": 4244,
      "záj": 4245,
      "pohyb": 4246,
      "PR": 4247,
      "##žství": 4248,
      "##řebu": 4249,
      "The": 4250,
      "sním": 4251,
      "var": 4252,
      "neděli": 4253,
      "##hlé": 4254,
      "##zní": 4255,
      "##telem": 4256,
      "##stře": 4257,
      "##rovna": 4258,
      "klub": 4259,
      "vody": 4260,
      "Evropě": 4261,
      "##ash": 4262,
      "Mal": 4263,
      "Rak": 4264,
      "sprav": 4265,
      "##měrně": 4266,
      "##žeb": 4267,
      "nemůže": 4268,
      "Praž": 4269,
      "##aná": 4270,
      "Minist": 4271,
      "nezá": 4272,
      "ply": 4273,
      "obec": 4274,
      "Mezi": 4275,
      "vojen": 4276,
      "mohlo": 4277,
      "uži": 4278,
      "##álního": 4279,
      "2015": 4280,
      "##finále": 4281,
      "##hoda": 4282,
      "mistrov": 4283,
      "nepří": 4284,
      "##žití": 4285,
      "##ckým": 4286,
      "slou": 4287,
      "přin": 4288,
      "##ováním": 4289,
      "dosud": 4290,
      "dokáz": 4291,
      "##koj": 4292,
      "pravděpodob": 4293,
      "kromě": 4294,
      "Rob": 4295,
      "území": 4296,
      "##esát": 4297,
      "Byl": 4298,
      "prohlásil": 4299,
      "##iše": 4300,
      "přišel": 4301,
      "dov": 4302,
      "resp": 4303,
      "Andrej": 4304,
      "dvěma": 4305,
      "##telé": 4306,
      "došlo": 4307,
      "Česká": 4308,
      "kaž": 4309,
      "vrch": 4310,
      "Jsem": 4311,
      "západ": 4312,
      "klubu": 4313,
      "##tou": 4314,
      "tá": 4315,
      "staveb": 4316,
      "28": 4317,
      "##kor": 4318,
      "##ujících": 4319,
      "##br": 4320,
      "mar": 4321,
      "poru": 4322,
      "##ovu": 4323,
      "Andre": 4324,
      "Pol": 4325,
      "někdy": 4326,
      "Nap": 4327,
      "věc": 4328,
      "##šti": 4329,
      "jíd": 4330,
      "##poledne": 4331,
      "kilometrů": 4332,
      "##lej": 4333,
      "dále": 4334,
      "málo": 4335,
      "ceny": 4336,
      "ukaz": 4337,
      "##ších": 4338,
      "##ID": 4339,
      "okolí": 4340,
      "60": 4341,
      "Slav": 4342,
      "##mb": 4343,
      "Sev": 4344,
      "##adva": 4345,
      "Takže": 4346,
      "Ond": 4347,
      "musel": 4348,
      "##náct": 4349,
      "ší": 4350,
      "De": 4351,
      "porad": 4352,
      "směr": 4353,
      "auta": 4354,
      "Vi": 4355,
      "Spar": 4356,
      "taky": 4357,
      "určitě": 4358,
      "##ránit": 4359,
      "Di": 4360,
      "Liber": 4361,
      "nevě": 4362,
      "##stal": 4363,
      "Ad": 4364,
      "cenu": 4365,
      "vlád": 4366,
      "firem": 4367,
      "Olomou": 4368,
      "sé": 4369,
      "server": 4370,
      "##rac": 4371,
      "toto": 4372,
      "##úč": 4373,
      "##hrad": 4374,
      "##ýš": 4375,
      "ad": 4376,
      "##vka": 4377,
      "zajímav": 4378,
      "zařízení": 4379,
      "ministerstva": 4380,
      "Babiše": 4381,
      "##šku": 4382,
      "dosá": 4383,
      "##ket": 4384,
      "straně": 4385,
      "takzvan": 4386,
      "ztrá": 4387,
      "děla": 4388,
      "obou": 4389,
      "##onstru": 4390,
      "vrá": 4391,
      "##chodu": 4392,
      "##jú": 4393,
      "##stili": 4394,
      "##lap": 4395,
      "prodej": 4396,
      "čím": 4397,
      "Evropy": 4398,
      "vedle": 4399,
      "asist": 4400,
      "muže": 4401,
      "##ávají": 4402,
      "body": 4403,
      "Ti": 4404,
      "Jana": 4405,
      "pé": 4406,
      "moci": 4407,
      "Sk": 4408,
      "ohled": 4409,
      "##ampion": 4410,
      "No": 4411,
      "výji": 4412,
      "##tora": 4413,
      "ať": 4414,
      "pomoc": 4415,
      "vzá": 4416,
      "vyhrá": 4417,
      "##vit": 4418,
      "##atu": 4419,
      "napsal": 4420,
      "takový": 4421,
      "La": 4422,
      "##ému": 4423,
      "finanční": 4424,
      "městě": 4425,
      "materi": 4426,
      "26": 4427,
      "##aných": 4428,
      "27": 4429,
      "##lila": 4430,
      "##ropo": 4431,
      "##znamen": 4432,
      "výbor": 4433,
      "Právě": 4434,
      "staro": 4435,
      "##nul": 4436,
      "##řem": 4437,
      "unie": 4438,
      "##eného": 4439,
      "Rom": 4440,
      "alespoň": 4441,
      "##jev": 4442,
      "pohá": 4443,
      "popis": 4444,
      "armá": 4445,
      "zo": 4446,
      "domů": 4447,
      "znamená": 4448,
      "##bit": 4449,
      "##lel": 4450,
      "zas": 4451,
      "Rozhod": 4452,
      "čín": 4453,
      "##aněl": 4454,
      "dělá": 4455,
      "##čný": 4456,
      "##car": 4457,
      "##ini": 4458,
      "Dnes": 4459,
      "univerz": 4460,
      "náměstí": 4461,
      "dlu": 4462,
      "spor": 4463,
      "začala": 4464,
      "důvě": 4465,
      "ministerstvo": 4466,
      "pomoci": 4467,
      "jasné": 4468,
      "##enu": 4469,
      "místní": 4470,
      "přá": 4471,
      "tolik": 4472,
      "ukon": 4473,
      "##řka": 4474,
      "peněz": 4475,
      "přesně": 4476,
      "##fek": 4477,
      "90": 4478,
      "Česko": 4479,
      "Teď": 4480,
      "francouz": 4481,
      "zakáz": 4482,
      "organizace": 4483,
      "##latí": 4484,
      "##ály": 4485,
      "nová": 4486,
      "##div": 4487,
      "##kol": 4488,
      "vliv": 4489,
      "##tně": 4490,
      "##jak": 4491,
      "Bylo": 4492,
      "##hi": 4493,
      "vítězství": 4494,
      "způsobem": 4495,
      "konfer": 4496,
      "##vám": 4497,
      "##íná": 4498,
      "Uni": 4499,
      "##iku": 4500,
      "202": 4501,
      "paci": 4502,
      "návrh": 4503,
      "turna": 4504,
      "##něné": 4505,
      "##rych": 4506,
      "deb": 4507,
      "Mer": 4508,
      "zvlád": 4509,
      "zpět": 4510,
      "He": 4511,
      "##čuje": 4512,
      "potom": 4513,
      "všem": 4514,
      "##valo": 4515,
      "vůči": 4516,
      "obraz": 4517,
      "##žná": 4518,
      "hru": 4519,
      "stranu": 4520,
      "odhad": 4521,
      "svá": 4522,
      "##bud": 4523,
      "insp": 4524,
      "##uper": 4525,
      "reak": 4526,
      "##ejte": 4527,
      "český": 4528,
      "kapit": 4529,
      "mana": 4530,
      "riz": 4531,
      "model": 4532,
      "Ex": 4533,
      "příprav": 4534,
      "##rož": 4535,
      "velkou": 4536,
      "systé": 4537,
      "##inku": 4538,
      "komise": 4539,
      "Rusko": 4540,
      "##ovit": 4541,
      "##kový": 4542,
      "pozem": 4543,
      "##ktor": 4544,
      "kola": 4545,
      "##hodno": 4546,
      "##střed": 4547,
      "##pozici": 4548,
      "Va": 4549,
      "konz": 4550,
      "finále": 4551,
      "##teční": 4552,
      "sami": 4553,
      "##red": 4554,
      "##rus": 4555,
      "reag": 4556,
      "ulici": 4557,
      "##zrael": 4558,
      "##rb": 4559,
      "##vku": 4560,
      "obvině": 4561,
      "napad": 4562,
      "posí": 4563,
      "postupně": 4564,
      "##rig": 4565,
      "ráno": 4566,
      "Vlad": 4567,
      "záchra": 4568,
      "zmi": 4569,
      "##třeb": 4570,
      "cit": 4571,
      "dat": 4572,
      "předchoz": 4573,
      "sever": 4574,
      "autobu": 4575,
      "jedná": 4576,
      "##zá": 4577,
      "abychom": 4578,
      "35": 4579,
      "sociálních": 4580,
      "##řech": 4581,
      "následně": 4582,
      "##véd": 4583,
      "##oně": 4584,
      "zranění": 4585,
      "##sen": 4586,
      "komp": 4587,
      "prí": 4588,
      "##pt": 4589,
      "##skému": 4590,
      "hry": 4591,
      "##ďar": 4592,
      "Tě": 4593,
      "kamará": 4594,
      "##voji": 4595,
      "volby": 4596,
      "cy": 4597,
      "##HL": 4598,
      "Josef": 4599,
      "člán": 4600,
      "ště": 4601,
      "současné": 4602,
      "##mr": 4603,
      "svobod": 4604,
      "potřeba": 4605,
      "kolo": 4606,
      "##ativní": 4607,
      "podez": 4608,
      "Ha": 4609,
      "součástí": 4610,
      "tex": 4611,
      "##ank": 4612,
      "##nek": 4613,
      "##avíc": 4614,
      "systému": 4615,
      "probí": 4616,
      "##inka": 4617,
      "Navíc": 4618,
      "Put": 4619,
      "policejní": 4620,
      "of": 4621,
      "dokument": 4622,
      "vězení": 4623,
      "množství": 4624,
      "##anu": 4625,
      "##zně": 4626,
      "spoluprac": 4627,
      "##lib": 4628,
      "Ned": 4629,
      "práv": 4630,
      "doporu": 4631,
      "volbách": 4632,
      "příležit": 4633,
      "dodává": 4634,
      "set": 4635,
      "##sledek": 4636,
      "základě": 4637,
      "hodiny": 4638,
      "##itek": 4639,
      "##hání": 4640,
      "roční": 4641,
      "státy": 4642,
      "Nic": 4643,
      "##lada": 4644,
      "tato": 4645,
      "##fin": 4646,
      "##stří": 4647,
      "napro": 4648,
      "rozhodl": 4649,
      "Přesto": 4650,
      "##koda": 4651,
      "ofici": 4652,
      "poved": 4653,
      "vík": 4654,
      "198": 4655,
      "neod": 4656,
      "Ani": 4657,
      "##rali": 4658,
      "bi": 4659,
      "trá": 4660,
      "##zkum": 4661,
      "##šila": 4662,
      "osmi": 4663,
      "##TO": 4664,
      "programu": 4665,
      "nemusí": 4666,
      "lidem": 4667,
      "Sy": 4668,
      "dal": 4669,
      "leh": 4670,
      "bí": 4671,
      "čist": 4672,
      "2014": 4673,
      "přiz": 4674,
      "##dub": 4675,
      "##čilo": 4676,
      "##aleko": 4677,
      "rodiny": 4678,
      "diplo": 4679,
      "jiných": 4680,
      "Be": 4681,
      "šampion": 4682,
      "tř": 4683,
      "nichž": 4684,
      "##ratu": 4685,
      "zlep": 4686,
      "šanci": 4687,
      "##olu": 4688,
      "novou": 4689,
      "##hne": 4690,
      "jiného": 4691,
      "##ivně": 4692,
      "##vič": 4693,
      "##bý": 4694,
      "##NES": 4695,
      "Tento": 4696,
      "##ňují": 4697,
      "##inách": 4698,
      "schvá": 4699,
      "kur": 4700,
      "různých": 4701,
      "kterém": 4702,
      "úvod": 4703,
      "##our": 4704,
      "Sý": 4705,
      "Ukraj": 4706,
      "Že": 4707,
      "přem": 4708,
      "Rus": 4709,
      "odvo": 4710,
      "dny": 4711,
      "vládě": 4712,
      "zkuš": 4713,
      "exper": 4714,
      "kancelá": 4715,
      "jít": 4716,
      "##risti": 4717,
      "Foto": 4718,
      "předpo": 4719,
      "zemřel": 4720,
      "##tov": 4721,
      "většinou": 4722,
      "rozší": 4723,
      "Stra": 4724,
      "##žné": 4725,
      "hrozí": 4726,
      "skoro": 4727,
      "reali": 4728,
      "##cemi": 4729,
      "##luví": 4730,
      "##boj": 4731,
      "##ista": 4732,
      "Plzeň": 4733,
      "žádný": 4734,
      "ledna": 4735,
      "##qu": 4736,
      "##jištění": 4737,
      "##ací": 4738,
      "telefon": 4739,
      "udělat": 4740,
      "spolupráci": 4741,
      "mom": 4742,
      "nebyla": 4743,
      "##wit": 4744,
      "strana": 4745,
      "většina": 4746,
      "prodá": 4747,
      "dře": 4748,
      "šesti": 4749,
      "nemají": 4750,
      "Vět": 4751,
      "##ros": 4752,
      "Kan": 4753,
      "osla": 4754,
      "sněmov": 4755,
      "##kty": 4756,
      "##oku": 4757,
      "umož": 4758,
      "##hodě": 4759,
      "##jených": 4760,
      "##ondý": 4761,
      "Lidé": 4762,
      "##iště": 4763,
      "##nách": 4764,
      "oblast": 4765,
      "mobil": 4766,
      "##před": 4767,
      "##áti": 4768,
      "80": 4769,
      "nejvíce": 4770,
      "##lob": 4771,
      "##ert": 4772,
      "řadu": 4773,
      "Facebo": 4774,
      "Michal": 4775,
      "dní": 4776,
      "mistrovství": 4777,
      "##ením": 4778,
      "výsledky": 4779,
      "kontak": 4780,
      "##iska": 4781,
      "jezd": 4782,
      "##ča": 4783,
      "Tur": 4784,
      "Ra": 4785,
      "##kaci": 4786,
      "##dia": 4787,
      "politické": 4788,
      "##zim": 4789,
      "##kládá": 4790,
      "přist": 4791,
      "demokra": 4792,
      "jiný": 4793,
      "konkur": 4794,
      "are": 4795,
      "říct": 4796,
      "##ujete": 4797,
      "úrov": 4798,
      "Pat": 4799,
      "Jin": 4800,
      "##šk": 4801,
      "vysvětluje": 4802,
      "ly": 4803,
      "29": 4804,
      "budu": 4805,
      "služeb": 4806,
      "##ven": 4807,
      "##níka": 4808,
      "##nácti": 4809,
      "post": 4810,
      "čem": 4811,
      "##cetiletý": 4812,
      "##isi": 4813,
      "Jsou": 4814,
      "čís": 4815,
      "##seda": 4816,
      "inst": 4817,
      "fanouš": 4818,
      "##vější": 4819,
      "##nějších": 4820,
      "Ještě": 4821,
      "rozhodně": 4822,
      "Stej": 4823,
      "##stvo": 4824,
      "##žela": 4825,
      "června": 4826,
      "##sme": 4827,
      "můžeme": 4828,
      "##dění": 4829,
      "hlu": 4830,
      "republice": 4831,
      "premiéra": 4832,
      "důležité": 4833,
      "red": 4834,
      "Man": 4835,
      "##xim": 4836,
      "máte": 4837,
      "##běhu": 4838,
      "ostatní": 4839,
      "jenom": 4840,
      "žal": 4841,
      "sva": 4842,
      "Něm": 4843,
      "nato": 4844,
      "společně": 4845,
      "##hn": 4846,
      "lépe": 4847,
      "##aty": 4848,
      "získal": 4849,
      "věcí": 4850,
      "obsah": 4851,
      "##vize": 4852,
      "politiky": 4853,
      "českého": 4854,
      "měsíců": 4855,
      "Mlad": 4856,
      "##ela": 4857,
      "restau": 4858,
      "Například": 4859,
      "70": 4860,
      "návštěvní": 4861,
      "##dělení": 4862,
      "Nech": 4863,
      "##vaná": 4864,
      "##ona": 4865,
      "sama": 4866,
      "45": 4867,
      "stran": 4868,
      "##cov": 4869,
      "##kala": 4870,
      "##itele": 4871,
      "Nik": 4872,
      "Hla": 4873,
      "vyrá": 4874,
      "myslí": 4875,
      "dení": 4876,
      "##ávat": 4877,
      "sezoně": 4878,
      "klid": 4879,
      "proz": 4880,
      "##šně": 4881,
      "stalo": 4882,
      "##che": 4883,
      "para": 4884,
      "kraji": 4885,
      "KS": 4886,
      "mnoha": 4887,
      "##počtu": 4888,
      "dvoj": 4889,
      "řadě": 4890,
      "kup": 4891,
      "##hal": 4892,
      "posu": 4893,
      "dru": 4894,
      "##rovnání": 4895,
      "pochop": 4896,
      "sezony": 4897,
      "prohlášení": 4898,
      "Zatímco": 4899,
      "Gu": 4900,
      "přijde": 4901,
      "Sen": 4902,
      "##ters": 4903,
      "Jde": 4904,
      "nějaký": 4905,
      "##cho": 4906,
      "potrav": 4907,
      "Hav": 4908,
      "jejím": 4909,
      "šlo": 4910,
      "ši": 4911,
      "##enosti": 4912,
      "##omu": 4913,
      "našich": 4914,
      "války": 4915,
      "americké": 4916,
      "letad": 4917,
      "projektu": 4918,
      "##tvr": 4919,
      "Sv": 4920,
      "Tam": 4921,
      "funkci": 4922,
      "##ers": 4923,
      "neda": 4924,
      "musíme": 4925,
      "##ilan": 4926,
      "zeměděl": 4927,
      "desítky": 4928,
      "##toři": 4929,
      "soutěže": 4930,
      "pen": 4931,
      "vním": 4932,
      "##ickým": 4933,
      "bývalý": 4934,
      "##mení": 4935,
      "##měru": 4936,
      "zaved": 4937,
      "Miro": 4938,
      "fy": 4939,
      "disku": 4940,
      "##port": 4941,
      "daleko": 4942,
      "Vys": 4943,
      "Václav": 4944,
      "##cii": 4945,
      "SPD": 4946,
      "Myslím": 4947,
      "##prava": 4948,
      "počas": 4949,
      "živ": 4950,
      "##ese": 4951,
      "Nová": 4952,
      "jednotliv": 4953,
      "zvíř": 4954,
      "nabízí": 4955,
      "##ld": 4956,
      "května": 4957,
      "ovliv": 4958,
      "začne": 4959,
      "stala": 4960,
      "náklad": 4961,
      "Mosk": 4962,
      "##EO": 4963,
      "tvá": 4964,
      "##říž": 4965,
      "spíš": 4966,
      "vari": 4967,
      "přibli": 4968,
      "pocit": 4969,
      "architek": 4970,
      "##lec": 4971,
      "museli": 4972,
      "daň": 4973,
      "##řské": 4974,
      "##rk": 4975,
      "##sala": 4976,
      "myš": 4977,
      "Každ": 4978,
      "tero": 4979,
      "trh": 4980,
      "KSČ": 4981,
      "působí": 4982,
      "Bí": 4983,
      "##zen": 4984,
      "##ft": 4985,
      "##avor": 4986,
      "mag": 4987,
      "dev": 4988,
      "Češi": 4989,
      "věku": 4990,
      "vede": 4991,
      "##tat": 4992,
      "syn": 4993,
      "##řen": 4994,
      "##adí": 4995,
      "minutě": 4996,
      "muset": 4997,
      "úřadu": 4998,
      "krás": 4999,
      "mon": 5000,
      "Ostra": 5001,
      "příj": 5002,
      "zdroj": 5003,
      "##zuje": 5004,
      "příjem": 5005,
      "vzdělá": 5006,
      "##hlo": 5007,
      "podzim": 5008,
      "Morav": 5009,
      "nadále": 5010,
      "##vil": 5011,
      "muži": 5012,
      "neměl": 5013,
      "zbo": 5014,
      "zim": 5015,
      "stoup": 5016,
      "druhém": 5017,
      "komu": 5018,
      "##haj": 5019,
      "půj": 5020,
      "##stila": 5021,
      "údajně": 5022,
      "##zda": 5023,
      "##teľ": 5024,
      "##cházejí": 5025,
      "ky": 5026,
      "##řům": 5027,
      "seri": 5028,
      "migran": 5029,
      "byť": 5030,
      "zprav": 5031,
      "##mar": 5032,
      "196": 5033,
      "níz": 5034,
      "##ovať": 5035,
      "agentury": 5036,
      "Hu": 5037,
      "svat": 5038,
      "Svět": 5039,
      "##nec": 5040,
      "zjist": 5041,
      "Českosloven": 5042,
      "práva": 5043,
      "dé": 5044,
      "extra": 5045,
      "kolik": 5046,
      "dostala": 5047,
      "##řít": 5048,
      "##vakrát": 5049,
      "##rand": 5050,
      "##lého": 5051,
      "##pou": 5052,
      "podmínky": 5053,
      "celá": 5054,
      "apli": 5055,
      "odsou": 5056,
      "Donal": 5057,
      "stop": 5058,
      "##lík": 5059,
      "pomocí": 5060,
      "cestu": 5061,
      "stro": 5062,
      "Draho": 5063,
      "dát": 5064,
      "Brno": 5065,
      "filmu": 5066,
      "zi": 5067,
      "Brně": 5068,
      "přece": 5069,
      "března": 5070,
      "VID": 5071,
      "získat": 5072,
      "násil": 5073,
      "pracov": 5074,
      "zpě": 5075,
      "nicméně": 5076,
      "velká": 5077,
      "inf": 5078,
      "pozna": 5079,
      "získá": 5080,
      "Mas": 5081,
      "##mila": 5082,
      "želez": 5083,
      "##nilo": 5084,
      "##stoupil": 5085,
      "řada": 5086,
      "obžal": 5087,
      "##říd": 5088,
      "uvádí": 5089,
      "##řady": 5090,
      "dostali": 5091,
      "##enta": 5092,
      "##rátor": 5093,
      "noci": 5094,
      "udrž": 5095,
      "##živ": 5096,
      "##íte": 5097,
      "##účast": 5098,
      "tisíce": 5099,
      "VIDEO": 5100,
      "ital": 5101,
      "neob": 5102,
      "##áků": 5103,
      "31": 5104,
      "##ována": 5105,
      "počíta": 5106,
      "Go": 5107,
      "##čitel": 5108,
      "jedním": 5109,
      "zpráva": 5110,
      "##niční": 5111,
      "##lor": 5112,
      "Itá": 5113,
      "##čera": 5114,
      "téma": 5115,
      "##hléd": 5116,
      "Os": 5117,
      "podobně": 5118,
      "dopravy": 5119,
      "hráči": 5120,
      "##ráz": 5121,
      "##stala": 5122,
      "hráč": 5123,
      "##hlíd": 5124,
      "hraje": 5125,
      "Petra": 5126,
      "pal": 5127,
      "##prch": 5128,
      "Druh": 5129,
      "muze": 5130,
      "dve": 5131,
      "hři": 5132,
      "Aut": 5133,
      "televize": 5134,
      "Pom": 5135,
      "##stava": 5136,
      "kateg": 5137,
      "##slava": 5138,
      "##gi": 5139,
      "Fili": 5140,
      "Kdo": 5141,
      "typ": 5142,
      "hospodář": 5143,
      "lod": 5144,
      "hlad": 5145,
      "nepře": 5146,
      "pozici": 5147,
      "řešit": 5148,
      "nově": 5149,
      "Ser": 5150,
      "Proč": 5151,
      "Ste": 5152,
      "Her": 5153,
      "##entem": 5154,
      "##telů": 5155,
      "síd": 5156,
      "října": 5157,
      "##nú": 5158,
      "opatření": 5159,
      "vybav": 5160,
      "Všech": 5161,
      "##gan": 5162,
      "##bul": 5163,
      "Sně": 5164,
      "hlá": 5165,
      "cena": 5166,
      "##nické": 5167,
      "slova": 5168,
      "kritiz": 5169,
      "dnech": 5170,
      "napo": 5171,
      "##rací": 5172,
      "Podob": 5173,
      "nepro": 5174,
      "Su": 5175,
      "starost": 5176,
      "##OP": 5177,
      "##tit": 5178,
      "sem": 5179,
      "Hamá": 5180,
      "pokus": 5181,
      "pražské": 5182,
      "naši": 5183,
      "sly": 5184,
      "kry": 5185,
      "škod": 5186,
      "##ingu": 5187,
      "Společ": 5188,
      "Nyní": 5189,
      "##vol": 5190,
      "rekonstru": 5191,
      "osobní": 5192,
      "ligy": 5193,
      "Eu": 5194,
      "olympij": 5195,
      "##násob": 5196,
      "Bud": 5197,
      "##elí": 5198,
      "##telné": 5199,
      "Mon": 5200,
      "me": 5201,
      "##éry": 5202,
      "##pla": 5203,
      "pokračovat": 5204,
      "Zemana": 5205,
      "por": 5206,
      "nu": 5207,
      "doz": 5208,
      "bou": 5209,
      "pas": 5210,
      "##zal": 5211,
      "##aru": 5212,
      "vhod": 5213,
      "dodala": 5214,
      "Ved": 5215,
      "zkušen": 5216,
      "alkoho": 5217,
      "historii": 5218,
      "##řela": 5219,
      "rozhovoru": 5220,
      "mrt": 5221,
      "Bez": 5222,
      "maxim": 5223,
      "titul": 5224,
      "##mbo": 5225,
      "klíč": 5226,
      "příspě": 5227,
      "němž": 5228,
      "hude": 5229,
      "pově": 5230,
      "##etu": 5231,
      "vyž": 5232,
      "pracovat": 5233,
      "blo": 5234,
      "kategor": 5235,
      "nesmí": 5236,
      "malé": 5237,
      "medi": 5238,
      "chlap": 5239,
      "pozit": 5240,
      "##ovaného": 5241,
      "nen": 5242,
      "09": 5243,
      "hud": 5244,
      "##lili": 5245,
      "##sluš": 5246,
      "##zo": 5247,
      "##istů": 5248,
      "dalším": 5249,
      "opozi": 5250,
      "Miloš": 5251,
      "##děj": 5252,
      "Ak": 5253,
      "dohod": 5254,
      "menší": 5255,
      "##ička": 5256,
      "dnešní": 5257,
      "Kdyby": 5258,
      "vývoj": 5259,
      "##štěstí": 5260,
      "chybě": 5261,
      "myslím": 5262,
      "nezávis": 5263,
      "##žet": 5264,
      "čele": 5265,
      "Ag": 5266,
      "policisté": 5267,
      "demokracie": 5268,
      "Američ": 5269,
      "Hrad": 5270,
      "úno": 5271,
      "dospě": 5272,
      "##sf": 5273,
      "Micha": 5274,
      "##ickém": 5275,
      "právo": 5276,
      "průměr": 5277,
      "Pri": 5278,
      "Ben": 5279,
      "start": 5280,
      "starší": 5281,
      "režis": 5282,
      "##den": 5283,
      "##ashing": 5284,
      "##výcar": 5285,
      "publi": 5286,
      "Díky": 5287,
      "konf": 5288,
      "Pardub": 5289,
      "##stoj": 5290,
      "plánu": 5291,
      "králov": 5292,
      "států": 5293,
      "Británie": 5294,
      "poměrně": 5295,
      "##ader": 5296,
      "nos": 5297,
      "##jte": 5298,
      "500": 5299,
      "úspěch": 5300,
      "##kář": 5301,
      "##ýval": 5302,
      "měsíce": 5303,
      "Reu": 5304,
      "očekává": 5305,
      "skupina": 5306,
      "sho": 5307,
      "těžké": 5308,
      "souvislosti": 5309,
      "taj": 5310,
      "prová": 5311,
      "ministra": 5312,
      "lete": 5313,
      "##nič": 5314,
      "výsledek": 5315,
      "Karlov": 5316,
      "pol": 5317,
      "Také": 5318,
      "světové": 5319,
      "spad": 5320,
      "změny": 5321,
      "zápasy": 5322,
      "hovo": 5323,
      "fotograf": 5324,
      "Policie": 5325,
      "náš": 5326,
      "mlá": 5327,
      "usku": 5328,
      "dopravní": 5329,
      "##teru": 5330,
      "teprve": 5331,
      "vybra": 5332,
      "##ero": 5333,
      "potřebu": 5334,
      "vydá": 5335,
      "Reuters": 5336,
      "chtěli": 5337,
      "vyrov": 5338,
      "extr": 5339,
      "##ger": 5340,
      "Větš": 5341,
      "uprch": 5342,
      "##udí": 5343,
      "##rostřed": 5344,
      "nechce": 5345,
      "fakt": 5346,
      "klas": 5347,
      "zatímco": 5348,
      "odpoví": 5349,
      "banky": 5350,
      "Ter": 5351,
      "dvakrát": 5352,
      "Da": 5353,
      "oblíb": 5354,
      "dům": 5355,
      "Putin": 5356,
      "Ble": 5357,
      "národní": 5358,
      "##stěji": 5359,
      "kři": 5360,
      "##ovými": 5361,
      "němu": 5362,
      "člověka": 5363,
      "kraje": 5364,
      "##žer": 5365,
      "##ster": 5366,
      "podot": 5367,
      "nastav": 5368,
      "we": 5369,
      "prvního": 5370,
      "Ště": 5371,
      "Dob": 5372,
      "dubna": 5373,
      "##ung": 5374,
      "útoku": 5375,
      "##lám": 5376,
      "kle": 5377,
      "##nají": 5378,
      "nom": 5379,
      "angli": 5380,
      "nechá": 5381,
      "Bude": 5382,
      "rádi": 5383,
      "vzdu": 5384,
      "Stu": 5385,
      "jez": 5386,
      "dispozici": 5387,
      "Německu": 5388,
      "Ří": 5389,
      "zraně": 5390,
      "##razí": 5391,
      "##deme": 5392,
      "##go": 5393,
      "##kých": 5394,
      "obchodní": 5395,
      "naprosto": 5396,
      "Hor": 5397,
      "Během": 5398,
      "dlouhodobě": 5399,
      "zvyš": 5400,
      "lu": 5401,
      "zajist": 5402,
      "##slan": 5403,
      "kus": 5404,
      "sportov": 5405,
      "čo": 5406,
      "cílem": 5407,
      "##hdejší": 5408,
      "Vol": 5409,
      "jednoduch": 5410,
      "nevid": 5411,
      "zdravotní": 5412,
      "Ry": 5413,
      "léta": 5414,
      "náměst": 5415,
      "útočník": 5416,
      "##alý": 5417,
      "příro": 5418,
      "Slová": 5419,
      "odv": 5420,
      "Král": 5421,
      "jednom": 5422,
      "Wil": 5423,
      "centra": 5424,
      "##tky": 5425,
      "##žitě": 5426,
      "##nak": 5427,
      "tem": 5428,
      "##jel": 5429,
      "neví": 5430,
      "Washing": 5431,
      "##čím": 5432,
      "##dci": 5433,
      "skončil": 5434,
      "zaměř": 5435,
      "demon": 5436,
      "hrd": 5437,
      "##ance": 5438,
      "##ety": 5439,
      "nižší": 5440,
      "##esu": 5441,
      "července": 5442,
      "současnosti": 5443,
      "##livé": 5444,
      "##pá": 5445,
      "##alyti": 5446,
      "dro": 5447,
      "Nak": 5448,
      "Ov": 5449,
      "vypadá": 5450,
      "dostane": 5451,
      "výz": 5452,
      "##land": 5453,
      "##str": 5454,
      "##jezdu": 5455,
      "brá": 5456,
      "KSČM": 5457,
      "rost": 5458,
      "2013": 5459,
      "##ěji": 5460,
      "začíná": 5461,
      "##har": 5462,
      "super": 5463,
      "koncer": 5464,
      "194": 5465,
      "nástup": 5466,
      "sbí": 5467,
      "##ep": 5468,
      "refer": 5469,
      "Nev": 5470,
      "okolo": 5471,
      "Chtě": 5472,
      "##ile": 5473,
      "zdraví": 5474,
      "##orů": 5475,
      "Kvůli": 5476,
      "Musí": 5477,
      "Její": 5478,
      "kla": 5479,
      "Zároveň": 5480,
      "##ečně": 5481,
      "##ůraz": 5482,
      "##váme": 5483,
      "píše": 5484,
      "přišla": 5485,
      "##anta": 5486,
      "hlasů": 5487,
      "občas": 5488,
      "##nictvím": 5489,
      "##atisti": 5490,
      "institu": 5491,
      "str": 5492,
      "Asi": 5493,
      "vraž": 5494,
      "devět": 5495,
      "prázd": 5496,
      "Londý": 5497,
      "mezinárodní": 5498,
      "##nalo": 5499,
      "vedoucí": 5500,
      "cesty": 5501,
      "vztah": 5502,
      "někteří": 5503,
      "prosince": 5504,
      "##ju": 5505,
      "##adu": 5506,
      "začali": 5507,
      "nebezpeč": 5508,
      "Až": 5509,
      "Rusku": 5510,
      "Švéd": 5511,
      "polovině": 5512,
      "vládu": 5513,
      "agentura": 5514,
      "bohužel": 5515,
      "jméno": 5516,
      "št": 5517,
      "svými": 5518,
      "zprac": 5519,
      "důsled": 5520,
      "##nami": 5521,
      "jazy": 5522,
      "zů": 5523,
      "soused": 5524,
      "obnov": 5525,
      "komb": 5526,
      "Vždy": 5527,
      "nutné": 5528,
      "počtu": 5529,
      "Hod": 5530,
      "Pan": 5531,
      "projev": 5532,
      "##ostat": 5533,
      "sedmi": 5534,
      "##ročně": 5535,
      "spojen": 5536,
      "##olv": 5537,
      "protest": 5538,
      "proces": 5539,
      "smlouvy": 5540,
      "##zel": 5541,
      "kop": 5542,
      "##hají": 5543,
      "rekla": 5544,
      "civ": 5545,
      "##mem": 5546,
      "různé": 5547,
      "jaký": 5548,
      "nějakou": 5549,
      "poch": 5550,
      "Jaroslav": 5551,
      "##oun": 5552,
      "Střed": 5553,
      "Sněmov": 5554,
      "##ůležit": 5555,
      "##ovanou": 5556,
      "Každý": 5557,
      "proved": 5558,
      "##we": 5559,
      "##lze": 5560,
      "výši": 5561,
      "Hlavní": 5562,
      "##roti": 5563,
      "okol": 5564,
      "mohly": 5565,
      "meda": 5566,
      "##ňovat": 5567,
      "Har": 5568,
      "Mac": 5569,
      "smí": 5570,
      "##ír": 5571,
      "mimořád": 5572,
      "letošního": 5573,
      "velice": 5574,
      "poško": 5575,
      "tref": 5576,
      "sítí": 5577,
      "##plat": 5578,
      "NA": 5579,
      "##sud": 5580,
      "vždycky": 5581,
      "sdělil": 5582,
      "##níku": 5583,
      "mladí": 5584,
      "##krá": 5585,
      "Jakub": 5586,
      "brat": 5587,
      "řád": 5588,
      "play": 5589,
      "stejné": 5590,
      "##něl": 5591,
      "podnik": 5592,
      "byste": 5593,
      "zahraniční": 5594,
      "##kání": 5595,
      "rodiče": 5596,
      "##ktivní": 5597,
      "NHL": 5598,
      "HN": 5599,
      "##káž": 5600,
      "##itě": 5601,
      "##mosf": 5602,
      "Rakou": 5603,
      "rady": 5604,
      "##dru": 5605,
      "spl": 5606,
      "záležit": 5607,
      "##rají": 5608,
      "##lové": 5609,
      "##esáti": 5610,
      "směrem": 5611,
      "##ezpe": 5612,
      "požadav": 5613,
      "média": 5614,
      "Ni": 5615,
      "podobě": 5616,
      "##idu": 5617,
      "##nímu": 5618,
      "##etě": 5619,
      "Stan": 5620,
      "brzy": 5621,
      "potvrdil": 5622,
      "srpna": 5623,
      "##lena": 5624,
      "pohledu": 5625,
      "Ča": 5626,
      "##sahu": 5627,
      "##andard": 5628,
      "prostoru": 5629,
      "dobrý": 5630,
      "smrti": 5631,
      "##zích": 5632,
      "tehdejší": 5633,
      "##volu": 5634,
      "Lig": 5635,
      "věří": 5636,
      "provozu": 5637,
      "příběh": 5638,
      "měsíc": 5639,
      "Car": 5640,
      "sá": 5641,
      "Máme": 5642,
      "gra": 5643,
      "##zny": 5644,
      "Luká": 5645,
      "##žené": 5646,
      "Mil": 5647,
      "Jejich": 5648,
      "druhého": 5649,
      "střední": 5650,
      "požá": 5651,
      "zdá": 5652,
      "žije": 5653,
      "##nitř": 5654,
      "##vin": 5655,
      "sexu": 5656,
      "fin": 5657,
      "odpoledne": 5658,
      "neú": 5659,
      "##DU": 5660,
      "##áme": 5661,
      "úřed": 5662,
      "prodlou": 5663,
      "vaše": 5664,
      "kat": 5665,
      "##ternat": 5666,
      "tiskové": 5667,
      "del": 5668,
      "nesou": 5669,
      "Aby": 5670,
      "dostup": 5671,
      "února": 5672,
      "vysoké": 5673,
      "extrali": 5674,
      "Byla": 5675,
      "Česka": 5676,
      "uvědom": 5677,
      "koncem": 5678,
      "Ge": 5679,
      "drá": 5680,
      "zástupce": 5681,
      "32": 5682,
      "##vatele": 5683,
      "uží": 5684,
      "##nějším": 5685,
      "Možná": 5686,
      "něho": 5687,
      "##kázal": 5688,
      "Fir": 5689,
      "##ham": 5690,
      "##ést": 5691,
      "záchran": 5692,
      "doh": 5693,
      "najít": 5694,
      "##fa": 5695,
      "obvyk": 5696,
      "pís": 5697,
      "kompli": 5698,
      "zprávy": 5699,
      "##oli": 5700,
      "nesp": 5701,
      "300": 5702,
      "ročně": 5703,
      "náz": 5704,
      "chu": 5705,
      "zaznamen": 5706,
      "##zkumu": 5707,
      "nejméně": 5708,
      "off": 5709,
      "tvoří": 5710,
      "Maďar": 5711,
      "bohat": 5712,
      "Kore": 5713,
      "##žuje": 5714,
      "Nez": 5715,
      "nelze": 5716,
      "##letá": 5717,
      "jakou": 5718,
      "##enými": 5719,
      "lit": 5720,
      "tzv": 5721,
      "##avad": 5722,
      "začít": 5723,
      "Ke": 5724,
      "iD": 5725,
      "Kim": 5726,
      "počasí": 5727,
      "bre": 5728,
      "nejde": 5729,
      "potvrd": 5730,
      "minulý": 5731,
      "Rod": 5732,
      "svěd": 5733,
      "##tivně": 5734,
      "Voj": 5735,
      "As": 5736,
      "poho": 5737,
      "svoji": 5738,
      "bydlení": 5739,
      "##des": 5740,
      "vyšetřování": 5741,
      "složit": 5742,
      "reži": 5743,
      "For": 5744,
      "výh": 5745,
      "##rny": 5746,
      "funguje": 5747,
      "##skej": 5748,
      "##odaj": 5749,
      "brněn": 5750,
      "festivalu": 5751,
      "##růst": 5752,
      "jader": 5753,
      "nebudou": 5754,
      "náklady": 5755,
      "##ex": 5756,
      "parlamentu": 5757,
      "zboží": 5758,
      "hlavním": 5759,
      "##slední": 5760,
      "##berg": 5761,
      "##HA": 5762,
      "sestav": 5763,
      "vylou": 5764,
      "##kova": 5765,
      "oce": 5766,
      "##TA": 5767,
      "symbo": 5768,
      "majet": 5769,
      "##cy": 5770,
      "##šili": 5771,
      "zápasu": 5772,
      "manažer": 5773,
      "zrovna": 5774,
      "##kosti": 5775,
      "slož": 5776,
      "Kam": 5777,
      "Alex": 5778,
      "##forma": 5779,
      "promě": 5780,
      "Yor": 5781,
      "zisk": 5782,
      "Slovensku": 5783,
      "končí": 5784,
      "##mon": 5785,
      "vaz": 5786,
      "Franti": 5787,
      "napl": 5788,
      "odst": 5789,
      "##lenou": 5790,
      "##ozem": 5791,
      "hráče": 5792,
      "##isty": 5793,
      "vnitra": 5794,
      "podíl": 5795,
      "norm": 5796,
      "zápasů": 5797,
      "dek": 5798,
      "přech": 5799,
      "Kou": 5800,
      "zůstává": 5801,
      "oz": 5802,
      "Mus": 5803,
      "Prezident": 5804,
      "##éře": 5805,
      "kost": 5806,
      "obrany": 5807,
      "přibližně": 5808,
      "##nicích": 5809,
      "prostřednictvím": 5810,
      "##říz": 5811,
      "nedávno": 5812,
      "prakticky": 5813,
      "vyře": 5814,
      "chceme": 5815,
      "##ovce": 5816,
      "Nad": 5817,
      "prohrá": 5818,
      "médií": 5819,
      "utr": 5820,
      "##ovět": 5821,
      "funkce": 5822,
      "ruce": 5823,
      "dvacet": 5824,
      "oč": 5825,
      "douf": 5826,
      "stovky": 5827,
      "##nom": 5828,
      "##sledy": 5829,
      "##ora": 5830,
      "krimin": 5831,
      "setkání": 5832,
      "Bel": 5833,
      "nákup": 5834,
      "zpo": 5835,
      "##ováno": 5836,
      "posti": 5837,
      "šť": 5838,
      "##pravě": 5839,
      "Tím": 5840,
      "veřejnosti": 5841,
      "konstat": 5842,
      "urč": 5843,
      "konferenci": 5844,
      "##tali": 5845,
      "zji": 5846,
      "##išti": 5847,
      "financí": 5848,
      "Hol": 5849,
      "předtím": 5850,
      "poznamen": 5851,
      "TOP": 5852,
      "výběr": 5853,
      "##kož": 5854,
      "strateg": 5855,
      "svoje": 5856,
      "##ré": 5857,
      "zemích": 5858,
      "značky": 5859,
      "Var": 5860,
      "průběhu": 5861,
      "Fi": 5862,
      "##ičky": 5863,
      "důkaz": 5864,
      "mluví": 5865,
      "nest": 5866,
      "obce": 5867,
      "případně": 5868,
      "webu": 5869,
      "rodina": 5870,
      "speciální": 5871,
      "##žím": 5872,
      "tohle": 5873,
      "zaměstnanců": 5874,
      "Ost": 5875,
      "takto": 5876,
      "jiho": 5877,
      "rekord": 5878,
      "úrovni": 5879,
      "##vedl": 5880,
      "##ino": 5881,
      "celého": 5882,
      "atmosf": 5883,
      "uživatel": 5884,
      "33": 5885,
      "možnosti": 5886,
      "Star": 5887,
      "pev": 5888,
      "společen": 5889,
      "úřady": 5890,
      "##šker": 5891,
      "taková": 5892,
      "arg": 5893,
      "ber": 5894,
      "jediný": 5895,
      "##tají": 5896,
      "papí": 5897,
      "Stejně": 5898,
      "Vít": 5899,
      "OS": 5900,
      "můj": 5901,
      "##sedy": 5902,
      "sítě": 5903,
      "Hy": 5904,
      "nim": 5905,
      "##hradní": 5906,
      "střet": 5907,
      "těm": 5908,
      "dvaná": 5909,
      "parlament": 5910,
      "Dan": 5911,
      "##hý": 5912,
      "nená": 5913,
      "Mám": 5914,
      "získala": 5915,
      "tun": 5916,
      "##rek": 5917,
      "myšlen": 5918,
      "##razit": 5919,
      "popisuje": 5920,
      "zamí": 5921,
      "##kres": 5922,
      "krok": 5923,
      "##žovat": 5924,
      "##vací": 5925,
      "##huje": 5926,
      "tvrd": 5927,
      "neboť": 5928,
      "##tera": 5929,
      "letošní": 5930,
      "byt": 5931,
      "hráčů": 5932,
      "##lína": 5933,
      "##áky": 5934,
      "##ery": 5935,
      "rukou": 5936,
      "prvních": 5937,
      "zúčast": 5938,
      "here": 5939,
      "Naopak": 5940,
      "##hly": 5941,
      "##šné": 5942,
      "zneu": 5943,
      "vyb": 5944,
      "loňského": 5945,
      "financ": 5946,
      "mladší": 5947,
      "demokrat": 5948,
      "našeho": 5949,
      "internetu": 5950,
      "Protože": 5951,
      "##vce": 5952,
      "chybí": 5953,
      "vládní": 5954,
      "oznámil": 5955,
      "Mc": 5956,
      "anti": 5957,
      "doplnil": 5958,
      "statisti": 5959,
      "neg": 5960,
      "##lii": 5961,
      "##livě": 5962,
      "##lynu": 5963,
      "prezid": 5964,
      "py": 5965,
      "##bora": 5966,
      "funk": 5967,
      "##ign": 5968,
      "vyhrál": 5969,
      "přítom": 5970,
      "zkušenosti": 5971,
      "místopřed": 5972,
      "##nosť": 5973,
      "##zace": 5974,
      "##kového": 5975,
      "nesta": 5976,
      "##bami": 5977,
      "podobné": 5978,
      "##pal": 5979,
      "##omo": 5980,
      "emi": 5981,
      "hranice": 5982,
      "##jednou": 5983,
      "##pustil": 5984,
      "bit": 5985,
      "životě": 5986,
      "Sever": 5987,
      "vrátit": 5988,
      "há": 5989,
      "zad": 5990,
      "navští": 5991,
      "Sest": 5992,
      "##arma": 5993,
      "##raží": 5994,
      "evropské": 5995,
      "spravedl": 5996,
      "ml": 5997,
      "nejspí": 5998,
      "##čná": 5999,
      "fotbali": 6000,
      "majitel": 6001,
      "##říve": 6002,
      "pravděpodobně": 6003,
      "Nor": 6004,
      "ane": 6005,
      "moment": 6006,
      "celém": 6007,
      "Český": 6008,
      "hlí": 6009,
      "stad": 6010,
      "záchraná": 6011,
      "Pla": 6012,
      "Spoj": 6013,
      "##ceně": 6014,
      "##kán": 6015,
      "##padá": 6016,
      "přísluš": 6017,
      "Škoda": 6018,
      "vyprá": 6019,
      "##ks": 6020,
      "Sto": 6021,
      "děj": 6022,
      "Jeden": 6023,
      "stanov": 6024,
      "fyz": 6025,
      "slib": 6026,
      "životní": 6027,
      "hol": 6028,
      "##OV": 6029,
      "neo": 6030,
      "##jišťov": 6031,
      "amb": 6032,
      "##chov": 6033,
      "##lostí": 6034,
      "nepod": 6035,
      "radost": 6036,
      "rom": 6037,
      "web": 6038,
      "Vl": 6039,
      "##inaci": 6040,
      "popsal": 6041,
      "ostrov": 6042,
      "jejichž": 6043,
      "dneš": 6044,
      "##jímá": 6045,
      "stanice": 6046,
      "tentokrát": 6047,
      "Tra": 6048,
      "zdůraz": 6049,
      "##vok": 6050,
      "vytvá": 6051,
      "špatně": 6052,
      "ruské": 6053,
      "Ano": 6054,
      "##žený": 6055,
      "zápase": 6056,
      "##pat": 6057,
      "Spojených": 6058,
      "##cu": 6059,
      "Letos": 6060,
      "##ádu": 6061,
      "paní": 6062,
      "najde": 6063,
      "ministry": 6064,
      "ktoré": 6065,
      "Mod": 6066,
      "podstatě": 6067,
      "##čej": 6068,
      "evropských": 6069,
      "podvod": 6070,
      "moje": 6071,
      "##kající": 6072,
      "nemocnici": 6073,
      "původně": 6074,
      "kamp": 6075,
      "podľa": 6076,
      "amerického": 6077,
      "##ňů": 6078,
      "##hodou": 6079,
      "host": 6080,
      "most": 6081,
      "Španěl": 6082,
      "vybí": 6083,
      "##inace": 6084,
      "##korej": 6085,
      "nemovit": 6086,
      "jednat": 6087,
      "##šie": 6088,
      "Miroslav": 6089,
      "zod": 6090,
      "zapo": 6091,
      "Nav": 6092,
      "číslo": 6093,
      "profesion": 6094,
      "##álů": 6095,
      "mam": 6096,
      "PRA": 6097,
      "##hých": 6098,
      "Mno": 6099,
      "docela": 6100,
      "třech": 6101,
      "##krom": 6102,
      "##form": 6103,
      "##tít": 6104,
      "Váno": 6105,
      "Ministerst": 6106,
      "iDNES": 6107,
      "##mot": 6108,
      "musela": 6109,
      "##era": 6110,
      "zástupci": 6111,
      "místech": 6112,
      "Dá": 6113,
      "##zovat": 6114,
      "většinu": 6115,
      "##rovol": 6116,
      "Fin": 6117,
      "##želi": 6118,
      "bole": 6119,
      "velkých": 6120,
      "Or": 6121,
      "každé": 6122,
      "id": 6123,
      "propa": 6124,
      "výročí": 6125,
      "automat": 6126,
      "viz": 6127,
      "křes": 6128,
      "fá": 6129,
      "##kel": 6130,
      "doda": 6131,
      "létě": 6132,
      "Jest": 6133,
      "plav": 6134,
      "vrátil": 6135,
      "stane": 6136,
      "krátce": 6137,
      "##úd": 6138,
      "jistě": 6139,
      "##ley": 6140,
      "nijak": 6141,
      "tělo": 6142,
      "vysvětlil": 6143,
      "##voje": 6144,
      "znamen": 6145,
      "důvodů": 6146,
      "disk": 6147,
      "závěru": 6148,
      "Filip": 6149,
      "cho": 6150,
      "pracuje": 6151,
      "mand": 6152,
      "denně": 6153,
      "řeší": 6154,
      "Lit": 6155,
      "zasá": 6156,
      "škole": 6157,
      "##ěl": 6158,
      "obrán": 6159,
      "samo": 6160,
      "demokrati": 6161,
      "PRAHA": 6162,
      "2019": 6163,
      "##adr": 6164,
      "##mut": 6165,
      "##ell": 6166,
      "kapa": 6167,
      "##cid": 6168,
      "34": 6169,
      "cesta": 6170,
      "adr": 6171,
      "hu": 6172,
      "miliony": 6173,
      "##řitel": 6174,
      "Ruska": 6175,
      "##žování": 6176,
      "Francie": 6177,
      "##čkou": 6178,
      "díl": 6179,
      "##počet": 6180,
      "spotřeb": 6181,
      "##líně": 6182,
      "kterému": 6183,
      "##lená": 6184,
      "změnu": 6185,
      "důchod": 6186,
      "##rab": 6187,
      "dokáže": 6188,
      "##řené": 6189,
      "nahra": 6190,
      "dohody": 6191,
      "samostat": 6192,
      "hranici": 6193,
      "##eš": 6194,
      "Králové": 6195,
      "ce": 6196,
      "##ón": 6197,
      "výboru": 6198,
      "defin": 6199,
      "##ovány": 6200,
      "televizi": 6201,
      "##iu": 6202,
      "nejvíc": 6203,
      "prosad": 6204,
      "rozvoj": 6205,
      "##lus": 6206,
      "AP": 6207,
      "budete": 6208,
      "obchodu": 6209,
      "##leté": 6210,
      "##stoupit": 6211,
      "##až": 6212,
      "řeč": 6213,
      "##vůr": 6214,
      "af": 6215,
      "konečně": 6216,
      "##grafi": 6217,
      "soustřed": 6218,
      "##ťan": 6219,
      "unik": 6220,
      "vysí": 6221,
      "##mech": 6222,
      "platit": 6223,
      "##mír": 6224,
      "##bur": 6225,
      "##rovi": 6226,
      "stab": 6227,
      "trag": 6228,
      "hrom": 6229,
      "označil": 6230,
      "##ym": 6231,
      "36": 6232,
      "energet": 6233,
      "rokem": 6234,
      "poráž": 6235,
      "zan": 6236,
      "Třeba": 6237,
      "Por": 6238,
      "rozpočtu": 6239,
      "kvalifi": 6240,
      "koleg": 6241,
      "##rační": 6242,
      "minimálně": 6243,
      "kamarád": 6244,
      "koalice": 6245,
      "spoustu": 6246,
      "lékař": 6247,
      "Lo": 6248,
      "##oved": 6249,
      "Sed": 6250,
      "##kování": 6251,
      "Ži": 6252,
      "česká": 6253,
      "##stroj": 6254,
      "##lim": 6255,
      "##šené": 6256,
      "##valy": 6257,
      "##oro": 6258,
      "cestě": 6259,
      "##stavě": 6260,
      "ráda": 6261,
      "Jsme": 6262,
      "kouč": 6263,
      "##átkem": 6264,
      "Ga": 6265,
      "ut": 6266,
      "oproti": 6267,
      "##ladu": 6268,
      "##lovat": 6269,
      "případech": 6270,
      "##tyři": 6271,
      "Sil": 6272,
      "##isla": 6273,
      "členů": 6274,
      "person": 6275,
      "##ňa": 6276,
      "neroz": 6277,
      "Premi": 6278,
      "Může": 6279,
      "zásadní": 6280,
      "původní": 6281,
      "##ovaní": 6282,
      "hlavy": 6283,
      "Loni": 6284,
      "Karel": 6285,
      "Gr": 6286,
      "seve": 6287,
      "ovlád": 6288,
      "nau": 6289,
      "##razili": 6290,
      "podrob": 6291,
      "Japon": 6292,
      "uprav": 6293,
      "ner": 6294,
      "San": 6295,
      "vešker": 6296,
      "stráž": 6297,
      "km": 6298,
      "##mpa": 6299,
      "absolv": 6300,
      "##lený": 6301,
      "##dec": 6302,
      "elektroni": 6303,
      "##čemž": 6304,
      "chem": 6305,
      "okamžitě": 6306,
      "mně": 6307,
      "jízd": 6308,
      "americký": 6309,
      "55": 6310,
      "magist": 6311,
      "Ky": 6312,
      "naci": 6313,
      "##bá": 6314,
      "##onec": 6315,
      "##čce": 6316,
      "Per": 6317,
      "##bývá": 6318,
      "##láda": 6319,
      "##plývá": 6320,
      "drob": 6321,
      "##letého": 6322,
      "šéfa": 6323,
      "##ablon": 6324,
      "chování": 6325,
      "někde": 6326,
      "Prů": 6327,
      "Samozřejmě": 6328,
      "Jestli": 6329,
      "rizi": 6330,
      "potenci": 6331,
      "Německo": 6332,
      "štěstí": 6333,
      "bá": 6334,
      "dnů": 6335,
      "přines": 6336,
      "Andreje": 6337,
      "Původ": 6338,
      "nejprve": 6339,
      "vyrob": 6340,
      "##tová": 6341,
      "konstru": 6342,
      "vzájem": 6343,
      "bývalého": 6344,
      "mužů": 6345,
      "kampa": 6346,
      "typu": 6347,
      "nas": 6348,
      "natá": 6349,
      "##ýt": 6350,
      "2012": 6351,
      "##ind": 6352,
      "##aného": 6353,
      "##rách": 6354,
      "hře": 6355,
      "využít": 6356,
      "pamě": 6357,
      "##razila": 6358,
      "nápad": 6359,
      "výjim": 6360,
      "nece": 6361,
      "##nutím": 6362,
      "##klid": 6363,
      "nekon": 6364,
      "Vladim": 6365,
      "##iat": 6366,
      "demisi": 6367,
      "Zlín": 6368,
      "odmítl": 6369,
      "Den": 6370,
      "zapom": 6371,
      "mó": 6372,
      "učitel": 6373,
      "uspo": 6374,
      "Slovensko": 6375,
      "Místo": 6376,
      "léč": 6377,
      "odpad": 6378,
      "spol": 6379,
      "##igit": 6380,
      "##psal": 6381,
      "##chem": 6382,
      "starosta": 6383,
      "žalob": 6384,
      "##leny": 6385,
      "takovou": 6386,
      "##áž": 6387,
      "syna": 6388,
      "##ovka": 6389,
      "oslav": 6390,
      "hlavního": 6391,
      "##witteru": 6392,
      "prou": 6393,
      "the": 6394,
      "minulého": 6395,
      "umístě": 6396,
      "ktorý": 6397,
      "197": 6398,
      "##ůžu": 6399,
      "případu": 6400,
      "sdí": 6401,
      "ká": 6402,
      "##fu": 6403,
      "uvid": 6404,
      "amerických": 6405,
      "dosavad": 6406,
      "kles": 6407,
      "žádná": 6408,
      "##lev": 6409,
      "nedosta": 6410,
      "##kop": 6411,
      "pozice": 6412,
      "##čítá": 6413,
      "šance": 6414,
      "Merkel": 6415,
      "areálu": 6416,
      "Ře": 6417,
      "režim": 6418,
      "konec": 6419,
      "Nakonec": 6420,
      "přičemž": 6421,
      "Han": 6422,
      "pochyb": 6423,
      "stráv": 6424,
      "seni": 6425,
      "##rok": 6426,
      "dod": 6427,
      "##etro": 6428,
      "půjde": 6429,
      "Roman": 6430,
      "tan": 6431,
      "regist": 6432,
      "chystá": 6433,
      "##ůl": 6434,
      "##jetí": 6435,
      "formu": 6436,
      "drží": 6437,
      "##ív": 6438,
      "Marek": 6439,
      "Národní": 6440,
      "Oba": 6441,
      "Martina": 6442,
      "zám": 6443,
      "deta": 6444,
      "pojišťov": 6445,
      "##kuje": 6446,
      "vědom": 6447,
      "video": 6448,
      "stadion": 6449,
      "úvě": 6450,
      "##exist": 6451,
      "raději": 6452,
      "nechal": 6453,
      "##kolog": 6454,
      "##óny": 6455,
      "jasně": 6456,
      "Lukáš": 6457,
      "hodinu": 6458,
      "Prob": 6459,
      "##ža": 6460,
      "##pravy": 6461,
      "ukazuje": 6462,
      "společností": 6463,
      "oddělení": 6464,
      "opti": 6465,
      "jem": 6466,
      "prospě": 6467,
      "tvor": 6468,
      "##držel": 6469,
      "##are": 6470,
      "38": 6471,
      "May": 6472,
      "předmě": 6473,
      "Sob": 6474,
      "analyti": 6475,
      "Proti": 6476,
      "góly": 6477,
      "Nebo": 6478,
      "váno": 6479,
      "Chy": 6480,
      "##aka": 6481,
      "ubyt": 6482,
      "tabul": 6483,
      "##pověd": 6484,
      "##zet": 6485,
      "hlavu": 6486,
      "##jede": 6487,
      "námi": 6488,
      "##teré": 6489,
      "##ram": 6490,
      "bav": 6491,
      "několikrát": 6492,
      "zpravodaj": 6493,
      "hasiči": 6494,
      "pozitivní": 6495,
      "regu": 6496,
      "##stále": 6497,
      "nádraží": 6498,
      "elektri": 6499,
      "transp": 6500,
      "odehrá": 6501,
      "seku": 6502,
      "výše": 6503,
      "jezdí": 6504,
      "##čích": 6505,
      "evid": 6506,
      "##ervat": 6507,
      "##sit": 6508,
      "Autor": 6509,
      "tuzem": 6510,
      "lou": 6511,
      "volební": 6512,
      "okamži": 6513,
      "vybud": 6514,
      "týdny": 6515,
      "návrhu": 6516,
      "Char": 6517,
      "sklad": 6518,
      "útok": 6519,
      "poj": 6520,
      "Trumpa": 6521,
      "svému": 6522,
      "##mile": 6523,
      "pravidla": 6524,
      "metropo": 6525,
      "lidmi": 6526,
      "přízni": 6527,
      "zastá": 6528,
      "Nový": 6529,
      "budovy": 6530,
      "##leží": 6531,
      "##ilní": 6532,
      "síly": 6533,
      "buď": 6534,
      "žid": 6535,
      "Rich": 6536,
      "mne": 6537,
      "##kamu": 6538,
      "Muž": 6539,
      "##pi": 6540,
      "##ama": 6541,
      "##enější": 6542,
      "odpověd": 6543,
      "neměli": 6544,
      "efek": 6545,
      "Pou": 6546,
      "75": 6547,
      "tram": 6548,
      "prově": 6549,
      "soukro": 6550,
      "37": 6551,
      "ředitele": 6552,
      "emo": 6553,
      "oni": 6554,
      "skutečnosti": 6555,
      "smysl": 6556,
      "každého": 6557,
      "primátor": 6558,
      "domác": 6559,
      "##isu": 6560,
      "##esta": 6561,
      "smlouvu": 6562,
      "vzniku": 6563,
      "sportovní": 6564,
      "tradiční": 6565,
      "potr": 6566,
      "##ovaně": 6567,
      "ún": 6568,
      "Jiřího": 6569,
      "##kací": 6570,
      "potí": 6571,
      "jednotlivých": 6572,
      "průmyslu": 6573,
      "vidí": 6574,
      "lim": 6575,
      "jejího": 6576,
      "##cházet": 6577,
      "vzdále": 6578,
      "hlediska": 6579,
      "46": 6580,
      "##mez": 6581,
      "osoby": 6582,
      "bankov": 6583,
      "Izrael": 6584,
      "Poz": 6585,
      "vnitř": 6586,
      "Dod": 6587,
      "Jiho": 6588,
      "Všichni": 6589,
      "jedená": 6590,
      "Bole": 6591,
      "generál": 6592,
      "Švýcar": 6593,
      "shod": 6594,
      "Sna": 6595,
      "##imi": 6596,
      "##sová": 6597,
      "obli": 6598,
      "Hon": 6599,
      "šed": 6600,
      "##cia": 6601,
      "skončila": 6602,
      "ztra": 6603,
      "##eněk": 6604,
      "##likož": 6605,
      "nachází": 6606,
      "břez": 6607,
      "kuchy": 6608,
      "pravda": 6609,
      "upozornil": 6610,
      "##štní": 6611,
      "##fik": 6612,
      "otázku": 6613,
      "##af": 6614,
      "##sila": 6615,
      "##tiva": 6616,
      "zbraní": 6617,
      "bezpečnostní": 6618,
      "Cí": 6619,
      "cít": 6620,
      "sub": 6621,
      "přiroz": 6622,
      "hum": 6623,
      "##lub": 6624,
      "přen": 6625,
      "##romady": 6626,
      "##tické": 6627,
      "hlasování": 6628,
      "považuje": 6629,
      "neček": 6630,
      "##eto": 6631,
      "##ink": 6632,
      "rela": 6633,
      "dle": 6634,
      "##cího": 6635,
      "takového": 6636,
      "##chodem": 6637,
      "zvýšení": 6638,
      "změnit": 6639,
      "##erem": 6640,
      "##ele": 6641,
      "Velké": 6642,
      "začalo": 6643,
      "naz": 6644,
      "legen": 6645,
      "vyjádření": 6646,
      "##rodního": 6647,
      "##ismus": 6648,
      "On": 6649,
      "soukrom": 6650,
      "tímto": 6651,
      "sum": 6652,
      "reál": 6653,
      "##BC": 6654,
      "Med": 6655,
      "fakul": 6656,
      "pravidelně": 6657,
      "potřebuje": 6658,
      "##lární": 6659,
      "Stá": 6660,
      "Polici": 6661,
      "váž": 6662,
      "##xus": 6663,
      "umění": 6664,
      "##astro": 6665,
      "##ovský": 6666,
      "neře": 6667,
      "šel": 6668,
      "závis": 6669,
      "##šak": 6670,
      "výmě": 6671,
      "Dost": 6672,
      "činnosti": 6673,
      "vystoupení": 6674,
      "Zdeněk": 6675,
      "##stvím": 6676,
      "propad": 6677,
      "Ústav": 6678,
      "##lid": 6679,
      "roze": 6680,
      "##ejt": 6681,
      "těžko": 6682,
      "Dva": 6683,
      "ročníku": 6684,
      "brex": 6685,
      "##rum": 6686,
      "vzhledem": 6687,
      "Poté": 6688,
      "##jích": 6689,
      "trans": 6690,
      "semi": 6691,
      "dává": 6692,
      "obleč": 6693,
      "vážně": 6694,
      "Ur": 6695,
      "vyjedná": 6696,
      "hypo": 6697,
      "mistrů": 6698,
      "##eli": 6699,
      "##nily": 6700,
      "najednou": 6701,
      "politici": 6702,
      "OSN": 6703,
      "65": 6704,
      "eta": 6705,
      "##maz": 6706,
      "někoho": 6707,
      "DP": 6708,
      "##tečné": 6709,
      "ju": 6710,
      "##livo": 6711,
      "##eným": 6712,
      "##minist": 6713,
      "##adě": 6714,
      "sme": 6715,
      "Násled": 6716,
      "sti": 6717,
      "ochranu": 6718,
      "##tro": 6719,
      "ohledně": 6720,
      "čase": 6721,
      "##ána": 6722,
      "dlouhé": 6723,
      "inten": 6724,
      "argum": 6725,
      "ona": 6726,
      "##oč": 6727,
      "peč": 6728,
      "odkaz": 6729,
      "John": 6730,
      "vystav": 6731,
      "představuje": 6732,
      "předchozí": 6733,
      "někdejší": 6734,
      "prezidentem": 6735,
      "režimu": 6736,
      "##rech": 6737,
      "Slov": 6738,
      "smy": 6739,
      "Ondřej": 6740,
      "objem": 6741,
      "Afri": 6742,
      "com": 6743,
      "zvyk": 6744,
      "analý": 6745,
      "##ační": 6746,
      "Bla": 6747,
      "dobrovol": 6748,
      "42": 6749,
      "ste": 6750,
      "##klád": 6751,
      "uměle": 6752,
      "Žád": 6753,
      "zdrav": 6754,
      "otázka": 6755,
      "##vem": 6756,
      "zabý": 6757,
      "nast": 6758,
      "konkrétní": 6759,
      "##ay": 6760,
      "chtěla": 6761,
      "##ori": 6762,
      "byzny": 6763,
      "připomíná": 6764,
      "##šetř": 6765,
      "##ánu": 6766,
      "Nejvyšší": 6767,
      "serveru": 6768,
      "strom": 6769,
      "Tři": 6770,
      "##átek": 6771,
      "Německa": 6772,
      "zaplat": 6773,
      "san": 6774,
      "39": 6775,
      "odstra": 6776,
      "At": 6777,
      "výzkum": 6778,
      "##áty": 6779,
      "převá": 6780,
      "400": 6781,
      "##elní": 6782,
      "podniku": 6783,
      "Drahoš": 6784,
      "##enie": 6785,
      "stat": 6786,
      "##klo": 6787,
      "schůz": 6788,
      "městské": 6789,
      "Okamu": 6790,
      "prv": 6791,
      "2010": 6792,
      "##bi": 6793,
      "zavá": 6794,
      "péče": 6795,
      "is": 6796,
      "tajem": 6797,
      "uprchlí": 6798,
      "Ministerstvo": 6799,
      "2011": 6800,
      "dár": 6801,
      "žádnou": 6802,
      "růstu": 6803,
      "##sia": 6804,
      "ků": 6805,
      "cestou": 6806,
      "obětí": 6807,
      "##lených": 6808,
      "diplomat": 6809,
      "pořádku": 6810,
      "Někteří": 6811,
      "Kry": 6812,
      "##terá": 6813,
      "ano": 6814,
      "šťast": 6815,
      "stroj": 6816,
      "musím": 6817,
      "##ilu": 6818,
      "##arak": 6819,
      "##mili": 6820,
      "##ovku": 6821,
      "##pustit": 6822,
      "vyvo": 6823,
      "Největší": 6824,
      "##vést": 6825,
      "delší": 6826,
      "##itou": 6827,
      "lize": 6828,
      "zbav": 6829,
      "##nově": 6830,
      "syr": 6831,
      "##EZ": 6832,
      "##stin": 6833,
      "úro": 6834,
      "Problém": 6835,
      "domě": 6836,
      "představit": 6837,
      "ohrož": 6838,
      "##gn": 6839,
      "Evropská": 6840,
      "hasičů": 6841,
      "##háj": 6842,
      "Len": 6843,
      "investice": 6844,
      "##ína": 6845,
      "odmě": 6846,
      "hní": 6847,
      "odmítá": 6848,
      "##jíma": 6849,
      "##stoupí": 6850,
      "zla": 6851,
      "útoční": 6852,
      "veřejné": 6853,
      "přesu": 6854,
      "Tato": 6855,
      "##lod": 6856,
      "Krá": 6857,
      "Poslední": 6858,
      "energie": 6859,
      "skupině": 6860,
      "##ph": 6861,
      "vzrost": 6862,
      "##větším": 6863,
      "bur": 6864,
      "charak": 6865,
      "Donald": 6866,
      "##ňování": 6867,
      "##kola": 6868,
      "dramat": 6869,
      "ohro": 6870,
      "fon": 6871,
      "autobus": 6872,
      "##inové": 6873,
      "##adem": 6874,
      "stavby": 6875,
      "vyrábě": 6876,
      "posil": 6877,
      "představitel": 6878,
      "##šuje": 6879,
      "Masary": 6880,
      "stál": 6881,
      "##níkům": 6882,
      "favor": 6883,
      "Robert": 6884,
      "soutěž": 6885,
      "posledním": 6886,
      "výjime": 6887,
      "nejspíš": 6888,
      "##entní": 6889,
      "dvoji": 6890,
      "bytů": 6891,
      "sezonu": 6892,
      "stru": 6893,
      "neustále": 6894,
      "nazna": 6895,
      "Air": 6896,
      "Ostrav": 6897,
      "##eku": 6898,
      "##gr": 6899,
      "Milan": 6900,
      "##ghá": 6901,
      "##něný": 6902,
      "##bere": 6903,
      "##čková": 6904,
      "nahrá": 6905,
      "##of": 6906,
      "Británii": 6907,
      "##ktů": 6908,
      "zvítěz": 6909,
      "Fer": 6910,
      "##islav": 6911,
      "##drží": 6912,
      "##áka": 6913,
      "Brus": 6914,
      "digit": 6915,
      "##chová": 6916,
      "nedě": 6917,
      "revolu": 6918,
      "druhá": 6919,
      "##kovat": 6920,
      "spolupráce": 6921,
      "vyv": 6922,
      "dalšího": 6923,
      "agent": 6924,
      "ochot": 6925,
      "obvin": 6926,
      "otec": 6927,
      "mého": 6928,
      "účin": 6929,
      "Sýrii": 6930,
      "44": 6931,
      "neexist": 6932,
      "částe": 6933,
      "osobně": 6934,
      "kabin": 6935,
      "Jablon": 6936,
      "Řek": 6937,
      "Sal": 6938,
      "hlou": 6939,
      "##encí": 6940,
      "dot": 6941,
      "cykli": 6942,
      "Hamáček": 6943,
      "dalšími": 6944,
      "##hro": 6945,
      "hrál": 6946,
      "pohybu": 6947,
      "NATO": 6948,
      "oslov": 6949,
      "Brati": 6950,
      "fa": 6951,
      "far": 6952,
      "##ovatelé": 6953,
      "prezent": 6954,
      "týká": 6955,
      "##idla": 6956,
      "##cová": 6957,
      "přišlo": 6958,
      "##esel": 6959,
      "vzor": 6960,
      "Kla": 6961,
      "přís": 6962,
      "mluvit": 6963,
      "kontrolu": 6964,
      "hov": 6965,
      "Měl": 6966,
      "německé": 6967,
      "Lé": 6968,
      "##neme": 6969,
      "Západ": 6970,
      "extrém": 6971,
      "leží": 6972,
      "kvalitní": 6973,
      "##lépe": 6974,
      "##kého": 6975,
      "aktivní": 6976,
      "redak": 6977,
      "aspoň": 6978,
      "##zivní": 6979,
      "označ": 6980,
      "##deň": 6981,
      "##bro": 6982,
      "opu": 6983,
      "##voz": 6984,
      "Ros": 6985,
      "narod": 6986,
      "radnice": 6987,
      "moderní": 6988,
      "##mana": 6989,
      "veřejnost": 6990,
      "poro": 6991,
      "ulice": 6992,
      "Euro": 6993,
      "Pirá": 6994,
      "##čík": 6995,
      "rozhodla": 6996,
      "přihlá": 6997,
      "Patri": 6998,
      "spu": 6999,
      "##cher": 7000,
      "všeho": 7001,
      "##mun": 7002,
      "názv": 7003,
      "režisér": 7004,
      "Auto": 7005,
      "stačí": 7006,
      "Kor": 7007,
      "##působ": 7008,
      "problémů": 7009,
      "##jeli": 7010,
      "zaslou": 7011,
      "podeps": 7012,
      "knihy": 7013,
      "domov": 7014,
      "##stan": 7015,
      "jednozna": 7016,
      "##ted": 7017,
      "##rky": 7018,
      "jiná": 7019,
      "parku": 7020,
      "generace": 7021,
      "Si": 7022,
      "jaře": 7023,
      "počítá": 7024,
      "hez": 7025,
      "trvá": 7026,
      "olympi": 7027,
      "jinde": 7028,
      "ukraj": 7029,
      "##gram": 7030,
      "150": 7031,
      "silnice": 7032,
      "Spojené": 7033,
      "Prav": 7034,
      "hle": 7035,
      "##jících": 7036,
      "uměl": 7037,
      "speku": 7038,
      "Zu": 7039,
      "pilo": 7040,
      "nalez": 7041,
      "##ctví": 7042,
      "##nie": 7043,
      "takhle": 7044,
      "##ota": 7045,
      "zkušenost": 7046,
      "Ir": 7047,
      "##šková": 7048,
      "Fil": 7049,
      "##fe": 7050,
      "##anů": 7051,
      "##ody": 7052,
      "##oče": 7053,
      "přispě": 7054,
      "dopravu": 7055,
      "policii": 7056,
      "##tka": 7057,
      "##řetí": 7058,
      "chtít": 7059,
      "##telu": 7060,
      "údajů": 7061,
      "dohromady": 7062,
      "##odní": 7063,
      "pe": 7064,
      "log": 7065,
      "data": 7066,
      "##die": 7067,
      "zachy": 7068,
      "Prostě": 7069,
      "##énu": 7070,
      "ČSL": 7071,
      "Fot": 7072,
      "závěre": 7073,
      "##sat": 7074,
      "Lab": 7075,
      "obvykle": 7076,
      "poslanci": 7077,
      "cvič": 7078,
      "vydání": 7079,
      "Blesk": 7080,
      "##horší": 7081,
      "prozrad": 7082,
      "##kým": 7083,
      "obvinění": 7084,
      "spravedlnosti": 7085,
      "##aniel": 7086,
      "republika": 7087,
      "##nář": 7088,
      "tep": 7089,
      "víkendu": 7090,
      "podezřel": 7091,
      "##mout": 7092,
      "poslanců": 7093,
      "Nicméně": 7094,
      "##smě": 7095,
      "mění": 7096,
      "48": 7097,
      "##stro": 7098,
      "lav": 7099,
      "##ckými": 7100,
      "Ač": 7101,
      "Býval": 7102,
      "##něji": 7103,
      "obč": 7104,
      "vztahy": 7105,
      "přijít": 7106,
      "desí": 7107,
      "KDU": 7108,
      "špič": 7109,
      "neměla": 7110,
      "##zdory": 7111,
      "Terez": 7112,
      "##těž": 7113,
      "příklad": 7114,
      "zved": 7115,
      "poko": 7116,
      "řetě": 7117,
      "skó": 7118,
      "##broj": 7119,
      "historie": 7120,
      "podnikatel": 7121,
      "2020": 7122,
      "proh": 7123,
      "dali": 7124,
      "##ivu": 7125,
      "zasah": 7126,
      "##šly": 7127,
      "##jela": 7128,
      "##jat": 7129,
      "##sazení": 7130,
      "Washington": 7131,
      "##rí": 7132,
      "kampaň": 7133,
      "uzavř": 7134,
      "izrael": 7135,
      "##vnitř": 7136,
      "##smus": 7137,
      "soupeře": 7138,
      "naposledy": 7139,
      "nechat": 7140,
      "uplynu": 7141,
      "ukrajin": 7142,
      "Přes": 7143,
      "standard": 7144,
      "##laci": 7145,
      "Bor": 7146,
      "Kateř": 7147,
      "LN": 7148,
      "dô": 7149,
      "přestup": 7150,
      "krize": 7151,
      "přátel": 7152,
      "##hav": 7153,
      "##ovek": 7154,
      "incid": 7155,
      "zdravotnictví": 7156,
      "propu": 7157,
      "##tip": 7158,
      "kol": 7159,
      "bezpečnosti": 7160,
      "aktuální": 7161,
      "##řeli": 7162,
      "jejíž": 7163,
      "##ktiv": 7164,
      "##něných": 7165,
      "výš": 7166,
      "Adam": 7167,
      "obtí": 7168,
      "Con": 7169,
      "voda": 7170,
      "Bohu": 7171,
      "naho": 7172,
      "Ap": 7173,
      "som": 7174,
      "##lejší": 7175,
      "kolegy": 7176,
      "##ěj": 7177,
      "odvola": 7178,
      "Izra": 7179,
      "##však": 7180,
      "Miloše": 7181,
      "pozornost": 7182,
      "Facebooku": 7183,
      "rozhodli": 7184,
      "péči": 7185,
      "##enz": 7186,
      "průměru": 7187,
      "##DR": 7188,
      "lednu": 7189,
      "Většina": 7190,
      "##řin": 7191,
      "##sť": 7192,
      "agres": 7193,
      "##víti": 7194,
      "žeb": 7195,
      "třemi": 7196,
      "přišli": 7197,
      "důvodu": 7198,
      "Dvo": 7199,
      "Vla": 7200,
      "cuk": 7201,
      "Sparta": 7202,
      "Net": 7203,
      "názvem": 7204,
      "Aktu": 7205,
      "předsedy": 7206,
      "##nka": 7207,
      "glob": 7208,
      "##leli": 7209,
      "dodnes": 7210,
      "chrá": 7211,
      "##čily": 7212,
      "příč": 7213,
      "##mal": 7214,
      "lokali": 7215,
      "fond": 7216,
      "##ski": 7217,
      "otázky": 7218,
      "MS": 7219,
      "našli": 7220,
      "##atři": 7221,
      "Mora": 7222,
      "mode": 7223,
      "elektrá": 7224,
      "dotace": 7225,
      "##škod": 7226,
      "##řením": 7227,
      "pěk": 7228,
      "##ess": 7229,
      "Francii": 7230,
      "problem": 7231,
      "informoval": 7232,
      "vyvola": 7233,
      "památ": 7234,
      "uvol": 7235,
      "šet": 7236,
      "dětmi": 7237,
      "alternat": 7238,
      "usil": 7239,
      "Soud": 7240,
      "pobo": 7241,
      "plast": 7242,
      "případů": 7243,
      "Ivan": 7244,
      "ač": 7245,
      "hlubo": 7246,
      "desítek": 7247,
      "##dra": 7248,
      "##vách": 7249,
      "chodí": 7250,
      "##bře": 7251,
      "troj": 7252,
      "ČEZ": 7253,
      "tlak": 7254,
      "nedale": 7255,
      "omezení": 7256,
      "nejbli": 7257,
      "Senátu": 7258,
      "##ovič": 7259,
      "##enky": 7260,
      "Cho": 7261,
      "řidiče": 7262,
      "pit": 7263,
      "##ráček": 7264,
      "Itálie": 7265,
      "novým": 7266,
      "mô": 7267,
      "Některé": 7268,
      "vítě": 7269,
      "příležitost": 7270,
      "informovala": 7271,
      "sérii": 7272,
      "hodnoty": 7273,
      "Kraj": 7274,
      "udělal": 7275,
      "##stický": 7276,
      "Nové": 7277,
      "mír": 7278,
      "Společnost": 7279,
      "účet": 7280,
      "říkal": 7281,
      "hr": 7282,
      "oceně": 7283,
      "nebyly": 7284,
      "kto": 7285,
      "padesát": 7286,
      "advok": 7287,
      "trium": 7288,
      "Počet": 7289,
      "přiznal": 7290,
      "ture": 7291,
      "##rátu": 7292,
      "pana": 7293,
      "činnost": 7294,
      "sítích": 7295,
      "nie": 7296,
      "děje": 7297,
      "českou": 7298,
      "požád": 7299,
      "bal": 7300,
      "zdarma": 7301,
      "##rala": 7302,
      "srovnání": 7303,
      "slovo": 7304,
      "193": 7305,
      "Vše": 7306,
      "násilí": 7307,
      "kami": 7308,
      "vozů": 7309,
      "43": 7310,
      "Ver": 7311,
      "školství": 7312,
      "princi": 7313,
      "##ovic": 7314,
      "vyjad": 7315,
      "##hnu": 7316,
      "počátku": 7317,
      "diváků": 7318,
      "zlat": 7319,
      "##ladatel": 7320,
      "##pas": 7321,
      "Chor": 7322,
      "kterými": 7323,
      "Přit": 7324,
      "##alou": 7325,
      "výrobce": 7326,
      "vrchol": 7327,
      "##znamu": 7328,
      "##slane": 7329,
      "Bohužel": 7330,
      "události": 7331,
      "trenéra": 7332,
      "vystup": 7333,
      "Šéf": 7334,
      "##ujú": 7335,
      "naroz": 7336,
      "Lidovky": 7337,
      "##lal": 7338,
      "obránce": 7339,
      "nábo": 7340,
      "přiblí": 7341,
      "mostu": 7342,
      "časem": 7343,
      "##cené": 7344,
      "roste": 7345,
      "##čných": 7346,
      "##vých": 7347,
      "nehod": 7348,
      "##nali": 7349,
      "všude": 7350,
      "českosloven": 7351,
      "našem": 7352,
      "rece": 7353,
      "##ruhé": 7354,
      "chci": 7355,
      "##zev": 7356,
      "##rovná": 7357,
      "uvaž": 7358,
      "kriminali": 7359,
      "mou": 7360,
      "##řky": 7361,
      "ženu": 7362,
      "##visí": 7363,
      "sel": 7364,
      "měsících": 7365,
      "dvaceti": 7366,
      "ohledu": 7367,
      "rem": 7368,
      "Všechny": 7369,
      "##nová": 7370,
      "třetím": 7371,
      "prací": 7372,
      "Jižní": 7373,
      "Jihla": 7374,
      "těsně": 7375,
      "Facebook": 7376,
      "##ány": 7377,
      "##clé": 7378,
      "poháru": 7379,
      "týdne": 7380,
      "nedostat": 7381,
      "směru": 7382,
      "Brna": 7383,
      "členové": 7384,
      "41": 7385,
      "##lig": 7386,
      "zpátky": 7387,
      "Goog": 7388,
      "zahr": 7389,
      "spokoj": 7390,
      "##městnan": 7391,
      "Tim": 7392,
      "plánuje": 7393,
      "Pu": 7394,
      "voličů": 7395,
      "menš": 7396,
      "cíl": 7397,
      "cíle": 7398,
      "série": 7399,
      "Boleslav": 7400,
      "##rin": 7401,
      "##kojen": 7402,
      "##jícím": 7403,
      "klimat": 7404,
      "Pel": 7405,
      "nepoda": 7406,
      "technologie": 7407,
      "Kub": 7408,
      "kilo": 7409,
      "říci": 7410,
      "##ujícím": 7411,
      "regionu": 7412,
      "spis": 7413,
      "těla": 7414,
      "rezer": 7415,
      "##ociace": 7416,
      "přizná": 7417,
      "vedl": 7418,
      "##ředu": 7419,
      "překon": 7420,
      "Bru": 7421,
      "směř": 7422,
      "posta": 7423,
      "##krátka": 7424,
      "##nál": 7425,
      "elektř": 7426,
      "řady": 7427,
      "velvy": 7428,
      "civili": 7429,
      "Policisté": 7430,
      "stanovi": 7431,
      "##DP": 7432,
      "Sestavy": 7433,
      "nejvý": 7434,
      "zápasech": 7435,
      "Buděj": 7436,
      "květnu": 7437,
      "##mění": 7438,
      "politice": 7439,
      "##tla": 7440,
      "koncert": 7441,
      "semifinále": 7442,
      "Lí": 7443,
      "studie": 7444,
      "dřív": 7445,
      "Klad": 7446,
      "##tvar": 7447,
      "udělá": 7448,
      "##leh": 7449,
      "##hlasí": 7450,
      "armády": 7451,
      "Is": 7452,
      "##zech": 7453,
      "přiná": 7454,
      "činu": 7455,
      "##lent": 7456,
      "ran": 7457,
      "Gó": 7458,
      "##ill": 7459,
      "Ostravě": 7460,
      "minuty": 7461,
      "muzi": 7462,
      "časop": 7463,
      "Kali": 7464,
      "##gres": 7465,
      "fotografi": 7466,
      "hav": 7467,
      "luxus": 7468,
      "El": 7469,
      "přemýš": 7470,
      "##alizace": 7471,
      "##icích": 7472,
      "##ády": 7473,
      "lékaři": 7474,
      "zauj": 7475,
      "##čko": 7476,
      "##řily": 7477,
      "bývá": 7478,
      "negativní": 7479,
      "##hel": 7480,
      "ostatních": 7481,
      "odliš": 7482,
      "ins": 7483,
      "##klu": 7484,
      "velkým": 7485,
      "##itelně": 7486,
      "poslal": 7487,
      "##mluv": 7488,
      "nájem": 7489,
      "bol": 7490,
      "##časně": 7491,
      "##desát": 7492,
      "##nce": 7493,
      "##nemoc": 7494,
      "nejča": 7495,
      "inici": 7496,
      "čtvrtfinále": 7497,
      "vzpomín": 7498,
      "Přitom": 7499,
      "##reg": 7500,
      "politiků": 7501,
      "stejný": 7502,
      "mali": 7503,
      "##burg": 7504,
      "závodu": 7505,
      "dodrž": 7506,
      "Er": 7507,
      "##nové": 7508,
      "kauze": 7509,
      "přet": 7510,
      "Tehdy": 7511,
      "teror": 7512,
      "##ovice": 7513,
      "Slu": 7514,
      "##ach": 7515,
      "zadrž": 7516,
      "březnu": 7517,
      "vrace": 7518,
      "sig": 7519,
      "zdrojů": 7520,
      "##nam": 7521,
      "piv": 7522,
      "Nes": 7523,
      "nejlépe": 7524,
      "##družení": 7525,
      "milió": 7526,
      "zvířat": 7527,
      "Plzni": 7528,
      "kontra": 7529,
      "širo": 7530,
      "Bro": 7531,
      "oto": 7532,
      "vznikla": 7533,
      "nevím": 7534,
      "nedáv": 7535,
      "severo": 7536,
      "tvůr": 7537,
      "vez": 7538,
      "##tala": 7539,
      "polož": 7540,
      "zábav": 7541,
      "##čnou": 7542,
      "odchodu": 7543,
      "vyžad": 7544,
      "##jiště": 7545,
      "pomalu": 7546,
      "49": 7547,
      "##pit": 7548,
      "politika": 7549,
      "čtená": 7550,
      "##pů": 7551,
      "celkové": 7552,
      "vrátí": 7553,
      "upozorňuje": 7554,
      "španěl": 7555,
      "žebří": 7556,
      "hlavou": 7557,
      "úz": 7558,
      "atra": 7559,
      "největším": 7560,
      "teploty": 7561,
      "firmu": 7562,
      "zahraničních": 7563,
      "váš": 7564,
      "Daniel": 7565,
      "prodeje": 7566,
      "soutěži": 7567,
      "centrum": 7568,
      "deníku": 7569,
      "vodu": 7570,
      "nedost": 7571,
      "politiku": 7572,
      "Ca": 7573,
      "nef": 7574,
      "inspek": 7575,
      "##kan": 7576,
      "##poz": 7577,
      "##advaceti": 7578,
      "západní": 7579,
      "##dějí": 7580,
      "##isa": 7581,
      "##xe": 7582,
      "vytvořit": 7583,
      "zadr": 7584,
      "Firma": 7585,
      "##oboda": 7586,
      "začaly": 7587,
      "podezření": 7588,
      "##pán": 7589,
      "rakou": 7590,
      "Václa": 7591,
      "bom": 7592,
      "hudební": 7593,
      "##ládá": 7594,
      "viděl": 7595,
      "nemohl": 7596,
      "herec": 7597,
      "konzervat": 7598,
      "zásob": 7599,
      "Ed": 7600,
      "##jong": 7601,
      "podotkl": 7602,
      "zprávě": 7603,
      "mnou": 7604,
      "slá": 7605,
      "zni": 7606,
      "silnici": 7607,
      "Qu": 7608,
      "##čel": 7609,
      "dohodu": 7610,
      "spousta": 7611,
      "Des": 7612,
      "navá": 7613,
      "##ecku": 7614,
      "reakci": 7615,
      "rodinu": 7616,
      "##cker": 7617,
      "##timet": 7618,
      "anga": 7619,
      "Val": 7620,
      "##stem": 7621,
      "novinářům": 7622,
      "Tro": 7623,
      "klad": 7624,
      "##růz": 7625,
      "staré": 7626,
      "Čína": 7627,
      "povolení": 7628,
      "ruského": 7629,
      "Karo": 7630,
      "stavební": 7631,
      "článku": 7632,
      "plné": 7633,
      "horší": 7634,
      "##tují": 7635,
      "Vojtě": 7636,
      "vyd": 7637,
      "##ovicích": 7638,
      "zdroje": 7639,
      "psa": 7640,
      "uplat": 7641,
      "Pch": 7642,
      "##znamená": 7643,
      "nemám": 7644,
      "##telig": 7645,
      "možností": 7646,
      "vrací": 7647,
      "oznámení": 7648,
      "ústavu": 7649,
      "nechtěl": 7650,
      "pán": 7651,
      "195": 7652,
      "úse": 7653,
      "výda": 7654,
      "Čá": 7655,
      "##cát": 7656,
      "Vzhledem": 7657,
      "##tře": 7658,
      "##kazuje": 7659,
      "dokázal": 7660,
      "Přestože": 7661,
      "Fak": 7662,
      "Fal": 7663,
      "Krej": 7664,
      "##letě": 7665,
      "přesvědč": 7666,
      "letiště": 7667,
      "Řidič": 7668,
      "##žas": 7669,
      "výroby": 7670,
      "anebo": 7671,
      "##nete": 7672,
      "##tví": 7673,
      "##ložit": 7674,
      "převez": 7675,
      "ptá": 7676,
      "hot": 7677,
      "generální": 7678,
      "věz": 7679,
      "oslab": 7680,
      "fron": 7681,
      "mr": 7682,
      "oči": 7683,
      "##žnost": 7684,
      "Prahu": 7685,
      "##eda": 7686,
      "komple": 7687,
      "respek": 7688,
      "schů": 7689,
      "Kat": 7690,
      "vytá": 7691,
      "napsala": 7692,
      "zaměstna": 7693,
      "přítel": 7694,
      "Cent": 7695,
      "neúspě": 7696,
      "zůstat": 7697,
      "##itelné": 7698,
      "Určit": 7699,
      "##átů": 7700,
      "Vid": 7701,
      "vyzkou": 7702,
      "respekt": 7703,
      "chcete": 7704,
      "##hala": 7705,
      "onemoc": 7706,
      "varian": 7707,
      "pád": 7708,
      "Musíme": 7709,
      "Bra": 7710,
      "baz": 7711,
      "##zaci": 7712,
      "souhlas": 7713,
      "Francouz": 7714,
      "jednotky": 7715,
      "role": 7716,
      "neuvě": 7717,
      "alebo": 7718,
      "exeku": 7719,
      "Ostat": 7720,
      "ich": 7721,
      "##rant": 7722,
      "poločas": 7723,
      "kru": 7724,
      "##one": 7725,
      "##kladu": 7726,
      "existuje": 7727,
      "kos": 7728,
      "senátor": 7729,
      "##ůležitější": 7730,
      "hřišti": 7731,
      "##ip": 7732,
      "čerst": 7733,
      "kroky": 7734,
      "##ipu": 7735,
      "zaměstnanci": 7736,
      "##ott": 7737,
      "představení": 7738,
      "##skok": 7739,
      "##ade": 7740,
      "##line": 7741,
      "market": 7742,
      "podpis": 7743,
      "teor": 7744,
      "malý": 7745,
      "Severní": 7746,
      "skončí": 7747,
      "uzná": 7748,
      "##čené": 7749,
      "politických": 7750,
      "občanů": 7751,
      "zased": 7752,
      "srdce": 7753,
      "Výsled": 7754,
      "##lích": 7755,
      "##iac": 7756,
      "zajistit": 7757,
      "ministryně": 7758,
      "demokraci": 7759,
      "působil": 7760,
      "pokračuje": 7761,
      "Ovšem": 7762,
      "úpl": 7763,
      "vojáků": 7764,
      "##ární": 7765,
      "lik": 7766,
      "##strá": 7767,
      "##stit": 7768,
      "doprov": 7769,
      "správy": 7770,
      "##nera": 7771,
      "azy": 7772,
      "pojištění": 7773,
      "chud": 7774,
      "vozidla": 7775,
      "##úto": 7776,
      "Sim": 7777,
      "Kaž": 7778,
      "##lému": 7779,
      "noc": 7780,
      "univerzity": 7781,
      "seriálu": 7782,
      "##hraje": 7783,
      "jakým": 7784,
      "zájmu": 7785,
      "zodpověd": 7786,
      "mzdy": 7787,
      "sni": 7788,
      "oznámila": 7789,
      "najdete": 7790,
      "slab": 7791,
      "Olomouc": 7792,
      "Československa": 7793,
      "Niz": 7794,
      "opakovaně": 7795,
      "kdysi": 7796,
      "barev": 7797,
      "##ovatele": 7798,
      "##ovaným": 7799,
      "výrobu": 7800,
      "kampaně": 7801,
      "žít": 7802,
      "saz": 7803,
      "branky": 7804,
      "##poví": 7805,
      "dětem": 7806,
      "musíte": 7807,
      "##ima": 7808,
      "úko": 7809,
      "círk": 7810,
      "eli": 7811,
      "zní": 7812,
      "výkonu": 7813,
      "Belg": 7814,
      "úroveň": 7815,
      "##kém": 7816,
      "chvíle": 7817,
      "STA": 7818,
      "We": 7819,
      "nábožen": 7820,
      "Barto": 7821,
      "pohod": 7822,
      "dávno": 7823,
      "devíti": 7824,
      "rozum": 7825,
      "navý": 7826,
      "poznamenal": 7827,
      "míří": 7828,
      "zvláštní": 7829,
      "II": 7830,
      "Čechů": 7831,
      "každém": 7832,
      "##lar": 7833,
      "nehody": 7834,
      "##ht": 7835,
      "##kin": 7836,
      "pru": 7837,
      "lok": 7838,
      "##cel": 7839,
      "##řídit": 7840,
      "snadno": 7841,
      "víkend": 7842,
      "zálož": 7843,
      "##mali": 7844,
      "##koval": 7845,
      "nejbližší": 7846,
      "zůstane": 7847,
      "poplat": 7848,
      "##loval": 7849,
      "Důvod": 7850,
      "matka": 7851,
      "##nostní": 7852,
      "intelig": 7853,
      "Wal": 7854,
      "každou": 7855,
      "##ah": 7856,
      "prev": 7857,
      "sledovat": 7858,
      "##teoro": 7859,
      "sobot": 7860,
      "prior": 7861,
      "Viktor": 7862,
      "jednoduché": 7863,
      "##hodné": 7864,
      "pravdu": 7865,
      "Jam": 7866,
      "životního": 7867,
      "zu": 7868,
      "Českého": 7869,
      "Met": 7870,
      "prosaz": 7871,
      "takových": 7872,
      "kultury": 7873,
      "##dividu": 7874,
      "firmě": 7875,
      "dosah": 7876,
      "Ostrava": 7877,
      "osud": 7878,
      "demonstra": 7879,
      "názory": 7880,
      "územ": 7881,
      "veľ": 7882,
      "##ito": 7883,
      "##gal": 7884,
      "strašně": 7885,
      "spojení": 7886,
      "nepříjem": 7887,
      "návrat": 7888,
      "##kry": 7889,
      "##jších": 7890,
      "druhým": 7891,
      "červnu": 7892,
      "příštího": 7893,
      "rozsá": 7894,
      "pó": 7895,
      "##NB": 7896,
      "Pavla": 7897,
      "hypoté": 7898,
      "polovinu": 7899,
      "Více": 7900,
      "vozu": 7901,
      "47": 7902,
      "52": 7903,
      "obsad": 7904,
      "vykon": 7905,
      "Ture": 7906,
      "koneč": 7907,
      "Neby": 7908,
      "týdnů": 7909,
      "##áři": 7910,
      "hvězd": 7911,
      "##áře": 7912,
      "vyhrát": 7913,
      "Most": 7914,
      "Sport": 7915,
      "dist": 7916,
      "##šte": 7917,
      "plně": 7918,
      "Číně": 7919,
      "hledat": 7920,
      "Rozhodčí": 7921,
      "balí": 7922,
      "Obě": 7923,
      "Dlou": 7924,
      "Tá": 7925,
      "ruku": 7926,
      "dozvě": 7927,
      "##lom": 7928,
      "centimet": 7929,
      "Bul": 7930,
      "poc": 7931,
      "obhaj": 7932,
      "Boh": 7933,
      "imp": 7934,
      "poptá": 7935,
      "fotografie": 7936,
      "státního": 7937,
      "podmínek": 7938,
      "vést": 7939,
      "jaká": 7940,
      "##čkem": 7941,
      "Div": 7942,
      "Czech": 7943,
      "##jila": 7944,
      "podívat": 7945,
      "komplet": 7946,
      "bet": 7947,
      "doba": 7948,
      "##lár": 7949,
      "nemohou": 7950,
      "pomáhá": 7951,
      "dotaz": 7952,
      "##mum": 7953,
      "věd": 7954,
      "##ávan": 7955,
      "191": 7956,
      "prosinci": 7957,
      "tramva": 7958,
      "dala": 7959,
      "Zač": 7960,
      "Kde": 7961,
      "hejt": 7962,
      "##nodu": 7963,
      "51": 7964,
      "##lela": 7965,
      "branká": 7966,
      "rostli": 7967,
      "##čného": 7968,
      "Nep": 7969,
      "##lým": 7970,
      "zbraně": 7971,
      "Dán": 7972,
      "připo": 7973,
      "##slech": 7974,
      "jím": 7975,
      "dojde": 7976,
      "nebezpe": 7977,
      "poškoz": 7978,
      "ekolog": 7979,
      "žá": 7980,
      "představí": 7981,
      "sjezd": 7982,
      "##šením": 7983,
      "místních": 7984,
      "##oty": 7985,
      "verze": 7986,
      "každo": 7987,
      "Willi": 7988,
      "euro": 7989,
      "##iru": 7990,
      "obavy": 7991,
      "válce": 7992,
      "pracoval": 7993,
      "legisla": 7994,
      "pomohl": 7995,
      "boji": 7996,
      "##čením": 7997,
      "Tedy": 7998,
      "##ban": 7999,
      "student": 8000,
      "František": 8001,
      "dubnu": 8002,
      "sociali": 8003,
      "##star": 8004,
      "míní": 8005,
      "kře": 8006,
      "kanclé": 8007,
      "vysoko": 8008,
      "##letou": 8009,
      "šampionátu": 8010,
      "absolu": 8011,
      "událost": 8012,
      "čekají": 8013,
      "přez": 8014,
      "meziročně": 8015,
      "##řaz": 8016,
      "##der": 8017,
      "nechy": 8018,
      "Mimo": 8019,
      "##ica": 8020,
      "STAN": 8021,
      "##šený": 8022,
      "59": 8023,
      "trval": 8024,
      "##ňák": 8025,
      "nárůst": 8026,
      "##iče": 8027,
      "Jedno": 8028,
      "ideální": 8029,
      "##átora": 8030,
      "Měli": 8031,
      "##dol": 8032,
      "58": 8033,
      "53": 8034,
      "fi": 8035,
      "strach": 8036,
      "vojenské": 8037,
      "zemědělství": 8038,
      "Piráti": 8039,
      "fo": 8040,
      "proběh": 8041,
      "Naše": 8042,
      "Peter": 8043,
      "Dop": 8044,
      "Vláda": 8045,
      "vyjadř": 8046,
      "##ult": 8047,
      "budoucnosti": 8048,
      "##gen": 8049,
      "rodině": 8050,
      "úča": 8051,
      "objeví": 8052,
      "Paří": 8053,
      "ple": 8054,
      "Úřad": 8055,
      "kontakt": 8056,
      "Pchjong": 8057,
      "Ban": 8058,
      "uvnitř": 8059,
      "jinou": 8060,
      "čtvrtletí": 8061,
      "Com": 8062,
      "referendu": 8063,
      "TV": 8064,
      "proná": 8065,
      "dopis": 8066,
      "ukázal": 8067,
      "len": 8068,
      "##inc": 8069,
      "Chceme": 8070,
      "libe": 8071,
      "zůstal": 8072,
      "##níkem": 8073,
      "čeho": 8074,
      "největších": 8075,
      "utrpě": 8076,
      "majetku": 8077,
      "##nicí": 8078,
      "##řídil": 8079,
      "alkoholu": 8080,
      "baví": 8081,
      "ekonomiky": 8082,
      "oblečení": 8083,
      "zdr": 8084,
      "ra": 8085,
      "řidiči": 8086,
      "vrtu": 8087,
      "vedením": 8088,
      "svobody": 8089,
      "deník": 8090,
      "nevz": 8091,
      "budoucí": 8092,
      "##hrát": 8093,
      "snažil": 8094,
      "údaje": 8095,
      "čekat": 8096,
      "vir": 8097,
      "individu": 8098,
      "##šný": 8099,
      "hotelu": 8100,
      "##vát": 8101,
      "smyslu": 8102,
      "##jdou": 8103,
      "obháj": 8104,
      "##dem": 8105,
      "migrantů": 8106,
      "##EF": 8107,
      "2008": 8108,
      "##rigin": 8109,
      "mak": 8110,
      "##tách": 8111,
      "Zprá": 8112,
      "57": 8113,
      "dopředu": 8114,
      "stupňů": 8115,
      "bytu": 8116,
      "představen": 8117,
      "riziko": 8118,
      "##ribu": 8119,
      "vůz": 8120,
      "armáda": 8121,
      "rychlost": 8122,
      "únoru": 8123,
      "společné": 8124,
      "mladé": 8125,
      "zkla": 8126,
      "radik": 8127,
      "prostředky": 8128,
      "návratu": 8129,
      "postavit": 8130,
      "obecně": 8131,
      "koho": 8132,
      "mech": 8133,
      "těší": 8134,
      "pacha": 8135,
      "likvid": 8136,
      "Ange": 8137,
      "##žívá": 8138,
      "Írán": 8139,
      "dvanáct": 8140,
      "nehodě": 8141,
      "skr": 8142,
      "gen": 8143,
      "##ša": 8144,
      "namí": 8145,
      "pora": 8146,
      "##rové": 8147,
      "##lách": 8148,
      "Mag": 8149,
      "lin": 8150,
      "úsmě": 8151,
      "přichází": 8152,
      "##vied": 8153,
      "##moř": 8154,
      "průvod": 8155,
      "tábor": 8156,
      "##nět": 8157,
      "míru": 8158,
      "síť": 8159,
      "fungovat": 8160,
      "Dem": 8161,
      "bojovat": 8162,
      "východní": 8163,
      "bru": 8164,
      "doč": 8165,
      "použit": 8166,
      "jenže": 8167,
      "poně": 8168,
      "##sket": 8169,
      "komun": 8170,
      "odkud": 8171,
      "aniž": 8172,
      "##šování": 8173,
      "##kost": 8174,
      "Státní": 8175,
      "názoru": 8176,
      "zapoj": 8177,
      "britské": 8178,
      "říjnu": 8179,
      "příležitosti": 8180,
      "snížení": 8181,
      "hou": 8182,
      "##tt": 8183,
      "##mysle": 8184,
      "nikoliv": 8185,
      "nohy": 8186,
      "vím": 8187,
      "nabídku": 8188,
      "85": 8189,
      "##áta": 8190,
      "osobních": 8191,
      "moře": 8192,
      "duel": 8193,
      "##kcí": 8194,
      "úžas": 8195,
      "doslova": 8196,
      "zábě": 8197,
      "divadla": 8198,
      "##iss": 8199,
      "městech": 8200,
      "form": 8201,
      "600": 8202,
      "vědět": 8203,
      "Určitě": 8204,
      "Vysoč": 8205,
      "York": 8206,
      "jezdit": 8207,
      "##alé": 8208,
      "týmy": 8209,
      "dél": 8210,
      "domluv": 8211,
      "muslim": 8212,
      "zajišť": 8213,
      "##iť": 8214,
      "průzkumu": 8215,
      "##zejí": 8216,
      "ztrat": 8217,
      "částečně": 8218,
      "jelikož": 8219,
      "hráli": 8220,
      "Mluv": 8221,
      "trend": 8222,
      "##rátil": 8223,
      "jisté": 8224,
      "věnovat": 8225,
      "zr": 8226,
      "dělají": 8227,
      "nejmen": 8228,
      "schod": 8229,
      "novináře": 8230,
      "Toto": 8231,
      "##jícího": 8232,
      "dobrou": 8233,
      "##ria": 8234,
      "pokro": 8235,
      "##žby": 8236,
      "##IN": 8237,
      "odvá": 8238,
      "Kur": 8239,
      "tvar": 8240,
      "praxi": 8241,
      "novin": 8242,
      "svoj": 8243,
      "##bus": 8244,
      "##lepším": 8245,
      "Václava": 8246,
      "tová": 8247,
      "##áč": 8248,
      "##ávání": 8249,
      "jména": 8250,
      "##žíme": 8251,
      "Arg": 8252,
      "žlu": 8253,
      "prodloužení": 8254,
      "používá": 8255,
      "##vad": 8256,
      "##ovej": 8257,
      "seznam": 8258,
      "show": 8259,
      "##jas": 8260,
      "Skri": 8261,
      "Bal": 8262,
      "##VO": 8263,
      "spolo": 8264,
      "přestože": 8265,
      "56": 8266,
      "posou": 8267,
      "Pí": 8268,
      "##cku": 8269,
      "Př": 8270,
      "jiným": 8271,
      "pau": 8272,
      "nikoli": 8273,
      "##rový": 8274,
      "##vó": 8275,
      "stabili": 8276,
      "nezná": 8277,
      "poslou": 8278,
      "robo": 8279,
      "##teorolog": 8280,
      "slouží": 8281,
      "##dej": 8282,
      "Twitteru": 8283,
      "jídlo": 8284,
      "Pot": 8285,
      "dostanou": 8286,
      "motiv": 8287,
      "ohrožení": 8288,
      "fanoušci": 8289,
      "náměstek": 8290,
      "##sson": 8291,
      "pes": 8292,
      "projekty": 8293,
      "##žích": 8294,
      "smrt": 8295,
      "podě": 8296,
      "Polá": 8297,
      "vyslov": 8298,
      "##angu": 8299,
      "##amat": 8300,
      "zajímavé": 8301,
      "banka": 8302,
      "Afghá": 8303,
      "chytr": 8304,
      "vyhrála": 8305,
      "nemáme": 8306,
      "##uju": 8307,
      "##tonu": 8308,
      "hranic": 8309,
      "desig": 8310,
      "coby": 8311,
      "##pravu": 8312,
      "letošním": 8313,
      "stávající": 8314,
      "druž": 8315,
      "ras": 8316,
      "správně": 8317,
      "divo": 8318,
      "obcí": 8319,
      "zákro": 8320,
      "maximálně": 8321,
      "##enom": 8322,
      "opozice": 8323,
      "struktu": 8324,
      "Ať": 8325,
      "výhru": 8326,
      "zabí": 8327,
      "korup": 8328,
      "ram": 8329,
      "přeru": 8330,
      "Iv": 8331,
      "podání": 8332,
      "zásah": 8333,
      "silné": 8334,
      "mladých": 8335,
      "##centní": 8336,
      "zakon": 8337,
      "důvěru": 8338,
      "uspě": 8339,
      "##žily": 8340,
      "nejdříve": 8341,
      "##rátů": 8342,
      "Tech": 8343,
      "uzaví": 8344,
      "zaháj": 8345,
      "tvrzení": 8346,
      "ped": 8347,
      "refor": 8348,
      "##spod": 8349,
      "Vladimír": 8350,
      "hmot": 8351,
      "spočí": 8352,
      "##stoupila": 8353,
      "ryb": 8354,
      "ga": 8355,
      "Sám": 8356,
      "vylep": 8357,
      "čtr": 8358,
      "budoucnu": 8359,
      "disple": 8360,
      "##šilo": 8361,
      "##ove": 8362,
      "Plí": 8363,
      "patnáct": 8364,
      "Podobně": 8365,
      "hudeb": 8366,
      "hromad": 8367,
      "sráž": 8368,
      "dar": 8369,
      "jménem": 8370,
      "svaz": 8371,
      "gale": 8372,
      "disci": 8373,
      "##tin": 8374,
      "financování": 8375,
      "##leně": 8376,
      "##ww": 8377,
      "našel": 8378,
      "koncent": 8379,
      "třicet": 8380,
      "##lových": 8381,
      "##kovým": 8382,
      "##nička": 8383,
      "pražských": 8384,
      "všet": 8385,
      "soupeř": 8386,
      "reprezentace": 8387,
      "Gene": 8388,
      "KL": 8389,
      "##ola": 8390,
      "vztahu": 8391,
      "54": 8392,
      "zprávu": 8393,
      "dcera": 8394,
      "plynu": 8395,
      "Premiér": 8396,
      "využití": 8397,
      "kapitán": 8398,
      "slíb": 8399,
      "##dič": 8400,
      "televizní": 8401,
      "chá": 8402,
      "##čtí": 8403,
      "pojist": 8404,
      "využívá": 8405,
      "##anti": 8406,
      "administ": 8407,
      "##stvu": 8408,
      "jediné": 8409,
      "dveře": 8410,
      "obo": 8411,
      "dobrá": 8412,
      "nějaká": 8413,
      "ovo": 8414,
      "www": 8415,
      "ČNB": 8416,
      "##řív": 8417,
      "chlad": 8418,
      "Případ": 8419,
      "nedaleko": 8420,
      "ročník": 8421,
      "mateř": 8422,
      "##hlav": 8423,
      "malých": 8424,
      "Cup": 8425,
      "ori": 8426,
      "zdo": 8427,
      "Van": 8428,
      "rozu": 8429,
      "Sobot": 8430,
      "CS": 8431,
      "hlavních": 8432,
      "Neu": 8433,
      "sdělila": 8434,
      "##rka": 8435,
      "##ickými": 8436,
      "infra": 8437,
      "chyb": 8438,
      "známý": 8439,
      "Ústí": 8440,
      "Čapí": 8441,
      "2000": 8442,
      "čemu": 8443,
      "chuť": 8444,
      "silný": 8445,
      "Spolu": 8446,
      "známé": 8447,
      "##vlád": 8448,
      "povede": 8449,
      "včera": 8450,
      "##ýká": 8451,
      "Hlav": 8452,
      "##ER": 8453,
      "##advacetiletý": 8454,
      "šir": 8455,
      "##tar": 8456,
      "postoj": 8457,
      "závaz": 8458,
      "interi": 8459,
      "boje": 8460,
      "sněmovny": 8461,
      "rovnou": 8462,
      "subje": 8463,
      "##nut": 8464,
      "pohád": 8465,
      "trati": 8466,
      "##eném": 8467,
      "správní": 8468,
      "týdnu": 8469,
      "smut": 8470,
      "##hali": 8471,
      "venku": 8472,
      "Group": 8473,
      "Tyto": 8474,
      "jedenáct": 8475,
      "pole": 8476,
      "koaliční": 8477,
      "členy": 8478,
      "konkrét": 8479,
      "2009": 8480,
      "odvolá": 8481,
      "##ood": 8482,
      "Stav": 8483,
      "Dy": 8484,
      "Douf": 8485,
      "stíhání": 8486,
      "Nikdo": 8487,
      "zast": 8488,
      "aktivity": 8489,
      "##atel": 8490,
      "brankář": 8491,
      "##stických": 8492,
      "daří": 8493,
      "lehce": 8494,
      "vteř": 8495,
      "ruských": 8496,
      "Nejd": 8497,
      "Flor": 8498,
      "##nesl": 8499,
      "Rych": 8500,
      "##ěh": 8501,
      "Tepli": 8502,
      "##lením": 8503,
      "činí": 8504,
      "Ligy": 8505,
      "trestní": 8506,
      "angaž": 8507,
      "##bek": 8508,
      "veřejných": 8509,
      "třiná": 8510,
      "vychází": 8511,
      "cítí": 8512,
      "Vedle": 8513,
      "hledá": 8514,
      "získali": 8515,
      "zbyt": 8516,
      "##rova": 8517,
      "společného": 8518,
      "Liberec": 8519,
      "En": 8520,
      "hníz": 8521,
      "aplikace": 8522,
      "výbu": 8523,
      "rozhodu": 8524,
      "závěr": 8525,
      "klidně": 8526,
      "##ovatelů": 8527,
      "budoucnost": 8528,
      "vozidel": 8529,
      "##rna": 8530,
      "##stického": 8531,
      "##rover": 8532,
      "daně": 8533,
      "naje": 8534,
      "minulých": 8535,
      "Bran": 8536,
      "##oden": 8537,
      "##ičku": 8538,
      "##ovské": 8539,
      "obyčej": 8540,
      "odhali": 8541,
      "domní": 8542,
      "zmen": 8543,
      "požáru": 8544,
      "vedou": 8545,
      "přechod": 8546,
      "##xy": 8547,
      "štá": 8548,
      "vyví": 8549,
      "prázdn": 8550,
      "navrh": 8551,
      "##jili": 8552,
      "spá": 8553,
      "lídr": 8554,
      "dolů": 8555,
      "##oři": 8556,
      "##nuti": 8557,
      "oboru": 8558,
      "přednost": 8559,
      "Tohle": 8560,
      "Jedna": 8561,
      "ledě": 8562,
      "kousek": 8563,
      "servis": 8564,
      "##evrop": 8565,
      "##žky": 8566,
      "centrální": 8567,
      "Open": 8568,
      "jejích": 8569,
      "##agu": 8570,
      "minimální": 8571,
      "ulož": 8572,
      "neleg": 8573,
      "realiz": 8574,
      "povrch": 8575,
      "Meziná": 8576,
      "blog": 8577,
      "současně": 8578,
      "Hok": 8579,
      "##bod": 8580,
      "vydal": 8581,
      "zpěvá": 8582,
      "nepodařilo": 8583,
      "zhor": 8584,
      "Moskva": 8585,
      "Tady": 8586,
      "kre": 8587,
      "pali": 8588,
      "dokáž": 8589,
      "keď": 8590,
      "##člen": 8591,
      "##šová": 8592,
      "kariéru": 8593,
      "Jednou": 8594,
      "##ík": 8595,
      "##hrady": 8596,
      "státech": 8597,
      "vraždy": 8598,
      "opa": 8599,
      "Mari": 8600,
      "pozn": 8601,
      "Dokon": 8602,
      "##ovému": 8603,
      "pořádně": 8604,
      "##ivé": 8605,
      "1989": 8606,
      "Nejvíce": 8607,
      "##stil": 8608,
      "odvolání": 8609,
      "dosáhnout": 8610,
      "BBC": 8611,
      "zkrátka": 8612,
      "##onom": 8613,
      "Dení": 8614,
      "kav": 8615,
      "##ťa": 8616,
      "vymě": 8617,
      "niek": 8618,
      "##táz": 8619,
      "##áku": 8620,
      "##ase": 8621,
      "Slavia": 8622,
      "Eva": 8623,
      "naru": 8624,
      "normální": 8625,
      "Finan": 8626,
      "##vahu": 8627,
      "Karla": 8628,
      "aktuálně": 8629,
      "vrtulní": 8630,
      "##dři": 8631,
      "vyhled": 8632,
      "Komet": 8633,
      "tí": 8634,
      "připravit": 8635,
      "dvojnásob": 8636,
      "##stům": 8637,
      "turnaj": 8638,
      "##esla": 8639,
      "kulturní": 8640,
      "zpěva": 8641,
      "vozy": 8642,
      "pozdě": 8643,
      "závaž": 8644,
      "začátkem": 8645,
      "definit": 8646,
      "##th": 8647,
      "##lina": 8648,
      "##hol": 8649,
      "váleč": 8650,
      "mláde": 8651,
      "zločin": 8652,
      "lyža": 8653,
      "verzi": 8654,
      "##ůvě": 8655,
      "kanceláře": 8656,
      "##zují": 8657,
      "Českou": 8658,
      "vyvá": 8659,
      "1968": 8660,
      "startu": 8661,
      "zapla": 8662,
      "předem": 8663,
      "výsledku": 8664,
      "koupit": 8665,
      "##čují": 8666,
      "##rák": 8667,
      "změna": 8668,
      "oficiální": 8669,
      "Tomáše": 8670,
      "termín": 8671,
      "##ovacích": 8672,
      "Země": 8673,
      "argument": 8674,
      "mezinárod": 8675,
      "##top": 8676,
      "přidal": 8677,
      "zvy": 8678,
      "klient": 8679,
      "čtver": 8680,
      "letní": 8681,
      "##set": 8682,
      "zaplatí": 8683,
      "Šu": 8684,
      "čeští": 8685,
      "Gi": 8686,
      "bab": 8687,
      "sovět": 8688,
      "slyšet": 8689,
      "pokr": 8690,
      "Nizozem": 8691,
      "zjev": 8692,
      "vyho": 8693,
      "dovoz": 8694,
      "vzduchu": 8695,
      "akcí": 8696,
      "planet": 8697,
      "Sc": 8698,
      "##ňky": 8699,
      "##enia": 8700,
      "Krist": 8701,
      "Hru": 8702,
      "fede": 8703,
      "volbami": 8704,
      "vodou": 8705,
      "členem": 8706,
      "Kateřina": 8707,
      "Hrá": 8708,
      "##obodu": 8709,
      "ci": 8710,
      "##áva": 8711,
      "muzea": 8712,
      "##ával": 8713,
      "Tvr": 8714,
      "##tah": 8715,
      "rakov": 8716,
      "svazu": 8717,
      "sví": 8718,
      "proku": 8719,
      "fanoušky": 8720,
      "objevil": 8721,
      "rozhodne": 8722,
      "##stická": 8723,
      "Gab": 8724,
      "rekor": 8725,
      "Prov": 8726,
      "veřejně": 8727,
      "jar": 8728,
      "Americký": 8729,
      "čímž": 8730,
      "shro": 8731,
      "vyjde": 8732,
      "##žilo": 8733,
      "spoluhrá": 8734,
      "běžné": 8735,
      "##ováni": 8736,
      "Skup": 8737,
      "pokles": 8738,
      "vzal": 8739,
      "dalo": 8740,
      "Bene": 8741,
      "obvod": 8742,
      "sílu": 8743,
      "klá": 8744,
      "rozpočet": 8745,
      "##sili": 8746,
      "nejhorší": 8747,
      "skvěle": 8748,
      "výhře": 8749,
      "vzpomíná": 8750,
      "škoda": 8751,
      "špatné": 8752,
      "##tení": 8753,
      "chodit": 8754,
      "debat": 8755,
      "blízko": 8756,
      "potvrdila": 8757,
      "##att": 8758,
      "ekonomické": 8759,
      "třídy": 8760,
      "##nických": 8761,
      "najevo": 8762,
      "##cka": 8763,
      "hovoří": 8764,
      "stupně": 8765,
      "##eho": 8766,
      "Lucie": 8767,
      "cizí": 8768,
      "potravin": 8769,
      "##krad": 8770,
      "port": 8771,
      "Předseda": 8772,
      "posád": 8773,
      "vyhráli": 8774,
      "MF": 8775,
      "pivo": 8776,
      "venkov": 8777,
      "##čnosti": 8778,
      "64": 8779,
      "##pol": 8780,
      "pořadí": 8781,
      "částí": 8782,
      "Chorvat": 8783,
      "Red": 8784,
      "ocit": 8785,
      "žádost": 8786,
      "nenech": 8787,
      "##átka": 8788,
      "hlavě": 8789,
      "podruhé": 8790,
      "tomuto": 8791,
      "fanoušků": 8792,
      "oficiálně": 8793,
      "musejí": 8794,
      "sest": 8795,
      "##ling": 8796,
      "ově": 8797,
      "##žít": 8798,
      "Tour": 8799,
      "##ůžou": 8800,
      "postupu": 8801,
      "tenis": 8802,
      "zpří": 8803,
      "stylu": 8804,
      "přesil": 8805,
      "##avou": 8806,
      "##tev": 8807,
      "loňském": 8808,
      "hovor": 8809,
      "KLDR": 8810,
      "Ang": 8811,
      "většině": 8812,
      "##jším": 8813,
      "důsledku": 8814,
      "zaplatit": 8815,
      "Madr": 8816,
      "##štím": 8817,
      "dostatečně": 8818,
      "Google": 8819,
      "##nějšího": 8820,
      "zvaž": 8821,
      "##hnou": 8822,
      "##erová": 8823,
      "gu": 8824,
      "nejdůležitější": 8825,
      "Číny": 8826,
      "uskuteč": 8827,
      "##rné": 8828,
      "Macron": 8829,
      "bezp": 8830,
      "novináři": 8831,
      "zoo": 8832,
      "hodině": 8833,
      "##struktu": 8834,
      "škola": 8835,
      "promí": 8836,
      "přel": 8837,
      "##bar": 8838,
      "zpí": 8839,
      "srpnu": 8840,
      "##zt": 8841,
      "komunikace": 8842,
      "tamní": 8843,
      "Celkem": 8844,
      "##ced": 8845,
      "sebev": 8846,
      "křesťan": 8847,
      "Itálii": 8848,
      "narozen": 8849,
      "##ws": 8850,
      "setká": 8851,
      "im": 8852,
      "°C": 8853,
      "působení": 8854,
      "orgán": 8855,
      "Tho": 8856,
      "ukázalo": 8857,
      "Bývalý": 8858,
      "der": 8859,
      "zes": 8860,
      "##nický": 8861,
      "pěst": 8862,
      "Změ": 8863,
      "kříd": 8864,
      "vyjádřil": 8865,
      "odchod": 8866,
      "mobilní": 8867,
      "dlouhá": 8868,
      "odborníků": 8869,
      "Lou": 8870,
      "sal": 8871,
      "##álne": 8872,
      "Pá": 8873,
      "Štěpán": 8874,
      "Dos": 8875,
      "postavení": 8876,
      "potře": 8877,
      "Lad": 8878,
      "##pří": 8879,
      "##tku": 8880,
      "trpí": 8881,
      "školu": 8882,
      "nikoho": 8883,
      "např": 8884,
      "podporuje": 8885,
      "povinnost": 8886,
      "čelí": 8887,
      "##itím": 8888,
      "and": 8889,
      "sle": 8890,
      "hřiště": 8891,
      "elektro": 8892,
      "##20": 8893,
      "služba": 8894,
      "##áno": 8895,
      "klidu": 8896,
      "speciali": 8897,
      "polovina": 8898,
      "řečeno": 8899,
      "čtyřmi": 8900,
      "prípad": 8901,
      "Jedná": 8902,
      "novém": 8903,
      "záležitost": 8904,
      "Ot": 8905,
      "úsp": 8906,
      "prokáz": 8907,
      "přenos": 8908,
      "pražském": 8909,
      "příspěvek": 8910,
      "uskuteční": 8911,
      "Geor": 8912,
      "Ab": 8913,
      "##spek": 8914,
      "sezná": 8915,
      "kal": 8916,
      "čet": 8917,
      "odpor": 8918,
      "ilu": 8919,
      "demokracii": 8920,
      "##vkou": 8921,
      "hodnocení": 8922,
      "##SS": 8923,
      "vypo": 8924,
      "manipu": 8925,
      "Jinak": 8926,
      "##lti": 8927,
      "##inga": 8928,
      "Am": 8929,
      "dopoledne": 8930,
      "##žije": 8931,
      "poslanec": 8932,
      "##kas": 8933,
      "dostává": 8934,
      "procesu": 8935,
      "strav": 8936,
      "změně": 8937,
      "omluv": 8938,
      "zrušení": 8939,
      "ny": 8940,
      "duelu": 8941,
      "starosti": 8942,
      "mim": 8943,
      "Slovenska": 8944,
      "poloviny": 8945,
      "podpory": 8946,
      "nedostatek": 8947,
      "pravom": 8948,
      "##ujícího": 8949,
      "příbu": 8950,
      "##ždění": 8951,
      "vznikl": 8952,
      "infrastruktu": 8953,
      "vánoční": 8954,
      "archiv": 8955,
      "##vlá": 8956,
      "vzít": 8957,
      "Gar": 8958,
      "Soci": 8959,
      "řekli": 8960,
      "požár": 8961,
      "plány": 8962,
      "Austrá": 8963,
      "pomůže": 8964,
      "umožňuje": 8965,
      "Win": 8966,
      "odpoč": 8967,
      "název": 8968,
      "třikrát": 8969,
      "konkrétně": 8970,
      "letadla": 8971,
      "Kuci": 8972,
      "budoucna": 8973,
      "##pho": 8974,
      "státních": 8975,
      "Richard": 8976,
      "sli": 8977,
      "##leka": 8978,
      "rodičů": 8979,
      "Nikdy": 8980,
      "zvířata": 8981,
      "popsala": 8982,
      "nesk": 8983,
      "hospoda": 8984,
      "víme": 8985,
      "čtyřech": 8986,
      "Město": 8987,
      "stavbu": 8988,
      "pražského": 8989,
      "stejnou": 8990,
      "udržet": 8991,
      "zvíře": 8992,
      "schopni": 8993,
      "vypu": 8994,
      "věde": 8995,
      "navzdory": 8996,
      "rozdě": 8997,
      "##illa": 8998,
      "demokraté": 8999,
      "zm": 9000,
      "drog": 9001,
      "unii": 9002,
      "Krejčí": 9003,
      "##fekt": 9004,
      "škody": 9005,
      "##nské": 9006,
      "prince": 9007,
      "domácím": 9008,
      "katastro": 9009,
      "##sel": 9010,
      "koncep": 9011,
      "upřes": 9012,
      "##chom": 9013,
      "##ničky": 9014,
      "pracovních": 9015,
      "dosavadní": 9016,
      "Žid": 9017,
      "Jaké": 9018,
      "trestu": 9019,
      "##chou": 9020,
      "zaměstnance": 9021,
      "ocenění": 9022,
      "origin": 9023,
      "##brid": 9024,
      "##stroje": 9025,
      "silnic": 9026,
      "2006": 9027,
      "dřevě": 9028,
      "##fy": 9029,
      "velko": 9030,
      "##něte": 9031,
      "začnou": 9032,
      "primátora": 9033,
      "fig": 9034,
      "68": 9035,
      "skupinu": 9036,
      "Postup": 9037,
      "nebyli": 9038,
      "##hradu": 9039,
      "reagoval": 9040,
      "##spět": 9041,
      "##itelný": 9042,
      "Dne": 9043,
      "##ris": 9044,
      "reakce": 9045,
      "zachrá": 9046,
      "podla": 9047,
      "prefer": 9048,
      "restaurace": 9049,
      "poví": 9050,
      "##balisté": 9051,
      "turnaje": 9052,
      "soudce": 9053,
      "šla": 9054,
      "PRÁ": 9055,
      "nezbyt": 9056,
      "dálnice": 9057,
      "kariéry": 9058,
      "fondu": 9059,
      "Bruselu": 9060,
      "##cin": 9061,
      "nejčastěji": 9062,
      "bron": 9063,
      "vyst": 9064,
      "##bytek": 9065,
      "jednotlivé": 9066,
      "##jmu": 9067,
      "##orem": 9068,
      "##řích": 9069,
      "jedinou": 9070,
      "skupin": 9071,
      "konflik": 9072,
      "Stát": 9073,
      "##stánu": 9074,
      "##střelil": 9075,
      "přede": 9076,
      "bodu": 9077,
      "převážně": 9078,
      "Plzně": 9079,
      "##tex": 9080,
      "##wa": 9081,
      "českém": 9082,
      "japon": 9083,
      "řetěz": 9084,
      "vym": 9085,
      "lah": 9086,
      "stránkách": 9087,
      "Bře": 9088,
      "dojít": 9089,
      "William": 9090,
      "imi": 9091,
      "míry": 9092,
      "sportu": 9093,
      "##pozice": 9094,
      "malá": 9095,
      "kvalitu": 9096,
      "zbytek": 9097,
      "##gem": 9098,
      "##zou": 9099,
      "##chat": 9100,
      "účel": 9101,
      "##rej": 9102,
      "styl": 9103,
      "##itní": 9104,
      "##mitu": 9105,
      "zjistili": 9106,
      "##vez": 9107,
      "##tive": 9108,
      "Ital": 9109,
      "zob": 9110,
      "podaří": 9111,
      "en": 9112,
      "##ovci": 9113,
      "##šeli": 9114,
      "##stky": 9115,
      "premiérem": 9116,
      "Angli": 9117,
      "plzeň": 9118,
      "penal": 9119,
      "Náv": 9120,
      "policistů": 9121,
      "gólman": 9122,
      "mlé": 9123,
      "##lovou": 9124,
      "vtip": 9125,
      "určité": 9126,
      "ocen": 9127,
      "##BA": 9128,
      "pokou": 9129,
      "##ans": 9130,
      "PRÁVO": 9131,
      "Svat": 9132,
      "Prac": 9133,
      "povedlo": 9134,
      "poby": 9135,
      "pacient": 9136,
      "vych": 9137,
      "třetiny": 9138,
      "##reag": 9139,
      "##vent": 9140,
      "##tace": 9141,
      "odešel": 9142,
      "draž": 9143,
      "##hot": 9144,
      "službu": 9145,
      "nebezpečí": 9146,
      "##pp": 9147,
      "českým": 9148,
      "vstupu": 9149,
      "Saúd": 9150,
      "Hasič": 9151,
      "dané": 9152,
      "šk": 9153,
      "Cor": 9154,
      "##seli": 9155,
      "avšak": 9156,
      "Již": 9157,
      "Pale": 9158,
      "nejsem": 9159,
      "repor": 9160,
      "žijí": 9161,
      "politickou": 9162,
      "kamen": 9163,
      "herečka": 9164,
      "soudní": 9165,
      "stanici": 9166,
      "##hlasu": 9167,
      "zamě": 9168,
      "##ovaném": 9169,
      "##rozu": 9170,
      "##dor": 9171,
      "trpě": 9172,
      "čísla": 9173,
      "předchozích": 9174,
      "pochází": 9175,
      "Což": 9176,
      "síti": 9177,
      "##nova": 9178,
      "##enské": 9179,
      "Českých": 9180,
      "##cházející": 9181,
      "##hlédnout": 9182,
      "kluci": 9183,
      "maje": 9184,
      "blíží": 9185,
      "titulu": 9186,
      "technologií": 9187,
      "##ilí": 9188,
      "ha": 9189,
      "##časné": 9190,
      "symboli": 9191,
      "##vedla": 9192,
      "hodinách": 9193,
      "##ářů": 9194,
      "dostatek": 9195,
      "operaci": 9196,
      "jednoznačně": 9197,
      "Chá": 9198,
      "##ráb": 9199,
      "##istka": 9200,
      "zavedení": 9201,
      "##álové": 9202,
      "2007": 9203,
      "nechtějí": 9204,
      "veškeré": 9205,
      "záměr": 9206,
      "tane": 9207,
      "##lok": 9208,
      "um": 9209,
      "listu": 9210,
      "vysokou": 9211,
      "63": 9212,
      "dosko": 9213,
      "##stran": 9214,
      "důraz": 9215,
      "Em": 9216,
      "tera": 9217,
      "##inami": 9218,
      "Svoboda": 9219,
      "park": 9220,
      "##anie": 9221,
      "takovém": 9222,
      "branku": 9223,
      "slaví": 9224,
      "ředitelka": 9225,
      "800": 9226,
      "Hokej": 9227,
      "míč": 9228,
      "všim": 9229,
      "Podív": 9230,
      "koalici": 9231,
      "vhodné": 9232,
      "nese": 9233,
      "##ciu": 9234,
      "vlaj": 9235,
      "identi": 9236,
      "nepřed": 9237,
      "stavět": 9238,
      "##cházel": 9239,
      "podnikání": 9240,
      "svobodu": 9241,
      "Poche": 9242,
      "pry": 9243,
      "##něná": 9244,
      "neh": 9245,
      "vyplývá": 9246,
      "zvu": 9247,
      "častěji": 9248,
      "předpis": 9249,
      "byznys": 9250,
      "projektů": 9251,
      "Anto": 9252,
      "manželství": 9253,
      "Góly": 9254,
      "##lis": 9255,
      "opra": 9256,
      "dest": 9257,
      "akcií": 9258,
      "Ven": 9259,
      "vybrat": 9260,
      "Merkelová": 9261,
      "brexitu": 9262,
      "Podľa": 9263,
      "konstatoval": 9264,
      "nespo": 9265,
      "výsledků": 9266,
      "##war": 9267,
      "soubo": 9268,
      "uvied": 9269,
      "##telný": 9270,
      "ukázat": 9271,
      "##rku": 9272,
      "##olf": 9273,
      "Základ": 9274,
      "Dr": 9275,
      "pobře": 9276,
      "výpově": 9277,
      "probíhá": 9278,
      "potřebují": 9279,
      "##ávali": 9280,
      "zpom": 9281,
      "120": 9282,
      "presti": 9283,
      "77": 9284,
      "domy": 9285,
      "chyby": 9286,
      "stává": 9287,
      "##šťast": 9288,
      "##SA": 9289,
      "##znala": 9290,
      "kád": 9291,
      "nejlepším": 9292,
      "spole": 9293,
      "žebříčku": 9294,
      "hlasy": 9295,
      "raket": 9296,
      "##adlo": 9297,
      "snímku": 9298,
      "potě": 9299,
      "Vítkov": 9300,
      "Vojtěch": 9301,
      "naštěstí": 9302,
      "hodnotu": 9303,
      "sedí": 9304,
      "##ruje": 9305,
      "Inter": 9306,
      "orient": 9307,
      "Org": 9308,
      "net": 9309,
      "stará": 9310,
      "budú": 9311,
      "přináší": 9312,
      "Kru": 9313,
      "rozhodnout": 9314,
      "##říme": 9315,
      "FO": 9316,
      "Původní": 9317,
      "přístav": 9318,
      "be": 9319,
      "použití": 9320,
      "pek": 9321,
      "maďar": 9322,
      "ohledem": 9323,
      "##ano": 9324,
      "##mání": 9325,
      "inspi": 9326,
      "##ens": 9327,
      "momentálně": 9328,
      "Vond": 9329,
      "juni": 9330,
      "vin": 9331,
      "Úto": 9332,
      "konzu": 9333,
      "slovy": 9334,
      "stadionu": 9335,
      "medaili": 9336,
      "##bil": 9337,
      "poslane": 9338,
      "takzvané": 9339,
      "iP": 9340,
      "##ier": 9341,
      "##žují": 9342,
      "Ježí": 9343,
      "zvýšil": 9344,
      "vojáci": 9345,
      "naf": 9346,
      "věnuje": 9347,
      "##něla": 9348,
      "ruský": 9349,
      "##pětí": 9350,
      "Afgháni": 9351,
      "##lový": 9352,
      "komory": 9353,
      "nemoci": 9354,
      "Alexand": 9355,
      "pořadu": 9356,
      "prospěch": 9357,
      "##slanec": 9358,
      "250": 9359,
      "##livu": 9360,
      "ktorá": 9361,
      "kavár": 9362,
      "současný": 9363,
      "prohlíd": 9364,
      "##produ": 9365,
      "hnízdo": 9366,
      "stranou": 9367,
      "Bur": 9368,
      "sněhu": 9369,
      "centimetrů": 9370,
      "důstoj": 9371,
      "##běž": 9372,
      "##hráli": 9373,
      "modelu": 9374,
      "dítěte": 9375,
      "Michael": 9376,
      "##ďte": 9377,
      "SR": 9378,
      "Times": 9379,
      "##čtyři": 9380,
      "připravuje": 9381,
      "bateri": 9382,
      "tréninku": 9383,
      "vypadat": 9384,
      "Pek": 9385,
      "týmem": 9386,
      "tie": 9387,
      "zimní": 9388,
      "náskok": 9389,
      "telefonu": 9390,
      "##rově": 9391,
      "##izace": 9392,
      "##ortu": 9393,
      "premié": 9394,
      "účasti": 9395,
      "látky": 9396,
      "organizací": 9397,
      "samotné": 9398,
      "Tat": 9399,
      "všemi": 9400,
      "hodnota": 9401,
      "Hned": 9402,
      "##pel": 9403,
      "##cií": 9404,
      "Někdy": 9405,
      "##ránu": 9406,
      "##kovy": 9407,
      "Jon": 9408,
      "vyhodno": 9409,
      "Vždyť": 9410,
      "##áda": 9411,
      "##ET": 9412,
      "##jednodu": 9413,
      "mý": 9414,
      "ali": 9415,
      "##rová": 9416,
      "Vladimi": 9417,
      "##vist": 9418,
      "Vítěz": 9419,
      "rekonstrukce": 9420,
      "##par": 9421,
      "Hradec": 9422,
      "dia": 9423,
      "##com": 9424,
      "neznám": 9425,
      "smart": 9426,
      "vnitřní": 9427,
      "něhož": 9428,
      "projevu": 9429,
      "dvo": 9430,
      "Marie": 9431,
      "devad": 9432,
      "Fr": 9433,
      "##ať": 9434,
      "nakup": 9435,
      "##lují": 9436,
      "hrají": 9437,
      "Vlast": 9438,
      "skutečnost": 9439,
      "úlo": 9440,
      "def": 9441,
      "##domí": 9442,
      "měsíčně": 9443,
      "počítač": 9444,
      "znásil": 9445,
      "pohybuje": 9446,
      "fázi": 9447,
      "minister": 9448,
      "Sez": 9449,
      "moderni": 9450,
      "severu": 9451,
      "##ckem": 9452,
      "zam": 9453,
      "nabídky": 9454,
      "relativně": 9455,
      "říkají": 9456,
      "sdružení": 9457,
      "hlásí": 9458,
      "Jar": 9459,
      "##ění": 9460,
      "dochází": 9461,
      "materiál": 9462,
      "Aktuálně": 9463,
      "Sko": 9464,
      "cestující": 9465,
      "##stoupili": 9466,
      "Fed": 9467,
      "##žená": 9468,
      "Ev": 9469,
      "##mám": 9470,
      "natolik": 9471,
      "vyvolá": 9472,
      "##ško": 9473,
      "pres": 9474,
      "nejrůz": 9475,
      "psycholog": 9476,
      "poněkud": 9477,
      "Situ": 9478,
      "koste": 9479,
      "pracují": 9480,
      "Jedním": 9481,
      "odehrál": 9482,
      "přízniv": 9483,
      "překáž": 9484,
      "rozví": 9485,
      "Ministr": 9486,
      "##lice": 9487,
      "zařad": 9488,
      "zk": 9489,
      "##něním": 9490,
      "##dělal": 9491,
      "správa": 9492,
      "top": 9493,
      "pozná": 9494,
      "prezidentských": 9495,
      "porod": 9496,
      "dozor": 9497,
      "udělali": 9498,
      "##had": 9499,
      "Evropa": 9500,
      "Radek": 9501,
      "Chtěl": 9502,
      "Mik": 9503,
      "Polsku": 9504,
      "facebo": 9505,
      "##jíždí": 9506,
      "Mark": 9507,
      "vyzval": 9508,
      "##šily": 9509,
      "přestá": 9510,
      "kryp": 9511,
      "vozí": 9512,
      "hodlá": 9513,
      "představenstva": 9514,
      "Člově": 9515,
      "nejed": 9516,
      "řídí": 9517,
      "autem": 9518,
      "jediná": 9519,
      "rozhovor": 9520,
      "vlastních": 9521,
      "Kop": 9522,
      "distribu": 9523,
      "výhod": 9524,
      "opráv": 9525,
      "nádher": 9526,
      "##dox": 9527,
      "diploma": 9528,
      "Snad": 9529,
      "##óp": 9530,
      "přej": 9531,
      "##dám": 9532,
      "nepřá": 9533,
      "okru": 9534,
      "dojem": 9535,
      "čtvrté": 9536,
      "náročné": 9537,
      "bránit": 9538,
      "díla": 9539,
      "veřejného": 9540,
      "slad": 9541,
      "vystří": 9542,
      "turisti": 9543,
      "zvýšit": 9544,
      "##ňoval": 9545,
      "##enout": 9546,
      "Donalda": 9547,
      "kategorii": 9548,
      "##BS": 9549,
      "##rovou": 9550,
      "##mrz": 9551,
      "komplex": 9552,
      "obrovské": 9553,
      "rekonstrukci": 9554,
      "Měst": 9555,
      "char": 9556,
      "nezaměstnan": 9557,
      "duše": 9558,
      "##tes": 9559,
      "##hynu": 9560,
      "otevřel": 9561,
      "poznat": 9562,
      "výzkumu": 9563,
      "touto": 9564,
      "úseku": 9565,
      "neop": 9566,
      "přijdou": 9567,
      "snažit": 9568,
      "Věřím": 9569,
      "ge": 9570,
      "kariéře": 9571,
      "kapac": 9572,
      "obrovský": 9573,
      "##aku": 9574,
      "##hned": 9575,
      "Les": 9576,
      "skvělé": 9577,
      "Jas": 9578,
      "ri": 9579,
      "netu": 9580,
      "uzavřel": 9581,
      "obrá": 9582,
      "trošku": 9583,
      "dez": 9584,
      "Univerz": 9585,
      "##RA": 9586,
      "##ney": 9587,
      "Politi": 9588,
      "použít": 9589,
      "důvěry": 9590,
      "přípravy": 9591,
      "přírody": 9592,
      "##obec": 9593,
      "výtvar": 9594,
      "pivov": 9595,
      "kontrover": 9596,
      "vzác": 9597,
      "zimě": 9598,
      "##nín": 9599,
      "faktor": 9600,
      "##álí": 9601,
      "prezidentské": 9602,
      "plný": 9603,
      "Miku": 9604,
      "vzdělávání": 9605,
      "vybavení": 9606,
      "Agro": 9607,
      "Hou": 9608,
      "rada": 9609,
      "Fis": 9610,
      "dostalo": 9611,
      "kin": 9612,
      "##itelem": 9613,
      "62": 9614,
      "Ol": 9615,
      "čtvere": 9616,
      "D1": 9617,
      "Lede": 9618,
      "dokud": 9619,
      "##jímat": 9620,
      "manželka": 9621,
      "tlu": 9622,
      "znalo": 9623,
      "61": 9624,
      "Marké": 9625,
      "bývalé": 9626,
      "intenz": 9627,
      "vlastním": 9628,
      "Londýně": 9629,
      "##KA": 9630,
      "výběru": 9631,
      "povedal": 9632,
      "##káři": 9633,
      "celkově": 9634,
      "obsahuje": 9635,
      "##ecka": 9636,
      "stres": 9637,
      "##pres": 9638,
      "Rober": 9639,
      "uspořád": 9640,
      "Jí": 9641,
      "zran": 9642,
      "bezpečnostních": 9643,
      "zájmů": 9644,
      "virtu": 9645,
      "úkol": 9646,
      "předlo": 9647,
      "dovolenou": 9648,
      "##obily": 9649,
      "zámku": 9650,
      "spon": 9651,
      "oteví": 9652,
      "neuvěřitel": 9653,
      "pohla": 9654,
      "##čeb": 9655,
[...]
