<pad>
</s>
<cls>
<unk>
[MASK]
!
"
#
%
&
'
(
)
*
+
,
-
.
/
0
1
2
3
4
5
6
7
8
9
:
;
<
=
>
?
@
A
B
C
D
E
F
G
H
I
J
K
L
M
N
O
P
Q
R
S
T
U
V
W
X
Y
Z
[
\
]
^
_
a
b
c
d
e
f
g
h
i
j
k
l
m
n
o
p
q
r
s
t
u
v
w
x
y
z
{
|
}
~
¢
§
¨
«
®
°
²
´
º
»
½
Á
Ä
É
Í
Ó
×
Ú
Ý
à
á
â
ä
å
è
é
ê
í
î
ï
ó
ô
õ
ö
ú
ü
ý
ā
ă
Ć
ć
ċ
Č
č
Ď
ď
ĕ
Ė
ė
ę
Ě
ě
ġ
İ
ı
ĵ
ĺ
ľ
ł
ń
Ň
ň
ō
ő
ŕ
Ř
ř
Ś
ś
Š
š
Ť
ť
ū
ŭ
Ů
ů
ű
ź
ż
Ž
ž
ǁ
ǎ
ǐ
ǰ
ȧ
ȳ
˂
˃
ˇ
˚
˝
́
̇
̊
̌
͡
ў
ѣ
࿄
ḋ
ḿ
ṁ
ṅ
ṕ
ṙ
Ṡ
ṡ
ẏ
ẘ
ẙ
ụ
‒
–
‘
’
‚
“
”
„
…
←
→
⇒
−
∞
∩
►
◄
☺
☻
♥
⟹
##n
##ě
##d
##k
##u
##í
##s
##t
##e
##m
##z
##a
##b
##g
##r
##y
##o
##h
##á
##i
##l
##é
##p
##v
##O
##U
##Z
##E
##ž
##c
##ú
##š
##j
##ř
##č
##ý
##ó
##ů
##A
##P
##D
##L
##Á
##ň
##0
##8
##7
##Š
##Í
##f
##B
##I
##T
##R
##N
##K
##M
##H
##J
##Ž
##x
##Ř
##ď
##X
##ť
##G
##ẏ
##2
##4
##É
##S
##C
##V
##ˇ
##Ň
##3
##´
##ḿ
##w
##9
##Č
##1
##Y
##ä
##Ý
##Ě
##ľ
##ń
##5
##Ů
##́
##ż
##ǰ
##ć
##Ď
##ǐ
##6
##Ó
##ȧ
##ĕ
##♥
##ö
##W
##ė
##˚
##Ť
##q
##Q
##F
##à
##ł
##º
##►
##ụ
##ś
##ǎ
##ź
##ı
##ō
##°
##ü
##ṙ
##Ú
##ę
##ŕ
##Ė
##ẙ
##ï
##Ṡ
##¢
##ṁ
##̇
##˃
##å
##ê
##̌
##ċ
##ă
##â
##ȳ
##²
##ā
##̊
##͡
##Ä
##İ
##˝
##õ
##ĺ
##ô
##ǁ
##ẘ
##Ć
##×
##ѣ
##∞
##î
##è
##◄
##ű
##ő
##ŭ
##la
##em
##st
##en
##ou
##ch
##ov
##ra
na
se
je
##le
##li
##ak
##ro
ne
js
do
po
##in
##te
##am
##od
##ní
by
##at
to
##to
##ka
##dy
pro
##ím
##ně
##ře
##rá
jsem
##ám
##ce
##ko
##al
##el
##ho
##je
##ky
##ku
##ni
tak
##ud
st
za
##lo
##it
že
##no
##me
mo
ch
##il
##tě
mě
##va
##ři
##ne
##že
si
##id
##ří
##na
##by
##sk
##ci
vy
##jí
##ar
##ád
##po
##ší
ko
##lu
##vo
##de
ve
ně
##bo
##av
ale
##et
##er
##né
##ek
ob
##ět
jsme
mi
##dyž
##ad
sv
nej
jak
proto
ro
##lí
##us
##an
kte
##du
##ez
##ly
##ení
bud
##dě
##ný
bych
hod
od
##ji
##še
##ná
dob
te
##mi
ho
##as
##rav
tam
##ít
##át
##lov
při
##ze
pře
##ru
moc
##ama
##eme
protože
Je
##ič
ná
kter
##do
jed
##im
nem
dom
mám
##ic
vel
má
##nou
le
když
co
##ova
##ovat
##or
rod
##ila
##ví
##ůj
nebo
lid
Po
##zd
jsou
če
##ej
##ny
##ště
rád
ško
##ys
už
##sta
##uje
##št
##ých
##kou
##uj
##mě
##ké
ži
##lá
Na
Mo
kama
##iny
pr
##nu
##tu
byl
pra
##ina
##om
##ká
dě
##sto
Pra
##ské
##vě
sp
##ta
ka
##da
##is
##lou
vše
##ili
##ob
spo
##ová
mu
##mu
##lé
##cí
aby
ma
pří
jí
##inu
##lav
Ale
ta
den
hra
##si
##ký
roz
jako
##čí
taky
zá
##bí
živo
tě
##ry
jen
##ti
mus
stud
##ist
##lad
##tel
pak
##est
byla
##se
##žd
kamará
chod
Tak
ja
To
vý
pod
##či
Pro
##ové
##ši
prá
##lat
Když
##nost
##vá
##ba
kou
bylo
##hod
všech
##ep
ten
hodně
##di
##men
mů
##mí
ni
##tom
bude
Če
##led
20
##ma
By
vě
##rat
něk
ví
##oh
##íme
##ty
##ěk
##tek
krá
vz
##ol
##ál
mam
##ží
Ne
##ub
##roz
##ha
##lím
##jší
let
##če
ba
##ého
##vi
##prav
nap
##ená
ku
##ovi
Moje
##co
dobře
chtě
##be
hez
##lep
ráda
##áz
mí
##on
Mám
lí
##hy
##ve
ze
já
##ým
au
##oval
no
pos
dobr
člov
##vat
##ždy
také
pom
jin
tu
##um
před
##pad
sem
##zi
##es
zač
něj
dět
##rát
které
ty
ji
##uju
##zy
př
##stav
poz
dá
##vy
kdy
čas
##ri
##bi
##ýt
ještě
##stě
život
##ala
Jak
budu
##let
rad
##čit
nám
##bu
sou
mal
vid
pa
sko
velmi
řek
pot
##jím
Co
##líb
cel
di
mys
kde
##ste
prac
každ
##ový
Praze
není
##hu
##vní
##stí
něco
dí
ří
vla
doma
##ský
##noho
##pat
##ran
tele
##rad
##ším
sto
nás
cest
##čka
##áno
který
asi
##ům
##rt
##ém
moje
##alo
201
dost
##leč
kni
##ju
zd
zem
##ali
##sp
sk
##rov
nějak
##lem
##ži
poč
##lik
Ch
##nám
##ent
Eva
os
koup
kamarád
##my
být
nech
ru
##ově
##up
##žu
##luv
Můj
##sem
než
Ve
čer
##oc
##sti
##ena
##kem
##ter
va
Já
tře
##vu
krás
in
##za
hodin
00
2010
##klad
spolu
##nam
češt
Ka
##ené
Nej
bez
kon
jenom
##ční
Pak
až
##sí
mít
##děla
zp
##pe
moh
nik
##žit
##rod
rodič
##ubli
jeho
školy
všechno
můj
tady
jmen
##re
ven
##ovala
sme
##bič
##lepší
##vět
sta
dal
ry
nep
stra
člověk
kra
##chu
##dá
##ily
##sky
byd
##eně
toho
##ůz
dlou
##ver
hlav
##epubli
Mys
ča
Za
10
dru
##ot
##ině
##řed
##zdn
##žel
##cház
potom
##ním
lé
##oz
dne
měl
vždy
jíd
auto
li
##chni
byli
##ěl
tom
##sa
re
prob
##ovali
##ska
##jem
##hle
##ený
mají
jezd
bo
nic
##čer
děti
St
##ská
##dam
##bě
##áme
slu
##tej
může
škole
Proto
de
dů
vš
##val
vys
##ng
zajím
me
##ude
##pis
##inka
oblíb
lidé
bav
##zí
sam
##deme
##stli
teď
##tí
dov
růz
mnoho
ti
nev
ani
měla
jdu
mluv
##chod
##šel
šli
##cha
Te
##sy
babič
která
město
vo
uči
##cky
##nosti
musí
televi
třeba
domů
##ků
##stat
Ja
##eni
neby
nejlepší
##bal
##ných
mně
##ček
jazy
Adam
Má
tr
##ram
ci
my
neb
své
prav
pá
lidi
mož
on
každý
du
##ování
pi
par
tat
##nout
Do
Ko
Kar
##ěla
##oví
##ami
##děl
lidí
##ství
svět
rodina
Myslím
nez
##ct
vod
klu
##čky
republi
##eno
tro
##nec
sest
jeden
druh
špat
##liv
poh
té
##inou
##tá
##ůl
##sou
##zit
poř
##lád
##řeb
slov
vi
##íš
##rozen
op
##hra
##ec
budou
jim
rok
##šichni
##bor
##ují
Potom
brat
##dí
##oup
##niver
děla
##kov
chtěla
stro
##nice
odpo
##vod
chci
br
vět
fil
dovol
##raz
nov
Pet
##00
Jed
so
##ouf
zajímav
ves
prázdn
chy
abych
těž
oprav
poko
##skou
první
##kup
kole
##žeme
##sku
##ních
##op
##ezi
ní
něko
mé
nav
pop
domu
kam
mil
##pa
##nit
stá
práce
jídlo
dva
##hoj
chtěl
Jsem
sm
sy
někdy
Mar
star
učitel
##jed
velký
studovat
vá
##ách
Vy
sna
##nější
##vali
přes
##ští
stej
##ir
večer
máme
líbí
Kdy
byt
poli
České
zdrav
##vala
##ut
##enou
##dle
##kon
dělat
##niverzit
Tam
ře
##ležit
jmenuje
pou
##lý
jestli
proč
měli
často
šel
##eny
počít
##vé
bar
##chy
rodiče
##umě
##rý
tomu
##udu
##ické
##ie
##cela
##čas
řekl
##ory
vlast
##mo
##ast
víc
##ného
přije
vů
vol
tý
byly
kdyby
##zo
##řej
přá
Chtě
dlouho
stát
pí
pení
tím
##lek
30
##dou
fot
19
##vr
obleč
Rus
##šli
narozen
##ned
uč
##cích
svo
někdo
tři
##uč
##bec
pořád
uk
##bil
##ák
##vid
Ahoj
Mě
Ta
Protože
Rád
nové
ok
##vají
##vám
##stá
jet
baví
peníze
dár
Při
jít
velké
Prahy
všechny
##ura
nad
##louch
rozhod
šla
##má
počíta
at
mezi
všichni
##pi
svou
maminka
13
up
pla
##rop
nes
myslím
dosta
jedno
us
půj
##ince
nikdy
kr
kdo
tep
trochu
ke
##děli
uděla
univerzit
##stup
##istor
další
##čku
Ev
da
tří
zase
Teď
opravdu
15
ra
##hla
jeji
##ního
skon
televizi
musím
rych
jednou
12
zam
##áš
potřeb
##kat
##uji
##ujeme
histor
mod
kamarády
zkou
veli
dobrý
čí
##sím
odp
nemoc
##staura
české
pat
##kovi
oblíbená
##kal
##kol
země
##den
kras
Pod
mat
chce
nedo
18
##čně
nemám
Tě
man
##ken
##bus
##lej
##nek
skoro
sebe
svě
##šky
##ke
restaura
vůbec
##ost
##há
vyso
Od
hol
přij
Každ
11
##gra
procház
Mam
ote
zví
##ník
##spě
##nat
##rčit
##šla
místo
Hory
pov
zim
rodinu
věci
##řit
vypad
jde
minu
##mír
čt
##sko
##ltu
##ými
můžu
Byl
##ohu
##pom
pam
##emí
kteří
lep
poslouch
ot
problé
Ten
Už
##ika
mlad
sr
##nici
náv
##ledne
tát
sed
jsi
poje
studi
chodit
##aly
Proč
vždycky
Byla
hezký
##kra
##lid
dra
##jít
češtinu
bě
znam
##bou
##ůže
Bylo
##pí
naše
##ngli
hud
##ěli
budeme
jazyk
##ust
##lim
Nem
##ed
##mé
dvě
pan
##bav
##řel
města
vyh
obě
obchod
##ata
##OV
Chod
##bra
##říklad
nejob
zel
##rz
naps
znám
##nem
##ace
##ráv
straš
Dě
ps
pl
ČR
nepo
##kud
chla
škola
Praha
společ
kar
##dob
Ma
ona
##lez
muž
životě
hla
##čil
##ovy
##orm
##ální
kní
##ovou
##itu
pomá
tan
##šte
její
spát
Taky
##oufám
oby
##kých
##sob
##xx
##ských
hlavně
Tom
zap
česky
kultu
##vyk
##ovní
##nes
les
dobré
##řejmě
narozeniny
Lí
sob
##nce
##ilo
svůj
prázdniny
jejich
Mila
ostat
um
##vý
##vů
době
přek
sport
autobus
oblečení
Ob
udě
##znam
jeli
##kaz
Nap
dál
zů
podle
200
člově
důležit
Horymír
ště
##lně
set
nejví
máš
počas
života
hezky
červ
zahra
podí
kina
##tal
##rg
##RA
##enu
##tele
škol
telef
##rčitě
měsí
práci
Dob
uli
##rou
##án
osob
##átek
městě
##vad
vyp
stojí
bí
##vou
Také
vesel
hrát
celý
##enější
bu
vám
zep
##ii
##stu
##teli
No
půl
ráno
##ár
##len
chodím
výlet
zak
##cem
kamarad
film
hry
žád
##ška
hrad
jiné
Pr
rozum
paní
##terne
Něk
pe
##kod
##rem
hor
pracovat
fotbal
##tem
##ech
veče
různé
17
Pře
sch
##stel
##kono
##hor
##líz
hezké
nějaké
hrá
řekla
##lit
postav
atd
nejoblíb
Mus
mého
uvid
ček
jedna
knih
květ
##ější
stav
nemoh
knihy
##dr
docela
můžeme
dnes
Ráda
manžel
nový
oči
sil
##LA
##lela
##kala
kterou
##ický
nich
fu
##ki
více
nikdo
Každý
Pa
nád
##nka
##ají
##ati
##anu
problem
pokoj
Fran
mas
hraju
návště
plav
##py
##cké
##emu
##střed
##kuji
kolem
##zna
##řím
##ným
pomoc
14
##kam
##vka
mili
spou
času
##kama
##rů
##AK
neu
děl
sní
##ůsob
obje
kamarádi
několik
počítač
hned
váno
##spo
víken
JE
zv
##pu
##ůžu
##for
##nil
domá
dlouh
##ohužel
Nová
fak
ode
slav
##mav
##aty
##átky
Nebo
venku
ex
rada
cí
dům
##hem
##kali
roce
##zdrav
mno
##ková
##jeme
babička
##rist
##ok
máma
těch
pracuje
jste
pěk
leh
rádi
##rozumě
světě
##vůli
##telé
Moc
##ozřejmě
##pomně
ak
hled
neza
##ném
kamara
mohl
mluvit
republice
počasí
sám
vl
##hled
##ovo
představ
##bilo
radost
interne
rychle
Ně
tet
##kami
##žil
##romě
##tech
Chtěla
zvíř
udělat
Ba
vrát
člověka
Br
ov
plá
peně
##šti
příro
odpově
Milan
Mu
fa
##kám
##ul
##vit
jse
prostě
Kdyby
sobě
Vždy
fo
##té
01
dis
##bní
##vůj
##liš
##teč
Ještě
dovolenou
Evrop
nejoblíbenější
tra
##kla
podob
##byt
vedle
nejh
##sed
Jsou
smu
##vap
lepší
Tomáš
str
střed
velkou
dobrou
začal
všem
Karlov
Lid
angli
poví
##šem
##ekla
##jednou
Dom
##lů
kap
posled
Pří
##cou
##čet
Mil
Os
lo
norm
zku
úkol
chví
kom
##ději
muže
pár
Jen
zlo
Šemí
##koj
moře
nemá
školu
například
špatně
ce
cent
učit
zn
##tr
sty
hodiny
rodinou
oni
##lko
##pr
stře
rodiny
SE
Váno
lá
mne
##šku
##čko
##vot
svého
králov
malé
snad
táta
chlap
Ame
##ich
##jeli
##kách
oslav
nevím
větš
sobo
kdybych
##sme
##ik
##fo
##ovan
##tor
dobrá
Sta
určitě
##KA
##ely
připrav
hraje
pohád
##řil
##lal
##log
svém
##lík
koupit
pís
##her
##ene
##idlo
##pomí
##ského
Stud
##běh
obyva
Va
brá
##zor
##ání
obli
nejd
roky
jednu
univerzitě
##spoň
smut
dar
kám
##šit
##dej
nejsou
roku
05
Jo
NA
su
##nd
##ců
Čech
týden
Doufám
Rod
zat
##šek
tento
takové
stě
##dělá
spoluž
mohla
tatí
Petr
překvap
telefon
pět
psa
##LI
proh
zavo
##nej
prázdnin
hudbu
Vel
kvůli
nud
sí
žít
##šet
##ťast
něm
nemus
těším
chodí
mohli
##rch
##odu
stůl
nejak
velká
viděl
Jir
ním
##vil
narod
problém
bram
Ča
pon
##ezčí
učitelka
oběd
uz
##lel
divad
říct
bý
dny
hroz
skup
umě
##kr
##TE
##átku
muse
zemi
češtiny
Těším
Líbí
sně
##dat
##ích
rodině
bydlí
Rusku
proti
##nik
tebe
vlasy
zpě
nebude
Hon
##stoup
##ových
jel
##iná
mobil
Tat
rá
##dět
##slov
##pra
##žou
zas
##nad
kolik
dostal
létě
možnost
Sam
sku
##nů
##hou
##hro
##ratu
naší
pros
##jet
Jeho
##stala
##vání
tenis
ciz
Jmen
Vše
noh
sly
##ani
##áky
##inek
##nika
##bory
dárek
plat
změ
##zu
##vam
##CH
moři
##řív
leto
##ysl
jíst
dostala
půjdu
PO
Republi
##krát
nas
měst
svým
dělá
vidět
slunce
sobotu
dala
jo
ká
čty
##čení
##AM
takový
jednoho
jinak
vás
ostatní
Zá
sva
##su
##gy
##cie
přem
nechtě
nebylo
vlastní
met
vra
zu
Čí
##hat
naj
český
věc
mamin
dítě
knihu
nějaký
boh
##sek
##ine
zach
##idel
vyuč
##icky
skvě
infor
16
##íl
##go
##EN
##čt
##rál
stalo
##deš
##átka
baz
celou
všude
restaurace
##OVA
podívat
##horší
Budu
ať
##stal
##ino
zaji
prez
studen
rušt
stejně
znamená
My
sni
##adí
spokoj
krásné
televize
zdraví
nejvíc
jmé
mnou
situ
vím
či
##zá
dopis
##dom
pri
námě
myslí
ruce
##větší
pivo
Mart
peněz
informa
DO
Ona
Vá
čá
##nal
##znám
##žila
najednou
nevě
##telu
takže
přišel
studuju
student
chyt
procházku
otev
nejhezčí
tvo
zby
škod
##žím
##ca
##šlo
##TO
##lech
lidem
kup
malý
zajímavé
##rozumění
sup
##bý
##leko
kab
##čera
kterém
parku
Ty
Vz
bře
blíz
##sit
##io
##váme
##čej
naši
sebou
##rob
zav
občas
chodíme
míst
viděli
říká
##peč
med
NE
oko
čet
##yt
nakup
jedu
pozdrav
chut
led
noci
bratr
štěstí
Kdybych
fir
klid
zde
##LE
##chá
prince
##káz
koupil
krásný
odpoledne
kníž
hr
umí
##dce
##man
##zek
##rak
##řes
take
##ske
##pon
tedy
Al
Dí
Li
Roz
tá
vrat
zji
##zý
##cit
##jel
hodinu
dve
Ži
##OU
##žen
##šeno
koupila
Le
Před
dr
##dé
##tat
##zel
##inc
zah
##iti
##ička
Byd
díky
sestra
##íšu
pojedu
poslední
PR
žena
##sty
postel
##kuju
##řili
rozd
máte
##chází
druhé
přátel
domácí
prezid
Asi
Hod
des
čtu
##nova
##ur
##zim
##ré
nevy
polé
##ing
##alí
##nul
##isí
někter
např
začala
bratra
skončí
foto
Ti
hně
##ěj
##lod
##EZ
##NE
koní
bychom
##věd
pomoh
##kovy
tanc
dělám
náměstí
an
dře
slo
##ber
##he
##vím
stat
komu
obraz
jaké
národ
základ
kurz
nebyl
pátek
stále
dárky
chvíli
Ji
Koup
##nky
##ěst
##kej
##šim
##čím
##raději
dokon
##říve
##adu
##ičky
##dali
jich
budouc
velice
Ameri
šťast
##jou
##řem
##ral
nek
##inky
začí
nejen
##anou
hosp
výbor
slova
dělal
Dobrý
Se
dce
elek
jas
men
##OD
svých
##any
##ovaní
Tady
zima
Ku
mlu
##třeb
##zku
##áci
##šní
##SK
##levo
##ety
##dělí
Byli
##ved
stole
léto
voj
nebyla
světa
On
jist
##cka
##šť
##chop
##nala
##aví
nemůžu
letad
pozor
malá
hlavní
možná
poslouchám
studium
Dnes
pes
sa
##sil
##ice
##čila
##ST
##enka
##chno
poste
##cet
svátek
pozná
skří
cizí
navště
Bar
kla
##kt
##gram
##cký
##koly
##nými
spe
někam
Zač
Jednou
Chtěl
třídy
Doma
An
mou
##řá
##ýš
##ujou
prazdn
spat
##ností
nimi
konce
jezdit
Podle
otec
knihov
Aby
kro
sho
##ime
##vku
##tela
##koliv
##lost
EH
Ná
jím
sran
##so
##bit
##lení
##plně
##jdu
##lila
##nění
##ari
hotelu
letě
Takže
pozdě
##rovna
kamarádka
brzo
##graf
návštěvu
Až
cu
her
sama
čo
##rom
##ada
##iče
musíme
##ovaly
soused
nějakou
Chci
nevid
druhý
této
sym
restauraci
Osnova
super
23
Ráno
per
puj
##lka
pole
##alu
konec
jedn
způsob
strom
popr
teplo
Někdy
Martin
hospod
Bud
Měla
nim
smě
##kové
##ja
##XX
jela
pohod
##ráž
##říd
obrá
nejlep
neměla
málo
##dala
##dia
krát
turist
čeština
##vrtek
##xxxx
dlouhé
Cel
Všichni
žid
##vné
##IN
##lala
##řeba
##žet
##poledne
kop
##dek
Mož
samo
Kočka
Maminka
minut
21
Hra
ovo
Čer
řid
##tro
##šně
##šila
##činu
##ův
##ůvod
##lil
##rost
neroz
poma
##rás
nemůže
spí
krásná
Nejd
důvod
však
různých
navští
volno
kámo
Nep
jem
jdeme
ost
rekla
sal
##tní
##eb
##gar
##rtu
##lz
##šil
##ňuje
##ove
nabí
##letě
doz
##teří
##poru
hory
lesa
lidmi
##ském
##čita
nepři
neznám
Nik
cít
fran
jidlo
kan
tvůj
zvyk
##dem
##žně
##čili
##teř
##nečně
##dech
rodin
děde
budeš
samozřejmě
čís
kamarady
Ho
Nak
##bod
##šení
##cho
##leži
pokud
##jící
##ruh
ktery
##ická
auta
dětí
cestovat
dostat
zpí
lite
kluk
číst
zelen
spoustu
Kč
Ví
mém
##bli
##vky
##vili
největší
jezdím
oblíbené
myš
exist
##pomněli
tatínek
Sa
dem
min
sen
šest
##čast
procha
##ština
Mosk
Česká
boty
vypadá
pamat
otáz
Děkuji
kníže
Bohužel
Hlav
Mí
Prá
zm
zi
##zky
##žší
##šší
moji
##nav
nejhorší
kterých
noc
kniha
##rovy
##valy
brus
Měj
důležité
víkendu
Spo
bá
dát
hru
nen
nena
pad
čte
##mou
##pt
##vič
##ča
sedí
##nila
##řila
##ických
##stava
žije
místě
jiný
##stěh
noviny
smr
zkoušky
vánoční
blízko
bohužel
kal
ly
##lní
##ovu
##nic
##avý
lide
prace
spoj
někde
Máme
##letí
černé
##0000
matem
rozumět
zjist
Kub
Mi
Rom
Vid
hle
trá
##bud
##ck
##ření
nelí
neco
##řiklad
koně
oblé
Nech
cesty
boj
nebudu
pravda
větší
filmy
syn
svoje
moder
problémy
zvlá
Vánoce
ano
bra
la
slad
ři
šp
ješte
doby
počita
chat
nemají
##tali
přítel
cestu
Nejlepší
vlastně
fakt
Něme
střední
zkušeno
prezident
BU
Jin
US
lek
neni
##nku
##bek
##rně
##hl
##ladu
ned
toto
proje
prostřed
dobu
##dobí
chodili
již
celé
republiky
okna
půjdeme
udělala
patří
psát
BY
hři
ply
tram
##ále
##iš
##CE
##les
prosím
##koli
##alní
cha
##žela
vez
vzdělá
Večer
použí
nového
udělal
nejvíce
ulici
maso
internet
styl
čtyři
ame
cit
úspě
##jde
##rac
zastav
##neč
##ským
vybra
##pomen
techni
##kání
případ
tělo
##tiž
kraj
strome
##opak
Nováková
chlapci
prázdninách
fotograf
shořel
dav
list
oh
pě
tem
úplně
čist
šaty
##JE
najít
program
##nech
spad
místa
potrav
celá
říka
000
babičce
slovo
zajímavý
přijela
##zoru
##acebo
zahrani
víkend
speci
25
Dal
Může
Ro
TO
dám
žad
##vně
##šak
##rostřed
doprav
dort
##něl
chu
měste
vyná
##ary
hodná
náš
pravo
každy
zábav
##bava
hezká
##žitek
voda
abychom
těžké
vysoké
zeptat
francou
22
Mé
Vý
kav
tvr
uva
šly
##ela
##raží
tolik
##rád
kolo
Praž
vzdu
##buz
zprá
dělají
čtvrtek
strašně
Novák
##lkoho
středu
Často
divadla
mluví
jednodu
literatu
Bo
KO
Kam
MO
dvo
muj
pus
ptá
unav
##ana
##vest
nam
nako
##jezd
přišla
muze
##álně
vidím
##jemně
můžete
někoho
týd
pojedeme
večeři
vlk
disko
oblib
bohat
Di
##del
##mus
##ych
##enky
##enku
pokra
vyt
##eru
lese
##štěstí
děkuji
##léd
musel
Máma
nepří
vody
republika
ulice
Šemík
centru
čoko
Ano
Kon
Měl
be
nut
ukaz
zám
ši
##vet
##valo
##jn
##NA
##KU
##stra
nau
totiž
sví
domov
prov
vzta
nos
stará
pohled
těžký
pokoje
nohy
Muj
hou
žit
##slu
##sled
##eli
##oo
##ář
##vis
##stanu
##roj
##ame
##jela
##met
##ard
##ěti
Jestli
##víc
##šich
přin
každé
přesně
holka
##vykle
internetu
Petrovi
vynález
Kde
mit
pil
##rní
##žství
##štej
neví
tohle
strá
koru
svít
##áta
příklad
jab
podzim
tuto
začátku
papí
##pec
brzy
daleko
autobusem
##sloví
zuby
Bez
Lu
bl
ekono
hlou
kři
sním
vál
zná
##tý
##rka
##én
##TA
##emi
jede
##lety
stří
##řít
hrajeme
zaplat
čekat
Evropy
obyvatelé
Samozřejmě
Není
Pav
ha
kdi
obor
pově
tou
vic
##dit
##ula
##uto
##ík
##mět
##žky
dop
pocit
pochop
##dev
svými
jaký
##ítra
neměl
letech
autem
jiných
dívat
jídla
mluvil
vodu
##oufam
miluju
květiny
objev
Tomášovi
USA
Mal
Slov
hu
lav
psy
zt
čin
##nc
##vno
nedá
měly
vym
##dela
jakou
hodný
jedeme
zábava
chodil
budete
Českou
jiného
bydlet
pravidel
##ctví
barvu
narozenin
okno
usnad
zamil
zimě
##rgani
měsíc
milion
strej
angličt
ovoce
Bě
bi
dro
doufám
dvou
hovo
né
sla
vlád
##dní
##ex
##hnout
##plo
##jak
##ůležit
##IL
##stva
seri
seznam
neděli
prof
##nili
názor
nemo
leží
##nutí
praci
Prac
správ
studovala
právě
nechci
bydlím
jezdí
zajimav
Hodně
pokrač
Kdo
TAK
Up
Zd
rov
úz
žil
##cím
##čin
##fi
nest
chle
chud
vyu
něho
##líd
školi
sprav
maš
můžou
niko
konci
starší
zaměst
přijel
furt
zvířata
zatím
Díky
II
psi
##klád
##sá
##zení
##šly
##ŘE
dopad
##ředu
taký
##var
období
nejraději
legra
kaž
mamka
chtěli
##chut
##ující
odpoči
přání
počítači
2009
pondělí
Honza
poprvé
nakonec
Angli
Tvůj
bil
kyt
shro
trad
vadí
zí
##onec
##žovat
##cku
##clav
##DE
##lika
ner
porad
##cept
mojí
##nali
##etu
velmí
Prahu
věcí
pomo
dále
zemí
vysvět
tatinek
##dělám
stromy
pokoji
##mážd
matka
nedorozumění
Jenom
zpěv
dokonce
Nakonec
08
Mů
lu
ste
tř
uš
učí
##hdy
##žili
##ovky
nauč
prost
##rách
takhle
##idla
##pomě
koni
##nání
Čeština
kamarádů
straně
Karl
během
Například
červen
školní
bílé
nádher
překvapení
situace
kabel
myšlen
Kromě
Táta
lod
ží
##neme
##zv
##yní
##hli
##ených
oblek
dobrod
##ickou
Pokud
tať
kuchy
líbilo
třetí
tohoto
špatné
koleji
volný
rozhodla
nemohla
Lidé
normální
##SKOVA
BUSKOVA
ekonomi
24
Ká
Tvo
Třeba
Vys
hude
##vez
##žený
##ením
##losti
##ilí
##nají
##skem
názoru
rozumě
chodim
kouzel
myslela
Veli
krásně
učím
povin
drah
pomáh
První
plavat
písni
salát
alkoho
ban
dali
om
##nus
##tav
##pá
##pou
##šk
##jdeme
##lili
dospě
alespoň
odjeli
lev
což
##věr
vědět
vzal
češtině
hlavu
cigar
stejné
Ruska
rano
napsat
veselý
fung
fajn
většinou
spolužáky
Republice
vyučování
amer
shromážd
Af
Nový
Plz
Sou
Zat
del
hlad
jit
ků
zvy
##onu
##AD
##ovku
dok
##bylo
těm
vzpomí
Nevím
líto
##padá
diplo
století
##terý
vaří
lépe
možné
bare
svojí
Tento
##konoce
cesta
##cháze
Bydlím
postele
chuť
##štejn
dobrodru
Vl
Včera
aspoň
ide
pít
ská
slou
utí
zvo
řika
št
##rku
neob
##kyně
vyz
##des
sve
nákup
##ict
##uješ
Naše
##tala
mužeme
hrat
kamaráda
podi
předmět
poznat
každého
soci
##nitř
potřebuju
Nemám
zůstat
hrozně
základní
50
Har
Ukra
rak
úkoly
žen
##dlo
##klo
##tř
##ym
##lých
##pě
##pas
##liz
neva
##inan
##elo
##kulka
zab
kohou
obla
protoze
nemu
mužu
jízd
zážitek
##tivní
výstav
kur
##umím
potře
pracovní
rodiči
nebez
pouze
studia
spousta
teta
odpověď
##domov
Cest
Dav
Pan
Tu
Tr
och
peni
##zn
##ia
##řád
##čan
##AR
##AN
##lan
##stru
jesky
##oda
##kola
nejde
ktere
přísloví
##ového
##hali
##vik
##zace
mohou
##rodní
staro
můžeš
svoji
pořádku
dostali
dalších
srp
schop
##prava
informace
polévka
Jez
Krá
Vět
dříve
gram
kli
mr
slep
vstá
ženy
##ren
##ceme
##race
##leli
##lie
##lib
##tery
##tečně
Ježí
kterým
lesy
tyden
myslim
pracov
cestě
ruz
odpočí
vesnice
krasné
chceš
srdce
umím
nádraží
problemy
Vždycky
Evropě
museli
skuteč
část
deset
##devším
Oni
REZ
SI
bod
pit
vliv
##íte
##br
##itel
##vít
##vej
##KO
##out
polí
##ini
domě
českou
rozu
kuře
##ovalo
začali
přím
viděla
vají
strach
babičky
jazyky
bratran
##kovou
staré
politi
uklíz
potřebujeme
českého
obchodu
většina
Jmenuje
Harry
Bude
Vo
Vím
kromě
mých
vzd
zlod
zrovna
##ip
##čem
##lava
namě
dosp
##něli
zad
##ita
##noce
chrá
vyb
vych
kolá
kosí
kofo
##ekt
Pos
maji
jaro
leti
##čeb
typ
Jako
zdra
nechod
rybní
Kolik
sestry
dělala
Jednoho
média
zdravý
těchto
##ovaný
jméno
sranda
číslo
kavár
ZA
bou
ema
lam
mama
oz
organi
vti
zla
##itek
##cko
##ovka
našel
seznám
pož
##inci
##kař
##rála
kostel
##deli
##šela
##ičku
náro
##stane
mag
mali
hračka
výlety
napad
skok
diva
vařit
inze
Myslim
dnešní
babičkou
sestru
pořad
ředi
vánoce
Babič
povíd
komp
brambory
bazé
škoda
Další
El
Egy
Jení
Pep
cvič
deme
pud
pek
pova
sý
sma
tmav
udá
ukáz
včera
zítra
člá
Ří
##ěji
##iku
##pově
##jna
##čít
##čkou
##fon
##amat
##něj
##cii
vyj
##ark
koho
obrov
rost
##lovna
##ujete
Byly
100
dneska
důchod
republiku
viken
##razili
Petra
svobod
dostane
tradi
narodil
Tato
Všechno
skříň
Možná
moderní
vzduch
Ukraj
David
Určitě
ap
bor
hlu
nič
píšu
sle
##eň
##mím
##bila
##ůž
##stý
##enej
##ravo
naš
##lice
##níci
němu
mimo
##lové
příběh
##esti
chodila
##letá
jmeno
mluvím
novou
pomáhat
##atiku
fakul
pěkné
cuk
dozvě
vzdělání
případě
pravopis
Dráž
He
Kní
Vám
ab
arch
ber
las
or
voz
##tou
##gu
##hlá
##vak
##vát
##NI
nachází
naopak
poj
##inách
##hoře
##hoty
zaj
most
konečně
objed
svat
nejk
teda
##ovatel
září
##čilo
##div
napro
chtějí
hezkou
Jaké
souhla
nechce
bezdomov
kontro
bole
##běr
Japon
pravdu
tata
kluci
sestř
uklid
uplně
třídě
Děkuju
hlas
žádné
žádný
hledat
musela
Číně
rozdíl
Koncept
korun
##ůležitější
In
bila
dní
ml
mlád
pis
ras
sbí
##zní
##aci
##EL
##žení
##cu
##šu
##čim
##NÍ
##raf
napo
##atika
sice
vedou
nejsem
##děj
hodne
tamější
Její
kterého
ležel
čest
spis
##sef
##hoda
##ment
##hala
radio
součas
nikde
druž
tomto
nebyli
klubu
špatný
opal
Petrovy
starý
osobnost
čeká
Jirkovi
studenti
PRO
Nikdy
smrti
charak
usnadňuje
Boh
Unc
Zem
cenu
hlá
krat
křes
pu
rez
seme
všich
zlep
Ček
##dý
##sat
##zdu
##hrad
##lear
##řeli
stráv
chlad
chtela
##lích
ted
přišli
neměli
##ované
prů
význam
autom
soud
malou
řekli
ryby
Rusko
Odpoledne
Paní
tvoje
Život
navštěv
prazdniny
nabíd
existuje
nelíbí
přines
Karlštejn
email
Unclear
Auto
kř
lou
mel
obo
rus
tim
tisí
zna
zvi
##kový
##sle
##zdy
##lám
##EM
##žas
##čné
##čkem
##NO
nazý
popis
##řilo
##lověk
přesto
##iční
jedin
uži
##lout
Prostě
bask
začalo
přa
Vedle
čaj
služ
dovolené
Jeden
velkým
upřím
kultury
nemohl
představit
příroda
královna
Josef
Velké
káva
zachrá
sympat
zvlášt
zahraničí
naučit
Zdrav
Tvoje
hudební
diplom
Drážď
Minu
Nez
Vla
pas
uvě
zr
##sně
##tím
##os
##však
##čný
##fu
##leží
##elí
##itě
chtel
obra
roční
horách
českých
žili
praž
příští
koupat
král
čase
malí
dostá
zdá
rodičů
party
##livý
##paněl
Město
historii
vysoký
procházky
sedm
našeho
obyčej
měsíce
nechtěla
dveře
Kuba
pujdu
židle
27
Den
Doufam
Itá
Nic
Ru
Uz
fy
hvě
kvali
trav
vých
zda
řict
##dal
##zovat
##ig
##AT
##rodu
dome
##inami
takovou
##neční
vybí
přestěh
jedné
nemáme
záj
někteří
letní
životní
vidí
končí
ryb
##jemný
sluš
filmu
památky
disku
Rodiče
okolí
menší
knihovny
Jinak
Vltav
##itektu
Ce
Křes
Lenka
Or
al
smí
tv
udělám
vžd
##sic
##had
##ER
##emoc
##rali
jeto
neko
dolů
polo
taková
##lor
chování
##vaj
##byl
##vost
##eti
jedli
nema
velky
##koup
pry
##lépe
zájem
jaře
Češi
napřiklad
nosí
dává
sourozen
##stech
nechá
rodičům
Stra
oblíbený
nebud
park
Marie
přijde
zvíře
mladší
vyhrál
manželka
rádio
Rodina
ruštině
shromáždili
40
Chy
Dále
Rych
Tři
abi
kned
pust
##žka
##cům
##čce
našla
poku
##celá
mělo
##áda
obvykle
roze
hodno
Prosím
dobre
pomalu
pani
října
osm
kamarádkou
Každy
sami
volá
Jedna
##pag
přijedeš
kres
historka
hlava
Musím
kamaradi
zvířat
smutná
nemusí
studenty
nakupovat
hrd
začíná
Budeme
řidič
##ležite
francouz
zdravot
vtip
Be
Druh
KD
Vě
fan
očí
py
tráv
ut
Úvod
čím
##kově
##ané
##př
##ven
##žít
##čely
##chny
##atku
##rán
##jedu
##nerg
vydat
kost
##luš
##etlé
ktera
kteři
##náct
přišlo
domy
lidstva
##stali
Česku
aut
Jaký
pracoval
cestovní
jídel
pán
možna
trošku
snaží
přijet
učení
nesm
Evou
nemocnice
vypadat
srd
osobně
horší
Francie
znalo
pohádky
nejdůležitější
přemýš
břehu
zmrz
hovořil
Velikonoce
Zatím
Egyp
63
Děti
RO
Sil
Univerzit
Vi
ar
dřív
energ
facebo
hlí
láz
mar
mez
nu
ope
ri
##kl
##knout
##sli
##bili
##ga
##oku
##lku
##škou
##LO
neda
pol
##níky
bys
##alou
zapomně
mohu
chal
##nejší
##říž
koč
koší
roman
##lovat
především
nápad
náladu
##štinu
žijí
space
příbuz
jás
nosím
kdyz
soutě
řízek
##teré
Star
nevim
navšti
okam
historické
napsal
lesní
sníh
znak
Jirkovy
maminku
##zábav
princezna
některé
letadlo
Nejdřív
kalhoty
hřiště
diskote
Můžeme
potřebu
Větš
přímo
Křesom
CH
La
Pi
cm
eva
ga
hub
jdou
kru
zni
zbo
čemu
ša
##kli
##tů
##mem
##mil
##hů
##lky
##vrt
##řka
##čily
##AL
##str
##ovým
##rají
poto
##kají
##žek
##ádu
kočka
##ery
##adi
velkých
##inach
přítele
##kým
človek
##esp
říkal
vlak
dostanu
bavit
tato
klukama
dovolená
několika
smysl
syst
syna
použi
píše
vyhrála
společnosti
setkání
zahradě
buď
mnoha
ponděli
ledna
knížka
##xxxxxxxx
těloc
pomoci
penize
Ať
Ani
Dne
Evo
Hor
Rak
So
Vš
ahoj
dat
ital
nyní
sli
zalo
úžas
Člověk
šan
##kovat
##káme
##zdo
##gen
##vem
##jit
##IT
##ME
##lada
našli
##lic
##kyt
stal
strav
stup
chvil
měsic
kola
##deň
svet
doba
tež
##láš
Morav
sportu
životu
studoval
##latý
Česko
stolu
koupali
zpátky
stane
Zajím
libi
##sah
dovo
dovolenu
zajímavá
méně
fotky
Měli
plno
zeptal
rozumně
hráli
silnici
Lidi
oslavu
Závěr
Rozhod
navštívit
##bekist
prostředí
pusu
nebezpeč
architektu
pryč
Bel
Mně
Oprav
Par
Re
dnů
far
kat
ozý
ur
umy
ňá
##vrop
##ško
neod
pok
##niku
##noci
##skat
##aná
přijít
Pol
Pop
hradu
můž
líbi
poziti
raději
myslel
dívka
vlakem
ruku
Kateř
slun
jazyka
##piš
univerzitu
Občas
plán
přírodu
Milá
centra
Amer
##logie
obyvatel
darky
Čechách
slyšet
maminkou
hnědé
klas
Hlavně
charakter
Uzbekist
jásavý
Jsme
Můžu
adr
blo
fod
of
ochut
pů
ple
pet
rep
zh
Šli
šat
žlu
##kům
##mm
##rné
##opis
##EK
##50
##stře
##stna
nato
jest
nesp
pobyt
byste
tobě
stoup
chceme
##ekl
občan
##use
dobry
hora
přitel
##zeň
přev
děkuju
záchod
zákaz
##hody
mamince
řekne
##živ
jezdíme
mluvili
trén
Mari
Vyše
řeč
přijeli
hlavě
Muž
Karlovy
platit
skvělé
našich
anděl
symbo
##XXXX
chatu
Vyso
nevadí
Jezd
zlato
basket
##zábavnější
CO
Mat
PS
evrop
mó
mletá
nou
nově
tva
tvá
vstup
zalí
čem
##kova
##mý
##zka
##hi
##žuje
##cení
##řily
##fa
##ťa
##ovna
##ovát
bytu
projet
##něp
##itá
##byla
vyrozumění
obilí
nejlépe
##líky
##jim
##ejt
spíš
zách
mame
tyto
Jakou
malo
celého
2011
nechal
černý
druhy
chyb
těžko
barvy
univerzity
chlapec
společen
sportovní
Horymírův
setkat
##drej
pomoct
mnohem
##prve
Stastna
brambo
prosince
situaci
Vás
bratranec
Koupila
dcera
hospody
jemně
dědeček
zpráva
Plzni
dospěl
inzerát
ředitel
Babička
tradice
nejkrás
Rakou
Ber
De
Kra
Koh
Mno
Op
Sp
VI
dž
dam
dub
fi
festi
he
hnus
km
kre
ran
sáz
uni
univer
vam
úterý
##dám
##rty
##ánu
##cti
##čtu
##lali
##chou
##ovské
našt
##roděj
neh
##teri
##ton
##tost
##nictví
##řim
##neho
##jížd
něme
##eta
##šeli
přece
Pot
česká
##kého
spl
##dají
příliš
roztom
musim
##telné
vzdy
posí
poskyt
kdyš
časopis
##riky
dívám
cestou
kamarádem
čerst
starat
libí
babičku
Dostala
Karlík
Marcela
barva
zkoušku
poslouchat
společnost
kulturu
vyprá
vrátit
odpověd
kámen
divadlo
kupovat
Vzadu
četla
tábo
koníček
lyž
svítí
dobrodružství
Silvest
Bu
Ci
Du
Jan
Sr
Sy
avšak
bal
finan
mým
pudu
působ
umi
ukon
vlá
vis
še
Že
žila
##ěd
##kce
##ín
##ína
##tak
##zem
##rej
##yš
##ps
##ET
##šili
##RO
##91
##rala
jez
neře
neud
doká
##něly
##loha
vyprav
vybav
kosi
koste
##mile
Poz
prací
##stopad
muži
##lého
maj
záv
zápas
studuje
Take
jinou
Jaká
##zdniny
##cházka
zajímá
##enice
Adame
##kových
kamen
polit
státu
potřebuje
modré
holky
hudba
peč
pěkně
nezapomen
fará
Studuju
obličej
prohléd
sněhu
svačinu
otevř
knížku
pomohl
posteli
Celý
ostrov
počitač
papír
Sloven
milionů
vajíčka
rybníka
Všude
26
Betlé
Kou
MI
Nov
Nav
ST
Snad
VŠ
ceny
eh
hře
hum
klí
kině
lez
mý
oc
tlu
uši
určit
ubyt
Řec
šlo
##být
##rve
##hal
##pl
##vila
##čata
##ón
##fe
##MA
##VO
##stvo
##che
##ovol
jejím
doporu
##inku
bytě
##řela
##nim
##nikou
stý
motý
##vaní
vystoup
##luje
mist
##dění
##ase
náz
pre
princ
##lét
mail
víno
##hají
poslat
začne
začina
kterými
černo
bydli
dela
##čeká
onemoc
opak
opět
chybí
vážně
uklí
čín
čtení
studiu
jazykové
pomáhá
důležitá
měsíců
buch
##roměst
Brna
##lův
narodila
ráj
medvě
chutná
koníčky
Americe
jistě
kancelá
Německa
technické
vytvo
zámek
huma
Uprostřed
nikoho
zaměstna
kabelku
divadle
Druhý
MU
PŘ
bich
cen
hní
pili
psem
původ
ram
sled
zbra
šu
##knu
##sátka
##min
##bře
##ony
##hlí
##hová
##ér
##žku
##říme
##IČ
##KY
##star
najím
jeze
##lin
##ros
neo
poda
##rák
##rám
##kočil
##nička
veci
rom
nemys
uží
##lán
Monikou
kazd
##sice
zážit
výraz
věku
##onat
##stěji
skočil
řeknu
celkem
dikt
každou
zdar
koupel
vaše
strava
strany
lékař
mněl
Máš
druhou
bratrem
odpočinu
řeky
přátelé
rozhodl
upí
chcete
přijdu
karty
osobní
cíl
ovlád
ovšem
umění
okolo
četl
komuni
samostat
čokolád
Pracuje
každej
naprosto
ležely
křoví
Dra
Lé
Mezi
hř
jar
kře
mlé
mýt
oživ
pát
pej
utek
uspě
vs
vít
Šel
ští
##ab
##rna
##áku
##předu
##jt
##řad
##čkovi
##stní
nesta
dojem
##atu
prodá
##vaji
##vor
##voj
ved
obdiv
mámou
žiju
průvod
spal
všeho
musi
##hodu
bab
dětem
celém
nějaká
Nejraději
Nejzábavnější
bezpeč
##žitě
jmenoval
bydlela
reali
různý
tren
vodě
polici
##mož
raj
krasná
památek
nepotřeb
ostatních
Napřiklad
Napravo
lehké
podobné
loď
láska
mobilní
klidně
Aleno
stromů
reklama
##ebest
Místo
plyš
stromeček
potraviny
písničky
barev
koláče
požad
sýr
Kníže
laska
28
And
Facebo
Oba
Pe
Umím
bilo
hlod
ome
ota
vse
Šla
Ště
##eho
##gati
##hly
##pal
##žoval
##enta
nakoup
ses
##leg
dokáz
##ink
##inec
prod
##lob
##říz
##det
##etnam
##nách
##zeli
##icka
Pozdrav
##kém
Najednou
Nalevo
prům
děje
##iska
závod
##ister
věděl
pomůže
dětství
později
pozvání
rado
potí
stačí
probud
jezdil
jezdili
musíte
trest
duby
světla
světlo
vodou
těžká
prvním
někomu
milá
smrt
teprve
historie
veliké
nemocný
nemocnici
vysokou
##méně
Chodím
kultura
Horymírovi
Princ
večeře
uviděl
Franti
neumí
odešli
vrátil
Staroměst
brambor
skupina
uměl
##pravo
Všechny
kávu
jménem
nevěděl
princez
dřevě
Moskvě
vybral
speciali
nutné
tradiční
Královna
pití
bazénu
fakultě
fodbal
festival
diktát
LI
MÁ
MAM
Ni
Pat
Vstup
VRA
Voda
blí
sé
ska
tre
učeb
zne
zru
zvu
zoo
##rky
##hel
##cé
##jku
##RÁ
##ŽE
##raj
našem
sejdeme
neš
neděla
##odob
promě
##nilo
stan
stran
strý
zapomě
chcí
vyhra
##poj
##avá
##adě
budem
tehdy
děj
muzi
denní
Česka
pane
##roveň
kamarádky
nechat
nepře
listopad
samoz
Konečně
vesnici
popel
kamo
dvacet
skončila
minulý
mladý
umět
horko
nemohli
snída
Babi
přírodě
znovu
království
nechtěl
zbytek
pozdravem
pomohla
šťastný
výborně
navštěvu
prochazku
fotografii
MOJE
muzeum
třpy
drahé
alkohol
kurzy
vikendu
Cesta
zboží
Opravdu
roztomil
29
Chu
Hned
JAK
Mas
Mej
PAK
Ra
Sko
Sez
ako
for
oce
pal
resp
umož
včas
zb
Španěl
##eo
##ací
##blí
##gi
##rny
##hne
##ác
##ála
##líme
##řa
##čná
##ÍM
##fer
##fek
##NĚ
##ché
##rab
##leh
##lina
nedě
dokud
zastá
měk
vystav
vybor
rostli
##anti
##lym
budovy
Potřeb
přís
příjem
tabu
denně
záko
japon
výstava
##hodou
vzhled
mamkou
nosit
jiná
papou
potkal
myslet
stoji
sklád
Kaza
##běhu
sluní
slušně
všim
Máte
parky
milí
teplé
skončil
holč
holku
Každé
hudby
Francou
kapky
Příští
nejdřív
nuda
městem
metrem
dítětem
spokojený
chytrý
Amerika
Andrej
Kubula
zkušenosti
Pražský
literaturu
vztah
kdiž
narozeninám
Během
povinnosti
##lizko
kohout
vybrat
##fung
hvězd
vždicky
adres
nejkrásnější
Hrad
Kor
KAM
Nad
Pou
VY
dou
dvak
kvu
kvet
lan
psí
tla
zmi
žá
##ěly
##smě
##gent
##hrá
##pak
##vce
##form
##BO
##BA
##linu
nerozumě
neštěstí
post
podě
polov
postup
##teční
stál
zají
cht
chem
##nebo
vyrá
vylet
ver
oba
svá
svátky
nejv
rohy
tebou
hokej
připomí
nápis
##icí
##yslet
prší
hrala
hrají
##tiv
muset
kamarádech
jara
podnika
koukám
mamce
semnou
##esky
dětmi
každá
cestování
zdvo
##cházím
samé
duležit
piz
Karlův
novin
opravd
##mos
přijede
##pilo
uprostřed
nesmí
##lejbal
zelené
karkulka
zůstal
veselá
zakáz
domác
dlouhý
přírody
Vánoční
##ovaná
ruština
Václav
Leto
Koupil
budoucnost
dceru
elektř
Možna
pěšky
ztrat
doktor
lampa
Pepa
Hero
nazývá
zvláštní
Křesomysl
ozývaly
Itali
Ky
Krist
Mluv
Pí
Zep
bří
bít
blá
cena
drá
ditě
gu
gene
hro
kri
mrt
ono
očeká
pta
zú
zve
účet
##novat
##dlí
##íí
##zuje
##ag
##bily
##žní
##šný
##ůh
##CI
##stud
navíc
sešli
nel
##aman
##kož
##jede
##jedeme
stala
##noční
chlu
měsice
##řiv
##bytek
##armo
##ětí
romá
odvá
odliš
Jeli
velmy
##ovací
čeka
děda
závis
##istika
kuch
tyd
potre
každém
zemřel
Nejhorší
léky
učitele
jazyku
piv
nových
milý
policie
##ického
přáteli
199
##vající
jednot
usmí
udělali
##hlas
krasný
čtvrt
nejoblib
mužou
udělá
Někdo
děláme
JED
tety
Brně
povídá
##prvé
pohádka
zavolat
cizích
pohodl
spíše
Nikdo
cítím
kancela
Sax
špin
zkušenost
jablko
správně
dopadlo
vedoucí
Dneska
Vstupní
BO
Ir
Jí
Kni
Klu
Náš
Slav
Smet
ad
cz
hus
jiny
nená
plo
růž
sá
tma
tzv
var
zra
zub
zvý
Řekla
##umí
##mark
##haly
##ií
##pit
##vný
##žené
##šné
##činou
##ňovat
##IS
##HO
##ČI
##raci
naroz
ser
jsne
dod
dopoledne
potě
##tec
##terá
##tory
proc
vyře
##aru
oble
svím
nejbli
odbor
tex
tetě
##átko
velka
##lách
##nula
prase
##louho
podla
vzala
Neb
jinde
začatku
dávno
##rie
##rig
radši
námi
pana
zemích
černou
zpět
různá
Jano
svému
těžší
starých
přijedu
učila
rozhodli
jednom
zkoušel
vysoko
##kras
obchodě
plné
nepos
##lezl
mužem
##znamená
zůstala
půlnoci
zakop
##cemi
návštěvní
lehčí
ovliv
##vame
bazenu
místní
##bere
jasné
nejlepši
otázka
Spolu
##00000000
drog
pokračovat
myšlenky
taťka
skutečnosti
letiště
systém
dospělý
farář
názory
HO
Hav
Ju
Jonat
Kvůli
O2
Sk
Sv
Uvid
Var
bat
bři
hy
ky
Škola
Šebest
##mně
##zen
##zou
##zná
##ham
##hám
##áp
##žim
##cít
##řen
##čina
##čků
##xi
##ema
##ovor
sešit
##letu
##lii
negati
dorazili
poch
poby
##oden
##tostí
##rání
mění
##želi
vystup
koneč
vepř
obý
##ang
##aný
hodina
odpad
tero
##lovi
přijím
##zev
##ičce
##ičko
nemů
##nych
Moji
děd
spi
##ismus
mateř
přídu
hrajem
Toto
podpo
podmí
##latí
koukat
tenhle
noční
divá
cestuju
sklad
koupím
rukou
krásnou
Nejvíc
delat
musíš
##livé
stromu
Petří
kolej
koleje
řeka
oblečeni
krou
napsát
strašidlo
psal
Mají
sportovat
člověku
červený
bun
Někteří
hráč
postavit
uvidíme
množství
Karlova
anglicky
Miluju
Šemíkovi
Vanoce
darek
pěti
mobilu
platí
čtyř
firmě
polévku
budoucnosti
spadl
Můžeš
Můžete
odpočivat
Kája
kůň
zvyky
srpna
zloděj
Čekám
tisíc
KDY
vydatná
nouzi
humanit
zdarma
oživly
hlodav
Chut
kvuli
70
Fa
Hez
Kři
Let
Půj
SP
Té
Uděla
dni
eště
hust
hrom
mla
pen
rý
tel
vem
včely
úk
ší
##dli
##smu
##anech
##res
##oby
##pla
##UT
##žný
##žlout
##žanti
##čel
##ňují
##sté
##enti
nastoup
seděla
seděl
##aky
##roje
neli
neumě
nefung
proce
##kot
##alně
##niky
##nicích
zaz
zaš
##jíž
kočku
rokem
hodí
##mila
hot
##átů
přiz
přiletě
##domí
Popiš
##oběd
spotřeb
hrano
hraji
záleží
podporu
Procházka
všechni
##die
Bydle
##tekli
##čeli
babí
##burg
souk
pracují
nikam
neprac
stranu
dnech
zajíma
meho
bavili
##chach
trvá
pravidla
Dokon
mému
zdravé
řešit
##uměly
##rývá
státní
rozhodnutí
atmos
plavala
usly
dale
třída
2007
##koda
večera
masa
Vždyť
takového
stěh
tatín
psaní
prohlí
zavolal
Velmi
nudím
nemusím
rána
Jmenuju
Republiky
vyučovaní
NEJ
tancovat
Sever
elekt
letadla
Začal
Neptu
otázku
Prázdniny
Spoj
nenud
Kubiku
BYCH
úspěch
říkají
městech
diskoté
vymys
profes
chleba
nikomu
cigarety
ideální
předměty
rozutekli
naměstí
Vltavy
vlády
humor
průmys
listopadu
Bal
Baví
Ex
Fil
Fer
KU
Kla
Kry
Krás
Ov
PC
ROD
SK
Sin
Tep
Ze
bla
bli
fon
filo
ház
klou
oto
obory
pav
skou
vr
visí
vstanu
zně
Čt
řád
##nt
##sla
##son
##ební
##bá
##pky
##vek
##cká
##čist
##čuji
##ňe
##NY
##stů
##ranu
##razi
##razí
neumím
dohro
pohy
postava
##tev
##tebo
projít
##nich
zabi
zabil
zažil
motor
měj
vyděla
vydělá
vyrob
##vobod
vet
vese
největ
nejkras
kterem
nemluv
leg
##ujem
prakt
přírod
příjemně
##istuje
##telka
podstat
##ovém
##mady
##čeka
napíšu
lídi
tyg
pozvala
radi
soubory
divné
pracuju
vlaku
##radl
##šími
##lečení
nechala
inteli
mohlo
bydlim
Zavo
Tele
volejbal
Karkulka
neznam
sestrou
druhém
témě
brý
Petrov
učitelky
snažit
polica
Podzim
manžela
holkama
draho
společně
sportov
autobusu
2008
veselé
uviděla
staví
slavnosti
hledá
tetou
vrátili
Milý
písmo
nejaký
býval
skupiny
informaci
firmu
firmy
dveří
Bardej
Domaž
Hlavní
dopravní
nepřítel
houby
strejda
legrace
uklízet
kavárny
cukrov
zajmav
současné
semestr
jediný
služby
chalup
##hůru
tělocvik
hnízdo
požadav
SS
Vary
Zv
anebo
bob
brát
bot
houp
kus
ková
nová
omá
pest
pec
plech
vé
úto
Čím
čis
člen
Škoda
šta
##ění
##dím
##dan
##drý
##sm
##sud
##sala
##ály
##plat
##žné
##ša
##šce
##jní
##óny
##DD
##LU
##fé
##SE
##enci
seděli
jež
##lex
##aka
nehod
dole
poklad
##kor
taki
##uda
##vaha
##vačka
vyro
vyko
vykou
kopec
##dete
obu
mila
rosy
odděl
odvez
přibli
přestá
přečet
##rum
##amarád
Jeji
čech
čepi
prý
spě
##čích
##istr
Tohle
kouz
Český
Čechy
Česke
vznik
vzhůru
Nes
líst
dobrých
životem
mysli
pracovala
říkala
domací
##žilo
ruské
čert
hodině
Kana
čaroděj
##hledu
sluneční
medi
##šelo
nebyly
jazyků
téma
chyby
těžke
stejnou
velkého
nesly
veliký
odpov
nemocná
Mamka
povid
otce
mladá
sednout
znamena
##bral
zahradu
rozumím
květinami
neuvě
cíli
císa
sáma
normalní
lásku
Stať
Čau
Tatinek
děláš
národů
elektr
koncert
krátké
důvodu
zjistili
řiká
vybrala
objevila
rozuměl
slouží
bratrancem
Voj
##amatuju
##enejší
spisovatel
##sledy
##pagety
znalosti
zapomněl
pozitivní
Uzbekistánu
Patri
Kazach
dvakrát
Herodes
zúčast
Brat
For
HRA
Ke
Kalou
Mnoho
Obě
Por
Sna
Val
Vol
Zim
az
bit
dé
dnu
eko
hád
lit
ozna
pt
pul
vim
vstav
šť
žel
##nov
##nuje
##sol
##tky
##tne
##zet
##ač
##oná
##ium
##ld
##vni
##šl
##čany
##AV
nak
nadá
jej
##ron
pomě
pojed
##níků
##atin
toje
##ráda
##kosti
##elka
##kus
##nie
##niční
takto
stí
střel
zac
zauj
zabí
chovat
chová
##těla
##are
##ádí
svuj
nejvy
budí
odmě
tech
nemam
mámě
##icích
Popis
Nahoře
praze
spím
všední
mana
tanec
těmi
chodské
výrob
kouřit
Nevě
##ubec
##rozum
##pravy
##pravit
kucha
cely
##radši
##spí
nějakého
kamarádku
Největší
hlavy
léta
boží
sluch
##ball
kluka
##enost
špatná
##hradu
stejný
##chyb
dárku
počítače
atak
univerzita
vysoká
dvěma
napsala
kultur
ostatním
Obvykle
počasi
Dobře
zeptala
Musí
Musíme
##atiky
##kamy
pěkný
##klady
podobná
Tomášovy
##fone
Studovala
změnit
metro
##NEC
dřevo
Jihla
Ameriky
turistů
nerozum
Viděl
tramvají
unavený
svíč
drogy
seriál
profe
Anglie
rakov
zabít
jeskyně
cvičení
důchodu
Vlast
sourozence
Betléma
##břeží
##starší
samozřej
Smetan
nejbližší
sešity
Dokonce
Da
EU
Mex
Nor
Rad
Sm
Slo
Sest
Sluš
VE
Zam
am
blizko
dy
jé
ošk
tám
zpo
zvě
zlý
zved
ŘEK
Škol
##meme
##zím
##zně
##hnu
##vin
##cen
##čá
##ÁD
##ňů
##NU
##SI
##stej
##enec
##rag
##raly
neex
##ráz
##ničky
zaznamená
##vapilo
vydá
vydr
vyrost
##jíst
##luji
##der
##dec
##avé
oblí
jaká
hodné
##mis
##mim
horo
holu
přitom
přikr
Ješte
domluv
##více
Počas
Pořád
prou
dědou
max
příspě
příjdu
výro
prázd
##bali
vzbud
zežlout
jiným
předná
začin
##rice
potřeba
říkali
##radou
stoho
skla
počet
Chce
vanoce
inform
rytí
častěji
dneš
box
důle
mluvila
voní
trené
klub
dovolena
váš
Vyprav
státy
států
písem
pořádně
nadher
rozhodně
rady
velikono
odpoví
světe
##hání
mladé
draky
panel
strašid
Mach
hlasy
jelikož
žádnou
hrál
postavu
postavy
##ickým
nezajím
pláži
SEM
králové
spokojená
škodí
kabát
knížky
Libí
komunika
nekdo
Barbu
prazdnin
krok
neviděla
nejlepším
Právě
matematiku
hledala
Německu
širo
provoz
pověst
III
funguje
americké
##cházeli
kuřecí
vzdál
kofola
bere
sestřenice
všichní
Minulý
zrc
##lorbal
zdravotní
zmrzlinu
facebooku
Kohou
Mnozí
Facebook
Pozdravuj
brýle
zežloutlo
Bí
Děla
Ha
Her
Jel
OB
Rada
Stej
Znám
bas
bio
bejt
cy
dží
had
klo
kilo
kino
omy
ohro
tari
ude
vas
vhod
vrch
zád
zlí
zcela
účast
ŠKO
##nak
##sad
##zer
##bat
##gran
##pý
##prá
##vily
##žíme
##žily
##řin
##řadí
##číme
##čkách
##DĚ
##RE
##ďte
##stan
##ouště
naz
nahoře
naoběd
##lec
##roda
##roti
nevi
##odní
progra
##kují
##nicí
strat
moř
##těz
##port
kocou
##božen
obslu
mim
nejdu
roste
##ance
hop
připomněli
přeji
##ovani
Postup
čekal
##káže
děv
kaši
##ována
##lém
tajem
rozh
##vák
věd
vzít
lety
pomů
jiní
dávat
dávají
násled
asist
##spíš
kamarádkami
##rech
smese
stanice
člověkem
libilo
bolí
##zích
Jaro
duch
duše
piš
nezná
vice
opu
dělali
novy
zajímavých
##paň
stálo
zdravím
vlastnosti
Evro
procházet
běžel
##OVI
Chodské
Chodíme
Líz
června
ulicích
kamaradka
Přesně
manželku
fun
Pane
dlouhou
akce
Muže
stylu
brány
smutné
smutný
suk
zavolala
sílu
letos
tábor
některých
kurzu
poznáš
Romové
hledali
KONEC
oblibené
území
taťkou
drahý
dokto
srpnu
zadarmo
Drážďanech
uvědom
Itálii
fyzi
lázně
okamžitě
potřebují
##jíždí
kostela
nezapomenu
František
učebnice
Skoro
akorát
chtít
dodnes
Neptun
Kubikula
dohromady
Kohoutek
31
Bý
Bouf
Cít
Dá
Dru
Evu
Fu
Hrá
Hol
Ital
Jde
Me
ME
Prav
Pes
Roc
Sej
Vlevo
Zví
bom
bre
cho
douf
doufam
et
fou
gr
hip
klad
lze
noví
sak
srov
schod
tvou
the
Řekl
Šmou
šam
ŽE
##nní
##dar
##mys
##az
##ař
##rek
##iz
##per
##vra
##šíme
##řů
##BY
##CEZ
##stři
##rana
nab
nazor
sejít
nekou
nebe
nebi
podo
poledne
##odpově
probí
##jek
char
chteli
vyhod
kosti
##voř
##vota
vej
##avy
mik
##adla
nejznám
rohu
##líp
##lína
hodní
dobří
host
hoši
##zela
přeje
##ruš
domova
Poh
čeho
češi
čechy
##ejte
##ujte
##mění
prud
prvé
pršelo
kaš
maz
hrali
rozliš
západ
##isti
výu
##váte
všechna
víš
mír
místech
notebo
poslou
poslala
dobrého
tyhle
maly
vlajku
Chtela
vanoční
krásne
##zaci
Nejen
Nejvíce
kontak
##eněj
hlavním
jezdim
bojí
volat
mněli
nebaví
pišu
Kofo
kluz
druhá
##razil
kamá
miluje
Marii
snažím
zdravými
volném
učili
##stále
teple
skončilo
rychlé
nemocní
povo
zimní
vypada
tátou
psat
plátů
Max
jejích
Milana
umřel
červené
hradby
Přesto
Přeju
uvidět
čekám
května
##ckého
milionu
několikrát
Oslav
bráchou
zato
nejaké
změnil
snim
studentů
studentka
sanit
##soby
turisty
židli
Hraju
Nejdříve
kámoš
salám
zeleninu
Víd
Vídeň
Nechci
listí
zahraniční
zábavy
##strast
blb
zaplatit
kdiš
nerv
lux
oblasti
výstavy
##zniny
pudeme
článek
absol
bolest
čestinu
Země
Itálie
nebudou
srdci
Egyptě
diskoteku
Většinou
šanci
Vyšehrad
řečeno
poskytl
potíže
zapoměla
Kore
potreb
úklid
téměř
Jejich
02
06
Ar
ALE
BI
JÍ
Jdu
Nek
Naví
Nyní
TV
Ven
Zak
há
hal
ju
jid
jemu
lov
pude
píš
rů
tým
tri
val
vstoup
vino
vubec
zej
zob
ztem
zvěd
ženu
##dl
##ínek
##sal
##sim
##tra
##tily
##zum
##bší
##rce
##oru
##áli
##ána
##vých
##vnitř
##OO
##OR
##čena
##LÁ
##NK
##ovar
naro
nalevo
jeteli
##rok
nesou
dostav
doprava
posti
##tely
##kar
##každ
produ
##nědlo
##nily
sti
zažila
chlé
##vané
vyšší
##adlo
nejstarší
odva
dobra
techno
přečtu
mockrát
název
##ick
lesí
lidech
Pojedu
žijou
pramen
Pravo
##dava
##ován
##ováni
mate
příde
chodíš
##šilo
kouří
věřit
krále
vzali
vzděla
vzadu
vzpomen
vzlét
Nepo
##čela
hezkých
##rii
souse
malých
malého
para
paře
divat
2012
##ověku
vařím
Kaž
dlouhá
rela
jezdila
def
meč
samot
nevý
vozy
Jana
možnosti
světlé
špatnou
odpočin
navzá
popsat
učitelkou
vůně
přátele
##stánu
##louchám
krku
Podě
1891
zimu
mladí
mladším
Nemoh
známky
plný
kulturní
štěně
měsíci
bílá
silnice
plavu
akci
Brzy
##tečné
chvíly
##logické
Studium
Joze
spolužák
skutečně
cizině
slyšel
svatek
skvělý
chutné
Levor
prezidenta
##vědčení
národní
supermark
pujdeme
obráz
obrázky
matematika
bohatý
##metrů
angličtinu
nemoci
zaměstnání
prostor
kuchyně
rozuměli
delší
barevné
kohoutek
Ježíš
chránit
povídáme
komplex
Interne
naposledy
nebudeme
nedaleko
soutěž
chvilku
Američ
charakteristika
zhnědlo
zalíbilo
vzdycky
Léto
průvodce
respekt
##lympi
domácnosti
břízy
spotřebovali
Spojené
oddělení
rytíř
navzájem
Levorova
04
3D
35
500
Ačko
DE
Dlouho
HOD
JI
JS
Kr
Koz
Lo
MA
Mou
Man
NI
Oprava
Pur
Sh
Sly
Tich
Však
aš
bon
blý
deti
florbal
gym
mes
nor
oří
opat
očim
plu
pyt
tvé
ulo
uče
víme
zlat
zkon
zkla
útery
úsmě
Čet
čl
žáci
##ěě
##ělo
##kři
##tt
##tve
##eka
##au
##ilej
##žná
##cent
##DI
##ft
##RI
##CO
##11
##las
##chle
##chat
##ovník
##ledu
##leta
porod
bytostí
prožil
##áma
##nis
##nické
zapo
##itím
##nora
##řive
vydali
vyčist
##art
korop
##volá
vever
něčem
obsah
misto
svát
budov
##děly
odjel
hoře
##lova
připad
přibuz
přeju
Jela
##iči
návr
náhodou
nářadí
jedná
##imo
Pom
##lání
Naštěstí
##tul
těšim
chodi
chodily
Takový
výkon
koukam
víte
##álních
Nedá
kulat
líbil
líbý
líbit
zeď
posil
semi
##zite
dětský
pozů
pozvat
poznala
soustrast
potká
potkali
divali
divám
díval
knize
Kate
konku
##pela
kraji
bydlení
##cházet
sluneč
devět
media
různými
volal
učiteli
mněla
piju
partne
Konec
slovy
větvi
chyba
chybu
přesol
přeskočil
pouště
učim
ukraj
Připrav
plan
historických
##kev
Horymí
povod
posloucham
poslouchali
sedět
##ustil
Chodové
strašidel
psala
školství
bílou
Prince
hrála
stavby
##drž
silný
zvlád
slavné
pěkná
fotek
kapsy
písmen
spolužáci
prohlíd
zachra
DOB
Vzpomí
místnosti
přátelský
jasně
mluvi
herec
způsobem
zvykla
Víc
##čané
chatě
tramva
Rose
šikov
vztahy
Malá
pravidelně
nádherné
kouzelnou
omlou
sociální
odpočívat
kofolu
komplik
obrovský
vikend
bordel
sledu
pravopisných
souhlasím
Japonsku
automob
diplomce
smích
nekolik
pyl
nebezpečné
Polsku
Marián
novější
sázel
neuděla
ovládání
jarní
treba
humanitní
hranolky
Ovšem
největším
plechových
nerozumně
Pravopis
očima
koroptve
38
Eli
Kat
LÉ
Mich
Nas
Om
Rok
Ste
Slu
Set
Svět
Tvá
Vpravo
Zdá
ZOO
bro
fol
jíme
kov
kas
kté
mra
pel
tal
ter
ták
uvo
udela
von
včet
zní
zbí
zdi
špagety
##nský
##dil
##ínka
##sce
##sila
##eš
##mat
##mit
##mít
##aa
##rus
##oro
##huje
##áků
##pka
##podob
##OL
##řata
##čk
##činky
##ózní
##stou
##enty
##rada
naho
sex
jeste
##lely
##liky
nešlo
doku
poho
##níka
##níku
bysme
prot
proz
##jezdu
stre
##lomou
chaty
##ski
vytr
vybud
kol
kome
##deček
##etrov
obed
sval
nejhor
hodim
odsou
teto
hotel
přiští
##ica
Pomá
školou
kamarat
##inace
kašt
mala
tahle
tajemně
##kými
zároveň
těšila
##tiku
##telně
prác
práva
kousek
vězení
##ubilej
bali
kuli
míň
poslal
dival
vlašt
dostanou
nějaky
spoluby
Kaf
končit
liška
všemu
mnohokrát
nevz
Tehdy
vona
dělaj
větve
Jedno
učitelku
Kdyz
police
polibek
zdravě
řešení
##ropetrov
půjde
155
rači
restaurací
památ
poslouchá
drak
obchody
obchodů
známá
tance
setka
veselými
žádná
miliony
neustále
##okrat
akti
Mužu
fale
##tečný
trag
podobně
podobný
##sedli
Karlově
log
normálně
mužete
královně
pohádku
##logii
Vaclav
suš
##TEL
zpěvačka
Tatry
ciziny
Jmenuji
nasní
tvoří
zavř
vratil
budoucna
##vedl
vojen
vojáky
poprve
obrázku
Červ
neznámí
dědečka
zeleniny
zelenina
nenech
padá
kalen
lyžovat
nelíbilo
ohně
jednoduché
ptáci
týdny
lavičce
psycho
##sáhle
legrační
poradit
Afriky
##desát
gramatiku
vstávat
událost
vyjad
křeslo
přinesl
Zdraví
Rychle
hrdin
fanta
Vietnam
okamži
##něpru
##něpropetrov
Silvestra
prohlédnout
Slovensko
podařilo
Andre
podnikatel
Jonatán
Svátky
pobytu
terorist
profesor
Film
Oběd
označ
kuchař
profesi
přikrčili
tarif
Navíc
Purkyně
09
BA
Bla
Ed
Hu
Mami
OS
Ota
Ostat
Pé
Pla
Pátek
Ry
Sim
Svou
TE
Vpředu
bran
hm
ham
krav
klik
kříž
pep
pstru
sne
tová
tvar
ucha
vit
vnitř
zk
zbud
úlo
##íny
##sní
##svít
##zni
##znu
##zoval
##aš
##ady
##gr
##gani
##hně
##ávat
##vim
##UP
##car
##JÍ
##VA
##stov
##stvi
##ovně
##raná
##rami
##ler
##rot
dota
pobav
poříd
##teři
propad
##nět
##něnka
takoví
zavod
##lostí
##itali
chra
##nete
##idu
##bych
##byli
vytá
##luví
##dečně
obsa
obklo
nejza
roků
##usy
odstěh
##nácti
##asy
přip
přiběh
náhle
nález
nábytek
nábožen
velko
lepe
Poprvé
čekali
školách
Mojí
spa
##obec
abyste
hral
hradě
zákon
muslim
##čivo
##vál
vzor
hezčí
míč
autě
poznal
kdysi
##bice
skoly
potkala
dívali
dívala
dívky
cestuje
Chtel
osud
kamarádama
kamarádům
##uper
čerti
krásných
indi
způ
strana
kralov
čast
autor
reg
důležite
zajímalo
mela
bavi
ticho
##chazí
Jack
nejlepších
tatin
Dopis
budoucí
dělam
novinky
navšte
kameny
stává
sms
baru
Přijela
##pire
kriti
dají
matur
##ména
obědě
##OVÁ
známých
důležitý
telefonu
Přes
Francii
JELI
odešel
cíle
mnoh
hledám
hledal
představení
Něm
Nějak
zvířátka
Brno
trap
všemi
lož
Jenže
zločin
chlapce
obliče
Čechů
tatínka
bývá
zaslou
možností
najdu
ruštinu
čápi
nevěděla
chytrá
zbytečně
medvěd
četné
vratila
Představ
zahrát
přátelství
pomohli
tancovali
šťastná
výborné
vojáci
pozorovali
srand
perfek
způsobil
##INCEZ
minim
tráva
oblékat
zkušeností
##išu
literatura
svíčky
pilně
zamilovala
##fici
##fier
nestud
spraved
červenci
lodi
dospělí
dospělá
pracovit
body
smažený
tmavé
události
chladno
facebook
navštivit
##xxxxxxxxxxxxxxxx
Kateřina
##XXXXXXXX
Vysoké
bramborov
klíč
motýly
medvědi
jezera
pejsek
strýc
Babiš
třpytily
zákony
Saxana
Irska
Šebestová
KDYŽ
Téma
Ferd
##razilo
vesele
inteligent
pecka
obuvi
neuvěři
Evropa
Bouffier
gril
Nedávno
03
45
90
Ang
Dál
HA
Jar
Lá
Láz
Pl
Pov
Past
PRA
Píšu
Přá
Si
Super
Vů
Víš
balí
beru
det
graf
kit
nohu
pé
pád
pru
pala
plej
san
sraz
tis
titu
ume
uděl
vst
vin
vtom
vším
zčer
zkam
Čas
##nalo
##naly
##kát
##uz
##tně
##tře
##mal
##zt
##zká
##zují
##bít
##rest
##oprav
##hned
##vým
##ženo
##škách
##jíme
##jdou
##čen
##LÍ
##ňte
##ňost
##fika
##II
##MU
##JI
##ďar
##land
##ence
##ous
##chal
##ovej
naštěstí
nahlas
sever
jesli
##livě
nerad
posta
##amě
##ráme
##ránu
takových
morav
moment
chvili
##vací
##ident
##volu
##deř
##ere
##eri
obět
mista
nejlíp
roh
odkaz
teor
přestat
moct
jedou
jedny
cokoliv
Poté
čekala
##štině
žiji
Narod
Mohla
pršet
##nuli
prach
kate
##daj
male
hračky
hrajou
těší
těles
##tik
musime
výt
výsled
výběr
##dilo
Čechach
věž
věděla
vzni
vzty
##olf
##haj
líbila
##zici
začnu
pozna
Jakub
pali
patek
pastu
pastý
divo
mysleli
říci
cestují
zdroj
skl
skři
oslava
ruka
hodinách
##resi
##dář
liší
Stře
vysvědčení
bavilo
různe
Tedy
##statky
cibu
parkovi
tatinka
Dostal
Kobyla
vodop
troj
sestře
stroj
navr
snažila
přesvěd
stejne
řece
týká
194
učil
ukli
plane
plamen
veliká
patřili
patřily
##lejte
známé
plod
Oblečení
setkala
##rgy
zaklad
silvest
##ickými
milió
zvlad
slavit
##pomněl
aktu
##hledanou
Britá
Muze
Mužeme
Karlových
chlapcích
nejaky
hrozné
##nikovat
maminky
snima
břeh
března
Libi
vratit
slohová
##řemi
Začala
knihovně
cukr
neviděl
polevka
polevku
reklamu
reklamy
demokrat
Moskvy
pamatky
bruslí
zvláště
vezmu
potravin
dvoj
Diky
zámku
##slední
křik
válce
války
dopl
Malý
strejdou
vláda
zajimavé
kytky
stez
žívot
pomáhal
vzpomínali
##cházela
vyzkou
seznámit
vyjád
apod
hlubo
berou
mláde
opalovat
Bohdan
rusky
sympatický
fyz
nechápu
arm
lázní
košík
Většina
vyprávě
kazdý
prodlou
Staroměstské
Seznám
umožňuje
rostliny
Francouz
guláš
nelze
jednotliv
##odenní
Fazo
neznamená
přibližně
opuště
Sejdeme
absolv
##NKOVA
Jozef
LÉTO
včetně
JELINKOVA
perfektní
Ferdinan
300
Au
At
Ben
Bil
Bůh
Chor
Dět
Fak
Gab
Hled
Just
Kom
Mer
Mez
Osob
Otec
Olomou
STA
Vez
Vstá
ble
bát
bili
dlu
dáme
hav
ihned
jě
lva
mem
mrz
nudu
oran
pila
pěst
rí
rek
sná
uví
vrtu
zřejmě
úkoli
řep
Šp
špí
žol
##dů
##kě
##krat
##tám
##bet
##gh
##okra
##hlav
##hnul
##álu
##ici
##pé
##ES
##žovali
##šen
##řát
##řená
##řství
##čuje
##ůraz
##ňi
##fle
##fie
##TI
##HA
##lanec
##ovkou
nakr
seh
jely
##ling
nepat
došli
poně
pono
##tože
##kach
proha
proste
prodej
##ími
##něn
##rác
##ráti
##cest
##elu
chá
chov
##řilost
##nact
##ardy
##ádě
koři
komen
komí
##adit
nejra
nejroz
nejradši
nejspíš
hodna
odjela
##lová
přiklad
přez
nemohu
neboť
Poli
česku
##ejší
##stavala
pred
prachy
sprá
kavar
##isem
sporty
abys
příš
taneční
rozk
rozvoj
závě
živote
##telný
##čite
koukal
New
bažanti
##pravu
napravo
líde
##vec
dobrovol
jinými
přednost
dáva
##rika
##rista
##bur
součá
malování
pracovali
dív
dívá
říkat
říkám
##patky
stolní
cestovala
zemská
koupim
koupili
##myšl
nechut
mohly
jmenem
nepou
vždyť
##běhy
dovnitř
tip
##chodem
jazykem
trvalo
tričko
ciká
pravdě
pije
druhým
též
##táček
slovan
##rozeniny
sokoly
zajímavého
těžky
prvního
##pady
smlou
##vést
volného
přála
##učil
ukrývá
uspo
##hlasím
modrá
patře
patnáct
##háněli
lepši
otci
zelená
zelenou
2006
zahrady
telefo
vypouště
bílí
veselých
kamaradkou
Pani
plavání
##znala
miliard
počítačem
lehce
akvá
ovce
odpověděl
podobného
povída
##šema
loni
NATO
zavoněly
##šetř
skupin
Tatínek
rády
nohou
skvěle
čisto
myslíte
##OUP
PRÁ
PRINCEZ
##vedla
koncerty
nevidím
##letěl
dědečkovi
##ležitost
##ruhé
spojených
Kubu
lekce
projevy
prostředky
city
fotografie
uvařit
zprávu
MOC
blbo
znát
pochopit
nedávno
rovnou
nestalo
získá
naučil
července
kuchyni
ruzné
zlodě
letišti
malin
článku
Ukrajiny
kontrolu
spisova
PROTO
navštěvovat
přatel
zachránil
zájmy
volání
Egypta
chaloup
romant
potřebuji
koupaliště
symbol
posílat
stýská
radostí
bramborový
adresa
nerozuměla
duležité
Letos
1992
Nebudu
Petřín
zašuměly
RODIČ
Petrových
Zvlá
manaže
Jihlava
Slušnost
maxim
Barbucha
džíny
asistent
Venda
##každé
talent
##ubilejní
vyjadř
způsoby
Pastý
36
Ad
Bi
Car
Dala
Kdi
KAR
Mc
Nelí
Obec
Olympi
Rá
Su
SM
Sed
SME
TI
Tře
The
Vál
Venku
ZŠ
Zítra
ag
bohu
fe
fanou
hov
hově
hesky
klá
lít
ny
oznám
ohe
ofici
sh
sleč
td
tém
utr
vší
vari
zdo
úrov
úřed
února
čar
šok
##kci
##ktor
##sů
##slím
##ten
##tam
##tit
##tovat
##zat
##zemí
##bro
##blík
##rí
##ris
##rovi
##áž
##álil
##ite
##iště
##pen
##pku
##pád
##víme
##UJE
##ZE
##šovat
##jo
##jé
##jsem
##čo
##čené
##čková
##óó
##lak
##stvím
##stanou
##chů
##rava
##razit
seg
seš
sedi
neho
neče
nedeli
dooprav
poš
##níkem
##tofon
prote
proží
propa
##ceti
##all
##alé
##kur
zava
zaby
zaříd
mostu
##ilu
vymě
vyrazili
##arda
##ádka
kočky
kober
vešk
obec
občany
migran
svem
nejm
nejprve
##ant
##anc
##anů
##anel
##eza
##eník
hodil
odnes
##návat
honě
horu
přijem
přihlá
připoj
##ičí
nábřeží
jedla
jedině
más
##víhaly
##nym
##štění
##štím
Mohl
prsty
princi
prasátka
##káš
##tah
kadeř
##daleko
spole
rozpo
rozděl
rozděli
zástup
##sech
Taký
Toki
podvod
právo
kouknout
##ěkých
vznika
##žík
Nedaleko
baby
napína
##ovice
mírně
líp
##veče
dobrej
jiném
předtím
##zik
začaly
začiná
přál
dáv
časem
##buji
malovat
papr
dívam
##skými
zdůraz
zdvíhaly
nějakých
koupí
vaší
bezpe
konat
konzer
jmenovala
jídlem
jezdíš
bojím
detek
delal
vysko
bavíme
samá
jazyce
trvat
parf
Doporu
Koněpru
světle
špatného
##tář
bratři
Petro
zajímavou
pokojí
níz
médi
vážím
policii
Českého
1950
třicet
plac
teplá
velikonoce
vypadalo
draka
běžela
vyhled
Chodí
společného
mužů
pomáhali
kulturou
důležitější
štěkot
bílý
pev
květina
novými
problemů
JEN
cír
lehnout
vlka
vrátila
pláž
stres
nemáte
cele
problémů
uměle
cizinec
změnila
Republika
metra
vrací
Čína
Číny
najit
Liška
Žije
##incovna
##ějš
##bert
komunikovat
budoucnu
Abych
Náv
here
nabízí
cítit
demokra
prochaz
matematiky
zjistila
počitači
prezidentka
hřišti
vezme
ohňost
spadla
žadný
vzduchu
unavená
týdně
proved
každému
angličtiny
využí
nervo
pomocí
vysvětlit
lodě
omluv
levnější
podivat
jeskynní
schopni
rozumí
organizace
Jeník
sestřen
strávit
Zdravím
Drážďan
##lorus
zdravotnictví
nesmysl
stupňů
svetr
Bella
umyju
záchran
společenské
tábora
působí
ostrově
ubytování
onemocní
vítr
nestačí
radosti
snídani
holčička
Italii
Písku
narození
podlaha
přijímací
nemůžeme
skladby
Chutná
atmosfé
Severního
blaho
tygři
Bardejov
střelce
strašidlech
komunikace
Stejně
zádech
defin
konkuren
ukrajin
spolubydlí
aktivit
##sáhlejší
##rgyz
Británie
vešker
400
BÝ
FI
Hed
IV
Iva
KA
Kan
Král
MÍ
NO
Ot
OD
Ony
Ond
Přem
PŘE
TU
TAM
Ur
Zů
Zrovna
Zlatý
aka
ačko
bak
bily
cca
dých
htt
lim
lust
ony
okou
ping
rty
smi
slů
scé
uprav
upad
vsi
zě
zím
zje
Čáp
žal
##nci
##ktu
##sl
##sel
##sej
##slav
##tku
##atech
##bky
##hno
##áva
##iko
##lf
##lým
##éé
##ému
##pro
##vic
##ckou
##cke
##ckých
##šků
##jte
##jmu
##čká
##DY
##ŘI
##VE
##VI
##VĚ
##stroj
##chi
##chý
##chla
##ovce
##raži
nase
najíst
##ley
##lev
##lete
##livost
##rosil
net
neří
nesti
nepom
dos
doka
pode
poly
polet
##odle
##atě
topit
##tora
##kalo
##kaři
procházeli
##kosí
##kula
##niho
stmí
zapom
zabav
zaříz
##ité
mor
##tější
koleč
koment
##voří
##box
občané
nejméně
##usu
##and
##antní
##lynu
##dělat
hodit
odjezd
teť
##asný
##loval
jedená
domněnka
##ovají
rodice
Pon
českým
##štní
Naopak
##tuna
##tují
pras
všeobec
##obí
##ováno
materi
příběhy
tašky
hranice
rozlou
rozma
zákla
zásad
chodime
Takové
jahod
koukali
##menuje
##mentu
2000
vědí
vína
vzpom
vzpomněli
##žíš
##uber
##čeho
napí
hezka
##ázel
míru
lídí
líbily
zed
noze
človeka
předem
začátek
tyčí
##stavu
pozem
poznám
dával
Jakmile
soudce
vide
##jímav
div
##ovými
stolem
cestoval
cestujeme
dosti
nějakém
kamarádce
vaz
vago
vařila
vaření
třetím
konf
venkově
statek
stanici
hlavou
Myslela
Začí
vyslov
oblíbenou
Ted
Teším
voli
trvala
pravé
piva
Docela
klukem
sestři
pohad
Petře
zajímave
prvních
níc
popula
smů
zdravá
##končí
##astro
pořádek
dárků
rozhodnout
132
usmě
krk
krim
150
zkoušek
matky
##busem
svěd
##naté
vypadají
čtvr
Tenhle
návratu
Nemůžu
Chodský
zelený
zapnu
Milanem
překvapilo
Naproti
setká
červnu
kamaradů
kamaradky
pečivo
schůz
uvidím
manželem
plavky
objevy
objevil
zvla
odejít
odešly
nezapomě
##hledem
##hledná
odpovědět
Milan2
Domov
posledních
zkusit
komfor
cela
celej
##ovaných
##ovaným
připravím
připravit
připravovat
surov
Čechová
překvapená
síť
rákosí
##prac
proslu
cizince
slyším
přemyš
Čín
najde
##ENÍ
snimi
tvor
březnu
zavřít
dřeva
obrazku
dcerou
voják
letadlem
nima
pohodě
zelenin
pamatuju
zivot
báje
zjistil
Viděla
přítelkyně
vezmeme
používat
zastavit
stromech
davá
žadné
muzea
Lukáš
Pavlov
zamiloval
Bělorus
chlebí
zatímco
dopadne
každe
získa
poradí
nádherná
##zvem
alkoholu
vzpomínám
jízdenku
Trna
slepice
##vejte
ozdob
magister
pudem
ukázat
Říká
rostou
Ukrajině
pojmen
bezdomovce
bezdomovci
křesle
##dýž
strávil
průběhu
automat
oboru
Neza
obyčejně
domeček
Univerzita
hlídat
operá
Staré
použivat
Sobo
měsiců
Pardu
ňáký
slunný
tváře
chybět
dubna
splnil
Srdečně
doporučuji
motýli
uklízí
zbraně
šun
křeh
omez
roztomilé
Rano
připomíná
krize
Kluci
dědovi
Půjdu
neuměl
policaj
požadavkům
kovář
pestré
čepice
Nevěděla
Mexiko
holubi
Počasí
Vypravování
cykli
kilometrů
nabid
##odpověd
charitu
luxus
zejména
lesích
supermarketu
Edw
pstruzi
Láska
Ferdinand
Gabri
kořistí
oheň
80
Alkoho
CZ
DI
DK
Dněpropetrov
Hou
Hel
Joh
Kol
Které
LE
Lis
Les
MĚ
Nia
Ost
Ode
PAN
Rou
Ras
Tou
Tím
Tří
War
aha
gde
hi
hes
kg
lak
látka
mň
mak
oně
plí
ptal
rud
rekl
slíb
snám
tí
tw
udr
ušet
vd
vje
vlo
zo
zmí
záda
čár
Ře
Řek
řada
řadě
Šaty
šé
šup
španěl
Žena
ža
##nodu
##dla
##dku
##kly
##uš
##íla
##sni
##slám
##til
##zra
##aně
##bát
##rný
##rná
##yl
##áře
##ákem
##ij
##ivní
##ptal
##působ
##žrav
##šná
##šuje
##řené
##činek
##DU
##LK
##ÁM
##ňky
##xe
##wa
##ČKA
##střili
##ouch
##chová
##choz
##ovic
##raně
##ralo
##radi
naf
najed
naladu
sel
##livá
##aku
nere
doč
poji
pomu
porov
##amy
##níček
##kazy
pronika
jseme
##ámi
##cek
takovy
stry
stříd
zaří
zapomněli
##loj
##itra
choval
měnit
##net
sidí
##cim
vydal
##poli
komi
vec
vece
veřej
##avat
obloha
nejmen
nejsme
jake
##anka
##anda
budova
odkud
##náš
test
tera
přihod
přisp
přidá
##iček
názvem
lete
levé
lidského
Pole
češ
česke
##ysla
prej
pres
##nují
prak
##dane
maza
malej
přístup
jíné
taj
taška
rozlo
jakoby
##číst
záli
zása
##telná
výšky
podni
podrob
prácí
všechný
tenčí
nijak
vědy
věděli
některá
##rozumí
kulatý
mích
tuhle
začnou
jisto
dávám
padesát
poté
potvr
divam
řídit
zemře
sklu
skrom
osla
osvět
kamarádovi
necha
ruky
vaři
třech
krásy
insp
češtinou
rodičovské
jmenuji
##bička
nepod
neplatí
bydlit
bydlel
bydleli
bydlíme
hlavního
##otbal
jídlu
důvě
##valý
meli
nevin
mluvnice
voň
televizí
trp
pravý
pravdi
možno
špatne
pohár
slovní
vietnam
##hraje
odpočinou
větví
chytal
chytr
opravuje
kampaň
stáří
syr
píší
Rusové
Přijel
velkém
usil
krém
teplý
udělam
daří
rané
model
modrý
zkouš
zeměděl
nedorozum
Každá
poved
vypadal
poslouchal
tátovi
##ustili
Nemus
obchodech
napsáno
kartu
sobí
##výcar
překrás
zůstá
červená
červenou
osoba
kamaradami
večeří
postavil
Musel
stavební
slavíme
cíly
##též
nejhez
normal
mužeš
zlomil
Šemíka
Šemíkem
lásce
nejdříve
dary
prohli
divadel
sněm
Samo
svah
vraž
price
Martina
otevřít
zbystřili
škody
Tyto
nakupuju
bratrovi
držet
Bydlí
Bydlim
statu
##kejte
šťastně
výborný
##ckým
kroje
sousedovi
hospodě
směrem
##rážka
Celkem
samozd
Černá
řidší
nerozumím
pomaha
navštívili
kámoše
kámoška
cítí
čísla
prochazky
Moskva
Míla
Sport
báb
##nická
zjistit
trávu
sladkosti
počitače
zastavil
jednodušší
literatury
Boží
nepříjem
stránky
stříbr
objeveny
slaví
nemoce
chudým
získat
pomáhám
cigaret
shromáždily
Africe
##cházejí
ochot
starosti
Ježíšek
bratranci
naměsti
koláč
seznámila
napadlo
Elze
Pepík
považ
dostaneš
tradici
mládí
kratší
zlepšit
Josefovi
zájmem
Strana
Chyškách
utrat
srdcem
energie
znaků
hubený
slunci
horach
tvaru
kredit
ranní
naštve
Syblík
dokáže
sněhulá
VŠE
leze
buchty
kanceláře
PŘÍ
sledovat
zážitky
hřbit
vsechno
Štědrý
dějepis
Vodafone
zvuk
nešťast
oceán
Španělska
měkčí
kohoutka
hvězda
zdvořilost
novinová
Italie
Kristina
pivovar
nejoblibenější
##0000000000000000
batoh
klouza
znějí
pohyb
cukroví
Kanadě
Kazachstanu
Fortuna
Pors
poměrně
výrobky
Vlastně
Smr
vyrostlo
klobou
tajemství
Hráli
kluzčí
vzlétlo
relax
Tichá
členy
návrší
nahoru
Vůbec
skřiň
parkoviště
Fazolína
Chorvat
oranž
žoldá
hovězí
doopravdy
paprsky
okouz
Ostrav
51
600
AU
AT
Alen
Bob
Dva
Dej
Dovol
Eu
Elek
Elz
Fili
Kamarád
KOUP
LET
Mir
Mimo
Pc
Puj
RAD
Sví
TA
Ter
Uči
Vep
Váš
VEL
ZE
Zde
aj
bůh
dlo
dalo
drob
fit
gratu
jdem
jidla
kys
kami
lůž
latin
mými
mari
opo
ohled
shod
skal
třemi
ubo
ukol
ubr
vina
zbyt
zbý
Úvaha
úko
útul
ČT
čum
ňák
šte
šet
ŽI
Žád
##ndu
##kdy
##koví
##ua
##smus
##ee
##zal
##gná
##rim
##hr
##áá
##áni
##áry
##ile
##leni
##éch
##pení
##vist
##žce
##cm
##čat
##čovat
##čki
##PO
##ŠÍ
##TĚ
##RD
##NOU
##MŮ
##ťi
##STE
##30
##stroje
nastav
najim
sez
segra
##leb
##line
netu
nese
nejed
nedělá
dolu
dodá
##odo
##atá
##atý
prodava
##hot
stři
stanu
zaři
zajem
zabit
zažitek
##ity
želez
##mech
chte
##ilý
měří
městu
##řivý
##skí
vyna
vylep
vyšli
vybere
##deji
něž
něčím
##bony
obe
svy
svátku
jakmile
##líte
##usi
odjet
hoke
##lovali
##zejí
přestav
##ruje
##dolí
jedním
##ima
nemáš
málem
lidma
Poprve
Poslední
##zda
##zdar
žijeme
prv
prazd
##stop
##isi
přírodní
hrady
rozsvít
záhad
těšil
##telství
Takhle
výletě
##hodné
tennis
můz
věnovat
##álního
Než
letí
bara
napsa
hezke
posu
poslu
poslech
poslali
dobrým
předpo
##zium
dětského
##bují
součast
malým
malém
pap
divala
diari
pracuji
##hují
díl
televí
cestov
##jují
sklen
##náme
##entní
osoby
ruční
krásného
Nejsem
jehož
nepro
bydlila
##ůzu
revolu
probě
dešt
##ngol
různych
cig
parta
Koně
světové
nezmi
nezbyt
nezlob
sloven
sloves
opery
##kove
##kovým
filmi
koledy
kolejí
kolegy
popu
stála
státě
dvanáct
stare
starého
učitelko
Vypad
Chtěli
Chtějí
píse
196
obleču
Přišel
Přijdu
plakat
půjdou
raz
rach
rychlost
krasně
Podí
Těšim
Těšila
oteví
##níkům
čtver
paměti
##emík
lepé
táty
dražší
##pích
Chodil
Chodili
známe
nepochop
nepořád
kartáček
pomáhala
pomáhají
zůstanu
##vadlo
veselo
vámi
Nosí
jinému
pero
Přek
Přehledná
schá
čekáme
Paři
aktivní
Něko
Něco
plány
##četl
komb
zlomen
snadno
smutno
týdenní
Velký
##kret
bydlíš
Samoz
změnilo
##zubí
POP
POT
POH
nechtěli
informací
nevěděli
medví
pozdravíme
firma
klidný
##ženku
anděla
nejenom
salat
poznáním
Národ
Národní
srandu
obrázek
##INA
kopce
řidiče
pomahat
důvodů
neznámý
zvyknout
Horá
šesti
Práce
bruslích
##nickou
oblékám
zvlášť
řikal
nedal
plyn
úspěšný
speciální
specialní
zábavná
kavu
tvrdá
zprávy
pták
namal
bohatou
čokolad
ukazuje
naučí
houb
papíru
Pavel
pochopil
zamilovali
angličtina
nemocí
chleb
legraci
lodí
žívota
hudeb
těmto
skákat
nemuže
jízdenky
výstavu
nebezpe
Ture
##zninách
nechodí
pořadku
ničí
orli
pojď
svatbu
bolesti
uklidím
Zeman
tisíce
##sledek
domečky
přestěhovat
přestěhoval
##hadka
nemaji
##ležitejší
příbuzní
potok
rozumnět
Rozhodl
katastro
##škole
Popelka
klasické
klasickou
jestřá
symbolem
Kohout
fial
univerzite
vampire
čerstvé
lyžař
ukončení
Navští
PŘI
odpočinuli
mléko
utekl
obdivovali
dokázal
dějiny
Seznam
neděle
sluníčko
poděk
generace
potěší
Julie
podmínky
kroužek
Udělala
soukrom
tatínkovi
Existuje
KUBA
vydělávat
drahokamy
Domažlic
štast
císař
nejvyšší
Smetanovo
Rock
vejce
nejznámější
povolání
chléb
pařezy
tramvaje
folklo
Péťa
Sims
nejzajímav
náboženství
ložnice
zkameně
Justin
příšer
PROTOŽE
RODIČE
Adama
propast
zdůrazň
žalud
jedenáct
Alkohol
pronikavý
odpočinout
Porsche
Elzé
Vepředu
diaries
Ali
Bav
Bul
DU
Dan
Dana
DDD
Hle
JA
Jdeme
MC
Men
Novo
Opra
Organi
PA
Ples
RÁD
Sto
Stě
San
Tá
Tv
Tro
Učím
VLK
WC
Yor
ZÁ
Zku
ae
ato
agen
ben
dep
frá
fet
fron
granu
hel
hmy
klep
kec
kles
kradou
lvy
mím
odě
ori
okup
okol
ocit
pliš
sno
sále
slib
srazilo
uka
ukoli
vrá
vad
vnu
vadi
ww
út
úc
úpr
ČS
ČV
ČER
čich
čelo
šav
šor
šika
šust
šed
##ěť
##dav
##kí
##ks
##sili
##tim
##zne
##bět
##brad
##blko
##gor
##rd
##rovat
##áka
##ány
##ásek
##iň
##if
##ldá
##ék
##ést
##pci
##pan
##vel
##vení
##žená
##žliv
##škol
##jším
##jenou
##čů
##čině
##čeno
##čkové
##ALA
##ÁT
##ňí
##fr
##fan
##NÁ
##NÉ
##58
##laky
##stku
##stil
##ster
##stvu
##ouč
##raní
nah
nalé
nabi
nastup
nalez
naveče
sebere
jestě
##lily
##akce
nevá
neve
nestane
jsen
doko
dohod
doraz
dojít
dosá
dokola
por
poště
pošt
pong
porozumě
##iný
##teho
##níny
byty
##atí
##tof
##kaly
##kazi
proná
prospě
propag
##něna
##ráš
##kop
##kost
##hone
##hony
##udr
stím
stul
zapomen
##nos
##noc
##mek
##meba
mět
##vani
##vaná
##netofon
##žejí
sim
vyf
vynika
konala
##lum
##vosti
vede
##avř
nejdou
jaky
role
##šeptal
dobro
##asu
##asná
##lovek
připadá
nástup
jedl
lesk
levně
com
rodí
rodné
neboli
Poč
Pojedeme
Pohadka
##yslím
žiraf
Moldá
prí
premi
##stoj
##vělých
spůsob
##tana
kapela
všecko
mul
příjde
příjemný
denním
##sici
rozklád
životy
##istují
##ladší
kamarádek
choděj
jaz
podá
podruhé
Profe
prázninách
koukala
všechní
můze
nig
##mali
věří
vídeň
vzác
##rozu
líbylo
pomník
tuří
turna
semse
kterému
pozoru
souvis
vidíme
řeknou
diaman
říkáme
cestovaní
sklo
skamarád
Eva2
Verag
černá
vanil
inžený
hodinky
konstru
daly
čau
1000
##zdninach
##žely
léčeb
vždycký
liškou
rekor
nevíme
nevšim
mluvít
mluvíme
##chají
Teť
Jablko
trna
trička
pravid
pravěkých
možne
duh
pisto
nezam
vodní
druhej
##tách
##kovo
poplat
milé
učitelce
váleč
Vybra
##nějších
##konal
počítat
##mostí
přijedeme
##zof
učíme
třida
ukliz
Tajemný
okrá
Přiletě
##mání
uprch
nesná
Evička
zeměpis
krasna
krasny
krasných
matku
nedostal
Těž
pove
minuty
tátu
sedmi
Nemo
vyhov
oběvil
strašný
kari
tanci
zapla
lesu
##význam
Oblíb
Např
setkal
podívám
buř
zeptali
horký
Především
hrázi
čekam
nemohou
##kame
vánocích
slavnost
kamarada
představi
rychleji
vrátí
penězo
povídali
posledním
Příko
párky
zlobí
Šemíkovy
většinu
sobota
##ovanou
Stačí
obyvateli
spoluža
narodí
obědvala
býl
skupině
##TER
zpěvá
Honzí
Honzo
slyšela
Republiku
děláte
ostatními
vrace
bazén
##inosti
zajima
části
otevře
Tyhle
pozdravím
zjistí
##šenost
zahrad
zahnat
zahléd
##ingu
některý
fotoa
hnědo
slon
složit
statní
šťastní
nekdy
výborná
elektro
poznávají
skříni
krokod
Náhle
sousedových
hospodář
Celá
samoob
ovoc
důvodem
nepřipomněli
pamatovat
knížeti
zije
vánočních
bojovat
sladší
sladkého
Německo
BYL
tramvaj
tramvaji
úspěšně
krajina
čistím
tvrdí
jednoduše
centrum
svítilo
hlouby
válku
povědět
vymal
úzkými
vyučit
tradič
naučila
banky
Afg
Plzně
výstavě
Cestování
Tuni
klidu
částku
bodů
kavárně
malička
Jeníček
pekle
ukázal
Řídí
rostla
Davida
dozvěděl
dozvědět
orly
bolelo
rezer
přatele
obraze
dostává
zdálo
Nicméně
východ
Orest
tvuj
sourozenci
knedlíky
knedliky
hodnoty
řidiči
CHOD
Piráti
datum
úžasné
Polska
basketbal
Matka
tvary
německé
táboře
vybavení
politické
tlustý
určité
vytvořili
původně
jezero
##roslav
čokoládu
plyšák
závody
muziku
palce
zastávku
vyborně
Potřebuju
vzhledem
adresu
zajíci
pizzu
Kyrgyz
pohodlné
Kniha
plot
návštěvník
negativní
bundu
hlodavce
hromad
přiletěli
stěhoval
podstatě
milanem
přečetl
Zimní
svíčkovou
rakovinu
Slohová
Sestra
ambi
provozu
programu
Postupně
děvčata
pomůžou
Lízinka
sukně
##mysli
vzdělaní
Poděbra
mesic
pozůstatky
Princezna
Ostatní
dotaz
obklop
velkomě
tatinkem
pracovitý
Plzeň
nejrozsáhlejší
zloděje
KARKU
parfém
Koněpruské
spolubydlící
poletovaly
základě
konflik
křehčí
Dněpropetrovsk
zkamenělé
Elzéard
granule
www
ČVUT
Moldávi
Veragin
350
42
61
ANO
Bru
Brad
Cí
Dám
Dům
Dali
Hus
JO
JM
Jam
Jič
Jubilejní
Kal
Kama
Kali
Las
Latin
Ml
MP
Mor
NÁ
Nád
Ono
Pán
PES
RE
Rum
Sem
Sní
Sme
Svat
Svobod
Umí
Ver
Ves
Vrát
Zlat
Zách
ang
arab
bid
brig
dud
dit
džu
elf
golf
hů
heb
hlíd
jj
kle
kně
kry
menu
neme
ole
oní
pátku
ples
rou
sc
sru
tj
talí
uci
vč
vlevo
web
zle
zid
zlé
zata
úvod
ču
Řid
Švýcar
šle
šlí
Žil
žák
žlout
žralo
##nný
##noval
##dovi
##když
##kdo
##ser
##sné
##tin
##tud
##tan
##mů
##mné
##zdě
##zovali
##ble
##bách
##ger
##ona
##hlo
##har
##hát
##halo
##áři
##ište
##lený
##pce
##vinu
##vené
##UM
##žne
##žnou
##ženy
##clava
##šin
##šnou
##jmy
##čni
##činy
##čená
##čený
##fekt
##NAM
##KI
##KTO
##ťák
##VÍ
##we
##lady
##stor
##stalo
##eném
##oun
##ouk
##ouš
##chli
##chova
##ovod
##ovid
##ovny
##oved
##rací
naka
našim
sež
##lilo
neop
dot
dosa
dorozumí
poni
poru
pozd
porat
pochyb
##teku
##níčku
##tosti
prona
prožily
##něla
##kyni
##kuje
##kupe
##kujeme
takovým
staty
zapad
zabý
##los
##lozubí
chů
chit
##těl
sis
##říže
##post
kor
koř
kopa
košili
##luž
##vory
##erou
##nému
oblo
obrát
obtí
obvyk
##adila
##lízí
budík
hodili
oddech
teh
testy
##miň
##asně
##átní
##átkách
přiro
přišly
přirodu
předu
náše
kterí
##dost
##dobi
##dopád
jediná
##imí
neměly
levné
ležet
##orld
Polé
Počít
užila
##lární
Naši
Narozeniny
Mon
spala
kaše
##ise
##louz
příběhu
jíný
tašku
deně
rozp
rozvo
těla
##tilo
##tiva
musej
studené
studujeme
##telem
##ždí
javory
Toho
výno
výsledek
Prob
Program
kousky
Česky
vědet
vzp
vzpomněl
Nebylo
##český
bater
kuř
chtěly
mínus
##ves
pomlá
začít
##bile
radá
vidim
video
viděly
celí
celým
diš
disk
pracujou
každým
dílo
řídí
domac
stolek
stopy
skej
nějakým
osmi
ruch
##žují
vaš
##vují
info
Kabát
##rodiče
starost
starají
ryba
nepřá
nepamatuju
kraje
kraja
bydlely
Myslí
lito
tomhle
##hledy
Stý
##ngeli
samí
samy
různě
tito
mluvené
##chael
učitelé
cizi
parla
Kost
světé
klubí
sestr
druhého
odpočinek
novým
sokol
zajímavě
koleg
miluješ
Vystoup
přesko
stejná
večeru
řeší
pouť
barvou
vlastním
##most
198
učít
ukradl
rozhodne
plast
krve
udělalo
rana
zamyslet
potřeboval
potřebovali
odpove
krasne
Těší
sebevra
přijdou
přijdeš
minulosti
paměť
otc
sedím
znamé
obchodního
kartou
Líbilo
osobností
Některé
návštěva
##růza
počítačová
slavili
teti
Milanovy
##ulta
010
trak
středně
povídat
Příběh
##četla
Oslava
normalně
znova
lázeň
Student
##běhl
bráškou
stěně
telefonní
psací
prohlá
##nejnej
Velká
býlo
hrozný
skupinou
prosim
cizinci
Základ
najdeme
najdou
skvělá
##gog
studenta
##zác
DOMA
otevřela
zbyteč
##sitě
zavřeli
Alp
Alena
Žiju
drží
hnědý
výbornou
##SKO
jistá
Začalo
Anděl
moud
knihovnu
Buděj
Celé
cítil
##demor
zpívá
zivo
##častěji
Miky
Nechal
sladké
přítelem
lekl
chaos
davat
týdnu
oblibený
čokoladu
stříbro
zaplatil
Pavla
objevily
psych
vládě
správný
kytaru
tradic
naučili
ekonomické
fungující
zvonek
řikají
neobvyk
předmětů
nevadilo
oblastí
nemužu
jízda
potřeby
ruzných
Harryho
vybar
typické
lamp
povahu
tmavě
apak
##raft
přinesla
upřímně
zrezi
kvalitní
Orlice
smíchu
trávit
##ránci
přemýšlet
ROZ
Univerzitě
košíku
italsky
Moravec
architekturu
Kateřin
pleť
Vysoko
PSP
móda
Rakouska
unifor
německy
Silvestr
Buď
Bure
finanční
##zemní
Řecku
jejími
koupelna
štíhlá
dřevěná
poděkovat
zdvořil
ztratil
chlupy
vyřešit
obývací
Hezky
teloc
soukro
nepracuje
tatínkem
prohlížet
Televi
Telefon
Domažli
bobovat
čislo
přečetla
lístky
lístek
Vojta
Kalousek
Voldemor
neexistuje
důležít
vrcho
stratil
kocour
obsluha
srovnat
##izmus
Pohádka
notebook
odvahu
oříšky
Michal
pelíš
vytrvalý
vybudovali
kaštany
kalendář
Andreje
OSN
inteligentní
palačinky
umejt
uděláme
kated
výsledky
Autor
sehnat
pravděpodob
chaloupky
Ráj
varian
##penc
nečekal
koberec
ohňostroj
atmosféra
akadem
chlebíčky
Kolem
záliby
zásady
Oprazdninach
snow
šavlozubí
##dopádně
54
55
Aust
Avšak
ABY
BM
Brá
Call
Dr
DÁ
Dvo
DAL
Eg
IS
Kem
Ková
LR
Len
Lon
Min
Mad
Mněli
NĚ
Nám
Nud
Nuda
Okam
Otev
Ply
Qu
Rex
Sý
Sku
SCH
Sice
Sklád
Ther
Tuto
UK
UČI
Usedli
Znam
ail
and
bál
dej
eleg
fra
form
go
geo
halu
hrůza
im
idi
jdi
kej
kaka
mlí
mrav
mej
mlý
mincovna
oční
očeka
pc
pový
put
rat
rát
sl
sra
snu
sních
snů
tud
try
todle
ud
upo
uší
usp
ukoly
uvnitř
vp
vši
vlek
vpravo
xxx
zko
zdob
znají
zodpověd
úm
ústav
ústní
údolí
čel
číš
##nda
##nová
##nové
##nově
##dka
##dili
##dlím
##un
##uan
##mb
##zko
##brat
##bodu
##ge
##rne
##rové
##hé
##hlé
##hezčí
##ády
##ije
##lě
##lená
##él
##vád
##žte
##žovala
##cat
##cni
##cena
##jal
##jely
##ču
##čci
##PAD
##LKA
##ÁS
##BE
##ND
##KÝ
##HRA
##ťte
##ČÍ
##endi
##raž
naji
naším
nabýt
sejdu
sešly
##leš
##leze
##lion
##lické
nef
nezd
neom
nelíb
nekam
necít
dojeli
došlo
pokou
pobí
poprav
popad
pokaždé
##inkou
bytost
##něž
##nělo
##řech
##ráku
##rátu
##ránit
##cera
##kony
##alý
##jev
##kyní
stali
stráž
##ití
mok
moci
mozek
chři
##ider
vyd
vyk
vyku
vylo
vypo
vysí
vycház
vysa
vyrů
vystud
##arku
##ardu
##poly
kot
kope
kolík
##vonil
večí
veškole
něg
##avě
##avej
##nést
obou
obětí
mimin
svý
svič
nejry
jakého
roli
rock
##lít
##líně
##usob
##anské
##dum
##jima
dobou
##asi
##lovou
přidu
přivez
přestala
Jeto
nájem
domní
velmý
mála
lež
leži
rodic
##víli
lidský
Postav
Pozor
Poznala
##zdí
užili
##štiny
##štinou
##lák
##láp
Moře
prem
dědu
Prasátka
##skému
##tají
kazdy
##ismu
všeli
maje
majet
jínak
tab
hranici
rozbal
rozvr
rozhled
zác
záva
závěr
těstov
jenže
studovali
studuji
studujou
##estí
chodskou
výhody
##šile
##vála
##bala
všechy
všecho
##meni
věce
věde
##ratném
mamě
mamu
Neu
Nebyl
##ubu
##vice
##vilo
chtělo
hezkej
míry
posila
pomůžu
předvedl
##pada
dětských
pozval
kdybi
##bije
##ýtko
##leté
radí
souv
mysliv
řízky
##rand
##radli
následu
zdat
sklada
vaji
vařim
krásným
Kara
končím
zpi
##žití
rodičema
jmenuju
jmenovalo
venkov
##bičky
stah
rybí
neplat
krajem
##dání
druhu
##otva
rece
boji
Stav
služe
důsled
oblíbena
bavím
televizy
##kův
##enici
trhu
pána
duležite
pijeme
tatou
nezv
nezbý
vizum
opička
opice
##hrady
##hradě
bratry
stropu
nove
noviná
Jedním
soch
popoví
poprosil
kame
##padech
starou
##jedou
Vypadá
snažil
jmenuješ
##véd
vůči
195
učet
svobodu
třidě
pořádný
##bilní
Mělo
Taba
novém
Přijeli
uslz
keř
udělají
třídu
##hlasil
skončili
rychlý
potřebujem
českém
krasnou
povol
čtr
čteme
mladši
mladík
srst
studijní
běží
znamen
panu
vyhrá
Chodsko
známý
psali
kart
karku
tančily
Tomsk
zaplav
##ness
##kazuje
##telefon
##árny
zakon
peda
postavili
nejoblíbenejší
květnu
nemohly
manželkou
silně
##atice
Franta
návštěvě
neuk
objeví
objevili
odehrá
pěknou
lehká
hledát
Bažanti
vrátím
Brus
plánu
dispo
středověku
anglické
kapse
Mileno
oslavit
oslavovat
##fonu
připravili
##pomínám
brácha
zatim
stěžovat
stěžoval
nudim
síly
Jirka
uměla
##kres
musejí
zpěvu
##ináší
##krátka
přemě
přemyslet
přemějš
vyučovani
snih
spokojení
DOKTO
čás
otevřel
##ionu
pozdravit
firem
klidné
Albert
rozdí
statů
Jiřka
nekteré
začínají
##vedení
pozornost
Ant
sousedního
způsobit
nejlepsi
Hraje
navštívil
Horo
zpívat
zpívají
otázek
bála
trávy
##ckova
obléknu
bojovali
řikat
Jind
lekci
nedovo
vzdělávání
používá
používám
citila
žadnou
dopravy
vodafone
beran
##sluha
papíry
Luž
Lux
hloubi
pověsti
dopředu
pochopila
pochopitel
Upřím
nestran
Anglii
kytku
lukami
třiná
kabelka
lodičky
rozuměla
Velikono
cigaretu
fungovat
američ
sloup
sveho
schopnosti
vstávám
uklízení
Budete
magnetofon
inzerat
články
ničem
objedná
Japonska
sbírat
naposled
družku
hlásek
semest
jediné
služba
upřímná
upřímnou
obrazy
obyčejný
##rodukce
vybíral
diskuze
Straš
Strašně
parkety
kostým
přemýšlím
přemýšlela
polšt
soutěže
znakem
diskotece
zničit
Horimí
ňáké
ochutnat
Jezdím
PS3
vstupenky
Rakousko
Spar
vyprávět
Cipí
Srb
Syn
financ
umim
vybaví
závratném
Novinky
ocas
ocásek
Řecko
zaměstnava
zážitků
upír
prodávat
plyšový
Peťa
princeznu
ség
##helník
nedělal
formu
##áckou
příjemné
nejvic
nejvzác
opravdový
drápy
husí
text
nemůžou
Křižík
nefunguje
Bydlela
Severní
elektrá
SKR
drahokami
houpa
ježdění
čepici
čarodějnice
odpoved
##ldav
zabíjel
zaznamenávat
nezajímá
vzdálenost
udelat
prudší
mazlí
rozlišit
Vídni
růst
odpočinkem
Internet
Ačkoli
Manžel
gymná
úsměv
Četla
Vzpomínka
automobily
Omlou
Slunce
nejhorším
setkaní
fantast
Vietnamu
Blanka
pastýř
zakladní
miliónů
stezkami
mládež
nepatří
správa
dívčích
nepouži
telefoní
vypouštěli
nejmladší
napínavé
http
lustry
nepomoh
Pondělí
smůlu
schůzku
Pavlovy
každeho
mazanec
jistotu
zemědělství
nedorozumnění
sněmovna
Smrckova
skalní
nezmizeli
nepořádek
Organizace
šortky
šustily
vynikající
premié
Příkopě
Honzík
fotoapa
krokodý
Moldávii
Mlčeli
Smečkách
dudáckou
diskrim
světélko
Základní
zrezivělých
pelíšky
Dvořá
uslzené
DOKTOR
nejvzácnější
07
60
Ak
AO
Abi
Bá
Brod
Cha
DD
DV
Dve
Dvoř
Esej
FUP
Ga
Hud
Hit
Had
Han
Host
Hmm
Jem
KRA
MB
Mama
ND
Neme
Nové
Ok
Of
Oby
Oči
Př
Pel
Per
Pek
Psi
Poví
Put
Prý
Pamatuju
RA
RY
Sně
Sám
Tes
TEN
Uni
VÍ
Vin
Včely
Zase
ali
agent
bub
dv
dý
dla
dří
dřive
eu
efek
gdy
has
hig
ikdyž
ký
lží
látky
mest
mátka
psech
rys
res
sky
sub
smy
seni
sběr
sotva
tú
uto
uté
ubli
vu
vič
vinu
vním
vemu
vstala
vpředu
vstavala
zdě
zor
zti
zust
zbav
zdobí
zlatý
zlého
zpatky
úče
úchy
ČI
Čtu
Řím
řím
řadu
řasy
šep
šum
šrou
šíl
##kne
##uf
##íž
##taly
##zle
##zený
##ano
##acích
##bez
##bic
##gie
##rnu
##rová
##hové
##hléd
##ánek
##iv
##éře
##pem
##pek
##poví
##vovat
##vený
##UJ
##cin
##cil
##cki
##šny
##šník
##štof
##jské
##jmen
##čte
##čnou
##čký
##čup
##ýý
##ól
##ónu
##ůt
##AS
##DO
##LNÍ
##ŠI
##BI
##RU
##NÝ
##KOU
##MI
##GO
##ČKU
##lam
##lap
##emin
##stro
##stit
##eným
##ovět
##rata
našly
jelo
ježek
##leka
##ake
##rodej
neú
nerada
dodat
dojde
pome
posk
počka
pochází
porád
pohledu
##inám
##teka
##teru
bylá
bysem
##atka
##ator
##atické
##tomu
##torů
##kaj
##dycky
##něte
##kolo
##kostí
##alá
##elku
##nimi
##ničce
stovky
stip
zastup
zadní
##loství
##nom
mozku
chtej
##nale
##skej
vyš
vyha
vyděli
vylety
vylezl
vystři
##ádo
##ádal
komo
korku
košile
##lují
##vol
##dele
##dejší
někým
něčeho
##boha
##etí
##erní
jsmese
mis
mise
svi
nejbo
nejnově
kteř
hodín
odhod
##šeš
##nává
tej
přišti
##zej
přede
přečíst
nábyt
kterej
##domila
jednání
##ico
##icke
velv
velkej
máso
lesem
rodine
lido
Pok
Pokoj
##zdý
rádí
rádá
užil
##kénka
Našla
Napiš
Most
Mohli
Mongol
pris
##tuji
prahy
prazn
Prazdniny
kaz
##daní
##islav
spoleh
##ovány
##cího
příprav
příslov
příleži
příjezdu
Alex
rozzá
rozjel
zářily
těma
chodby
výše
práv
##váz
##balit
kouř
tenkrát
můzu
nižší
##mace
některy
vzná
##álený
mamku
Neví
Neroz
Nevid
Nechá
Nebyla
##ublik
barak
barák
napišu
kuň
chtěji
nosi
posluš
##ump
předlo
semy
##zice
tym
jizd
pozvu
dáre
dávali
časy
##letl
soubor
maluju
maluji
videla
myslila
kdekoliv
vlasi
##rance
##ranci
dostup
kniž
zdát
skry
sklep
##žiš
Chud
##entovat
Eva3
Evangeli
osmé
osvobod
nechy
necháme
ruský
##luvil
vařil
krásu
čeští
Nejprve
koncem
jmenu
##red
stara
nepsala
kralik
##ělám
režim
probou
Střed
Strom
Stále
sluší
dede
devát
vyskočil
zajímám
různí
tiše
mluvily
##chaš
Tebe
babičko
učivo
Jazy
trval
civili
myt
mych
nebav
možně
duši
duchy
tatu
Dost
Dopoledne
Karla
Karku
nezá
pohř
pohovku
viz
vibi
viuč
##hraju
strojí
stromě
odpoled
větu
větnými
dovoleny
novinách
sochy
vesmír
kolek
popla
smála
smáli
synem
stary
starým
učitelem
váží
Vybral
Vymyšl
přesný
Kdyš
barbu
##uduji
volné
tímto
oblečeny
##učila
Tahle
Přišli
nadraží
##pion
upl
plany
plavaní
dostatek
jednozna
usnul
kečup
##dělil
daně
rychlá
zamě
potřebovat
zkoušet
krasu
nedostane
Odpo
procházím
Mame
povinosti
čtou
čtená
srdí
sedadla
pojede
pojedeš
pandy
vyhlá
obědu
strašné
Dědeček
Maďar
Tomu
Líbi
umít
##vůr
sportuju
zůstali
člověče
štědrý
Dobré
##vadž
vypl
vypnout
zakři
zakaz
filmů
pevně
fotbalu
večeř
schovala
Musíte
knihou
stavět
##LAS
nádobí
odev
aktiv
hlediska
představila
představuji
tetu
Lidské
Miluji
loň
chvíle
zlobi
zlobili
Vánoc
lásky
snadné
Studuje
Studenti
stěna
stěžovali
prázdninové
nudě
nejakou
Čaroděj
skupinu
zpěvák
Honzou
##stoupil
##inárodní
prosili
prosinci
tenisky
cizím
vlastními
metrů
Číň
českými
##rální
##OVAT
spokojena
jména
DOMŮ
Václava
otevření
tvoji
NEBO
Liber
vratili
rozdil
##NEJ
tancuju
Jižní
dcery
jasem
##STA
poznávat
poznáváme
skříně
Anto
##ýšlivý
prazdninách
prazdninach
kroky
teplota
##kového
##INY
nerozumí
Nepře
reklam
rodinám
rodinné
Nakup
Sab
Moskve
zipy
brusle
bruslit
bruslení
spojení
Roman
Vidím
bojovník
prezidentem
Jiní
nedalo
projekt
zábavu
francousky
uvařila
jednoduchá
unavení
ukazují
křičí
válka
znásil
haz
touto
##ulaš
Malor
lavičky
činnosti
angličtině
néj
Pracovní
chudé
spravně
Můž
prostře
nádherně
Vysvět
kouzelník
písnička
bance
idealní
štve
rakou
oblast
Cesty
starostí
schopnost
Králové
gramatika
SIM
bratrance
politici
Poslouch
rybníku
nárok
povídám
bazénem
Eleně
ukázala
##čítat
##nějším
svobody
dostanete
aplika
objednat
objednala
naproti
uklidit
pisni
Čekam
zachráněna
sympatická
Minuly
pražské
alp
nekoneč
pustit
řidičů
trávím
znalostí
Univerzity
energii
nedale
##řížský
gale
šatech
architektura
Restaura
pokry
blon
žluté
přitelkyně
Jezdili
Kras
VII
heský
krev
Potter
časopisy
##psala
kostele
závisti
kamenný
Řecka
kanceláři
upíři
samostatně
páté
Facebooku
dokázat
festivalů
MÁM
blíží
zneči
stanov
vyhral
muzika
tabuli
papouška
lanovkou
žábu
chemie
pizza
elektřinu
ztratila
Zeptal
Zeptala
román
romány
JEDNO
Jídlo
sáň
odborné
neposlouchám
břicha
pochval
konečne
konečný
zlodějů
Půjdeme
husté
nelibi
stěhovat
průmyslu
Balchaš
Kryštof
Teplice
házet
zabije
nejkrasnejší
chalupě
houpaly
čechách
Patrik
Snažila
ekologie
nakrá
vydrží
##mislel
proud
písemná
vhodné
##právě
naobědvám
programy
duševní
funkce
Fung
Vídně
nervózní
Nemohla
Internetu
JSEM
NIC
gymna
plus
Četl
##ěěěě
vyčistím
veverku
pouštět
Horymíra
povodně
neudělal
Stefan
udelam
falešné
nasnídám
profesioná
pepa
úlohy
individ
obličeje
nestudovala
Sibi
grafických
vznikla
paliva
Fakulta
vrtul
##ght
dobrovolně
maximálně
Pastýři
odnesu
Návště
herečka
Hedví
Přemýš
zjevil
dostihy
Edward
Třída
šéf
dočkat
nejmenší
samozdřejmě
Pujdu
dloho
marihu
baraku
cestovního
katastrofa
dosáhnout
##lumbi
Profese
buřty
včelí
Mikyty
BMW
UČITEL
upozor
##endium
Vymyšlená
33
44
52
59
Ab
Bře
Bram
Blíz
BIL
Dy
Doz
Douf
Dán
Dříve
Estli
Emil
Eif
Fin
Gratu
Hal
Izra
Květ
Kut
Kino
Lý
Lýtko
MH
MY
MF
Nat
Oz
OP
OK
Pili
Pěk
Pýt
Pově
Rep
Slad
SOU
Tý
TH
TĚ
TŘE
Thaj
Us
Uš
Uva
Univer
Vad
Vas
Vít
Vrat
Vnější
World
Xuz
Zav
Zoo
aji
bů
bed
ca
cer
cek
dení
dejte
fla
fas
fia
got
hem
hli
hrob
hovor
imi
islám
jm
kd
kč
kin
kel
lup
lekla
mlá
memu
mráz
nom
oma
otá
orig
pin
palou
rám
rich
rčení
sdě
sůl
svad
sjezd
tran
urov
usku
unik
ukáže
vdě
vist
včer
ya
zist
zprav
zbal
zhor
Íránu
ústa
úvaha
údaj
ČJ
čili
řetí
šti
šuměly
##nẏ
##nen
##nod
##nská
##km
##kč
##knou
##kty
##sh
##eč
##moc
##zeni
##ben
##bel
##bán
##bář
##ystat
##hlou
##hlý
##áček
##ávají
##iž
##lná
##lát
##lýt
##éz
##pila
##pali
##vého
##vádí
##ESK
##žy
##žkou
##ženou
##ctí
##cvik
##šený
##šinou
##šští
##šková
##js
##jm
##jně
##jme
##jda
##řský
##čny
##čkama
##čátku
##ýs
##ůrce
##AA
##ÍV
##fil
##BIČ
##TU
##MO
##ŽD
##xy
##ďa
##ďi
##SD
##SÍ
##lač
##lají
##stin
##stili
##enem
##enek
##chet
##chové
##ovnu
##rade
##ražd
##raton
naky
nalo
naci
nakou
nacház
natá
nachazí
sezo
jesem
##ležet
##aký
nedi
neon
neum
nestá
nejezd
doty
dodr
poti
pokr
porozumění
pocít
pošeptal
##inam
##inův
##teď
##teček
bylí
tobe
##topis
prošel
prožila
prožili
proháněli
##něji
##cel
##kom
##elší
##hoř
##hokam
##nii
##nikem
##niků
tako
takova
zasko
zatelefon
##lony
moz
mobily
chcem
##těžší
##říži
##sků
##skovat
vydě
vylou
vyvolá
vyšetř
##arg
##áděl
##poje
##pome
##pokoj
##šíte
koš
koná
korej
kořen
##lubší
vecí
velik
vešel
vejde
##bora
obdi
obrat
##ětem
mile
nejpo
nejsi
nejste
nejvýznam
jakým
protož
##líkem
##anský
budé
budovu
##děle
hodi
odjížd
odmít
##nás
hon
##ravý
tamnější
##átý
##átkem
přiliš
přichází
přiroda
přet
převy
předev
##rup
##ruzi
##ičkou
jedly
nemrt
nemělo
##icema
velke
májí
máji
##ovane
##vír
neboj
Polina
rádost
##měru
prim
prvni
pridu
prask
prarodiče
##kál
##kážu
děcko
Prazd
##vější
##vědom
sprch
kana
kaza
##ilight
##ovál
##ováním
##muni
přívě
příjezd
příslu
tax
tabor
tajemný
hrani
rozví
závid
##bíl
těbe
##tivně
musila
studená
studují
jazi
jahody
výři
podne
podpat
kouká
všechnu
Českých
##mala
##mana
Byt
vědo
vítěz
##ohla
vzk
vzá
mamí
mamou
mamky
mamínka
Nedo
Neděli
##onal
poschod
##vati
##padlo
##padne
začet
##rátů
typu
jih
přine
přita
přináší
pozvá
kdykoliv
##bitek
náma
##buch
soute
malok
vidíte
paci
skočí
řekly
potrest
diví
divka
##stevní
každodenní
díva
dívát
##radlo
##šímu
stol
stočil
##alost
##alita
skrý
##žijí
osam
osamě
Vero
Vever
vaši
vařili
vaříme
krásna
invest
instru
##zací
češtine
Největ
konc
##čních
rodiču
jmenovali
##rese
staří
nepůj
nepoda
strachu
krať
kralovna
lich
##sabet
recept
reakce
jezdi
boje
bota
Stri
Stůl
mesto
##tík
dovez
mluvených
##chaj
trh
pravou
pik
pirát
Kolumbi
Karel
světí
trolej
druhů
pohovor
##zitě
pořát
viu
operu
stroje
novej
noveho
Jedná
vesnicích
ních
milovat
stávají
státech
stáhnout
smys
Vystud
##nějšího
stejny
zdravy
řeči
tomuto
##ickém
vlastnost
vlastních
volby
týče
písku
učast
Tať
##stálily
nadšení
plakát
##ropit
usek
krit
teplích
tříde
skončit
zamet
potřebujou
potřebuješ
potřebujete
moda
číně
nemocemi
patři
patri
Podi
nedos
180
Těšíme
##kech
vysokých
přijdeme
##gradu
minule
minulem
pamět
otrav
mladých
sedla
běž
znamení
Neměl
vyhý
obchodní
strašná
psovod
karta
Maš
hlasit
pomáha
tančili
Tomá
zapamat
umýt
Obraz
dálku
zůčast
zůstane
2001
podívali
školě
školky
měsících
Dobry
veselí
zeptá
Nos
##cema
kamaradem
žádném
##echer
hrád
postavou
uviděli
květin
stavěl
##LAT
problemi
snídat
##spon
exot
cílem
mnohdy
nezač
vlkod
Milanovi
nejoblíbenějších
nejhlubší
strm
středově
Lidí
anglický
kapitali
Milka
zkus
chvílí
komůrce
zlomila
##prusy
střechu
oslavy
oslavili
písně
písmem
##běhli
Vaše
bránit
nejdů
sur
takovém
zavolá
nemusel
nemusela
Jirkových
uzem
##kré
nebudete
##sloven
noha
slyší
platy
změní
letoš
Závis
metru
zuřivý
boha
##čtů
zajimá
chytil
kupuje
kupují
supr
zavis
chutnají
lednu
vratím
Předkr
zahrá
nevydr
hnědou
dřevem
Jihlav
nektery
začínat
menuje
mentali
Kurz
##vedli
jisté
pozorovaly
klasi
Anna
##řábek
koncertu
show
letět
stromem
nimí
pohodlně
krátký
turisté
Čert
Černý
pomahá
ostrovy
kand
kterych
myšlení
existují
otázky
knížete
bás
##mout
lyže
spojuje
Miku
Viděli
hledají
trávě
bracha
chatr
používají
krajan
ohni
250
Rozd
dopravě
##arykově
Výstav
týdne
oblibená
berá
svíčku
vztach
pohledem
##ářské
přinést
nevíš
stránce
stránku
jableč
znáš
Pavlovi
oborů
doprov
Malou
pravidelný
vládu
##jaké
seriálu
seznamit
seznamil
seznamila
odpočivam
oblekat
Tvoření
dospělé
Součas
lítosti
skály
utíkal
řikaji
kurs
peniz
mrkev
pracovních
vychov
typický
bouřka
kostely
Elf
Jeníkovi
obrovské
obrovská
svoboda
hluk
našemu
příběhů
cukru
dozvěděli
vozí
##guous
Indi
rasa
sbíral
PROČ
pustí
všichny
strávila
nabídka
Autobus
melod
zviřata
diplomovou
Drážďany
Neznám
vysokými
rybami
tvého
Rychtář
pustím
hrdina
utvoř
nesmr
nesmys
Viet
mezitím
rizi
zapomnět
příbuzných
Starý
Lady
šašek
potocích
založil
úžasný
šance
težké
težke
koupališti
Zajímá
Zajímavé
dovolí
farmá
blond
ochutná
pleti
šatny
žlutý
stoupala
Jezdil
COOL
evropské
Rakousku
unie
vypráví
umiju
dokážou
určitý
##plná
vystoupí
začinají
delam
delame
uklíze
čínské
čínskou
kanceláří
zbraň
šunka
nemyslím
##lánuju
komunist
Drahokam
pejska
prodávají
babicka
trendy
otazka
potíží
probudila
dřevěné
MAMIN
zrušil
nedělají
dějin
Španělsko
měkké
vyborné
přísný
skládá
sluníčku
kvetiny
elektřiny
ptačí
usmíval
kancelaři
Saxaně
nenávid
zraněn
Varech
odpadky
Hezký
hustém
procedu
uslyšel
diskotéky
filoso
Čtení
kouzlo
neslyšně
zúčastnily
Snažím
Vald
Zima
ptát
pojedou
Vlastnosti
Zamil
Školní
začinal
informatika
dnešního
paneláku
udelal
rozhovor
Cítím
sako
Šmoulové
mikinu
přeješ
kašny
výuku
Kofola
sanitka
Koreji
dostavat
##ickbox
souseda
odpočinku
Slyšel
pytle
svátků
výkonný
partner
automobil
Elisabet
Zdálo
zbíraly
sexy
vlaštovka
Kafka
tragé
Němci
bramborovou
neuvěřitelné
Lázně
plejstej
tisku
vstát
zčerven
výtvar
vztyčili
divoké
cibule
vodopád
trojú
Muzeum
Komu
Osobně
dluh
havraní
##lanecká
ponožky
komentá
nejrači
koupimsi
smlouvu
uspořád
PRÁCE
PRINCEZNA
Nelíbí
SMS
protest
vznikají
bezpečně
nízké
demokracie
Určite
ačkoliv
zařízený
zedník
nezapoměli
Bělorusku
osvětlení
inspi
chytré
nejhezči
hřbitov
klobouk
Alenka
Dejdar
Mirek
ubrus
úkolem
ŽIVO
železniční
vynalez
nezbytné
píseň
POTKA
medvídek
Turecka
folklorist
nejzajímavější
agentu
##školské
dokonale
Těžko
ambiguous
Latinská
Záchraná
dorozumívat
##kupectví
sokolníci
traktory
Bureš
##pencového
Kemal
Plyš
Thereza
miminko
nejrychle
souvisí
služeb
nezvlád
nezbývalo
pedagog
dispozici
Lužický
třináct
Dveře
stipendium
rozzářila
strojíren
Mikytyki
Xuzhou
palouky
##lýtvej
dodržovat
Elisabeth
32
34
53
69
71
Ach
Ara
Ane
Aha
Aspoň
Alice
Bří
Bila
Blizko
Ca
Cana
DS
DĚ
Dubli
Dár
Daman
Evě
FA
Flo
Filo
Krat
Který
Která
Krum
KTER
LO
LÍ
Lad
Lep
LÁS
Noh
Nového
Pad
Pri
Pár
Přa
Rud
Ryt
SO
Sva
Seri
Srážka
Semík
Sovět
TY
Teta
Učí
VO
VS
Vam
Vžd
XXX
Yuan
Zru
Zkou
Zpí
Zkus
bly
buj
base
dil
dyš
dřiv
es
fig
gen
gum
gulaš
hří
hvo
hri
iP
imenuje
jáma
kó
kno
kad
kta
kmen
klim
kříd
kdýž
lv
leno
lhát
mer
mraz
oš
o2
oku
ožen
ohledu
pama
psp
rid
sě
sus
sbě
sdí
slez
srovna
tru
utř
uvít
uhlí
ublí
ustálily
vní
váz
vdá
vchod
vul
vstal
vilu
you
zy
zom
zmen
zlepší
zouf
zjed
znala
zitra
úva
Čině
Ři
Řika
řeme
ŠLI
štr
šmou
##nkou
##nců
##ěš
##ělá
##dak
##dáme
##ultu
##íčka
##slo
##sná
##síme
##tých
##tany
##tovku
##mak
##minky
##zné
##zít
##zené
##zeno
##ach
##blou
##gas
##gár
##rk
##rko
##rit
##rez
##oři
##han
##hru
##hlíd
##áč
##ást
##ion
##pod
##pře
##plí
##pekt
##vná
##voval
##vků
##žo
##žď
##žena
##cor
##cuje
##cum
##craft
##új
##šina
##škem
##jka
##jsi
##jata
##řte
##řmi
##řina
##čar
##čeny
##ARA
##PE
##DN
##ňa
##ŠÍM
##BEN
##ILA
##MY
##JO
##GE
##CK
##wn
##qu
##emo
##staly
##chem
##ovská
##rah
##rate
##rady
nava
nají
nami
natu
nalep
seka
sestav
jes
ježíš
##lejší
##liví
##rog
neoh
nezi
nehle
nezdrav
netr
nedělí
doh
dopo
dojet
dosud
poka
poky
pochod
pošť
poblí
porozum
##inný
##inální
##tes
##níme
byť
##até
##toři
prom
prop
prosto
prohra
projed
##něný
##ráží
##koho
##elá
##jedeš
##kym
takovi
##udi
stů
stadi
zaví
zasta
zaží
zasp
zachod
zaleží
##lobil
##itské
žeb
##noj
moří
chovali
chovají
##ilé
##ilem
##těk
##vanou
##nar
##nauč
##skám
##skové
vyle
vylé
vyraz
vyspě
vyšla
vyšlo
vyrovna
vycházím
vydím
vykři
##jích
kok
kos
koň
koček
kobli
##derné
##boj
##avské
obej
obdob
obzv
mistě
milost
milan
##adý
nejím
nejznam
nejvet
ros
robo
##líš
##líci
budově
odem
odstra
dobři
teče
hore
##asky
přijíždí
přesp
překon
přehled
přežil
Jedu
##ičem
náhoda
nápoj
náklady
nápady
kteri
##imu
domem
mámu
lest
lech
lego
legen
leželi
rodném
nebojí
lidu
Poj
čele
##yslela
##statek
##lády
Moldav
prst
prek
##nutá
prad
pračka
praxe
##inaci
##omu
děť
Prach
##vělo
##věděl
spla
kaší
##isa
všehno
##oblíb
spon
spol
muz
muzu
mani
příště
příjel
jíš
jích
Alespoň
rozm
rozdě
rozši
rozjeli
rozsá
záři
##tika
##tiky
studenou
##istě
##iste
##isté
##istra
##telský
kamarát
kamarádu
Takovou
Takových
výhod
výstup
výhled
výslov
vývoj
výšce
výdrž
##váku
##balil
##divé
##menty
##mín
věk
věz
věřím
vědomí
někteři
##žíšek
letem
bateri
##vika
##vivělo
napíš
napiš
líd
líný
líčení
líbili
poslo
poslan
dobrí
dobrém
jine
##uman
předna
semin
dětma
přo
dáš
dávky
časů
##rium
##rifika
##bici
radu
soudu
soustře
skole
potr
Copak
Comeba
diky
divit
myslit
##stele
pracujeme
pracovaly
dívají
dívku
násil
dostaly
zdr
zdál
##rove
##rovou
kamarádkama
ruchu
ruských
##ověl
##žuji
##terí
vař
inter
invali
##nami
Kade
Nejradši
konkret
zprac
##pech
rodičum
jmenují
##redu
stale
staral
stačilo
Myslel
Zaz
dnešek
jídle
##sané
##skala
bolela
bojují
Stá
Stro
Stát
Strý
Studuji
##běhla
ded
deš
důkaz
meda
samý
různým
nevla
aniž
šlisme
volit
volala
nejlepšího
mněly
pák
pásli
online
Dok
Kostel
Karvin
světu
nezmě
##ctav
sestřel
pohla
slovník
oplat
věty
dovolene
solid
kamene
milou
milují
miluji
stáj
smo
starši
snažili
stejní
večerní
bytů
##utým
použit
fotbali
učeni
třikrát
ukrad
Rádi
##stává
rozhodly
rozhodnou
rozhodnu
plaž
plaži
nesmi
nesmě
nespat
nesmím
davali
dařit
skontro
potřebovala
histori
historií
patro
matce
svědomí
Odpově
holkou
přijit
přijely
otevr
povy
jdeš
minuly
minulého
otro
otcem
problému
sedl
##kradeš
##ustit
Nemam
panem
vyhlíd
vyhověl
obchode
##nemu
##rávíme
Děkují
plna
plná
nepot
společné
společných
společností
##lezli
zapá
umit
umíme
doběhl
Obdiv
Obsah
2002
důležitou
setkali
zahrada
podíval
podívala
podíváme
vypád
zeptám
kamaradku
žádného
1791
Přeji
schovat
schová
hezkého
postaven
Musim
Musíš
Musela
staveb
##LAV
nádvoří
masem
dělát
sníst
##sport
fakultu
odeh
expo
akční
nezapomněli
vlny
rychlejší
facku
Evropské
##klaď
vedlejší
strhly
všema
Lide
Domů
zkusil
komor
párty
střeví
Vánocích
většině
bráchu
NAP
NAM
sun
suvený
Rodič
Rodinu
stěny
překvapena
nudné
sídlo
nemusíme
obědvat
uzav
sněžilo
Honzu
ránu
kolikrát
nohama
změny
##sung
vrati
bohem
skvělou
ruštinou
spokojeni
myslíš
kupé
nakupoval
pozdravuj
##LEP
##LEVI
Dítě
dveři
Lego
tancovala
národního
Již
Jiří
Koupím
Koupili
##ěstna
dokončit
začínala
jasný
##ODA
##šťuje
pozorovala
skřín
Barto
Barva
koncer
##solu
sousedka
nevidí
pere
teplotu
Budou
##řídil
Celou
nerozhod
pomaham
kámošema
Nepři
nepřišli
neznámých
rodinný
Hosti
zpívali
mini
hrušky
padají
spojené
Michael
hleda
Nechtěla
bojoval
laně
BUDE
projela
BYLA
zastavila
zastavili
technický
stromek
stromečkem
davame
listu
pěší
čisté
potravu
městečku
Média
Výčet
tvrdo
uvařil
jednoduche
dvora
bohatství
Divad
beton
nutno
ukazovala
domovem
příkladem
jablo
Bezpeč
hloupost
zaplatím
touhy
Slovo
lavina
vymýš
správné
zajimave
zajimavy
rovný
rovněž
chudák
využi
staršího
naučím
nádherný
myšlenka
obleknu
kuchyň
Káhi
level
americký
amerických
Zato
delám
zvyš
##ADKA
neoblíb
##lant
gramatiky
klienty
Ježíška
pracovitá
odpočívám
deseti
politika
politice
politiku
Budeš
nechodím
kostelu
národa
náročný
bazéně
sýrem
svobodná
mimochodem
fakulta
dozvěděla
lasku
objednal
rasizmus
sbíraly
křesla
všichi
zlepšila
zlepšení
Čeká
navštěvuju
louce
obočí
##kovými
popisovat
Vlasy
kvalitu
výchova
Orloj
nemaj
Chybí
Rychlé
abich
knedlik
kreslo
vtipné
Beau
očích
jídelníček
nesmíme
mezí
operace
operaci
kočičky
znaky
Křesomysla
gauč
##milov
systému
italské
slišela
úžasná
##lickou
stravit
Moravě
Moravy
Zajímám
architekturou
Bellu
farmě
určite
Uzbekistán
půdy
půdě
petardy
žlutá
jestlí
občanů
přitelem
trénovat
módu
##ejtle
záchraná
Berlina
Opavy
VIII
džbán
hnusný
rande
##psal
Koukám
klíče
vytvořit
humani
ramena
užívat
lékařství
mléka
vspom
obdivovat
musite
rajčata
nepotřebuju
otazky
nakoupit
nakoupil
nakoupila
princezne
dřevěný
speciality
LIDI
blíže
série
skaut
zrušit
zákona
papoušek
KAMAR
KAMARA
lanovka
tlačít
poloviční
postupně
vyrábě
sváteční
domácnost
Mluvili
zvedá
odvážejí
kancelaře
admin
narozky
obleku
texty
Skří
Skvě
Uvidíme
bundy
bunda
Letní
Udělal
penzi
šípy
##platu
Bydleli
Klaus
Krásný
bližší
motorku
přírodově
chalupu
vél
pokladně
Nesmí
mediální
elektrické
koncertů
Patricie
déšť
vstavat
odměnu
sluchátko
Jihlavě
ošklivé
neexist
horor
horory
Počasi
příspěvky
vzbudil
přednášky
trenér
velikonoční
vzdáleněj
zrcad
zrcadla
Hermi
ŠKOLA
##pýr
nejduležit
uvědomit
Druhá
Holky
západo
výuky
Přestože
nejstarších
technologie
vzpomenout
Nepokradeš
obrázků
Kozoro
Kozinův
Shak
uložila
veverka
připadě
pozůstal
přesolená
DOBŘE
sleduje
Mariánské
Mariánských
protis
stredu
kolena
##tikultu
prácuje
sušenka
Červena
psycholog
Obědvám
označujeme
hmot
hamburg
klikatá
vitam
vnitřní
odstěhoval
zaslouží
srandovní
##XXXXXXXXXXXXXXXX
strýcovy
grilovací
pádem
severu
Narodil
tělesnou
skleně
Středo
hluboko
vyprávěl
Olomouce
komína
kavarny
blbost
Kdiš
Třetí
agresi
tématu
zavaz
připojení
konzervat
vyskočí
Doporučuji
médií
umělecké
definovat
konkurence
BÝT
##lynulo
všeobecná
vagony
Čínské
zeleninovou
operátora
John
Niagar
Rousku
snáma
twilight
vdaná
čárka
stryc
sklukama
bábovku
relaxovat
žoldáci
Europ
TATA
ohledně
rozsvítilo
televízi
populární
rachejtle
pamětihod
Několik
nebezpečí
zdůrazňovaným
Yorku
hmyz
klesala
úprk
ČSSD
pistol
nesnáším
povede
penězokazi
Poděbrady
obklopily
Bruce
hůř
zidli
zataženo
tehdejší
krajané
klubíčka
telocvik
majetek
těstoviny
Karas
zaplavat
Albertově
DOKTOROVI
euro
vinula
##eminismus
##rodejnice
vystřihuje
nejbohat
Nechápu
Evangelista
srdíčko
odevzd
Čarodějnice
Sabine
Restaurace
Hedvíka
Pýth
Sladký
kelím
neonemoc
začetl
Taťka
utvořeno
Záchranáři
LÁSKA
Rytmus
Seriál
hvozdy
kadidlo
pamatek
zastara
Strýc
49
800
AB
Bak
Bili
Brig
Becher
Com
Cena
CEL
DEN
Důležit
Fotbal
Go
GO
Gen
Hy
HT
Ham
Histor
HEZ
IN
Ili
Jste
Kas
Klá
Kob
Mod
Mili
Nen
Net
Norm
Oche
Pá
PÁ
Pudu
Pišu
Svolá
Tát
TRA
Tré
UŽ
Umy
Udělám
Vra
Vit
Vim
Vstav
VEN
Zby
Zalo
Zbytek
Znáš
ač
ara
bad
bus
báz
bodu
ct
cé
citu
cemu
dle
dek
dez
dum
dre
dnem
dame
deta
er
ešte
gól
hví
hmm
id
jk
jonat
kem
kvě
kým
knám
kudr
lat
lisem
mek
mad
mely
mine
neno
osed
ovál
pid
piti
puber
rest
sci
slí
sny
slá
sběh
sťast
shledanou
tit
tez
tadi
ust
utě
ubí
uve
usí
uteč
ubý
vle
we
zé
zod
zře
zho
zme
zlá
zbil
zběr
zpravy
Írán
úča
úkola
úřad
Čest
čim
ŘE
šk
žač
##nel
##nde
##nčí
##novala
##dát
##dila
##dním
##klu
##uží
##uška
##íka
##ístor
##selo
##tný
##tila
##eku
##ečky
##mel
##zný
##zny
##zali
##zních
##způsob
##ane
##bl
##bé
##bla
##buje
##gg
##get
##roval
##rman
##yk
##opat
##hov
##áru
##ává
##álek
##ácích
##átor
##iy
##ista
##lt
##pili
##plav
##vna
##OK
##žin
##žký
##ženi
##žujeme
##žlickou
##cas
##cát
##cová
##ceně
##cený
##šé
##šké
##šký
##švi
##šeni
##jen
##jas
##jši
##řky
##řenka
##čna
##čvou
##čkovou
##ůr
##LY
##LOV
##ňo
##ňuji
##ÍT
##fká
##fry
##fii
##BU
##BÍ
##TÍ
##TY
##JU
##40
##SP
##SL
##VOD
##VIL
##ČE
##FC
##°°
##lami
##enuje
##eného
##enský
##chám
##rap
##raji
nama
nalád
natř
nachla
sejit
sebral
jedeš
##lečka
##licích
##ako
##aké
##roč
neku
neři
nekup
nesku
nešla
nehoda
neleg
dor
dola
doži
docház
došel
dojdu
dosah
počí
pocti
pobýt
poruš
porazit
pohledy
##inat
##teče
##telích
##amel
##odr
##níčky
tok
toa
tole
topoly
proda
prosí
projit
##něk
##něm
##něné
##něná
##řet
##řejší
##ráky
##ráty
##ceš
##elna
##elova
##ničku
takle
takze
takovej
##udo
##udie
stem
stvo
stene
stín
stinný
zař
zaje
zadu
zahy
žeby
žese
mozna
moja
mobile
chvá
chary
##těli
##van
##vaný
##řice
##řiklád
##neš
simí
sirot
signá
##ide
##nace
##skě
##sket
##skovi
vyží
vysp
vyznam
vychází
##ádou
koly
kory
koza
##lupy
##erku
oblík
obnov
miky
##admi
svym
nejvi
nejtěžší
jaka
jakých
roc
ropu
##líka
##lížel
##anku
##aneme
##ezpeč
##lykání
##eníze
##dělo
##dějí
##nýř
hodila
odv
odleta
##šeb
##šeň
honu
hosti
holek
##ítko
připo
připomě
přijedou
##zech
přej
překo
přečt
##ruba
Jes
náře
nástroje
nápoje
##dor
jedem
jedovat
domlou
domnění
mámy
velblou
leky
lekař
con
##ovaně
lidské
lidskou
Posí
Pobyt
čes
česka
##ejch
užít
##stané
##ujé
živí
##láci
Naš
Nazdar
Moj
prin
prova
prvně
prkénka
##nuji
prale
praba
prasat
praxi
prazniny
##kář
dětech
děkujeme
##vědomí
spod
spět
spim
splně
sprost
spodní
spropit
##taně
##tava
##taci
kava
kabil
##daje
##dana
##louží
##obě
spočítat
##ovávat
##mují
maďar
příštím
tali
hraní
hranic
rozší
záku
zápo
závit
záležet
živoči
tělem
studovát
##seda
chodně
chodít
chodiš
Taková
jaderné
Tonda
výr
výzdo
výjim
Procház
##dig
##míru
##mají
věš
vědom
vír
vízum
králoství
vzit
vzniku
vzlykání
##álení
Nevy
Nedav
letý
babo
babice
##vime
##pravdě
naplán
napětí
kuri
kufr
##beh
##betě
##ong
líná
lídem
##vech
pomstil
tužky
##padla
##zime
začat
začit
začneme
dětské
dětsko
přát
dála
##bie
##letý
soustřed
pauš
potáp
divný
##stev
##vník
dílů
dívce
vlas
domaci
domažlickou
##ranka
##radí
stoí
stoly
stolku
cestovali
##alog
dostalo
##spek
skř
skůt
##rově
##rovka
nějake
počkat
Chla
Chlupy
koupily
nechám
nechceme
ruská
ruskou
Veče
čerta
važně
Ják
třeti
krásném
inten
spoluob
spoluhrá
Kazdý
Nejhezčí
konal
končil
##reg
dalši
dalším
nepřem
##skych
dlouhod
čap
Zapomněli
lékaři
libil
resta
reag
report
##čerst
##černí
Stalo
##běžce
dec
dešti
dedeček
mega
bavil
bavily
nevel
nevádí
vosí
učime
Jaroslav
##balení
trů
trva
trhy
trpas
trhali
nebere
praví
pravdy
duchu
pijou
pardu
partu
parků
Doktor
Kop
světový
nezů
neznají
##enosti
trohu
špatny
špatných
poháry
vite
vikou
oper
optala
##oupěti
dělame
dělaly
dělaji
brz
brou
brej
větším
##razné
novina
novinu
Jedla
sokoli
soft
chybi
chytí
chytá
těžka
těžce
navstě
popí
poplet
##paně
##padek
##nitové
stáž
stáje
smá
stari
učitelů
učitelům
##štích
stejného
poutí
poušti
počítá
##uměla
vlastního
volna
volny
týmu
##zole
fotku
197
třidy
ukec
Měří
Měly
Tajem
okně
##mády
atrak
uplat
plavali
neset
usnula
tepla
teplic
daň
dané
skončily
zamku
potřebné
modr
modrou
modelka
zkouška
odpustil
nemocné
zemědel
Těch
Těšil
##kendu
##lejza
procházce
Horymý
povět
povrch
povlečení
minutu
minulých
minulém
##emíkovi
běhal
znamý
##boural
##ustila
Neměla
paná
panenky
vyhrát
vyhlížel
Chodim
zeleně
známým
plně
plnou
neposlu
Maji
##ovych
##števu
Tomaš
zapálil
##nesl
Líza
Líska
doběhli
Oblé
##kazil
Napsal
2005
důležitě
ulicí
##ánka
osobu
vyprac
bíle
Prez
horských
večeříme
scho
schvá
hezkém
postavila
Museli
knihkupectví
květinu
##LAD
nádraži
problemu
návštěv
návštěvy
milioná
neumi
##ůsobí
objek
objevit
počítačů
##pula
odes
odešla
extra
##risti
hledaly
hledání
radostem
zvířatech
Basket
ovzdu
pláže
peněženku
odpovědě
odpovědi
##vity
disco
##kladu
podobných
Karlové
Karlový
Lidem
povídala
kapra
kapes
Příhoda
Příroda
centr
lákala
připravuje
připravuju
hrajete
pohádek
nejdřiv
káma
##dejte
sušší
zatmění
stěžuje
překvapila
pětku
zavolám
nemusíš
nejake
nejaká
pondeli
obědvám
##TEK
sněh
snědl
jeleny
##inárod
Všech
slyšla
POMA
nashledanou
jogu
##AMA
vracím
zustat
najdete
skvělej
##gorod
##gonitové
##ENKA
bazen
ruštiny
spokojené
situacích
čiš
privní
studentského
chytat
kaberku
Vzhledem
Vzdycky
zavít
medic
okoli
chutna
Kdybychom
umístě
##rakter
Rozumím
táhne
vratí
vratim
dveřmi
##ženým
dres
##incu
zahlíd
nevypadá
polévky
hnědá
tancování
andu
sloní
jakékoliv
šťastné
nekde
nekteří
Seděli
jasne
##levomat
letadle
##STI
##STLI
klavír
spatně
knihovna
##soft
cukra
perníky
perfekt
směru
pohodu
##řídila
pomahal
pomahají
navštívila
kámošem
Neplýtvej
dozve
zvykl
zpívala
největších
existujou
demon
minister
zivota
báví
nenašel
nenašla
nelíbylo
koněm
obléká
oblékla
obléknout
moderních
brali
sladký
špen
##hlým
prostředků
používání
zastavce
krajů
stromečku
davno
spadne
pravoslav
zábavné
Význam
Výstava
tvrdé
Pražsky
literatuře
Bole
Bože
Bojím
KON
dvoře
dvoji
dvoru
pusa
týdnů
oblibenou
oblibene
bohatá
muselo
nepřístup
nutně
domovů
nosim
starám
pilník
##štejna
strán
stránka
svíti
svítit
jablka
hloupé
křičet
křičela
stříleč
Slovan
lavice
lavici
činností
strejdy
hovořit
vládl
serialu
zajimavý
pokračoval
Uplynulo
##cími
chudý
##chutná
odpočivá
Angličt
##clavské
nervy
vysvětluje
kabelky
žívo
ekonomiky
povinnost
pomáháme
písničku
banán
Souhlasím
kůrou
dobrodružné
utíká
utíkat
utíkali
zvoní
zvonec
řikala
štvali
vyzdob
vyzrál
podivala
sociálních
##lýchá
zablo
oblastech
nemužeme
jízdenka
Cestovní
jeskyní
Větve
mrska
slepili
slepička
politiky
uklízím
chránil
Poslal
Poslanecká
majitel
bouře
zlata
seznámení
požádal
náročné
magistr
maličko
Egypt
cvičit
pekly
povaha
##nějši
Ukrajinu
ničemu
slevy
pravopisu
Vámi
lasky
vozovka
svatbě
Japonsko
mlčí
mládě
vedoucím
družstva
Bohdane
semestru
nabídky
značí
užiteč
Zdravý
Minulé
pražských
dostávat
Ruce
hvězdy
kvalit
travu
rybáře
slušne
slušný
hodnocení
kreslím
francouzsky
vtipný
znalost
přemýšlel
martin
mezina
rib
zapomněla
diskoteky
krunýř
šach
píšete
tělocvič
Horemí
##ITI
dovolit
Rozhodla
farma
kato
pokro
##nikum
Uzbekistanu
adren
reprodukce
stoupal
převlík
trénink
Jezdila
zalíbil
společenský
Kralovna
universitě
splnit
čerstvý
Cigar
ukončil
##ROZ
neřekl
neudělám
##milejší
Později
faráře
Slovenska
STRA
mýs
doporučit
onemocnět
opakuje
buchtu
medvěda
sledovali
zbraní
kazdou
upíry
samostatnou
čokoládový
hřbetě
křeče
mýtinu
pátý
utekla
utekli
uspěch
vedro
bezpečnost
rajskou
nepotřebuje
vsechny
Štěně
smrtí
MAMA
ségra
zvuky
vyhraje
kamošem
snídaní
snídaně
Babiše
roztomilá
respek
zbar
zbroj
Potřebujeme
tabule
holčičku
Použí
žáků
polovinu
polovině
vyrábět
verš
nápisem
elektřina
očekávat
očekávám
ptaci
zveřej
chlup
odvážný
závislí
kuchar
kuchini
tydny
povídání
kancelař
špinavý
adv
advo
jinych
textu
zakopal
ovlivnit
##xiko
Letadlo
penez
rýže
##jížď
přiznat
Bydlel
uslyšela
nenudím
diskotéku
vymyslel
Existují
Ferda
Krásně
filozof
pavuč
Čtvrtek
Čtvrt
pohyby
vydělává
vetší
vetšinou
nejkrasnější
legali
prakticky
inteligen
Zavoněly
Petrovích
zajmavé
požadavky
omáčka
členové
pokladny
vykopá
vykonávat
odvezli
##rump
odpovid
císaře
spisovatelkou
ekolog
šťasná
želví
sluchátka
kulturních
zvěř
ŘEKLA
##misl
domluvit
Chcete
nadherné
odpovída
panelák
široké
Dělal
omyl
omylem
##REJ
mořské
vědci
Mužete
sukni
doktoři
Rocky
Zvíře
Šmouli
rozlišení
kamárá
Maxem
sanitku
Koreje
potrebujeme
BICH
lovec
píšeme
zobák
ztemněly
vzpomenu
Poděbrad
Američan
Ačkoliv
Mouční
blýzká
úsměvem
porodila
Připravím
planuju
Horymírovy
šikovná
omlouvám
mraky
uvol
komedi
policejní
logické
Vaclavské
tarify
BABIČ
Rybář
uchaze
vytáhla
obsahu
regist
obličeji
##xxxxxxxxxxxxxxxxxxxxxxxxxxxxxxxx
Jarní
balíček
zčervivělo
postarat
Narodila
Středa
vodopády
silvestr
vyzkoušeli
jednotlivými
opuštěná
Vezmu
jěště
vrtulní
řepu
špína
prohazku
chováme
akvárka
blbosti
spisovatele
Pastýř
Válková
kláves
slečna
úrovně
migranty
máslem
spolehnout
spolehli
zástupy
bezpečí
nízký
pevnost
cizinecké
záchranná
aktivity
veškeré
bakal
slůně
vsichni
polyká
zapomět
##andrt
prasata
videa
proslulí
magisterský
luxusní
PANENKA
heska
mňam
makat
vloni
##žravec
##chozí
nereag
střídmí
skromně
prohližet
Elzeár
Chorvatsku
Filip
Mimochodem
zbytky
čumák
hokeji
napsano
předpoklád
poděkovala
Bulhar
Tvuj
benzí
plišák
zapomenout
Počkám
žirafy
multikultu
##rozumi
Přiletěli
spolužačka
tradičně
Afghá
milanem1
KARKULKA
Nádher
Rumbu
Vesnička
brigádu
ditětem
Řidič
šleha
kořeny
obloze
výnosy
vzpamat
sebevraž
vybarvily
Voldemort
vrcholu
snowbo
Austrá
Egip
Kovář
SCHE
elegantní
kejhání
vlekly
úmysl
neomyl
večírek
majetku
věcech
zdatnost
Stavební
odehrává
přemějšlet
pochopitelně
Upřímnou
houpačky
nepomohlo
fotoaparát
Dvořák
Ofeli
gdyš
utéct
nábytku
spolehlivý
uplne
Maďarska
##právění
Kutné
Lýko
Pověst
bednu
zbalí
řetízek
přinese
Vystudovala
nedoslýchá
psovodi
strmých
básnička
lítostivé
zapomnětlivost
trojúhelník
nejrychleji
Canadě
Floren
Kratší
blyští
figur
knof
poblíž
##naučení
baterie
Kadeřábek
Karviné
suvenýry
Hostiva
Káhiry
administra
protisměru
Středozemní
Ochechu
hvízd
kudrnaté
kabilku
ovzduší
3x
88
As
AR
AK
Apo
Avat
Arab
Blo
Bid
Bohu
Beru
BAR
Brazí
Cy
CE
CD
CJ
Dro
Dat
DALA
Evy
Ekono
Eliš
EVA
Fra
Fre
Frý
Gre
Garg
Hm
HU
Hlu
Hlou
Hab
IQ
Ide
ICO
JÁ
Jím
Jek
Ků
KV
Kám
Kup
KRÁ
Kdýž
KFC
Ly
LA
Lav
Lich
Lalita
Mý
MŮ
Mak
Mlad
Milo
Mluví
ON
Oli
Omá
Ohro
Okolo
Psa
Ptal
Pamat
Psala
Ron
Rost
Rekla
SJ
SV
Sch
Sak
Smu
Svá
Srov
Spou
SUP
Sázel
SRD
SAMA
TR
Thra
TAN
Tanc
Ulice
Vp
VZ
VÝ
Vlo
Vlad
Všem
Vstala
Všich
Vavř
ZČ
Zám
Zel
Zji
Zed
Zbra
Zela
Zkrátka
ana
adam
arg
aspon
bry
bral
cou
cet
chor
clovek
dvá
drz
dino
dén
deník
em
ej
ese
estli
fér
gep
hý
hut
hym
hístor
ig
isla
jáz
ki
kl
kod
kří
kly
kickbox
lho
látek
látku
ling
linku
meně
mlada
ný
oře
ově
olej
org
ph
puje
plet
ptala
ráz
riti
sz
sje
sud
sova
slat
tů
tek
tlou
uti
upe
utery
ustní
uhel
vpo
vlí
vůz
vnější
vteř
vstali
vlezl
xD
zto
zít
zvět
zbě
zmá
znat
zrak
zříd
Úplně
účel
Čte
Čist
čez
ŘÍ
řez
řec
Šly
Špagety
šod
ška
šir
ůkol
Ženy
ženou
##nk
##nko
##ning
##novu
##nověku
##ějí
##ěnil
##dové
##kry
##kve
##kvap
##uk
##uka
##íky
##ívat
##sam
##smo
##tičky
##mpá
##zce
##zkem
##bka
##bar
##bare
##gal
##gitali
##rin
##rhu
##rních
##rního
##yp
##oř
##olog
##hý
##hvě
##ávali
##ápu
##imi
##iju
##ivé
##iki
##ll
##lce
##és
##éž
##ple
##při
##pět
##pala
##vje
##vrat
##vovar
##ZI
##ED
##žování
##žujete
##žstvím
##cá
##cov
##covat
##cové
##covy
##šené
##škovi
##šovské
##jě
##já
##jení
##jsme
##řku
##řena
##čnost
##čoval
##čtí
##čkami
##ýme
##ýšli
##BRA
##ROV
##Kč
##KRA
##HL
##HR
##JDE
##ťak
##20
##VIT
##war
##ware
##ČKO
##stka
##stám
##stry
##entu
##ouka
##cham
##chom
##chový
##ovné
##ovskou
##rati
nat
name
naži
nazí
nahra
naněj
naruš
nacházejí
sek
seděly
##leká
##ledek
##lici
##lišel
##ličku
neř
neje
nejí
nede
neub
nestě
nebu
nestí
neži
neubli
nedí
nehodu
nejede
nečeka
doj
doch
donu
dopr
pone
pobo
pota
port
pobý
pojdeme
poško
pobřeží
##inovat
##inové
##inál
##tet
##telí
##techni
##amu
##ody
##nící
tor
##toru
##tonu
##torem
##tonos
##kaře
##kace
##kaji
prosp
propu
prohled
projel
promně
##něny
##něných
##řebuji
##ráno
##koje
##ell
##elé
##elní
##hop
##jej
##niče
##nicka
stad
stru
stim
zali
zaim
zachy
zašli
zaned
zahá
zabra
zajdeme
##itní
žele
##nomi
##nota
##nocení
##mela
mol
moj
mono
morál
mosty
mozná
mobíl
che
chi
chro
chova
chrup
##vari
##vance
##řička
##ner
##ney
##žeš
##žele
##řík
##říte
##byly
##cite
vyno
vyvo
vytí
vypi
vypí
vylez
vyjeli
vydala
vydají
##ardi
##pot
##počtů
koli
koko
kosme
kotou
kožíšek
##luju
več
vedet
něbo
##ave
##avicích
##etické
##erem
##erka
##ekli
obce
obhod
občerst
##ětím
##adle
##adil
##adili
svin
svemu
svití
jakub
##líků
budce
budky
##děje
##nýho
hodni
hodnej
odku
odvo
odjezdu
##jimav
##nář
dobý
teším
težit
hoch
hoří
hosty
##raví
##lový
##lování
přide
přispě
přitele
přislov
přelo
přeci
převod
přestanou
mockrat
Jede
Ježi
náště
nákou
nástroj
##donal
jedí
jedina
jedným
##imě
nemluví
domku
##icki
velkem
mán
leda
lečeb
lekaři
cokoli
##ovana
##ovaného
##ovatele
##ovatelé
##ord
rodného
lidském
Poku
Pobyli
Pokaždé
česk
česko
češka
čekají
čechach
##štěn
školé
##yska
užas
##stale
##starost
##štý
##štit
##měte
##měnila
##láště
Napo
Našel
Nachází
Naučil
Mohu
##nuta
##nulý
##tující
dědy
dědo
##vědo
spr
spali
##tau
##talit
##isla
##isku
všeh
##ilin
spor
spolů
##mul
mach
mapy
příchod
příležitost
přízemí
případech
jíného
taneč
taxi
hraly
##sia
rozz
rozv
rozčí
rozloha
zásob
záležitost
životopis
těhot
##rych
##tivu
##tivou
##timetrů
##isty
##istiku
##telky
chodníky
jader
Toje
výšek
výpově
výhoda
výpravy
výplatu
výpočtů
podnik
podél
Proc
Promiň
##šime
prázniny
##latit
##bale
koule
##hodný
##hodná
tenden
##dite
##mena
Čekal
Češtinu
##mažený
vědce
větev
víd
králi
krámu
králem
vza
vzhledu
##álka
##álním
mami
Nevim
##rození
letá
bať
balet
babu
bačko
##vie
napjata
napětím
kuku
##bež
##lepal
míčem
lídé
líbyl
##veho
##vedou
zes
zebra
nosu
posíl
jineho
turista
přední
předpově
##padu
##zitek
jihla
přil
pozv
pozvali
##riku
životů
životního
##alaxy
Jake
rados
malím
malovaní
pater
řekni
celoro
dite
divu
divili
myslil
každem
každoden
##stík
díla
díry
dílně
díváme
dívaly
televis
kterýho
dostaneme
##alismu
skama
skrz
skrývá
skřin
skvel
##rovu
nějakej
##lemi
počty
Chápu
oslov
oslá
koupíme
kamarádí
kamarádami
##myš
nechte
nechali
černí
černy
červy
černých
černého
černaly
##stice
##stilo
krása
krásní
inte
hodinami
000000
Kazdy
Nejlep
Nejza
Nejlépe
Nejčastěji
konto
konči
končíme
koncent
##čník
zpráv
jmenovat
##reji
nepí
nepř
neprod
straší
stranách
krale
krabice
dlouhy
##verest
Zach
Zastav
Zaca
Zaprvé
Zaplat
druha
lék
léči
lib
##ělý
redak
##jemné
jezdilo
botu
devat
dekuji
dekuju
devít
vysled
mex
mesta
mečem
##pisu
doved
nevidel
Techni
babički
vola
voni
učitely
Janička
nebydlím
jazycích
Adamem
trpí
civil
cihel
nebil
nebila
pravě
piano
parkem
Doprav
Kome
Karlí
##dělské
světových
nezas
neznal
##ctou
vodku
kluby
kluků
trop
špatní
pohlí
pohrom
##ládání
virob
vipadá
opa
opic
opti
opilý
##hrade
##vodu
Jedli
soli
vesmíru
opravit
níž
poptá
popkor
kameru
million
stály
dvanácti
Margar
váze
snahy
přesne
stejném
líbíl
Kdysi
poličce
řešila
##uměli
vlastností
##morav
volných
volbách
státem
fotka
1991
oblečený
Rusy
ukry
novému
oknem
nadvoří
rozhodovat
##máš
##pito
130
1358
playstat
krva
kerami
udělaly
Evče
daj
dava
davala
třídní
Teďka
skonči
rychlosti
120
historický
historickými
velikosti
patřila
krasným
Poděk
189
mandar
##keho
vysoka
vysoky
holt
110
118
procházka
Mamin
##šlapal
vypadám
jdete
##skop
##skočil
##ltura
lepsi
posloucháme
otví
mladou
srde
návšti
sedli
sednu
sedmé
pojet
pojedete
draci
dračí
drahá
drahou
běhá
hudbě
hudbou
Nemá
Neměli
##edl
panenku
Chodila
Chodska
zelí
zeleno
napsán
napsána
známí
známo
známku
známená
Dělá
Děda
plní
nepotře
chlapi
tančím
jejího
spátky
zapal
kultuře
##nesla
sobodu
umře
umřeli
překlada
sportuje
autobusy
Objed
důležitých
setkám
počasy
podívané
školního
telefovat
Dobrou
##ánský
buňky
zakoup
kamaradama
kamaradovi
filmový
Někde
peče
pečení
pevné
horké
horský
nejoblíbeněj
uvidel
uvidíte
stavá
stavěli
silnicích
Palad
##atik
pokojů
##ckém
140
spousty
spoustou
neumim
dělníci
snídám
objetím
domáci
exkali
extr
exkur
nezapomně
sámi
vltav
představil
představuje
zvířaty
vrátíme
ovcí
Evropu
trapas
podobna
smutek
kapry
posledního
zkusím
zkušeb
komou
párek
styly
středa
střechy
mneli
oslavovali
##KAM
##herine
obyvatele
obyvatelích
Vaří
nejdé
smutní
darovat
Jožin
NAROZ
suché
tentokrát
síla
nejakého
problémem
hrozí
hrozná
umělé
zpěva
nebudeš
##stoupili
Samsung
cizinka
Všechni
##CHA
##CHOV
městské
takovýho
Zákony
nechtělo
metr
vrata
najd
bohy
zachovala
##idelní
##ENI
ruštine
spokojen
dopisu
náměsti
DOP
nevědel
otevřeli
##TOM
kupoval
kupovali
Vzal
blízké
##pečené
okolím
ledová
##LED
##kázal
Alfon
Libilo
dveřím
##ženka
##žením
##ženky
Předem
drzí
##itivní
přátelské
přátelská
Hodne
desky
desku
desít
některými
##NES
andrej
##hev
dokonalé
##řemě
##ralní
začína
Sešli
menšina
Kucha
vojáků
sau
##STAV
poznání
Začnu
Začali
Začátek
mouky
letěl
čočka
neviděli
perspek
způsobů
hospoda
směř
smějeme
pohodář
židov
kopci
kopcích
Hrala
Hradec
nerozu
nerozlu
kámoškou
nepřijde
nepřizpůsob
rodinnou
Víte
existovat
minus
pamatuji
knížectví
Mějte
nenad
padne
smrtonos
spojovány
matemat
zjistily
Romské
tráp
Nechala
Nechtěl
větších
moderni
brany
BUD
projev
projektu
projevech
jižní
BYLO
plyny
vezmou
čtyřicet
citit
krajinu
listy
listi
listek
tema
temné
temnými
čistě
spadlo
spadnout
special
Dalším
TOHO
žadne
dopravu
francouské
tvrdit
uvaří
Boj
unaveni
##jezda
muzeí
bohaté
vytvá
nepříjemně
čokolády
beží
ukazovali
zámě
Jestliže
nevíte
korupce
jabl
Luci
blbe
hloupě
znáte
střílečka
zaplatila
haj
touha
pocity
huby
ztrac
vymr
usnadnuje
zamiluje
seriály
Pracoval
Pracovala
správná
zajimavou
Anglicky
bilé
vysvětlil
stebou
prostý
červeného
myšlenek
ekonomiku
Kájí
Káju
kouzelné
kouzelná
pomáham
salátem
##páňo
Afgani
doktory
Vlk
skála
skákal
sloužil
neobje
svete
raket
nevadi
zabili
Trp
ochranu
ktereho
starosta
Králov
vstává
ruzne
ruzná
skutečnost
vlivem
Poslouchám
kavárna
organizaci
napadá
ředitele
řediteli
povídal
povídky
Říkám
vyjmen
rostom
slevu
cukrá
Knížka
orloj
vozu
bezdomovec
kontrolovat
Japonci
sestřenici
mlhu
rasismus
čestina
současnosti
charakteru
hlásí
kratké
puz
strávili
chladných
průkaz
nabídl
nabídku
melou
obojek
značky
zviř
přestože
užiju
užitečné
Josefem
uvědomila
ročníku
hvězdu
traví
vybírat
slušné
slušny
diskuzi
menšího
Vltavu
alb
tvých
nemate
kreslit
francouzská
vtipnej
KDO
KDI
trávil
trávíme
utrá
##venčit
armády
hlídá
opera
rifle
kočár
navštiví
eva2
eva3
hubu
kruhu
krumpá
znich
potoky
použivají
Dnešní
Soči
úžasně
stravu
chvilce
Českosloven
dovolil
Rozhodli
urč
neodpově
můžů
můžem
ochutnáme
zhruba
občanům
horaček
přitelkyní
záchody
Marií
Vyšehradě
basketball
evropskou
módní
tváři
Dekuji
Opět
damu
dubnu
naštvaná
časopisu
čerstvě
Duch
balk
##rejmě
jezeru
neřekla
politickou
pečlivě
Slovensku
MILI
tlustá
vystoupení
prefer
buchtičky
MUŽE
centimetrů
původu
původní
ramen
neoby
podaří
romové
nemyslela
užívá
koupelny
koupelnu
komunismu
čokoláda
nestaral
nepotřeboval
omeleta
##ineckou
##lobené
průmysl
probudil
Princovi
umělci
Vodafonu
skaly
zrušila
stranku
zapoměl
vyhrala
panela
popelka
třpytivou
příjemná
japonštinu
všiml
Andrejem
kohoutku
Hradčany
kvetina
zmizel
vyrábí
zakázala
zakázáno
doktorovi
Mluvím
Písmo
krizi
mrtvých
nelže
románu
odvážliv
čekaly
nejoblibenejší
Kluk
husy
nenávist
růžové
zubů
vyřeší
Nebezpeč
zakopnul
Jonatan
negativa
vystupovat
vystupuje
podporovat
kroužku
SPO
procesu
zazvo
zazpí
##jížděl
hotové
hranol
##burgu
zajímavo
zajímavost
NEJLEP
vymysleli
Klause
Teplicích
fontana
otočí
pavouk
mějte
vydělal
praktický
Zavolal
policajt
bývalí
Bardejova
botasky
omáčku
omáčkou
vést
vykoupat
přestávce
vzniklo
neslyšela
odpovím
povidali
bratrancema
Kazachstánu
Bratr
HRAJU
pulku
##AVA
pojedem
##spívá
kulturním
samozřejmostí
Noril
Školství
zaznamenáváme
oblíkat
příspěvků
prázdníny
dnešním
trenéra
klubů
americkému
zrcadlo
Dělali
OBLÍ
vrchol
ŠKOLI
kocoura
následně
pišeme
funk
uvědomil
Dává
MEČ
Zvířata
etnikum
foukalo
šampan
šampáňo
podobě
mikiny
západní
kontakt
kontaktu
kluzkém
kámoškama
Zemědělské
Arena
halenky
jidle
zvědavá
##ORT
vzlétnout
Každa
Každopádně
nevýhody
nevýrazné
Nemohl
Ježíškovi
Američané
Pomalu
prohlídku
mluvime
tramvajem
šikovné
omlouvat
Katherine
Setkáme
setkani
Červená
hrdinové
okamžiku
hambur
zbudil
zbudila
pořídím
muslimové
Jackson
maturitu
zasloužil
Přátelský
titul
momentálně
##tikvari
palivo
planetě
zvladnout
demokratické
vyjádří
jednotlivce
Atlant
Merilin
ríct
Špin
nakrmit
poněkud
chápat
součást
součástí
nechutná
spisovateli
Bibli
fanouš
fanoušků
zařídil
migrantů
dávnověku
detektivní
církev
sestřenicema
KAŽD
ačkoli
##ávanější
stmívat
kolečkových
komentovat
komentuju
rozmaz
rozmani
pozemek
vagonu
komfort
automaticky
Sobotu
Gabriel
DISKO
Lesy
Warcraft
slíbil
udržet
vjeci
##nodušší
zařízení
podnikali
skromný
oslaví
oslavě
důvěry
voňav
trpět
vraždu
pricezna
utratit
sněhuláka
VŠECH
nešťastná
##00000000000000000000000000000000
klouzačka
Ostravě
Dovolená
KOUPIL
Terez
fitness
kyslík
chtejí
obejít
součastné
revoluce
deštník
čtvertek
nepochopitel
Překvapilo
zlomenou
Horáček
Kohoutkova
Navštívila
štastný
Hledala
RÁDA
Trochu
aerob
oděvy
##žlivých
porozuměl
pronájmu
vyfot
vzácné
souvislosti
skamarádila
inženýr
konstrukce
trnavy
duhově
nezaměstna
poplatky
Vybrala
Vybrali
Oblíbené
zpěváci
samoobsluha
Orestes
velkoměsto
konfliktu
Cílem
James
Jičín
MP3
Morový
Svobodová
srub
obvyklé
Polévka
domacnosti
nepřátelé
1989
uniformy
varianta
akademie
Brány
Okamžitě
geograf
mlíčko
mravenci
povýšení
popraven
mokrý
chřipka
vysava
rozvrh
recepci
1955
Bruselu
elektrárny
Omlouvám
premiéru
Charakter
Hitler
KRAS
vičist
zorgani
účes
pomezí
korkurka
##icochet
velvysla
vznášeli
Nevíte
Nerozumím
režimu
poplatek
jednoznačně
čtenář
Číňané
aplikace
nedaleké
profesionální
individu
Sibiři
Doufáme
MHD
Ozák
deníku
imigran
včerejší
obdivu
podnebí
vzájemně
malokdy
Veverka
dovezla
piknik
Kolumbii
nejdůležitejší
chatrče
doprovod
procedury
Zamilovala
tragédie
folkloristických
Břízy
FACE
Krumlova
sběra
utřu
zjednodu
úvahu
štrud
##JOP
nezisk
porozumět
Pojď
##oblíbenější
přotože
soustředění
Stromy
betonové
Bezpečné
vzdálenějšími
kelímek
neonemocnili
aragonitové
##admirál
přečtení
pralesy
prasatka
Nedavno
skůtru
intenzi
popletená
Cigarety
spolehlivá
Elzeárd
administrativní
hvízdnul
Avatar
Datum
Ekonomi
Habs
ICOM
Kůň
Ohromné
Srovnání
SRDCE
Vavřineckou
dinosa
##starostně
posílám
pohromadě
exkalibr
NAROZEN
smrtonosným
odvážlivce
Nebezpečná
OBLÍBEN
DISKOTE
Charakteristika
2x
48
67
64
Ag
Aš
AJ
Artu
AND
Bor
Bon
Bran
Brok
Bouč
CI
Cla
Cit
DJ
Dou
Dle
Doh
Dol
Des
Dáš
Dají
Dani
Dcera
Em
Everest
Fe
FB
Fir
Hezčí
Hana
Hlava
IM
Iza
Isa
Ing
Irán
Igná
JK
Jama
Jsi
Jíme
Jemu
Jery
Jasně
Kře
Kru
Kina
Klad
Klep
King
KDE
KLU
Krista
Kříže
LK
MM
Met
Mis
Mým
Mlý
Mincovna
Nob
Nig
Novým
OF
Oska
Py
Plav
POV
Původ
PAV
Přin
Peníze
Ri
RU
Rob
Růz
RITI
Sla
Sal
Sub
Skon
Smo
STO
Sčím
Stela
Sklo
Smím
Spravit
Snimi
Tem
Tám
Tan
Trav
Třeb
Tata
Tati
Tradi
Um
Umě
Udá
Uher
Učila
Ustra
Uvnitř
UJOP
VA
VĚ
VF
Vik
Vrch
Vstavala
Zé
ZD
Zvo
Zas
Zej
Zda
Zbý
Zdeň
Zmý
ate
aže
aty
air
arog
bú
bẏ
blu
bis
bol
blog
betlé
bisem
bičem
car
cis
ceně
dně
dová
dver
dněpropetrov
doupěti
fuj
face
fenka
feminismus
gdyž
gdo
gor
geni
grade
hl
jubilejní
kt
kv
kak
klem
kůl
kůže
kovy
king
kšil
klob
ktomu
lila
lvi
lži
lok
lump
lyska
mú
mud
mné
mleč
meno
nit
nova
nene
oD
otě
otom
osp
ohra
očím
ošetř
pó
pám
pse
povi
pily
ptali
plic
ptak
ret
rej
rict
rtů
sn
sd
sbo
sál
ster
sliš
sovu
slám
tle
tého
tvůr
uc
uní
uno
uná
usta
uká
ucho
ubýt
upravit
vou
vze
vnou
vlad
vině
vjem
war
was
wrest
zal
zeme
zhu
zvid
zpomí
účtu
úloha
čr
čla
činy
čti
ňáky
ŘEZ
řad
Šte
Šest
ŠLA
Šťast
Švéd
šl
šem
šil
šek
šeli
špag
šebest
šňů
šemík
šemíkovi
Žá
žily
ženě
##nské
##novi
##nkem
##nčo
##ěstí
##dni
##dci
##dlu
##ding
##kv
##kle
##kre
##ící
##sna
##sný
##sví
##snout
##sická
##slouchám
##tého
##era
##ete
##eček
##mar
##zla
##zala
##zlila
##zart
##ační
##bský
##belo
##bóny
##brech
##gli
##gby
##rší
##rzí
##rvalo
##yd
##yla
##yon
##ož
##ora
##oni
##hnou
##hovat
##hovi
##hřim
##hADKA
##áním
##áčky
##itelé
##išti
##ijou
##lm
##lud
##lené
##lštejn
##éra
##éni
##pů
##pli
##pne
##pách
##přá
##park
##vena
##vami
##vičky
##vkový
##žad
##ždě
##žis
##žděli
##žňují
##cená
##covi
##šká
##šnost
##šená
##šský
##šily
##šeně
##šují
##šující
##šením
##šovská
##jnu
##jově
##jská
##řy
##řují
##čovala
##čák
##čkovat
##ónem
##ALI
##ATA
##LÉ
##ÁK
##ňka
##ňující
##fí
##ff
##fal
##fel
##BAL
##NKU
##KE
##ŽIL
##ŽEL
##ŽEM
##xu
##xana
##ŘÍ
##ťe
##ťali
##ťáku
##ẏmír
##27
##25
##qua
##FO
##laš
##stitu
##strifika
##eng
##chní
##chali
##chnout
##ovit
##ovci
##ovek
##ovnou
##ověk
##ražší
naře
nane
nazy
naza
naraz
namo
naki
nased
natr
nazoru
nahrad
naděje
sej
##lejí
##list
##linou
##roe
nece
nelep
neska
neopak
nerád
neos
neráda
necest
nekončí
nečetl
nehraju
doly
došla
doslov
dojmy
poc
poď
pora
poží
počit
pojem
pošla
posed
poklád
postý
pošu
popela
pozici
ponaučení
##iní
##iné
##teb
##tera
##ato
##atem
##atou
##atky
##atan
##atur
tot
totéž
##točil
##kan
##kavé
prog
protek
prožit
prodí
prochá
##rábí
##rádi
##kole
##alka
##jer
##jeď
##její
##kum
##ničko
takove
##udě
##udík
sté
stou
zavě
zaba
zahod
zavi
zasy
zajít
zapí
zapomí
zaleži
zajezd
zastře
zařad
zažijí
zaťali
##lot
##lono
##lona
##noji
##nomorav
##mej
mon
motiva
##ill
##těte
mělí
##vab
##vaš
##vatel
##vavá
##vadle
##neji
##nečko
##nectví
##naším
##bye
##byku
##skáda
vyho
vyta
vyšel
vycha
vyskou
vynal
vyjdu
vystra
vyběr
vykoup
vystře
vyznamená
vyvra
vymění
vydělat
vybije
##ádek
kof
kono
kozí
koliv
konají
##lujeme
##voké
##volal
##deb
vest
vesta
vepředu
něe
##ert
obí
obr
obal
obtě
obíl
misí
misky
migra
misli
##adlové
svích
svych
svámi
nejš
nejle
nejni
nejča
nejspí
nejlev
nejčastěji
nejmilejší
jakej
jakém
roč
roka
rohlí
##líč
##líku
##lížil
##aných
##anba
kteru
odm
odlo
odcha
odbyt
odsu
odletě
odklád
odklo
odjíž
odcest
odvést
odmali
##jime
##jizd
##nát
##náší
dobé
dobř
dobách
tečky
tešim
težky
##mist
##mime
##ítí
##ítka
##áté
přiroz
přistav
přivít
přivedla
přijima
převa
převá
přestup
přestane
přestali
##ruhy
mocný
Jelin
náší
náké
nálada
nározeniny
nálady
nábitek
jedný
jednat
nemněla
mámi
##icko
leč
leče
ležela
coby
cosm
##vích
nebojíme
lidě
lidové
lidská
lidských
Počka
Poter
Postři
českem
##ejme
##nyk
užší
užasný
##stají
##štíme
##štinami
##mělo
##měrně
živé
živit
##láz
##lář
##láno
##láše
Nabí
Nahle
Našli
Naučila
Mohou
Monika
Mobilní
Mozart
prově
praha
prahu
##ston
##stojí
Prahou
spro
spách
splní
spanel
##tař
kačeny
karate
kapito
kaskáda
##dani
##dané
##isky
##louvat
##oba
spotře
mum
muží
##mun
##lémy
abysme
mapu
přítom
příšel
přípravy
jíná
jízdu
tabo
hraj
hrachová
roztá
rozhla
roztr
rozvinu
rozbalil
##číte
##čína
zásu
záhony
##bírat
##bíráme
těšit
těšší
těšíme
jeno
musil
musely
musiš
studování
##istů
##ladit
##seb
##ždý
jazý
vým
výst
výle
výmě
výta
výpad
výbu
výhra
výso
výstře
podně
podniky
podpatky
podzemí
Procházela
prátele
prádlo
##vách
koukáme
koukaj
##hodli
##dii
##mental
##mívání
nikoliv
nikým
Čeho
Češí
##ledni
##ledovat
##ledanou
##maz
##mani
vědu
věčně
věcem
vítě
vílet
vínem
kráse
vztá
vzpomně
mamé
mamiň
Neří
Nesou
Nedob
Negati
letu
leta
bala
babi
##viku
napád
napít
napřed
napůl
chtěj
##bech
##ázky
##ázku
míjí
mířit
##onů
##onádu
lísk
líbyt
aute
autu
nosem
nosil
nostrifika
posou
pospích
dobrě
pomod
jindy
tur
tuč
předmě
předse
představa
předpla
##padě
##padl
semsi
##zika
zača
začátkem
jime
jiřička
poznali
dávala
dáváme
dávku
##vych
##rik
##ria
##stějí
##letou
námoř
soupe
souhvě
malem
malovala
malými
vidala
videli
past
pastel
paráda
skola
skočit
potkat
Což
celodenní
dik
digitali
##stečně
pracovky
vlasti
vlasů
vlajka
##radil
stoj
násilí
cesti
##alosti
kniže
zdrá
zemřít
zemřeli
zemřela
##spe
sklízí
##rovství
počtu
Chcí
Cheb
Chvíli
##entů
koupání
kamarádkám
ruč
rukama
ruského
Vegas
černej
černými
##stiku
vag
vašem
vařít
Jára
ing
institu
##zané
hodini
spoluprá
Nejvet
Nejspíš
konver
kontra
mítné
##dělal
zpří
jmena
jmenujou
##reb
##věti
stať
stava
staři
staci
dalšími
rybu
nepsal
##dáš
##dáte
bydl
bydliš
bydlili
##ůzou
dlouha
hlavních
Mysliv
čaje
časti
Zařídila
100000
##otná
##cházel
léčí
léčit
léků
létali
##ozem
autone
lik
lilo
libo
lišky
libili
bylin
jezdily
jezdime
Stal
Strej
Stmívání
##běj
slunečko
##tejte
dech
deště
debil
delala
důstoj
vysutým
vysledek
##ngle
meče
mexiko
##pisy
oblíbení
oblíbene
##zíky
samet
teďka
různo
tiská
tišší
tichý
nevzd
anim
mluvim
volí
televizor
televizní
Jac
Adamovi
tré
myší
nebili
neberou
pravá
páni
partě
tati
tatovi
Dome
Kolá
Koste
##ovích
světová
kluky
klukovi
republikou
sester
##livou
pohar
pohnu
##inout
##ládám
slovních
vip
viš
vile
vihra
virtu
oprá
opil
oprac
oproti
##díl
##kovej
##kovská
stromi
věta
dovoleně
novo
Petřin
sony
sopky
zajímavém
zajímavích
chybě
těžkou
kolech
popovid
popcor
kameník
milka
##pade
stárat
stárne
dvaceti
dvacát
syny
Marce
Maria
starej
starém
válet
vážit
vápencového
Vyt
Vyh
Vybí
Vycházka
Vymysli
stejným
stejnak
poličky
řeku
pout
##lými
##lývá
jestliže
počítání
barvě
##chyby
##moce
##astrman
vůdce
volně
kdybys
státou
fotit
fotbale
190
třidu
třiceti
uklouz
##ákům
Tajemně
Rádá
okres
okradl
okraji
##stán
nadlid
nadraži
rozhodování
##máci
upé
uprost
uplynu
upekli
plastu
nesu
neslu
neschop
nespokoj
krč
krmit
teply
univerzitách
dalšího
daní
davají
davaji
tříd
152
rychlo
zamek
zamnou
historku
historická
modu
modní
modlit
zkoušce
dobrýho
odpu
nemocny
nemocnic
patku
patřit
##kolce
Podkar
matice
nedoz
nedoká
nedočka
nedostá
nedostanu
nedostatky
manzel
##busu
svěřit
restauracích
Odkud
Odjeli
Odvez
holce
Každého
Mamince
zvírata
##naty
zimy
vypadala
otvo
problémi
návští
sedn
sedim
sedadlo
studii
studij
studiem
běžím
běhám
běžné
běhání
##ůžek
Nemě
Nemu
Nemů
Nemys
Nemyslím
##edbal
##brala
zelo
známek
strašidla
Děj
ps2
plát
nepoma
nepozor
společne
kary
Mate
Macou
Maraton
tank
Toma
zapsala
##vykla
umý
umřít
doběhly
sportoval
sportovala
autobusi
Obli
Napro
Napřiklád
dálnici
zůstan
2004
důležití
štěsti
štědr
setkáme
školů
školnim
měsící
Doba
městěX
vypla
vypila
bíl
bílo
bílých
bukových
zept
Noki
##árské
##lením
zakr
kamaradý
kamaradce
Pres
Průvod
pedo
fotball
Přečetla
schval
hrách
hrály
hrány
Musite
uvidíš
uvidime
květiná
stavu
stavím
stavili
nemohlo
silná
silny
Paci
##atikou
masová
plavební
##znali
neutí
neuvid
neustale
vánoc
##fornii
domácích
dlouhe
odejde
slavnou
slavila
slavime
exeku
množstvím
lehli
lehly
vln
představuju
představují
zvířátkách
Brit
ovlada
penězy
##tečnou
tratě
strí
strmě
strhli
středních
středního
Karlovi
Karlovou
Domýšlivý
##lůž
kapit
kapelku
Přídu
Příslov
lokali
úkolů
kompo
zloby
zlobit
znal
styská
střech
Vánocům
láskou
##votní
královno
chlapců
oslavíme
oslavuji
většiny
kdybychom
##torka
připravíme
připravovala
připravují
pohádkami
##herez
Vano
Vaší
brána
bráchové
nejdelší
nejdražší
daroval
##ndin
##ndal
stěnách
spolužácích
překvapen
překvapuje
telefonovat
zavolej
Velko
Velkou
Velmí
nudit
sídli
nemusíte
##rchovat
nejaku
ními
narodní
narodit
obědvali
uznat
býla
býlí
bývala
býváme
hrozní
uměli
umělec
snědla
##stoupit
jelena
##inále
##nadlo
skušenost
prosadit
Jmenoval
Jmenovala
nohi
slyšeli
změn
letošní
Zájmy
nechtějí
vraždí
bohaty
zachovali
skvělí
167
##ENA
spokojeny
##záka
dopisy
priprav
privati
DOKA
Vážím
nevěřím
studentem
zbyla
škodu
škodliv
kupuju
kupujeme
Tyu
břech
zavražd
místnost
NES
četba
nakupuji
chutný
zdejší
hrst
hrne
hrdost
umíš
##manent
##skeho
Albrech
Rozum
táké
##jelo
##ženého
##šeností
držím
##dél
zahradou
postely
domácího
Asie
Hodí
desek
některí
##ějším
koníčků
tancuji
antikvari
sloni
##hera
statě
obrazu
obrazek
národnosti
základem
základního
Jiho
začínám
jasno
menoval
pozorovat
##STÍ
##STY
poznát
##ktů
speku
mouchu
spatky
spatřil
kroků
letěli
##grafu
herny
čočková
permanent
pujde
pujdem
polefká
stromky
hospode
směje
smějem
##řídit
turistické
turistika
kopanou
samotě
řiditel
pomahali
pomahala
nemůžeš
nemůžete
Nejdůležitější
Nejdřiv
důvody
kámoši
Nepro
jemi
jemnou
ostří
ostrav
dozví
zvyklí
zvyklý
rodinného
rodinném
##choď
zpívaj
zpívající
literá
ministr
Společ
bába
básni
nenav
nenajde
##čanech
žiješ
jinýho
smrkají
spojeny
tráví
trápit
nelíbi
anor
brala
brachou
lah
špl
šper
špič
prezidentovy
projevů
plyne
používali
internetové
citíme
úspěš
úspěchu
vybrali
krajiny
krajinou
fotografovat
davam
čistí
říkalo
Roku
##vněj
zábavě
francous
tvrdě
Pražan
Pražská
Box
dvoje
ptáčky
muzeu
Divadlo
Divoké
vytam
bera
ukazala
zámky
##veta
nosít
pohledný
##oooo
přinest
pilníkem
podzimní
Bezdomov
Bezstarostně
Lune
střílí
zaplatí
zaplatili
Pavle
kdibi
hurá
činnost
měsícu
nést
seznamu
správnou
zajimavá
pokračuje
TAKY
úzké
úzký
##činku
##sána
legračně
každopádně
Angličan
bilá
kytička
vysvětlí
vysvětlovat
stezka
prosté
červenec
myšlenku
oblekam
ekonomická
pomáháš
pomáhame
alkoholem
banku
fungují
Plzen
Soud
Soubor
Soused
delá
vzpomínky
Tentokrát
Vltava
utírat
řikali
štasný
neoblek
podival
poznatky
sociál
rakety
ženský
ženská
oblak
nemužou
Cestou
Cestovala
Panenka
Tró
ochra
##ARK
jeskyni
starostli
schopen
schopná
Jezdí
Jezdit
mrzí
mrskat
slepý
vstávala
##racejí
ruzny
##brž
polích
políčko
politiků
politikům
Harrymu
Vojt
vzdicky
vychovat
nechodim
nechodili
ZAČ
organizací
vtipy
kostelní
národu
náročná
Jeníčku
pekně
peklo
pekné
vyjíme
důchody
důchodců
vzduchem
Ukrajina
borových
hlubší
ničíme
sleva
fakulty
absolu
pojmem
mostů
svaté
nechcete
bezdomovcem
bezdomovcům
uklidim
pisničky
Boha
hlávkový
křesť
zlepšovat
průšvi
soudru
soudruh
nabídnout
přinesou
Autobusem
křup
louky
oboha
značka
zviře
zviky
zvirat
baskedbal
přaní
službu
zachránit
sympatické
zvláštnosti
pasou
uvěřit
##ležíte
obyčejne
Nico
Ruští
kvalita
travím
vybírá
přestěhovala
diskuse
diskutovat
diskutující
vždický
##ERE
rozesm
hodnot
zvířatům
hrdiny
hrdinka
francouzský
Beij
Beyon
fanat
kostičky
kosterní
##lušy
nejdůležitějších
ROSTLI
mezinárod
##LOH
kočičku
kočičí
romany
příbuzným
Starem
neviměnil
navštivila
eva4
Horẏmír
datadi
založit
založeno
založeny
stravila
stravili
nebezpečím
Parou
Report
Popoví
plánovat
plánuju
ochutnal
půvab
zhas
šatů
natočené
jestrá
nespí
nespal
stoupá
stoupl
občanství
zákazník
trénuje
Marianské
Vyšehradu
Matky
evropských
zalíbylo
záchranu
Berlíně
džus
džusy
džusu
dubů
km2
ranních
sázky
sázet
naštval
nehty
posílala
táborak
Duty
visi
šero
jezci
jezdění
dokáží
vypravět
zápase
politická
pečeme
pečovat
nezapomenout
otevřený
hřebí
mýslím
doporuč
vystoupil
vystoupila
mistrovství
mailu
černošští
opakovat
zaměstnanec
neome
nemyslí
koupelně
samostatná
Drahá
Dražď
mlékem
uspěchu
vedení
průvodci
bezpečná
realitní
policista
policisté
rajská
barevná
barevného
laskavým
Andro
dokázali
trestu
tresty
večeřet
bramborová
umělcovy
princezně
LID
Niko
promění
proměnila
strýce
popelář
kamošema
třpytí
roztomilý
formy
zbláz
Španělsku
přísnější
japonské
papoušky
všimla
Francouzi
Pouze
dvakrat
tlak
zmiji
nerozuměli
chemických
nápisy
doktorce
Mluvila
bláz
blázni
generaci
##ííí
chlupat
odlišuje
závislá
tydnů
potreba
usmívá
čtvrtý
JEDNU
špinavá
BOLE
Knihy
Slavia
husitské
růžovou
ságy
tmavo
varit
zranění
zvýšili
procent
obleky
svími
vysokoškolské
zakopl
drogách
Havel
Sklízí
Uviděla
Uvidime
Varů
hygi
pochvá
konečné
vepřo
vepřové
mateřské
mateřský
nočním
hlodavci
mlade
nastoupit
nastoupil
nastoupila
nelibí
neuměla
nefungující
hotovo
přizvu
přiletěla
atmosf
NEJAK
Spojených
diskotéce
humorem
Krystal
Krásné
Ovládání
RODINA
blití
fontá
fontany
kloub
vrstevní
motorce
motorky
vyrobeno
nemluvil
sportovec
dveřích
cukrovar
chalupy
odvezla
přestávka
čertovi
Kanaď
medií
znamenají
Voják
spisovatelů
zúčastnil
Forks
Kegg
Valent
želvy
zaujal
chováním
odměna
svíčková
profese
rakovina
samozřejmost
Smetanovy
Norsko
Radši
Sestře
jét
ošklivý
zpočátku
ŘEKL
vyrostl
proudu
výrobu
výrobě
vzbudí
přednáška
začinat
dnešních
boxu
písemní
nadherne
nadherný
velikonocích
široká
široký
Bílá
Herman
basseb
biologie
biografu
ohrom
účastníky
Postupem
##kážej
děvčat
pomůcky
funkci
Mužeš
fyzika
fyziku
lázněmi
Bývají
Druhy
Italsky
Pravidel
Zvíšil
brečet
fouká
sakra
srovnání
šampaň
probíhá
##jektivní
mírném
noteboo
poslouhám
poslouchají
kontakty
Zakletá
haléře
pudeš
píšou
vstoupit
ztemělo
nesouhlasím
nesouhlasil
odvahy
pramenů
samotný
mladšímu
047
046
DELA
HODNĚ
Krteček
Loki
bonbony
blýská
blýzko
normy
zkončil
zkončila
kulatou
slunečné
slunečný
strašidelný
strašidelná
písmeny
prohlídky
brokov
kovem
táke
dokument
protže
komedie
Pomáhá
kamaratky
kuličky
vlaštovky
trage
logická
sušenku
vojenský
nenechá
kalendá
psychologie
fantazi
profesorka
Ostatně
TELEVI
továrna
továrny
##hnědé
pobavit
pořídili
obklopilo
přiběhl
indián
registr
tatinkovi
navštevu
kritizovat
mnohé
Nějaké
trapej
Představte
srandov
Angeli
kitky
péče
tisic
moravská
rohlík
vzniká
navrhl
1947
silvestra
miliónu
aktuální
vyzkoušet
armáda
prodloužit
Seznámil
absolvoval
Fakt
Hledám
Merk
Mezitím
Mezinárodní
Olomouci
Vstávala
pěstovat
uvíděl
špínu
poněvadž
chápu
Policie
správy
rozkvet
závěru
závěre
slovanských
manažer
vyjadřovat
Kdiž
McD
Obecní
Olympiada
bohuzel
šokovalo
##óól
segru
segrou
zařídit
obecně
kadeřnictví
rozdělila
Tokiu
vznikaji
napínavá
placená
uměleckého
demokracii
nervozní
omluvit
sestřenicí
Hedvika
Ivan
ODS
Ondřej
Zůstala
limonádu
upadl
polykali
stmívá
materiály
rozloučit
zásadně
napíše
pohadky
zvlašt
komfortní
surově
přemyšlela
báječné
Trnavě
Pardubic
šunkou
policajti
Edwarda
Gabriela
Housátka
oněm
slíbila
šuplíky
##way
porovnání
vecer
češství
president
potvrdit
inspir
pravdivé
povedlo
Sportovní
stříbrné
PŘÍDU
oranžová
AUTO
Dovolte
Kamarádka
Svíčková
Svíčkovou
gratuluji
ňákých
štestí
Žádný
nejedla
hokey
přírodními
můzeme
proběhlo
Koněprusy
rachot
POPIS
Národního
čokoladovou
houbami
hudebníkům
Seznamila
poděkoval
příšerné
žaludku
aero
depresi
fráze
fetovat
fronta
help
kecy
okolní
vadilo
šikanovat
šedé
dorazila
porno
propaganda
lesklé
spůsobem
##sicist
rozkládala
diamant
rekordů
trnavi
slavnostní
představivost
vraceli
CHODÍM
Kyrgyzstanu
konflikt
Vrátil
hlídám
ucitelka
žloutne
porušení
obrátit
Polévky
Monroe
rozvoji
Problémy
baterku
Stýská
parlamentu
lázeňské
prohlásil
zdvořilý
soukromé
Televize
Londy
Otevřel
Sýrie
kakao
očekavam
zodpovědnost
pobíhalo
vyrůst
kotle
něgdo
svýma
jakéhokoliv
rozhledna
záclony
posilat
##padava
myslivny
bavímně
povolení
Antark
nestranné
semestrů
Horimír
gymnázium
diskriminace
Dvořákovy
Aktau
DVD
Obyčej
Putin
RYCH
Univez
higi
smyl
senior
ztichli
šroub
počkal
zastupitel
nejnovější
lidožrav
kazdej
příležitosti
poslušná
Střední
dedečka
Jazykové
vibiku
barbuchu
zakřikl
##LASOVA
Liberci
Nepřekážej
prostředek
pisniček
alpská
blížící
sáňkovat
Přemýšlej
Brambo
Blízko
Finska
Gratuluji
TŘEBA
mláď
rámci
zistila
údajně
zaskočena
##pomeňte
převyprávění
##vědomý
##munita
přívěsek
rozvíjet
poschodí
Největším
Strigo
trolejbus
zapamatovat
vlkodlaky
surf
uzemění
Závislost
Předkrmy
mentalita
farmář
MAMINKA
zčervenali
vodopádům
komentáře
ŽIVOT
strojírenství
Dárek
Lepší
Vampýr
bujné
hriště
křídla
lvl
ohleduplná
##maketu
pokyny
prostoru
stůle
děťátko
Prachovské
výstupu
Comebacku
##rovečerní
Zazvonil
oplatky
nespatřili
historiskou
zapálili
komorou
Bartoš
Divadelní
jabloní
##milovný
KAMARÁT
KAMARAT
Skříň
přírodovědec
nejduležitější
Kozoroh
osedlal
vlese
účasti
naládu
nekuř
stvoření
odletají
připoměli
Jesení
Mojžiš
kavarně
maďarský
baboška
kurioz
dlouhodob
deštivých
trpaslík
zemědelství
Prezident
schořel
objektivní
jogurt
zahlídl
perfektně
ribnik
Horemír
adrenali
STRAŠ
Čtvrtý
vykopával
Moučníky
zapomětlivost
nereagoval
benzín
Afgháni
Rumburác
Egipta
neomylný
Ochechule
Frýdku
Gargamel
Jekatě
Sakra
Svátek
SUPER
Thrawn
Zedník
Zbrašovské
gepardi
jázyk
lhostej
vlív
šodou
občerstvení
těhotná
devíti
Technické
Dopravní
Karlíkovy
popkorn
zkušebního
nejdéle
Lucifer
KDIŽ
krumpáče
Norilsku
vičistit
Habsbur
NAROZENINY
DISKOTECE
Izabelo
Ignáce
Kinate
PAVLASOVA
Tradice
Ustrašení
Zdeňkovi
Zmýlená
zpomínali
prodírali
##nomoravský
vyvražd
mislivec
nejspíše
odmalička
Jelinkova
lečební
výstřely
Nedobré
Chebská
Myslivna
popcorn
Odvezli
Macourka
Nokia
květinářství
Keggs
Vampýrská
4x
46
5x
56
65
650
75
700
AM
Aho
Art
Arch
Apak
AHA
Aqua
BR
Ble
Bat
Být
Cer
CER
Crus
DŮ
Důl
Dela
Dětí
Deri
Festi
FAV
Gu
Gym
Graf
HI
HC
Hlá
Hvě
Hroz
HNE
Hrála
HESK
Ig
IC
Islám
Iráku
Jj
Janu
Jeru
Jéé
Jistě
Ki
Kned
Krou
Ktery
Keň
Los
Mň
MN
Mel
Mít
Mala
Mily
Míš
Med
MEN
Mněl
MIL
MAL
MET
Múj
Nam
Nar
Ner
Neni
Nata
NOV
NAK
Obo
Ope
OKU
Odes
PD
PL
P1
Pal
Pit
Pila
Pala
Půl
Pir
PET
Pátý
RI
Ran
Rty
Resp
Sá
Sid
Svo
Sty
Sha
Slep
Spis
Skup
Slez
SLU
Slouží
Slevomat
SLOH
Tud
Tim
Test
Tur
UZ
Uka
Učíme
UDĚ
Ujezda
Vs
VÁ
Vod
Vic
VLA
Vstal
Vadí
Viš
Vita
Wiki
X3
X40
Zu
Zt
Zbo
Zad
Zvě
ZNA
Zemi
Zpě
Zitra
ado
are
bej
blou
bri
brad
bliz
bron
cv
cla
cte
cví
cty
ceru
clověk
ceník
dak
dus
dít
dri
evo
emi
eco
efekt
fí
fle
flo
gam
gan
gej
hen
hit
har
hej
hup
hůl
huč
hul
is
jó
jám
jina
jom
kí
kc
kne
kdě
kub
kvé
kruh
klíd
lě
lem
lát
liska
mp
mly
mark
mleká
nů
niče
ol
oka
oly
oký
ose
ove
oži
oval
oct
out
olympi
opadava
poval
publi
rama
rika
růže
scha
sned
shá
snem
sovy
sang
sbít
sháněli
tadý
un
ub
una
unes
uzdrav
ucit
uved
uroveň
uvést
ustele
vil
vsta
vala
vily
vlez
vouch
vcera
yá
yor
yako
zen
zří
zlu
zdu
zlou
zvá
zíme
zrad
zlik
zot
záme
zkra
zrz
zvik
zkrátka
Úzká
Útěk
írán
úna
úlov
útu
úraz
Ču
Čar
ČIS
ČAS
ČESK
čvrtek
ňak
ňik
řa
řvaní
řady
Še
Ši
Šar
Šum
Špat
šm
šne
švá
šik
šlech
švéd
ůplně
Žila
žem
žkou
ženi
žár
##není
##nty
##nuju
##nsy
##nujeme
##ěhli
##dn
##dky
##dné
##dny
##díme
##dový
##dlý
##drovečerní
##klá
##klid
##kii
##krás
##učit
##íto
##íce
##íci
##ílně
##sť
##sali
##tm
##tál
##tovi
##talo
##tovali
##trem
##tasy
##ejí
##ešel
##eles
##mát
##minu
##zl
##zin
##zil
##zav
##zlí
##zeme
##zké
##zili
##zování
##zkat
##zdela
##zujete
##až
##ara
##atel
##bám
##bid
##broj
##bicích
##gan
##gáry
##rci
##rde
##rlé
##rsku
##oe
##oto
##oké
##obyl
##ologie
##hd
##hí
##hna
##hoval
##hada
##álí
##ávám
##álit
##ijí
##leno
##ét
##éš
##éný
##énu
##pp
##pám
##pru
##peme
##pič
##pti
##před
##pie
##pust
##vci
##vina
##vém
##vini
##OŠ
##ON
##ZV
##ZDN
##žem
##žád
##žova
##žnost
##žuju
##žene
##žňuji
##cy
##cl
##cro
##com
##cinu
##coval
##cené
##ceni
##ceny
##účt
##šy
##šinu
##šče
##šena
##šenou
##škod
##škovy
##školy
##šovalo
##jin
##jená
##ják
##jaman
##řou
##řeme
##řské
##řený
##řeno
##řením
##čmí
##čeni
##čince
##čaty
##čkovy
##čující
##ýna
##óu
##ůžel
##ůdce
##PA
##PG
##DLO
##LKU
##LNI
##ňu
##82
##ŠE
##fou
##fkou
##ftek
##fón
##BOU
##ID
##TÁ
##ROU
##RODA
##NIL
##KÁ
##HY
##HLE
##ŽÍ
##ŽI
##ďli
##ťou
##ÉM
##SA
##SS
##CÍ
##VNÍ
##38
##10
##14
##15
##ÓÓ
##ėře
##lac
##laci
##lací
##lamentu
##emb
##emé
##stem
##stný
##stát
##stic
##enal
##enit
##enkou
##enství
##enuji
##chov
##chovat
##chnu
##chta
##chala
##ovem
##ovím
##ovory
##ovců
##ovického
##ovicích
##radu
##rama
##račku
nala
nast
naně
naři
naru
nado
nasa
nadí
nakon
nachy
namá
nabý
nastane
nahlá
najede
nalezl
nabožen
nastroj
naivní
naštevu
naskočil
seb
sei
sere
sedá
sekret
ježí
jesti
jezí
##leti
##lime
##licí
##livi
##live
##livu
##rome
##rosti
neg
nein
neka
neus
neprav
nevní
nešel
nespě
nešť
nedělám
nekým
nečtu
jsí
domi
dodala
dojela
došly
docelá
dodrž
donést
doškoly
poro
pože
potu
posto
políb
poezi
poklo
postře
popravit
postoj
##ininy
##ines
##inců
##telá
##tební
##teratu
##tesu
##odě
##nín
##níce
##níčko
byde
byse
##tomi
##kau
##kaš
##kani
##kater
##dynka
##dychli
prok
proně
protá
prošli
prodat
protější
promiň
##něstí
##něním
##řek
##řelé
##řekla
jsemi
##cej
##cedu
##cedes
##kote
##kolí
##kologické
##alne
##alního
##hopř
##jedela
##nior
##ničí
##ništích
stri
steně
strou
stati
stodo
zate
zave
zacház
zaznam
zajdu
zadek
zabava
zažít
zajede
zaspí
zareg
##lohy
##lock
žeto
##med
mom
moč
moze
moru
mojem
motiv
chc
cham
chovaní
cháp
##těšil
měs
měsici
##řika
##neb
##žev
##žej
##žegorod
simu
##ida
##nach
##skak
##skovy
##skich
##cili
##ciplí
vyc
vyru
vyví
vyse
vyma
vybi
vysky
vyděl
vyběh
vyšet
vyber
vystava
vyklád
vychut
vystr
vycházet
vyrazit
vystop
vyjev
vymislel
vybuch
vyúčt
##jíte
##arm
##arou
##arkt
##pos
##pole
##pona
##ších
koů
koť
kotě
kolu
koště
kolé
kopat
koži
koním
kopi
kolen
kopy
kolika
##lujou
##lubit
##vobo
veget
něč
něčim
##bol
##bori
##avce
##avno
##avení
##avec
##etky
##etnou
##ethe
##erv
##erve
##eke
obuju
obvik
obvin
obsad
mič
mito
##adt
##ado
##adím
##adily
svit
sváz
nejist
nejmí
nejve
nejrad
nejzábavnější
nejblí
jakto
ročně
rosvít
rošlapal
##lín
##línu
##uska
##anem
kteře
##lynul
budet
budiž
buděš
hodě
odo
odstav
odlet
oddí
odjedu
odbýt
odcházím
odsud
odjíždí
odnést
odmala
##jila
##jilo
##jiždí
##šející
##šehradu
##náty
dobrot
##mir
##miňte
hob
hoř
honem
hopu
honili
hojně
##asa
##ash
##áti
##átem
##lovala
přile
přivo
přistěh
přijemný
přibýt
připal
přiblí
přibít
překa
přeprav
překlad
přehá
přežít
přectav
##ruv
##ruj
mocná
Jean
##ičák
náký
návy
##don
##dox
jediny
jedena
jedinou
jedného
jedném
jedneho
jednim
##imse
nemla
nemněl
nemame
nemůzu
domo
domově
domýšlivý
ledy
lečit
lečení
ležím
lešení
copak
comeba
##ori
##orex
##vířená
lidová
lidmy
Polo
Pone
Potí
Pokra
Pohled
Počet
Postava
Pořad
##zdil
čep
##štěv
##štěli
##štěsti
rádoby
##stafa
##štví
žihad
##lás
##láky
Naz
Narodní
Naoběd
Mobil
Mont
Mobile
prd
prič
##nut
##nuty
##tugal
prateli
##inali
##inact
##oma
##kán
##kářem
##kální
dělo
spin
spíme
spřá
spusob
kašel
##danech
##ish
##louva
##obrus
spot
spolé
sporák
##ováný
mapě
mafie
přístav
příchu
přísně
případy
přístavu
jíných
jízdy
tah
tají
deny
hraček
hranicích
hrachový
hradeb
##siš
##sibi
rozvod
rozbil
rozpu
rozsed
rozbila
rozmys
rozsedli
záz
zády
záleži
záloha
těšili
jenž
jenem
##tidy
##tion
musít
studený
studovaní
studuješ
##istina
##ladní
##ladil
##telů
##telní
##telných
##sela
chodbě
Takto
Takoví
jazu
výprav
výži
výška
výher
výběh
výfu
výhodu
výletu
výcvik
výjime
podpá
Prosim
prát
##váky
##váji
##baj
##bař
kouka
koukla
koulovat
##hodne
všechne
##dici
Čekali
Českě
věr
věda
věči
věčinou
věnuje
vědec
##ratila
víra
víbor
kráv
kráde
kráčeli
vzt
vzrů
Neo
Neod
Neva
Neumě
Nebud
Neděle
##hač
##haní
##hané
leté
letné
letního
letenky
bará
napl
napis
kun
kula
kupon
##behla
##lepené
##ázi
míla
mírné
##onem
Mámě
líní
líbez
##veřej
zeb
zele
zevněj
nojo
poslanec
pomat
pomys
pomyslet
jinam
jiních
tuk
tuli
tuzem
tužku
##umy
předme
předčas
předmet
předpro
předchozí
##padají
semínka
začla
začli
začlen
##rátí
##rátit
typy
jihu
přen
přal
přit
přala
přeno
přemí
##stavá
dán
dávam
##rií
##riv
##riskovat
##stější
Jaky
##letní
radnice
radějí
##buk
sousta
videl
vidíš
papi
pařížský
skoli
skolu
potam
celem
celých
celos
divát
dijaman
##vníci
díly
dílem
dívame
říc
říši
vlaků
vlasní
stojím
cestami
cestující
kterýma
dostát
skak
skám
##roví
nějaka
nějakem
##lemy
počá
počest
počtem
počátku
počkej
Chi
Chví
Chceme
Chrání
##entoval
##entům
osol
koupi
kamarádit
nechtel
##ověděla
##žující
černe
##ocení
##stika
vašich
třebí
krásou
krásami
inf
Nejra
Nejkrás
beze
bezva
bezvad
končila
konkré
##čního
##síčný
nikd
##rodá
rodičy
jmenuj
venčí
state
stači
starom
staletí
starala
stařenka
dalsi
dalnici
neps
nepřed
nepudu
neprop
nepovo
nepamat
nepoved
neplánuju
stranou
kral
krabici
##chují
bydlil
##enění
##verzitě
hlavni
čarodejnice
Zají
##cházíme
lép
autorem
libit
bylina
byliny
##sař
režis
##hledě
jezdci
boju
bokem
bolel
Stat
Stří
Stál
Stráv
##skách
slušní
sluničko
##tejl
můžet
důklad
všě
všel
##vald
vyslech
vysvobod
oblíbených
bavý
##zíte
same
samej
##tíka
dováděl
##chodec
Tešim
babiče
vole
vonělo
trpě
tričku
cihli
cihly
cigani
myrhu
pravdou
pás
pách
pády
pálí
páteku
možný
onlin
dule
ducha
tatka
tatar
Dole
Dostali
Kof
Karlem
světý
nezlo
nezbylo
nezodpověd
vodičku
druhem
druhých
druheho
špatným
pohra
pohře
pohátky
##tární
##soudil
pořat
##láda
##ládat
slovem
vir
vika
vivenčit
##rozence
opí
##ecat
##bord
##bordu
##borový
bratrovy
##kovní
##vodílně
brzd
brnění
##raznější
Petrem
Jedině
sochu
socha
těžšký
opravovat
pokojem
##opust
níže
méno
méďa
navý
navste
pops
popro
popsána
kamkoliv
kampaně
milujeme
milenec
##pané
státe
stáva
stáji
stávám
dvanact
smát
smrad
Mary
startu
vážim
vážná
Vyhod
Vyjeli
Vydali
##valit
přesnost
večeri
bytovali
poliček
Českém
zdravi
zdravou
##dlel
řetě
řešili
řetěz
jmenujes
pouzi
použít
barvami
##orymír
vlastni
##moci
přijezdu
vůd
volám
volná
volneho
##zofie
##zochodec
##řejmně
Chtělo
Chtěly
státních
píla
peníz
3058
192
oblečen
Rusi
Rusů
##učim
##učování
##učast
##vident
Městě
Tade
Přitom
Přidá
Přišla
Přijde
Přijede
##louchat
upřim
plati
plakala
placení
neslav
nesluš
nesledu
jednomu
půjdem
krů
krbu
teplou
udělaš
udělame
davaj
153
raper
skončení
rychlou
historky
historicky
modro
velikou
velikost
dobrými
číhali
nemocna
patrně
patřilo
patnácti
##dene
krasnej
krasobrus
Podob
matkou
matiku
nedostat
nedošlo
nedozv
188
1830
Těsím
##kend
sebeji
sebevědomí
světo
svědom
##kevní
##ostrov
přijma
přijmul
Každou
1111
procházíme
##natý
povšim
vypadl
vypadali
Tenis
Tenkrát
mladi
srnka
návrat
tátovy
pojeli
##krast
běhat
znamí
##píše
##pířem
Nemáme
panenka
##baví
vyhro
obědy
obchodním
napsali
známými
##rávý
strašit
strašil
Děcký
psů
psál
nepochyb
chlape
kartě
karlov
karlštejn
Maje
hlavo
hlasi
hlasem
##ituri
tančit
českym
kulturně
lesů
sobu
sobe
sobec
ostatně
ostatni
umřela
Oblek
dálce
dálky
zůstalo
2003
důležity
setkame
setmělo
hezkych
červene
zahraju
##RACE
##RADĚ
školni
školním
školních
telefom
telefón
telefony
Doběhli
##roub
##ánku
vypou
vypit
vyplatí
bílej
vesely
bul
##telili
Nosím
##lenka
##lenica
zaka
zakony
zaklepal
kamaradí
kamaradkami
kamaradkamy
hradů
Prší
rozumněli
Některý
Někteři
peří
pešky
horším
fotbalové
##echno
178
176
##stelu
postavě
postavena
Musime
Musiš
uvidela
čekát
stavitel
stavění
manželce
novýho
silné
silných
##LALA
Patek
Paříž
Paříži
nádoby
Franz
Franci
masarykově
plavou
miliardy
objevují
víkendech
##pul
dlouhým
fakta
slavím
slavný
slavných
exper
lehne
lehnou
lehký
lehči
lehke
hledáme
nezabil
nezažili
vlh
vlků
internetem
Baby
Bastík
Brej
Brzo
ovlad
penězi
Milan3
fazo
##ulky
trať
trava
trasy
traktor
podobá
##vapení
strništích
středne
povídam
kapři
Příjemně
Přísloví
zkuste
zkusí
zkusila
zlob
zlost
zlobil
zlobila
celi
cedu
ceské
centrem
stydět
##pres
SEBE
Vánoci
láh
královnou
snadný
chlapem
##ichsta
oslavou
soboty
připraven
připravila
připravoval
připraveno
pohádce
pohádáme
Studujeme
Vaš
Vanila
Vanoci
Vanoční
bráně
nejdůležit
smutku
darovali
Jonáš
sušil
Rodiči
##dělání
spolužak
spolužaky
překvapený
##LIV
zavola
zavolali
##nejši
prázdninových
Velorex
nudí
nudně
nudil
nudný
sítě
sídí
##ťastnější
němci
němoc
němčinu
němčině
nemusely
Jirko
narodního
uzná
uměni
museum
snění
snědli
sněženku
bydlít
bydlíla
Honzik
ráji
zasně
zasnou
zasadit
skusit
skušeností
platíme
změnili
##CHÁ
POD
POM
městská
kávy
čtyřech
Západ
svaru
##sur
přemyslela
metry
vrab
vražd
zučas
Čínský
najdeš
##OVAL
zajim
zajička
studentev
snist
spokojeně
náměsíčný
Martine
nevěří
nevědo
nevědí
nevěřil
##telum
studentky
chytry
zbyde
zbytečné
zbytečný
škodlivé
##TOU
##lechl
Vzali
Vzbud
zavřel
zavisí
NEZ
NEPO
lední
klidná
##LEJ
##kázat
##kázala
knížce
hrnec
hrnce
hrůzu
hrůzou
umíra
Dívala
Lito
Libye
Rozvířená
dveřemi
Žiž
Žijeme
##žených
drb
drž
držel
držte
##incům
postelí
rozdat
rozdávat
přátelští
deska
některou
některým
hnědy
hněde
##NEK
pomohlo
tancuje
anti
dřez
statku
obrazů
obrazky
obrazovka
základních
Jimi
Koupelna
dokončení
šťastnou
šťastného
začínal
začínali
výborných
jasna
Kuře
Kunde
Kultura
stoleti
vojsko
pozornosti
saň
##STVÍ
navštěvy
Barce
moudr
##ýšlí
krokus
Nás
##bití
letěla
pozděj
herní
hernu
sousedky
polevou
jednak
způsobili
směr
smějí
směšně
pohoda
pohody
pohodli
obránce
nejlepe
málokdy
málokdo
krátce
krátil
krátkou
krátkým
turistických
židlí
kopim
samota
Hrajeme
##rostl
pomahám
navštívíme
Nepamatuju
jemné
ostuda
nabízet
cítila
dědečkem
Hoře
Hotelu
Nakoup
##cholo
zpívání
zpívaly
klukům
Saha
dema
send
šestý
pamatku
knížek
Hlavu
Mílá
zmlá
nejhorších
bruslíme
báli
nenam
nenajdu
nenapsal
padl
padala
blízkosti
##nických
spojená
matematy
Miki
Miley
Romove
oblékání
Nechtela
bojov
bojové
synové
moderním
řizek
řijna
počitačem
přítelkyni
USD
lekne
lekcí
lektor
nedodr
nedavno
trampo
vezmi
Večerem
používáme
ameriky
amerika
úspěšné
##racím
zastaví
technika
čistá
čistý
čistit
programátor
potravy
zahraniči
TOP
žadná
žadny
dopravních
zábavou
zábavný
vodafonu
Výlet
Výběr
tvrd
uvařím
koloběžce
mluvíš
mluvící
Bog
puse
pusy
ptáčka
unavena
týdni
bohatým
##delí
vytou
nutne
nutná
ukazat
šipky
##straci
svího
svícen
domovech
##ooo
##metry
vynálezem
Kdes
pilná
jabka
hloupý
##TAČI
jedete
střílet
hale
hady
hava
kdiz
##utobusem
doplat
pochopí
objeven
Malé
ztrá
činské
narozeninam
strejd
strejdovi
biz
bite
hovořili
slabý
seznamovat
seznamili
profil
názorů
pokračovali
Zdar
úzkost
úzkostí
chlebu
chudej
vyuka
vyuce
vyuku
spravné
starších
zaměstná
každa
odpočival
kytičky
tradicí
##DEM
nerekla
neresp
poradili
pomolu
vysvětlení
vysvětlila
luk
třpit
naučít
##poměla
koničky
Karlštejna
červencu
bílého
myšlenkách
žídle
obleknout
taťky
ekonomice
ekonomický
Velice
povinný
pomáhaly
Prvního
dospěli
dospělosti
Souhlas
Zatim
deláme
hladový
zvykat
##ADI
vzpomínat
dobrodruž
dobrodružná
utíram
utíkala
zvonili
nákupy
socialní
socialismu
kohouti
nemuž
Trené
Trpas
##čanů
##landu
staročeský
kliky
klima
mrštní
Ježíše
skutečný
bodík
##vítilo
##vejka
vajíčko
Volejbal
vzdala
zlodej
dospí
zadny
chrání
vychova
typů
nechodi
boudě
ozvalo
organizovat
organizoval
malič
napadl
Babičky
Jeníkovy
pudink
smali
událo
Říkala
Řízek
##čítá
obrovskou
rostly
svobodně
svobodné
Davide
borův
ničit
##stýnek
našé
našého
fakulte
Herod
architek
vozů
zajmy
objednali
svatky
svatby
souhlas
souhlasit
souhlasil
souhlasili
nechceš
kontrolní
Indie
mládenec
pisu
rasu
rasy
sbírali
družstvo
družstvu
opalují
Zemana
hláskem
hláskové
punčo
rezpek
rezpekt
chladné
chladný
chladná
významné
soudně
navštěvuje
přinesli
loupe
rusko
rusku
zvikla
##čnému
##NOST
nazývají
nazýváme
užitečný
upřímné
Josefa
zachránili
pasu
pase
obrazi
pražský
pražská
pražskou
pražském
sedmnácti
Ruština
travit
výchovy
výchovu
východní
zdaleka
domek
domech
vybírala
vybíjená
přestěhovali
Vltavě
smíchy
tvém
tvistr
položila
poloostrov
Chyt
Rychlono
pustil
pokutu
pokusy
pokusím
##celář
hodnotit
osmnáct
francouzské
vtipná
Behem
Bečvou
Věřím
fantasy
očíčka
pytel
trávení
jídelny
pánové
marně
marie
polské
košíček
košíčku
příbuzné
příbuznými
soutěží
navštivili
přímoř
Křesomys
CHTĚ
Laura
Piz
Pivo
Piju
Pirátů
hubená
krupič
zničil
system
synago
italským
stravil
měsicu
težko
težký
težkě
Moravu
sportuji
koupaliste
Zajímalo
Zajímali
nebezpečných
architektury
Reichsta
farmu
urcite
umyj
ňákem
pokrý
Popel
Kateřiny
Milánek
repub
žlutou
jestly
převlé
převleč
převzít
řeknete
tréning
evropy
nouze
záchot
Spíš
Spider
džin
džiny
hnusně
hnusné
německa
Potkal
Potřebuji
splnily
poskytuje
odpovědnost
lyžování
lyžujeme
Srdce
finance
ukončit
ukončila
šev
neřekne
vypravovat
vypravoval
vypravování
Poznal
závist
závisí
kamenů
politický
peču
pečlivý
prohlédl
prohlédla
otevřená
otevřené
otevřeno
Novak
Novinek
Novotná
Navr
STU
lezt
mýho
ocenit
##plný
stýkat
mistrů
začnete
opakoval
čínská
čínského
vytvoří
MUJ
cenné
hnízdě
sledoval
##minton
neopat
romské
romský
užívají
užívám
ovládat
ovládnout
komunisti
hřát
jarmark
křečka
uspěšně
víta
##rnact
prodává
vedlé
bezpečné
bezpečnou
realit
reality
různýma
trend
trening
barevný
laskavá
otazek
otazku
##entace
prodavá
závodně
probudili
Staroměstske
specialisty
MÁMA
Nižegorod
proměnili
muzikál
nepřestá
Masari
Masarykově
Masopust
palác
zbro
##eoty
##hnete
##řady
zastávce
vystavy
rostlin
rostlina
japonštiny
lanem
tlapky
##BOOK
nerozuměl
stálý
připomínají
duležitá
novinká
opravdová
Václavské
Václavovi
Letošní
ztratili
Herode
Mluvit
generacím
hrozd
očekávala
zvedala
odlišné
Jelikož
kuchině
tydnu
1998
jednotlivý
uděláte
JEDEN
JEDNOU
pohodlná
špinavé
Jídel
Klub
plochy
zubra
serí
serví
server
potěšila
potěšilo
procvič
odborníků
podlahu
neposlou
ovlivňuje
Havla
Havlí
Svým
břichu
břicho
hyen
hystor
##zeným
pochlubit
vystupoval
obýváku
teror
mateřská
mateřskou
podmínkou
KDYŠ
hlodavec
SPÍV
mlady
penál
šířku
nastoupíme
zazvonil
hotový
nepracoval
nepracuju
zajímavosti
atmosfe
uslyšet
NEJRADĚ
průmyslové
průmyslová
Baláž
Filmi
KUP
otočila
pavel
nemluvila
nemluvíme
legálně
přírodou
přírodních
tygry
Zavolám
policaiti
bývalé
bývalý
Bardejově
zajmave
Zvládám
botách
kovářem
útoky
členů
nehodí
vyrobí
vyrobil
vykouzlila
odvezl
kouzlit
vznikl
vznikne
Kanady
neslyšel
povida
elektrickou
Bratislav
HRAJE
Portugal
ptáme
vstavam
vstavám
šťást
stínů
těmito
Nevěděl
samozřejmně
Sloh
VELI
dyž
zvěst
zvěře
zvedla
##ÁDKY
vydávat
vydávali
oblíka
holuby
domluvili
příspěvek
informovat
odpovídal
strašidle
kabáty
Barbuchu
krokety
Bílý
biologii
cyk
ohrožení
nazory
stratím
miminka
mimop
nejduležitejší
děvče
rozhovory
jiního
Jaromír
doktore
fyziky
Býl
Býla
Cítí
Cítila
Druha
Hráč
bomba
chole
foukal
schodů
Pohád
prudce
Nejenom
Kofolu
vypadaji
Oslavili
židlička
zahraničních
potrebné
potrebuju
úklidem
BILI
Nekdy
Nekteří
Zakáz
triko
zejmena
zvědav
##každý
stihla
technolog
prameny
sousedy
sousedi
Každe
relativně
JSOU
JSME
Slyšela
oříšků
opatruj
pluli
ulohu
učes
zlaté
zlatou
##centně
zapotře
zapomela
obsahuje
svátcích
přibuzní
Pomoc
Pomohla
kulaté
přesolené
písmeno
Vzpomínám
šikovný
komplikovane
sleduji
sleduju
neudělali
Eliška
Michálek
Omluv
mrakod
termín
##aaaa
##podobně
pohot
pohoří
pohostin
nejhorši
kamaratka
kaštan
balička
nevzala
nevzpomínám
sušenky
vojenské
psychologii
okamžiky
teroristy
pepsi
snehu
továren
úlohu
chranit
vytáhnout
nejzajimav
připálený
spaní
míčové
navštev
kritiky
maturitní
mnohém
Nějaký
minimálně
minimalně
spravedlivá
spravedliví
bramborovým
Babišovi
neuvěřitelně
Bouffierd
Angel
Angeles
Povin
PRAC
detí
titulní
titulky
chviličku
teorii
kategor
pastýři
rukavice
planety
zvladnu
aktuali
cukrový
dvojčata
doplňky
armádě
vyprávění
Seznámení
gulášovou
Jozefem
Bendig
STALO
blesk
blesku
blechy
jěšte
prodejny
chovame
##ádějí
komentář
přezout
slovanské
slovanský
uspokoj
čistokre
PRÁZDN
Kubulu
malinká
kontrolujou
přatelstvi
Zvláště
Zvlášť
asistentem
asistentka
vyjadřuje
Bible
Olympij
feť
hovno
lítat
utrpení
zdokonal
úrovni
prožívala
zařídila
vyměnit
přijemnější
máslo
kadeřnice
rozpočet
rozdělit
Tokia
dávkách
detekti
detektiv
Petrohradu
vyhledat
círk
prochazce
provedla
provedlo
využívat
záchrannou
blahobyt
konkurenci
veškerý
Kanárské
Kancelář
Ondra
TUTO
baklušy
https
scény
zíma
##VĚT
dokažu
podez
##kulačka
odjezdem
jahodový
Začíná
sestřičky
pohadka
populace
popularní
svědci
svědčí
zvlaštní
suroviny
přemyšlet
tvorby
báječná
získala
ozdobit
pojmenovat
Sobota
omezený
Lissi
Niagáry
Rousek
Rasismus
plížilo
ušetří
Řeky
Řekli
naftu
najedno
pojišť
pojištění
pomužu
porovnat
terasou
terasu
přihodilo
tajné
rozlohou
podnikání
nechapu
trpěli
větvích
usiluje
Nemusím
Samostat
nepříjemné
hřbitově
Chorvatska
Ostravy
Bobři
Elektro
Elektř
KOUPILA
RADA
VELKOU
drobný
kamionu
lůžko
latinkou
ubož
úkolu
šetřit
##kovích
##ááá
nastavit
sezóny
vyberete
svymi
poslucha
poslechl
ručník
revolucie
Vypadalo
razily
Podívala
scházeli
Pařiž
Pařiži
kombinace
Samozřej
Samozrejmě
POHÁDKY
jestřábí
jestřábi
lyžařskou
žaludek
Bavilo
Hledali
JAŘE
Novosibi
York
Zkusím
depres
helmu
kecat
orient
ocitl
útva
útvar
úctu
##oučké
nalézá
navečeřím
neváží
dohodli
poštu
porozuměním
##atíku
dobroty
rodíče
multi
rozkládaly
nigdo
turnaji
diamanty
léčebné
pravidlech
uklizet
uprchlíky
vyhovuje
kariéře
Oblíbená
zpěváka
zahlédl
samoobslu
ovocné
ovocný
Tunisu
rezerva
Kyrgyzstánu
hromadné
velkoměsta
Husité
Sníh
Verča
džungle
elfí
hebký
oleji
Švýcarsku
dosahnout
pronaj
chůze
přirodě
Počítač
Problém
kolegů
kolegině
zbytečná
Alpách
Budějovice
Budějovic
zivotě
neobvyklá
ROZM
důležíté
katedrala
Brácha
Minister
Nudím
Sýrii
Znamená
formou
halušky
idiot
putovali
tudle
tudíž
tryko
čelem
##PADA
nelíbila
necítím
vyloží
kopeček
svičkova
přivezla
domnívám
Postavil
Pozoroval
všelijaké
vědecké
skladatelé
vajička
neplatila
čtrnáct
vyhráli
rozdíly
nedovolila
Luxoru
Strašidlo
polštář
zaměstnavatel
zaměstnavatele
mazlíčka
fantastické
krokodýlí
Gates
Hudba
Sněžka
dvėře
mestě
šeptal
šrouby
počkali
komoří
tejdni
Mongolska
příležitostí
knižního
nechybí
civilizace
pohřben
viučování
kolektivu
kečupem
Odpočí
Honzou2
Antoni
Krasnod
závistiví
znečiště
stanovení
JEDNORO
Funguje
##ěěěěěěěě
vrtulník
Návštěva
Hallo
Pěkně
Vadim
Vadími
cekat
flašku
fascin
hemžily
hlidam
omačkou
svadba
transport
uskuteč
vistoup
##MOC
nacházíme
sezona
potichu
vyvolává
korejské
odjíždíme
taxí
podpatku
vědomostí
##onald
investoval
nepodařilo
botanické
smyslu
plakáty
Tomáše
exotické
středověké
nevydržela
Jihlavy
Mikuláše
Výstaviště
beránka
jablečný
melodie
nesmysly
uklízečka
Filozof
Nohy
Přatelství
Vždicky
Zrušil
iPhone
klimatu
sushi
vulgár
zoufal
ježíškovi
nezdravé
dohnal
prohral
stadion
vyspělost
koktejl
překonat
výslovnost
poslanci
přednašky
seminár
konkretní
nevlast
sestřelení
vypádá
sundali
koncertech
knedlikem
humanist
tlačítko
vyrábění
Shakes
pozůstalým
konzervatoři
Niagarským
pamětihodnosti
odevzdal
Becherovku
Netrvalo
badminton
cédé
oválný
restou
úkolama
##SPORT
dolarů
počíto
zahynuli
simíka
signál
nářečí
provazochodec
sprosté
spropitné
závitky
věšák
soustředit
Chlapec
vikoupat
softbal
Tajemství
uplatnění
povětří
zavítal
andulku
dozvejedela
pravoslavní
tělocvičny
##jížďka
vrtulníky
multikulturní
Florence
knoflíky
Blondin
Brazílie
Cyrus
Drogy
Elišku
Smut
ZČU
Zámek
ejhle
igno
lingvist
nýbrž
ořechy
upev
zřídka
širší
##barevný
namesti
naživo
nečekaně
pobývat
stadionu
železo
svinstvo
odkuť
náštěvu
Pokuďli
Naposledy
kukuřice
libovol
civilní
virobit
1188
nezapomnělo
nepřizpůsobi
vymrska
utrácet
zazvoní
NEJLEPŠÍ
Špindle
Terezou
nepochopitelné
aerobic
vysavače
velvyslanectví
FACEBOOK
štrudl
OBLÍBENÁ
Boučkovou
Dolnomoravský
Dáša
Empire
Firmy
Mislím
Mlýnu
Přines
klempířem
kšiltovku
klobá
otěže
zviditel
Žákovská
doslova
protekto
nejšťastnější
nejčaste
ročniku
přijimací
převážně
Postřiž
Nesouhlasím
lískových
souhvězdí
pastelky
diktat
zdráví
konverzace
10000000
likvid
Kostela
návštívit
Obličej
Naprosto
zeptát
Velkoadmirál
privatizace
básničku
nenavid
Lunetik
Beijing
datadisk
Nikolás
atmosferu
bassebbal
notebooky
srandovni
Antarktidy
RYCHLE
Habsburkové
Crusoe
Delam
Derion
Festival
Míša
Obočí
P1b
Slepička
SLOHOVÁ
Zvěře
bronz
hučely
ničeho
voucher
zlikvid
##čmínek
##katerin
vyúčtování
kolébky
vegetari
Potíže
rozsedlina
celosvět
nedozvíme
sedmnáctileté
krupičnou
NEJRADĚJI
Balážová
zapotřebí
