<pad>
</s>
<cls>
<unk>
[MASK]
!
"
#
$
%
&
'
(
)
*
+
,
-
.
/
0
1
2
3
4
5
6
7
8
9
:
;
<
=
>
?
@
A
B
C
D
E
F
G
H
I
J
K
L
M
N
O
P
Q
R
S
T
U
V
W
X
Y
Z
[
\
]
^
_
`
a
b
c
d
e
f
g
h
i
j
k
l
m
n
o
p
q
r
s
t
u
v
w
x
y
z
{
}
~
¡
£
§
¨
©
ª
¬
®
°
±
²
³
µ
·
¹
º
¼
½
¾
¿
À
Á
Â
Ä
Å
Æ
Ç
È
É
Ë
Ì
Í
Î
Ï
Ð
Ñ
Ò
Ó
Ô
Ö
×
Ø
Ú
Ü
Ý
Þ
ß
à
á
â
ã
ä
å
æ
ç
è
é
ê
ë
ì
í
î
ï
ð
ñ
ò
ó
ô
õ
ö
÷
ø
ù
ú
û
ü
ý
þ
ÿ
Ā
ā
Ă
ă
Ą
ą
Ć
ć
Č
č
Ď
ď
Đ
đ
Ē
ē
ĕ
ė
Ę
ę
Ě
ě
ğ
ģ
ħ
ĩ
ī
ĭ
į
İ
ı
ķ
ĸ
Ĺ
ĺ
ļ
Ľ
ľ
Ł
ł
Ń
ń
ņ
Ň
ň
ŋ
ō
ŏ
Ő
ő
œ
Ŕ
ŕ
Ř
ř
Ś
ś
Ş
ş
Š
š
Ţ
ţ
Ť
ť
ũ
ū
ŭ
Ů
ů
Ű
ű
ų
Ź
ź
Ż
ż
Ž
ž
ƚ
ơ
ư
ǀ
ǎ
ǐ
ǒ
ǔ
ǫ
ǿ
ȃ
Ș
ș
Ț
ț
ə
ɛ
ɡ
ɪ
ʏ
ʹ
ʻ
ʼ
ʽ
˂
˃
ˇ
ˈ
ˊ
ˌ
˚
˝
̀
́
̈
̊
̌
̓
̧
̶
Ά
Ή
Ί
Ό
Ώ
Α
Γ
Δ
Ε
Η
Ι
Κ
Λ
Μ
Ν
Ο
Π
Ρ
Σ
Τ
Φ
ά
έ
ή
ί
α
β
γ
δ
ε
ζ
η
θ
ι
κ
λ
μ
ν
ξ
ο
π
ρ
ς
σ
τ
υ
φ
χ
ψ
ω
А
Б
В
Г
Д
Е
Ж
З
И
Й
К
Л
М
Н
О
П
Р
С
Т
У
Ф
Х
Ц
Ч
Ш
Э
Ю
Я
а
б
в
г
д
е
ж
з
и
й
к
л
м
н
о
п
р
с
т
у
ф
х
ц
ч
ш
щ
ъ
ы
ь
э
ю
я
ё
є
і
ї
ҫ
ӧ
մ
ְ
ִ
ֵ
ֶ
ַ
ָ
ֹ
ּ
־
ׁ
ׂ
ׅ
א
ב
ד
ה
ו
ז
ח
ט
י
ך
כ
ל
ם
מ
ן
נ
ס
ע
צ
ק
ר
ש
ת
״
ا
ب
ت
ح
ر
س
ش
ص
ض
ع
ك
ل
م
ن
ه
و
ى
ي
َ
ْ
ก
ง
บ
ว
า
แ
้
Ꭷ
Ꮦ
Ꮶ
᠆
ḱ
ḿ
ṇ
ṣ
ṭ
ạ
ả
ẩ
ẽ
ế
ề
ễ
ệ
ị
ồ
ổ
ộ
ờ
ở
ợ
ụ
ứ
ừ
ἀ
ἐ
ἡ
ἰ
ἴ
ὐ
ὰ
ὸ
ῶ
‐
‑
‒
―
‛
‟
†
•
‰
‱
′
″
›
‼
⁄
⁰
⁶
⁺
₂
€
⃣
№
™
⅓
⅔
→
∅
∇
−
∗
∙
∞
≈
⋌
⌀
⎔
⏩
⏪
─
■
▪
▲
▸
►
◄
◆
◎
●
◼
☀
★
☘
☛
☝
☯
☹
☺
♀
♂
♠
♡
♥
♦
⚕
⚗
⚠
⚪
⚰
⚽
⛓
✂
✅
✈
✉
✊
✋
✌
✔
✖
✗
✝
✨
✱
❄
❆
❓
❖
❗
❤
➕
➖
➡
➤
⠀
⤵
⬆
⬇
⭐
【
】
ア
イ
シ
ス
タ
チ
ツ
ド
ネ
ハ
モ
ン
ー
事
共
十
南
叶
呂
和
喫
国
圣
在
大
字
屁
崴
師
店
建
文
明
架
樂
河
油
洪
烧
熊
现
禪
简
総
经
茶
许
貓
酪
重
阪
靖
革
領
館
鸣
감
개
계
고
기
까
께
꽃
놓
니
다
동
드
들
디
랐
로
름
림
마
막
물
부
분
불
생
세
수
습
시
식
아
어
었
올
요
운
으
은
음
의
이
인
전
중
즐
지
창
터
평
포
픽
함
회
ﬁ
ﬂ
️
，
￼
🃏
🇦
🇨
🇩
🇪
🇬
🇮
🇰
🇱
🇳
🇵
🇷
🇸
🇹
🇺
🇿
🌈
🌊
🌑
🌞
🌡
🌪
🌹
🍀
🍎
🍒
🍝
🍳
🍺
🍻
🍾
🎆
🎈
🎉
🎊
🎤
🎥
🎩
🎬
🎭
🎯
🎶
🏅
🏆
🏖
🏳
🏻
🏼
🏽
🏾
🏿
🐎
🐠
🐿
👇
👈
👉
👊
👌
👍
👏
👑
👗
👦
👧
👨
👩
👭
👯
👸
💁
💃
💋
💎
💏
💖
💙
💚
💛
💜
💡
💣
💥
💪
💫
💭
💯
📌
📝
📷
📸
📺
📽
🔒
🔛
🔞
🔥
🔧
🔴
🔹
🕯
🕺
🖖
🖤
😀
😁
😂
😃
😄
😅
😈
😉
😊
😍
😎
😐
😒
😔
😘
😜
😢
😤
😥
😨
😫
😭
😮
😯
😱
😲
😳
🙂
🙃
🙄
🙅
🙈
🙉
🙊
🙋
🙌
🙏
🚒
🚿
🛥
🛫
🤑
🤔
🤗
🤘
🤙
🤞
🤟
🤣
🤦
🤪
🤬
🤷
🤺
🥂
🥇
🥈
🥉
🥊
🥤
🦃
🦄
🦋
🦌
##a
##b
##í
##d
##l
##e
##i
##k
##o
##u
##ř
##v
##ž
##j
##c
##m
##x
##r
##á
##T
##A
##ě
##ň
##t
##n
##h
##s
##ý
##ů
##č
##y
##š
##w
##é
##f
##p
##1
##7
##2
##4
##9
##8
##g
##z
##ú
##3
##ľ
##ó
##6
##U
##N
##É
##P
##ł
##¬
##ę
##q
##ä
##L
##B
##0
##E
##S
##H
##W
##V
##I
##O
##F
##K
##Í
##Á
##M
##Ř
##ť
##ñ
##ë
##R
##D
##̌
##ď
##5
##G
##J
##ö
##ô
##å
##û
##Ž
##C
##®
##́
##ل
##ى
##Z
##ő
##ű
##ь
##̊
##Č
##Ý
##è
##X
##Ě
##ŕ
##ü
##−
##ş
##с
##т
##а
##н
##е
##я
##đ
##ą
##창
##ư
##ợ
##ø
##Y
##ź
##️
##😍
##❤
##ć
##Š
##ï
##ĺ
##ń
##Ť
##ç
##æ
##€
##â
##Ú
##ǎ
##р
##у
##г
##в
##о
##п
##Ů
##и
##Q
##ũ
##°
##Ó
##ă
##×
##º
##ù
##י
##ו
##ב
##к
##ц
##Г
##Б
##⃣
##👇
##й
##л
##б
##д
##ж
##ю
##ὰ
##ρ
##Ň
##ы
##ḱ
##м
##ê
##ǐ
##ī
##à
##ở
##ð
##х
##ı
##ğ
##🌈
##ã
##μ
##έ
##α
##ї
##Ľ
##ś
##ˇ
##Ď
##Ö
##ш
##Т
##î
##א
##ה
##ș
##⁶
##²
##ả
##Ń
##ß
##ò
##ȃ
##з
##동
##으
##로
##ʼ
##❗
##ụ
##😔
##靖
##崴
##랐
##습
##니
##다
##÷
##ا
##👸
##🏼
##ē
##щ
##₂
##♂
##ơ
##ъ
##ǿ
##ờ
##Ł
##ʻ
##회
##식
##의
##☝
##ż
##Ì
##̈
##Ò
##🇵
##😉
##ه
##ā
##ṣ
##Е
##ʹ
##ħ
##ª
##¨
##🎉
##🎊
##ƚ
##ț
##ņ
##😄
##ч
##시
##🥇
##들
##었
##ר
##ǒ
##К
##נ
##❖
##🇨
##🇿
##ţ
##ū
##ŭ
##У
##Й
##ō
##ך
##🛥
##🥂
##🔒
##🙂
##ל
##ם
##λ
##ο
##ί
##ė
##™
##🇱
##🇺
##і
##ĕ
##ф
##õ
##ִ
##ְ
##ת
##🎬
##🎶
##🎥
##⁄
##Л
##Ρ
##Η
##Σ
##ﬁ
##분
##까
##지
##ì
##😊
##ン
##ス
##タ
##ー
##ハ
##🔹
##Ę
##β
##ή
##ν
##մ
##Ꮦ
##Ꭷ
##Ă
##ổ
##께
##즐
##기
##세
##요
##η
##ﬂ
##😈
##Ü
##ệ
##ש
##ׂ
##ي
##Ô
##ח
##̀
##⤵
##🎆
##🇸
##Ĺ
##ё
##🏻
##³
##µ
##👏
##ÿ
##🇳
##洪
##鸣
##ע
##س
##م
##🇩
##∙
##😂
##🤣
##Ż
##ὐ
##τ
##ὸ
##ς
##평
##َ
##ن
##ْ
##🌹
##포
##С
##Р
##💪
##😀
##🤦
##🏽
##♀
##Ź
##🇷
##🔥
##ģ
##Φ
##Ο
##Δ
##Ί
##Τ
##¼
##ə
##디
##어
##￼
##☹
##🥤
##ồ
##👍
##Н
##ד
##ứ
##ị
##☺
##Э
##О
##Ф
##🙉
##🙊
##Ό
##Ν
##ָ
##ׁ
##ּ
##✊
##🏿
##ẽ
##Ä
##ك
##و
##ت
##γ
##κ
##π
##ω
##简
##明
##Я
##δ
##📺
##þ
##Ш
##А
##🎈
##ά
##ι
##є
##🔞
##Ŕ
##🤷
##ề
##П
##В
##Ø
##👗
##ừ
##¹
##⁰
##ų
##Æ
##꽃
##Ñ
##河
##南
##文
##革
##重
##现
##ṭ
##👨
##👩
##👧
##👦
##υ
##ḿ
##˝
##ˈ
##ɪ
##ب
##ر
##➕
##🇰
##💯
##😅
##🙈
##🍾
##🍻
##מ
##ӧ
##🥈
##🥉
##ט
##ַ
##ס
##ֹ
##🏾
##🌊
##💋
##⬇
##ế
##า
##ง
##แ
##ก
##้
##ว
##은
##Д
##Ц
##Ś
##©
##✌
##♡
##름
##운
##М
##ļ
##❓
##계
##인
##ĭ
##̶
##ŏ
##ק
##ן
##✖
##😐
##👌
##ἰ
##😥
##😢
##😫
##⚽
##大
##阪
##イ
##ド
##ネ
##シ
##ア
##共
##和
##国
##総
##領
##事
##館
##이
##œ
##👉
##È
##😭
##😱
##🤬
##🤪
##ῶ
##ĩ
##כ
##ẩ
##⬆
##💚
##🙏
##음
##ε
##σ
##ɡ
##ạ
##😨
##😳
##💙
##놓
##아
##고
##🤙
##Â
##ז
##🚿
##Ç
##Ï
##ộ
##🕺
##💃
##ǔ
##ˌ
##ʏ
##χ
##ζ
##👊
##🤗
##중
##☘
##올
##림
##픽
##İ
##油
##ض
##ح
##θ
##≈
##🏆
##🇹
##😁
##🔴
##♥
##Λ
##Ι
##建
##ἴ
##圣
##经
##十
##字
##架
##부
##터
##ễ
##˂
##ֵ
##❄
##🦌
##Ε
##Ώ
##Α
##モ
##チ
##喫
##茶
##店
##🎤
##ˊ
##צ
##👭
##ʽ
##💎
##ķ
##ֶ
##熊
##貓
##師
##屁
##Μ
##Ή
##🏖
##🌞
##🌡
##ṇ
##½
##Ą
##🤺
##ҫ
##Å
##Ć
##🤞
##🐠
##😯
##😲
##😮
##st
##ov
##ní
##ch
##le
##ou
##la
##ra
##en
po
##ro
##li
na
##te
ne
se
##ho
##em
##ed
##sk
##ak
##in
př
do
##ce
##an
##al
##ně
je
##at
pro
##rá
##it
##on
##or
##il
za
##ci
##od
to
st
##er
##ku
##et
##el
##ni
##no
##jí
##ad
vy
##ka
by
##lo
##ky
že
##ar
##ých
##ti
##je
##de
##ší
##né
##om
kte
##ře
ro
##na
##vě
##po
##va
##to
##ek
##ří
##ck
##id
ob
##dy
pr
od
##cí
js
pod
##lu
##es
##lá
##ru
##tě
##ová
##av
##mi
##ná
tak
##ez
zá
##ské
##sti
##ob
ná
##mě
kter
##me
##ko
##ent
##mu
##ení
##ové
ve
##by
##vo
si
##as
ně
vý
##ist
##ál
##ím
##vá
jak
ale
mě
##že
##dě
při
##am
##ři
##ví
před
##ým
##át
##uje
##is
mo
bu
##ká
##ova
##ji
##nu
pří
##rav
jed
roz
##da
##ech
##tí
##led
##tu
ch
nej
##ta
##lí
##bo
##ze
##vní
##nou
sv
##est
##ého
##ili
##ly
##ne
##ný
##ny
##ri
##čí
##ční
##du
##tel
##ovat
mu
##ém
kon
##pad
##bu
vš
##kon
Po
sou
spo
##im
##lad
##up
vě
in
##ej
##hod
sp
mí
##ním
už
ni
##ba
##ád
##ště
##ty
ko
##nost
##lov
##ick
má
re
jako
jsem
##oval
##ma
20
##ních
let
##ali
##rov
kdy
##oru
##ží
##mo
##dá
který
které
##ran
ho
vo
Na
##stav
##vr
##vy
##do
##ují
##ků
co
##lou
min
##ry
##sí
##sp
##ský
ví
##ut
vz
te
##řed
tr
##jší
ma
jsou
##mí
bude
##prav
##ila
lid
##vět
nebo
##bě
##kou
##ec
jen
##nosti
##ev
##ič
##sta
ka
##ie
##sled
##stup
##rát
jsme
##tá
poli
##ování
aby
##lav
prá
##ilo
##kov
jeho
##má
##sob
##pu
##sto
pot
##pe
##ter
##iz
##alší
##še
dě
##ního
##ům
také
##ných
##hu
pra
ji
##ud
##bí
podle
##ved
Če
vel
##klad
##vod
Je
bý
##iv
byl
##os
##ského
kom
##raz
##sku
##ovan
##ve
##oz
##lem
##dou
cel
##ská
##leč
##op
ze
poz
další
če
##re
nap
hod
##ot
ří
tě
tu
##jem
##ené
zp
až
##žit
##ala
##ina
le
která
##alo
##ám
##dí
##ir
##ální
##ově
201
moh
##my
##ských
než
Pod
##ab
##ruh
bez
nep
##iná
##hra
##cích
Pro
proto
##rů
##koli
##ného
mili
##ha
##emi
##kem
##ůže
##val
##řej
##itu
##lat
##iny
##ět
##tek
##ový
Pra
##hy
řek
##ok
##ic
něj
##zí
op
##zna
první
pů
##se
když
##ost
mez
##ství
stra
jin
přes
##lé
##ig
ak
##rop
##men
##si
společ
##pr
##há
##sla
##nes
bylo
nez
uved
být
##un
tom
dů
##sa
##for
bo
##oup
##ace
zd
##kt
či
##cent
něk
##cké
##last
##chá
druh
ži
##00
ještě
##sko
To
vlá
kde
ani
##čas
pou
byla
pře
stát
##chod
není
zač
dost
pak
##ste
##ena
##itel
dob
##ia
##ol
hla
19
St
však
roce
##jich
##dr
##nější
té
##ul
##ur
##len
koru
zem
tý
##ich
mož
##rod
toho
##vrop
##ezid
##stí
##let
##če
##ček
roku
##vat
tím
##zi
budou
ten
##kud
může
své
##nit
##stě
##eme
proti
##art
dí
rozhod
Ne
##ových
##ys
##ct
##ovala
mezi
##mé
##ovi
##zení
ved
sk
všech
vys
případ
stá
##ska
##rit
jedno
##isí
korun
jejich
##ana
##čně
##ár
ex
##di
##ovou
##spě
##pl
##luv
##mer
politi
##gra
##kaz
kteří
##hrá
##ového
de
sku
vá
##ezident
##hled
##cie
Podle
##bli
pa
##tem
sy
mi
nad
##inu
##vů
##ců
řekl
##ži
##či
##us
##ily
svě
##řeba
procent
Jak
##vají
os
jí
##co
##zd
##vot
sa
##ovali
tam
##tej
ru
##án
lé
##ená
Za
rod
##nout
##ině
##šení
##um
##and
čá
##edy
An
##rat
sam
##rg
ty
des
prav
vět
minist
fir
nás
##ený
vlast
##tech
##žd
##hem
##ké
její
##čit
##stat
dva
tomu
Ale
##ším
více
Ma
zv
##oci
##hla
##bor
##čet
hra
tisí
posled
##pa
##ady
prezident
##nice
mno
##ing
ní
##log
čt
prac
ta
##skou
##ver
##iš
##ným
pov
Ně
prost
##ické
##říklad
lidí
bě
##vé
##ik
záp
tři
protože
několi
Ch
Do
aut
##lep
di
##vůli
zat
milion
měl
##lém
##ych
##sed
##ští
mají
##ub
kra
##aly
čer
##kla
##chy
čas
prob
Evrop
cest
stav
infor
##řet
##ast
Kdy
žád
nemo
##ření
##mp
##tor
sta
##lení
##sky
Mo
spolu
##kra
##eny
##van
##chu
##ion
##sou
##nutí
##ském
Nej
dá
tra
hrá
čty
musí
##jící
##vali
zápas
##pom
slu
Ve
nov
##roz
ře
vů
##káz
##su
uvedl
##ši
##nil
##řel
sto
##rob
##vou
##hlá
nich
au
tedy
Ji
##eně
##ber
##čka
osob
##žel
vyš
##ková
pat
dnes
stej
##ice
##řad
třeba
prů
kvůli
##vu
dlou
ško
chy
##ner
mluv
pop
Bab
##loven
##ými
##ležit
rad
##žení
Mar
například
sch
nějak
ke
##jed
Ka
seb
sil
##ném
tisíc
sm
##měr
Zá
##ard
představ
kam
nech
neby
##tní
##ující
an
Tak
##čil
##aci
zna
##álně
##zor
ov
##lní
čtvr
##nění
sí
zí
vol
pla
##stoup
nedo
proje
##tiž
##ůst
##oni
##zná
každ
##zy
Vy
##ér
totiž
##měst
##tr
již
míst
##tiv
bych
dem
##sté
##sil
##ané
par
problém
změ
##por
nabí
prov
mod
podob
##nik
##fi
zahra
##lán
##jen
##čení
pomo
##řád
velmi
místo
##ách
##inan
##rch
##cký
což
##yní
fun
nám
dvě
##pra
asi
nic
##ag
Když
Ru
##měř
##rom
mít
##ít
Zem
##ovní
##liv
kont
střed
bod
nik
##nov
týd
vod
##kr
říká
Pr
Od
In
##ráv
##tele
##ává
vid
Ná
##entu
##hle
chtě
##ene
tele
úč
##jde
cz
##hl
##ždy
##pí
lidé
lo
##sá
##rost
##eno
situ
mé
##peč
##dal
sna
##ůsob
##rán
By
několik
jim
soci
den
##děli
##ností
##eň
##teč
úto
##nání
##nat
##sad
Pet
nes
##věd
dom
##nici
##bra
##man
##ník
##stra
##ane
li
měsí
letech
##publi
bud
##lik
Bo
##uni
svět
skup
met
soud
##šel
zatím
##čky
mluvčí
amer
##ovo
pá
zná
org
##šem
##ii
kole
Jed
##ale
kterou
##zem
##řit
##imo
##lož
neu
##roj
rok
minu
něco
##šť
obchod
šp
##inou
Co
stud
ur
##řejmě
##ůj
##oda
Pokud
hlav
dokon
15
tvr
##NO
##lově
součas
sob
##víc
mus
Re
##ari
##ín
měla
nev
mal
Babiš
kli
sed
nebu
##erst
klu
cí
##rad
ag
ČS
jste
informa
rych
##jeme
jeden
třet
##ání
život
##zu
Jan
byly
##bec
##zku
##ence
premi
hlavní
dál
##děl
Při
zdra
##cky
veřej
ote
finan
nevy
společnosti
chce
přest
##řeb
zákon
##losti
republi
stále
##tra
dvou
10
##cha
##ory
##kové
##enci
pě
ANO
řad
nyní
##lád
##za
obje
právě
fil
nové
##nd
země
vyp
##vi
ti
200
##hru
deset
vyu
Te
Br
zak
##ity
##cem
##té
##éf
##tká
##anou
Ko
mlad
##vis
červ
##ůž
větš
##aniz
##ati
Tru
##ckého
Fran
přek
US
##aně
man
krá
měli
získ
odp
trest
pl
způsob
##voj
tech
mohou
##ckých
Před
##fer
##az
ode
zab
Vý
##lit
##ským
době
zahrani
tro
někter
hlas
Spo
##odu
##těz
##ický
čtyři
doprav
dop
oprav
velk
##rt
uni
pouze
Ten
##eb
ča
##enou
těch
postup
pět
##sal
tým
##istor
milionů
sez
část
##mat
##sle
cent
Ja
kolem
##mou
##oto
připrav
násled
##vatel
##nan
##slav
prostřed
řed
nepo
moc
fot
##krát
##ort
pož
rek
konce
nem
##cká
##lekt
mimo
##gu
strany
##ák
##ených
##kách
muž
star
Kar
nemá
##leb
##dní
byli
##nem
nemoc
12
dobr
##vyš
##esti
##ůz
##roveň
##žil
náv
posla
kro
Bu
och
##šlo
##race
teď
cen
rá
##onu
##děla
oko
skon
##ktu
led
tento
##átku
dr
##větší
během
případě
##tů
##vý
člově
Tom
##šit
##stá
Ob
##sem
práce
poslední
histor
##ované
člen
no
zaměst
domá
##čních
kraj
##řil
vlastní
##SD
##oš
gó
##he
##son
kou
stan
těž
lí
svou
šéf
uz
jiné
pokud
##konom
##rodní
jde
Mu
##nad
USA
dne
##sy
dobře
Li
18
##kce
hodno
elekt
podni
##eni
##hruba
ban
##ato
navíc
živo
progra
hodně
##opak
Praze
organiz
Pře
##mín
##níků
vždy
všechny
##chází
Jen
##vání
Lu
##čer
zda
dalších
kdo
##au
Zeman
svého
##liš
##bal
této
##hov
býval
mys
přit
pí
##ář
##jít
rov
vyt
komuni
podí
vysvět
##ráž
zap
provoz
vůbec
my
up
##slu
tří
postav
##ceti
spe
Sou
##ned
pořád
vše
11
měst
##prá
ministerst
něm
demok
2018
##sah
ekonom
České
##ovém
Mě
##pli
víc
du
výro
##nila
##čku
ČSSD
Vá
##ňuje
##ron
##ment
zhruba
auto
druhé
nemě
jas
##žně
##dek
list
##lon
Něme
základ
##cela
úspě
##ději
vlády
##stru
##obil
##plo
šest
##spo
##raž
Ho
##tkání
##jet
##dob
krit
30
##net
boj
##andid
##ga
půl
svých
##hou
##lil
Mart
##teri
br
služ
Jiří
##lez
děti
zprá
poku
##řilo
##tivní
kvali
##hdy
otá
obě
letos
plat
##inky
##tal
##letí
##lek
díky
her
já
##níci
praž
##evším
zde
kan
##hlí
##čan
##plně
##lepší
##bav
zůst
##drž
zku
bezpeč
čin
závod
otev
světa
##čá
Praha
oby
Trump
##ond
vyj
chví
##lím
policie
zra
##rál
úda
##omet
rád
takže
přím
##icky
med
firmy
##krač
##idič
hor
téměř
##eč
##št
##nými
Nov
##cím
##ichni
##ovalo
umě
Pav
vás
inter
kr
om
Roz
největší
prohlá
vi
ček
##ických
##áz
nejen
čtvrt
dokonce
uli
nabíd
svůj
stejně
vedení
dří
ku
##znam
Sp
##šet
##nal
##ata
města
mist
##dil
pos
návr
sice
for
##jist
důvod
##oví
polici
##ely
potvr
pár
sebe
přitom
EU
poč
##vid
13
sr
##nict
soutě
zvý
14
##álních
zdravot
uvedla
Mich
##ezent
Ta
často
kandid
především
vám
mohl
loni
bran
vítěz
##inále
Já
předsed
růz
##pozi
spí
úřad
evrop
Le
výkon
působ
jednot
každý
Česku
odmí
pokrač
nakon
Amer
ja
##ích
zase
miliar
Brit
##ici
Pří
výraz
##min
nebude
ostat
Kr
oh
určit
##ivní
##ývá
dodal
div
nakonec
va
autor
##hat
možné
##lan
##ozřejmě
ředitel
##ména
da
větší
výsled
##ckou
fak
##stli
##aví
##én
trené
tur
vla
##stém
hlavně
roky
dos
##les
odbor
části
místě
původ
##kod
##ise
16
Kon
##lý
autom
##méně
##tečně
##kro
##koliv
##ovaly
lety
17
ovšem
vyšet
plán
pan
##stu
al
naše
patří
##čila
##aj
25
neb
##pis
pravid
Sloven
##ef
pode
kap
##sty
##dala
##uk
##mys
začí
speci
##poč
##novu
posledních
chod
tady
##ovatel
voleb
ar
Pa
##pozor
##átor
##rati
české
##ge
##teli
##kup
##dělá
důležit
vypad
##ovky
Má
reg
procenta
##mov
přev
##hor
prode
##ony
##eníze
kontro
##ického
voz
vál
zákaz
ozná
jist
##šla
lep
ČR
##per
máme
dis
##cou
noviná
ktor
##cti
##osti
Bar
pon
plá
Petr
polov
##vest
jej
##vky
##kci
Mi
Lid
jedin
žen
##čního
so
zt
##pě
##letý
Al
minul
návště
##kům
ozna
objev
##cen
##kal
produ
##ovým
##skyt
Pl
společnost
##byt
obdob
##ij
jednání
letoš
nejlepší
prý
Už
##álu
opět
##nů
##šek
Poli
on
blí
vzta
##bou
pad
##šen
gene
##viz
##ická
dosta
nikdy
Rad
údaj
poté
##cení
##kli
##olog
per
ps
hled
##ovy
##četně
velké
prof
##zra
systém
řidič
úplně
##ovaž
##jím
##cit
##cet
##prvé
práci
celé
počí
##rou
ost
podmín
##rní
připom
##isk
svo
##klá
##nic
neza
ČT
trochu
Čech
Tomá
##hli
fung
využí
výrob
opravdu
##jení
##raci
sně
svým
obla
##gy
třetí
náro
potřeb
su
##uj
##aliz
léka
Ba
rám
##end
slov
schop
chvíli
##dit
dodá
kni
svém
peníze
včetně
osm
prezidenta
##šil
snad
upozor
Ví
přij
sport
sám
řekla
zástup
pre
##mů
dopl
##stů
##žší
šan
sedm
hodin
muse
jedn
bře
##ff
všechno
##vala
agentu
##padu
Cel
##řů
vyh
men
stojí
##štění
##ovaný
květ
zví
##koho
##py
foto
##lů
hned
později
##šli
premiér
znovu
##ilomet
manžel
pu
##prac
##teg
##ton
vyz
použí
všichni
zaměstnan
##pod
##otu
##kam
Prá
Proto
bar
##elu
dostal
##nej
závě
nedá
špat
miliardy
##ejména
ukáz
abych
nav
něme
repr
několika
##prve
aktiv
##rie
člověk
ot
##běh
nejsou
zách
dota
##pro
##lost
##řá
##cház
pohy
Vel
zároveň
jestli
čí
##čem
pěti
Min
##kovi
mig
veli
##čním
##atím
otáz
##hrál
tomto
##nému
loň
utkání
sní
pri
ba
##vyšší
##jní
vláda
Par
věci
##čů
občan
Čí
##éra
##kami
proč
rámci
někdo
kri
umí
možná
##poru
##ca
Ku
##lin
##žní
##ince
pohled
##chop
pracovní
##nerg
lá
ver
týden
##spoň
##řízení
hosp
Martin
uzav
kul
sociální
dola
Něk
##kají
tehdy
jedna
situace
##líb
smlou
hok
##žen
##cháze
Nem
##her
lepší
dobu
hy
50
koup
ním
##rální
##rem
part
##áni
##asič
##eta
##zeň
dlouho
sebou
##luje
##bs
poda
Ber
##ant
##mená
lig
##xi
čtyř
odh
Prahy
světě
Jeho
##vyk
kilomet
jednou
##lech
mám
zájem
považ
##enti
mělo
reprezent
tvrdí
přid
naopak
Vo
2016
##res
rychle
zemi
sled
##átu
Sam
doby
Mez
zastup
mohli
správ
vých
##řes
nový
týmu
vyšetř
vznik
##vap
##tom
Jaro
##lová
##něž
000
Dav
##vesti
oblasti
aj
možnost
začátku
příští
zahraničí
zcela
příliš
leg
ser
##kraj
pros
situaci
tla
řízení
And
vysok
zejména
##kyně
počet
samozřejmě
arch
as
##ude
##hodu
##zni
##nolog
##veřej
21
přímo
krát
doma
##ani
dra
##lých
lze
rozhodnutí
Kč
nemu
Další
##ler
##be
##las
##ovací
sko
##ujeme
poprvé
soudu
##lymp
##ord
Let
titu
##nech
jinak
Milo
##rání
Au
odpově
stí
Vš
##met
##zemí
Se
bychom
Ro
##skos
##rně
vytvo
skuteč
obra
ter
Ty
celý
##šní
##čné
nikdo
##kti
voj
techni
##eru
##alu
##ede
slav
lidi
podpor
mat
##pust
##važ
oček
prvním
nut
##zv
rodič
res
brit
##hledem
pom
##tila
##hnout
zemí
##ps
##ouf
nimi
##xu
domácí
##ký
kdyby
minut
poslan
##ren
takové
##šky
omez
období
hnutí
účast
ČTK
199
##lova
energ
Zatím
##elo
##inci
zach
vstup
Sa
##tím
##hodob
obv
rozdí
těchto
##vaz
dříve
##dělí
##pon
maji
investi
akci
úter
##ií
vrát
mohla
zlo
rak
večer
sobě
bezpečnost
##ickou
##kat
fotbal
jednoho
tohoto
##sek
Sta
státní
##ary
##oucí
státu
hokej
poskyt
škol
pi
vnit
poš
internet
bodů
##couz
inform
##kace
sprá
##zdu
100
jich
Pe
méně
spoluprá
tém
poh
Bě
dítě
koali
informace
##lín
##kali
První
Jo
budouc
##jišť
##čník
Du
at
nebyl
film
projekt
##ůvod
##ůžeme
##rd
Sch
##vola
vzni
gól
opat
##ška
Vě
##čen
soupe
##bali
jež
##jezd
##kré
polo
podpo
##cko
##ple
profes
22
sú
ope
dět
požad
##dále
voli
abs
spoj
##verz
Němec
telef
kultu
mas
##lie
stří
růst
##dají
sen
##hody
vlastně
##estival
názor
##dat
##bách
##ita
konci
ok
můžete
##spí
řešení
##obod
vyjád
##ke
rež
pred
Tr
dolarů
peně
lev
##han
navr
##podob
##graf
odmít
##řila
republiky
jaké
##ekt
skupiny
parla
obyvatel
##romě
trhu
##mil
invest
##rii
miliard
rozhov
Evropské
##hlas
##ostí
smě
stře
televiz
##dejší
problémy
##čili
##zvan
tuto
čeká
##ován
skvě
sc
##onal
prostředí
##čin
pozor
2017
září
Pi
##pově
kar
mnoho
technolog
Tomáš
dlouhodob
##lání
program
hrát
Ham
Británi
##hů
právní
milionu
budeme
sobotu
##ten
Mat
##vím
snaží
znám
Kom
výstav
dovo
pátek
vyšší
Tu
##nili
služby
##hé
##něn
##avy
##vědom
ves
##ral
##ovaných
##leg
prim
##razil
##sně
##stické
měly
středu
##var
dopad
##ůmys
eu
hasič
##entů
firma
sla
##DS
##ější
00
##alí
fanou
##dět
olymp
střel
dětí
##dání
##poj
Me
byd
dub
##lomou
začal
##amp
Jos
##ore
vide
##poled
tri
Ar
některé
##žila
zmí
##děpodob
sty
Čer
##klady
běž
eur
##áci
##átky
##vno
Jenže
jehož
##teř
jednodu
dce
nebylo
##nictví
říj
24
listo
##jímav
##bní
minulosti
zveřej
smr
umo
##stva
partner
##žili
David
ústav
40
##isté
věn
pondělí
žádné
Mí
aktu
moder
ven
exist
##dech
##více
Vác
ned
uvá
pok
tisk
##jíž
la
pam
##io
Hra
přesto
##kám
spou
##smu
##aný
##ará
akce
##skosloven
jednu
##oc
některých
českých
rovněž
jedné
podstat
ry
Pak
nepři
blíz
vra
##átní
##ika
Zd
zásad
zkou
us
##dali
##ľa
popu
okam
police
##blí
nor
roli
##ES
zne
les
nejd
##dce
##boru
##teří
ženy
součá
##lené
##ada
##ceme
tradi
význam
povin
divá
přístup
doku
město
místa
vl
času
##jedná
plo
kterým
stal
ide
23
Andr
divad
celou
Pavel
nového
sděli
zru
stup
níž
metrů
My
velký
##oby
naš
zvo
století
ochra
##ang
##celá
podporu
dělat
tyto
vyso
chtějí
stě
ODS
Šp
##álním
naj
kterého
##íme
##ong
##ara
nějaké
##nos
překvap
##řím
Ju
##ine
zřejmě
deseti
prakti
zvlá
##dom
Kromě
##og
samot
##mysl
jmé
Není
vidě
##uji
zastav
minim
##mají
Ze
##nám
trenér
života
##roje
dobré
##řili
##kom
hroz
základní
platí
předch
##vor
zby
##acebo
pravidel
přesvěd
spíše
zákona
##kovou
##kových
##éru
sloven
proce
Mys
kor
předseda
jmen
meziná
##fici
úterý
kari
Jako
otevř
tvo
##skými
nechtě
##níky
podařilo
kterých
##ají
##rozí
##zdy
##endu
Novinky
zbra
hvě
chtěl
skutečně
rez
##gli
##líč
naší
##chyb
##kově
So
ciz
stavu
zastupitel
ministr
##vající
Kra
úspěš
desít
strán
konkré
kau
trén
konku
koment
Vz
obrov
školy
jenž
festival
nových
##mit
tran
mil
scé
##roni
udá
celkem
##cům
##kl
domu
##enty
východ
##žal
kab
zákla
slo
průmys
ako
##ezpeč
zahá
Dom
##ními
vidět
souvis
informací
##městí
Dra
rodin
motor
region
fran
čtvrtek
##vek
povo
##mentu
##saz
udě
vystoup
nemocnice
druhou
uděla
##tý
##vak
Op
psych
rest
pořad
##edl
prostor
médi
srp
zav
nejvyšší
výrazně
centru
test
zalo
##hužel
##hr
prote
opak
##ovaná
New
automobil
prostě
rozdíl
prod
výbě
tou
pomá
vozid
vr
vzpom
##til
nena
mnohem
druhý
Af
teplo
Dě
Dí
hospod
dostat
##any
##ckém
vyhlá
oba
nád
##iky
##ův
##ismu
listopadu
##skem
##ap
##tili
pát
SP
##ja
##rý
kandidát
##káže
národ
žena
##lace
podnika
záj
pohyb
PR
##žství
##řebu
The
sním
var
neděli
##hlé
##zní
##telem
##stře
##rovna
klub
vody
Evropě
##ash
Mal
Rak
sprav
##měrně
##žeb
nemůže
Praž
##aná
Minist
nezá
ply
obec
Mezi
vojen
mohlo
uži
##álního
2015
##finále
##hoda
mistrov
nepří
##žití
##ckým
slou
přin
##ováním
dosud
dokáz
##koj
pravděpodob
kromě
Rob
území
##esát
Byl
prohlásil
##iše
přišel
dov
resp
Andrej
dvěma
##telé
došlo
Česká
kaž
vrch
Jsem
západ
klubu
##tou
tá
staveb
28
##kor
##ujících
##br
mar
poru
##ovu
Andre
Pol
někdy
Nap
věc
##šti
jíd
##poledne
kilometrů
##lej
dále
málo
ceny
ukaz
##ších
##ID
okolí
60
Slav
##mb
Sev
##adva
Takže
Ond
musel
##náct
ší
De
porad
směr
auta
Vi
Spar
taky
určitě
##ránit
Di
Liber
nevě
##stal
Ad
cenu
vlád
firem
Olomou
sé
server
##rac
toto
##úč
##hrad
##ýš
ad
##vka
zajímav
zařízení
ministerstva
Babiše
##šku
dosá
##ket
straně
takzvan
ztrá
děla
obou
##onstru
vrá
##chodu
##jú
##stili
##lap
prodej
čím
Evropy
vedle
asist
muže
##ávají
body
Ti
Jana
pé
moci
Sk
ohled
##ampion
No
výji
##tora
ať
pomoc
vzá
vyhrá
##vit
##atu
napsal
takový
La
##ému
finanční
městě
materi
26
##aných
27
##lila
##ropo
##znamen
výbor
Právě
staro
##nul
##řem
unie
##eného
Rom
alespoň
##jev
pohá
popis
armá
zo
domů
znamená
##bit
##lel
zas
Rozhod
čín
##aněl
dělá
##čný
##car
##ini
Dnes
univerz
náměstí
dlu
spor
začala
důvě
ministerstvo
pomoci
jasné
##enu
místní
přá
tolik
ukon
##řka
peněz
přesně
##fek
90
Česko
Teď
francouz
zakáz
organizace
##latí
##ály
nová
##div
##kol
vliv
##jak
##tně
Bylo
##hi
vítězství
způsobem
konfer
##vám
##íná
Uni
##iku
202
paci
návrh
turna
##něné
##rych
deb
Mer
zvlád
zpět
He
##čuje
potom
všem
##valo
vůči
obraz
##žná
hru
stranu
odhad
svá
##bud
insp
##uper
reak
##ejte
český
kapit
mana
riz
model
Ex
příprav
##rož
velkou
systé
##inku
komise
Rusko
##ovit
##kový
pozem
##ktor
kola
##hodno
##střed
##pozici
Va
konz
finále
##teční
sami
##red
##rus
reag
ulici
##zrael
##vku
##rb
obvině
napad
posí
postupně
##rig
ráno
Vlad
záchra
zmi
##třeb
cit
dat
předchoz
sever
autobu
jedná
##zá
abychom
35
sociálních
##řech
následně
##véd
##oně
zranění
##sen
komp
prí
##pt
##skému
hry
##ďar
Tě
kamará
##voji
volby
cy
##HL
Josef
člán
ště
současné
##mr
svobod
potřeba
kolo
##ativní
podez
Ha
součástí
tex
##ank
##nek
##avíc
systému
probí
##inka
Navíc
Put
policejní
of
dokument
vězení
množství
##anu
##zně
spoluprac
##lib
Ned
práv
doporu
volbách
příležit
dodává
set
##sledek
základě
hodiny
##itek
##hání
roční
státy
Nic
##lada
tato
##fin
##stří
napro
rozhodl
Přesto
##koda
ofici
poved
vík
198
neod
Ani
##rali
bi
trá
##zkum
##šila
osmi
##TO
programu
nemusí
lidem
Sy
dal
leh
bí
čist
2014
přiz
##dub
##čilo
##aleko
rodiny
diplo
jiných
Be
šampion
tř
nichž
##ratu
zlep
šanci
##olu
novou
##hne
jiného
##ivně
##vič
##bý
##NES
Tento
##ňují
##inách
schvá
kur
různých
kterém
úvod
##our
Sý
Ukraj
Že
přem
Rus
odvo
dny
vládě
zkuš
exper
kancelá
jít
##risti
Foto
předpo
zemřel
##tov
většinou
rozší
Stra
##žné
hrozí
skoro
reali
##cemi
##luví
##boj
##ista
Plzeň
žádný
ledna
##qu
##jištění
##ací
telefon
udělat
spolupráci
mom
nebyla
##wit
strana
většina
prodá
dře
šesti
nemají
Vět
##ros
Kan
osla
sněmov
##kty
##oku
umož
##hodě
##jených
##ondý
Lidé
##iště
##nách
oblast
mobil
##před
##áti
80
nejvíce
##lob
##ert
řadu
Facebo
Michal
dní
mistrovství
##ením
výsledky
kontak
##iska
jezd
##ča
Tur
Ra
##kaci
##dia
politické
##zim
##kládá
přist
demokra
jiný
konkur
are
říct
##ujete
úrov
Pat
Jin
##šk
vysvětluje
ly
29
budu
služeb
##ven
##níka
##nácti
post
čem
##cetiletý
##isi
Jsou
čís
##seda
inst
fanouš
##vější
##nějších
Ještě
rozhodně
Stej
##stvo
##žela
června
##sme
můžeme
##dění
hlu
republice
premiéra
důležité
red
Man
##xim
máte
##běhu
ostatní
jenom
žal
sva
Něm
nato
společně
##hn
lépe
##aty
získal
věcí
obsah
##vize
politiky
českého
měsíců
Mlad
##ela
restau
Například
70
návštěvní
##dělení
Nech
##vaná
##ona
sama
45
stran
##cov
##kala
##itele
Nik
Hla
vyrá
myslí
dení
##ávat
sezoně
klid
proz
##šně
stalo
##che
para
kraji
KS
mnoha
##počtu
dvoj
řadě
kup
##hal
posu
dru
##rovnání
pochop
sezony
prohlášení
Zatímco
Gu
přijde
Sen
##ters
Jde
nějaký
##cho
potrav
Hav
jejím
šlo
ši
##enosti
##omu
našich
války
americké
letad
projektu
##tvr
Sv
Tam
funkci
##ers
neda
musíme
##ilan
zeměděl
desítky
##toři
soutěže
pen
vním
##ickým
bývalý
##mení
##měru
zaved
Miro
fy
disku
##port
daleko
Vys
Václav
##cii
SPD
Myslím
##prava
počas
živ
##ese
Nová
jednotliv
zvíř
nabízí
##ld
května
ovliv
začne
stala
náklad
Mosk
##EO
tvá
##říž
spíš
vari
přibli
pocit
architek
##lec
museli
daň
##řské
##rk
##sala
myš
Každ
tero
trh
KSČ
působí
Bí
##zen
##ft
##avor
mag
dev
Češi
věku
vede
##tat
syn
##řen
##adí
minutě
muset
úřadu
krás
mon
Ostra
příj
zdroj
##zuje
příjem
vzdělá
##hlo
podzim
Morav
nadále
##vil
muži
neměl
zbo
zim
stoup
druhém
komu
##haj
půj
##stila
údajně
##zda
##teľ
##cházejí
ky
##řům
seri
migran
byť
zprav
##mar
196
níz
##ovať
agentury
Hu
svat
Svět
##nec
zjist
Českosloven
práva
dé
extra
kolik
dostala
##řít
##vakrát
##rand
##lého
##pou
podmínky
celá
apli
odsou
Donal
stop
##lík
pomocí
cestu
stro
Draho
dát
Brno
filmu
zi
Brně
přece
března
VID
získat
násil
pracov
zpě
nicméně
velká
inf
pozna
získá
Mas
##mila
želez
##nilo
##stoupil
řada
obžal
##říd
uvádí
##řady
dostali
##enta
##rátor
noci
udrž
##živ
##íte
##účast
tisíce
VIDEO
ital
neob
##áků
31
##ována
počíta
Go
##čitel
jedním
zpráva
##niční
##lor
Itá
##čera
téma
##hléd
Os
podobně
dopravy
hráči
##ráz
##stala
hráč
##hlíd
hraje
Petra
pal
##prch
Druh
muze
dve
hři
Aut
televize
Pom
##stava
kateg
##slava
##gi
Fili
Kdo
typ
hospodář
lod
hlad
nepře
pozici
řešit
nově
Ser
Proč
Ste
Her
##entem
##telů
síd
října
##nú
opatření
vybav
Všech
##gan
##bul
Sně
hlá
cena
##nické
slova
kritiz
dnech
napo
##rací
Podob
nepro
Su
starost
##OP
##tit
sem
Hamá
pokus
pražské
naši
sly
kry
škod
##ingu
Společ
Nyní
##vol
rekonstru
osobní
ligy
Eu
olympij
##násob
Bud
##elí
##telné
Mon
me
##éry
##pla
pokračovat
Zemana
por
nu
doz
bou
pas
##zal
##aru
vhod
dodala
Ved
zkušen
alkoho
historii
##řela
rozhovoru
mrt
Bez
maxim
titul
##mbo
klíč
příspě
němž
hude
pově
##etu
vyž
pracovat
blo
kategor
nesmí
malé
medi
chlap
pozit
##ovaného
nen
09
hud
##lili
##sluš
##zo
##istů
dalším
opozi
Miloš
##děj
Ak
dohod
menší
##ička
dnešní
Kdyby
vývoj
##štěstí
chybě
myslím
nezávis
##žet
čele
Ag
policisté
demokracie
Američ
Hrad
úno
dospě
##sf
Micha
##ickém
právo
průměr
Pri
Ben
start
starší
režis
##den
##ashing
##výcar
publi
Díky
konf
Pardub
##stoj
plánu
králov
států
Británie
poměrně
##ader
nos
##jte
500
úspěch
##kář
##ýval
měsíce
Reu
očekává
skupina
sho
těžké
souvislosti
taj
prová
ministra
lete
##nič
výsledek
Karlov
pol
Také
světové
spad
změny
zápasy
hovo
fotograf
Policie
náš
mlá
usku
dopravní
##teru
teprve
vybra
##ero
potřebu
vydá
Reuters
chtěli
vyrov
extr
##ger
Větš
uprch
##udí
##rostřed
nechce
fakt
klas
zatímco
odpoví
banky
Ter
dvakrát
Da
oblíb
dům
Putin
Ble
národní
##stěji
kři
##ovými
němu
člověka
kraje
##žer
##ster
podot
nastav
we
prvního
Ště
Dob
dubna
##ung
útoku
##lám
kle
##nají
nom
angli
nechá
Bude
rádi
vzdu
Stu
jez
dispozici
Německu
Ří
zraně
##razí
##deme
##go
##kých
obchodní
naprosto
Hor
Během
dlouhodobě
zvyš
lu
zajist
##slan
kus
sportov
čo
cílem
##hdejší
Vol
jednoduch
nevid
zdravotní
Ry
léta
náměst
útočník
##alý
příro
Slová
odv
Král
jednom
Wil
centra
##tky
##žitě
##nak
tem
##jel
neví
Washing
##čím
##dci
skončil
zaměř
demon
hrd
##ance
##ety
nižší
##esu
července
současnosti
##livé
##pá
##alyti
dro
Nak
Ov
vypadá
dostane
výz
##land
##str
##jezdu
brá
KSČM
rost
2013
##ěji
začíná
##har
super
koncer
194
nástup
sbí
##ep
refer
Nev
okolo
Chtě
##ile
zdraví
##orů
Kvůli
Musí
Její
kla
Zároveň
##ečně
##ůraz
##váme
píše
přišla
##anta
hlasů
občas
##nictvím
##atisti
institu
str
Asi
vraž
devět
prázd
Londý
mezinárodní
##nalo
vedoucí
cesty
vztah
někteří
prosince
##ju
##adu
začali
nebezpeč
Až
Rusku
Švéd
polovině
vládu
agentura
bohužel
jméno
št
svými
zprac
důsled
##nami
jazy
zů
soused
obnov
komb
Vždy
nutné
počtu
Hod
Pan
projev
##ostat
sedmi
##ročně
spojen
##olv
protest
proces
smlouvy
##zel
kop
##hají
rekla
civ
##mem
různé
jaký
nějakou
poch
Jaroslav
##oun
Střed
Sněmov
##ůležit
##ovanou
Každý
proved
##we
##lze
výši
Hlavní
##roti
okol
mohly
meda
##ňovat
Har
Mac
smí
##ír
mimořád
letošního
velice
poško
tref
sítí
##plat
NA
##sud
vždycky
sdělil
##níku
mladí
##krá
Jakub
brat
řád
play
stejné
##něl
podnik
byste
zahraniční
##kání
rodiče
##ktivní
NHL
HN
##káž
##itě
##mosf
Rakou
rady
##dru
spl
záležit
##rají
##lové
##esáti
směrem
##ezpe
požadav
média
Ni
podobě
##idu
##nímu
##etě
Stan
brzy
potvrdil
srpna
##lena
pohledu
Ča
##sahu
##andard
prostoru
dobrý
smrti
##zích
tehdejší
##volu
Lig
věří
provozu
příběh
měsíc
Car
sá
Máme
gra
##zny
Luká
##žené
Mil
Jejich
druhého
střední
požá
zdá
žije
##nitř
##vin
sexu
fin
odpoledne
neú
##DU
##áme
úřed
prodlou
vaše
kat
##ternat
tiskové
del
nesou
Aby
dostup
února
vysoké
extrali
Byla
Česka
uvědom
koncem
Ge
drá
zástupce
32
##vatele
uží
##nějším
Možná
něho
##kázal
Fir
##ham
##ést
záchran
doh
najít
##fa
obvyk
pís
kompli
zprávy
##oli
nesp
300
ročně
náz
chu
zaznamen
##zkumu
nejméně
off
tvoří
Maďar
bohat
Kore
##žuje
Nez
nelze
##letá
jakou
##enými
lit
tzv
##avad
začít
Ke
iD
Kim
počasí
bre
nejde
potvrd
minulý
Rod
svěd
##tivně
Voj
As
poho
svoji
bydlení
##des
vyšetřování
složit
reži
For
výh
##rny
funguje
##skej
##odaj
brněn
festivalu
##růst
jader
nebudou
náklady
##ex
parlamentu
zboží
hlavním
##slední
##berg
##HA
sestav
vylou
##kova
oce
##TA
symbo
majet
##cy
##šili
zápasu
manažer
zrovna
##kosti
slož
Kam
Alex
##forma
promě
Yor
zisk
Slovensku
končí
##mon
vaz
Franti
napl
odst
##lenou
##ozem
hráče
##isty
vnitra
podíl
norm
zápasů
dek
přech
Kou
zůstává
oz
Mus
Prezident
##éře
kost
obrany
přibližně
##nicích
prostřednictvím
##říz
nedávno
prakticky
vyře
chceme
##ovce
Nad
prohrá
médií
utr
##ovět
funkce
ruce
dvacet
oč
douf
stovky
##nom
##sledy
##ora
krimin
setkání
Bel
nákup
zpo
##ováno
posti
šť
##pravě
Tím
veřejnosti
konstat
urč
konferenci
##tali
zji
##išti
financí
Hol
předtím
poznamen
TOP
výběr
##kož
strateg
svoje
##ré
zemích
značky
Var
průběhu
Fi
##ičky
důkaz
mluví
nest
obce
případně
webu
rodina
speciální
##žím
tohle
zaměstnanců
Ost
takto
jiho
rekord
úrovni
##vedl
##ino
celého
atmosf
uživatel
33
možnosti
Star
pev
společen
úřady
##šker
taková
arg
ber
jediný
##tají
papí
Stejně
Vít
OS
můj
##sedy
sítě
Hy
nim
##hradní
střet
těm
dvaná
parlament
Dan
##hý
nená
Mám
získala
tun
##rek
myšlen
##razit
popisuje
zamí
##kres
krok
##žovat
##vací
##huje
tvrd
neboť
##tera
letošní
byt
hráčů
##lína
##áky
##ery
rukou
prvních
zúčast
here
Naopak
##hly
##šné
zneu
vyb
loňského
financ
mladší
demokrat
našeho
internetu
Protože
##vce
chybí
vládní
oznámil
Mc
anti
doplnil
statisti
neg
##lii
##livě
##lynu
prezid
py
##bora
funk
##ign
vyhrál
přítom
zkušenosti
místopřed
##nosť
##zace
##kového
nesta
##bami
podobné
##pal
##omo
emi
hranice
##jednou
##pustil
bit
životě
Sever
vrátit
há
zad
navští
Sest
##arma
##raží
evropské
spravedl
ml
nejspí
##čná
fotbali
majitel
##říve
pravděpodobně
Nor
ane
moment
celém
Český
hlí
stad
záchraná
Pla
Spoj
##ceně
##kán
##padá
přísluš
Škoda
vyprá
##ks
Sto
děj
Jeden
stanov
fyz
slib
životní
hol
##OV
neo
##jišťov
amb
##chov
##lostí
nepod
radost
rom
web
Vl
##inaci
popsal
ostrov
jejichž
dneš
##jímá
stanice
tentokrát
Tra
zdůraz
##vok
vytvá
špatně
ruské
Ano
##žený
zápase
##pat
Spojených
##cu
Letos
##ádu
paní
najde
ministry
ktoré
Mod
podstatě
##čej
evropských
podvod
moje
##kající
nemocnici
původně
kamp
podľa
amerického
##ňů
##hodou
host
most
Španěl
vybí
##inace
##korej
nemovit
jednat
##šie
Miroslav
zod
zapo
Nav
číslo
profesion
##álů
mam
PRA
##hých
Mno
docela
třech
##krom
##form
##tít
Váno
Ministerst
iDNES
##mot
musela
##era
zástupci
místech
Dá
##zovat
většinu
##rovol
Fin
##želi
bole
velkých
Or
každé
id
propa
výročí
automat
viz
křes
fá
##kel
doda
létě
Jest
plav
vrátil
stane
krátce
##úd
jistě
##ley
nijak
tělo
vysvětlil
##voje
znamen
důvodů
disk
závěru
Filip
cho
pracuje
mand
denně
řeší
Lit
zasá
škole
##ěl
obrán
samo
demokrati
PRAHA
2019
##adr
##mut
##ell
kapa
##cid
34
cesta
adr
hu
miliony
##řitel
Ruska
##žování
Francie
##čkou
díl
##počet
spotřeb
##líně
kterému
##lená
změnu
důchod
##rab
dokáže
##řené
nahra
dohody
samostat
hranici
##eš
Králové
ce
##ón
výboru
defin
##ovány
televizi
##iu
nejvíc
prosad
rozvoj
##lus
AP
budete
obchodu
##leté
##stoupit
##až
řeč
##vůr
af
konečně
##grafi
soustřed
##ťan
unik
vysí
##mech
platit
##mír
##bur
##rovi
stab
trag
hrom
označil
##ym
36
energet
rokem
poráž
zan
Třeba
Por
rozpočtu
kvalifi
koleg
##rační
minimálně
kamarád
koalice
spoustu
lékař
Lo
##oved
Sed
##kování
Ži
česká
##stroj
##lim
##šené
##valy
##oro
cestě
##stavě
ráda
Jsme
kouč
##átkem
Ga
ut
oproti
##ladu
##lovat
případech
##tyři
Sil
##isla
členů
person
##ňa
neroz
Premi
Může
zásadní
původní
##ovaní
hlavy
Loni
Karel
Gr
seve
ovlád
nau
##razili
podrob
Japon
uprav
ner
San
vešker
stráž
km
##mpa
absolv
##lený
##dec
elektroni
##čemž
chem
okamžitě
mně
jízd
americký
55
magist
Ky
naci
##bá
##onec
##čce
Per
##bývá
##láda
##plývá
drob
##letého
šéfa
##ablon
chování
někde
Prů
Samozřejmě
Jestli
rizi
potenci
Německo
štěstí
bá
dnů
přines
Andreje
Původ
nejprve
vyrob
##tová
konstru
vzájem
bývalého
mužů
kampa
typu
nas
natá
##ýt
2012
##ind
##aného
##rách
hře
využít
pamě
##razila
nápad
výjim
nece
##nutím
##klid
nekon
Vladim
##iat
demisi
Zlín
odmítl
Den
zapom
mó
učitel
uspo
Slovensko
Místo
léč
odpad
spol
##igit
##psal
##chem
starosta
žalob
##leny
takovou
##áž
syna
##ovka
oslav
hlavního
##witteru
prou
the
minulého
umístě
ktorý
197
##ůžu
případu
sdí
ká
##fu
uvid
amerických
dosavad
kles
žádná
##lev
nedosta
##kop
pozice
##čítá
šance
Merkel
areálu
Ře
režim
konec
Nakonec
přičemž
Han
pochyb
stráv
seni
##rok
dod
##etro
půjde
Roman
tan
regist
chystá
##ůl
##jetí
formu
drží
##ív
Marek
Národní
Oba
Martina
zám
deta
pojišťov
##kuje
vědom
video
stadion
úvě
##exist
raději
nechal
##kolog
##óny
jasně
Lukáš
hodinu
Prob
##ža
##pravy
ukazuje
společností
oddělení
opti
jem
prospě
tvor
##držel
##are
38
May
předmě
Sob
analyti
Proti
góly
Nebo
váno
Chy
##aka
ubyt
tabul
##pověd
##zet
hlavu
##jede
námi
##teré
##ram
bav
několikrát
zpravodaj
hasiči
pozitivní
regu
##stále
nádraží
elektri
transp
odehrá
seku
výše
jezdí
##čích
evid
##ervat
##sit
Autor
tuzem
lou
volební
okamži
vybud
týdny
návrhu
Char
sklad
útok
poj
Trumpa
svému
##mile
pravidla
metropo
lidmi
přízni
zastá
Nový
budovy
##leží
##ilní
síly
buď
žid
Rich
mne
##kamu
Muž
##pi
##ama
##enější
odpověd
neměli
efek
Pou
75
tram
prově
soukro
37
ředitele
emo
oni
skutečnosti
smysl
každého
primátor
domác
##isu
##esta
smlouvu
vzniku
sportovní
tradiční
potr
##ovaně
ún
Jiřího
##kací
potí
jednotlivých
průmyslu
vidí
lim
jejího
##cházet
vzdále
hlediska
46
##mez
osoby
bankov
Izrael
Poz
vnitř
Dod
Jiho
Všichni
jedená
Bole
generál
Švýcar
shod
Sna
##imi
##sová
obli
Hon
šed
##cia
skončila
ztra
##eněk
##likož
nachází
břez
kuchy
pravda
upozornil
##štní
##fik
otázku
##af
##sila
##tiva
zbraní
bezpečnostní
Cí
cít
sub
přiroz
hum
##lub
přen
##romady
##tické
hlasování
považuje
neček
##eto
##ink
rela
dle
##cího
takového
##chodem
zvýšení
změnit
##erem
##ele
Velké
začalo
naz
legen
vyjádření
##rodního
##ismus
On
soukrom
tímto
sum
reál
##BC
Med
fakul
pravidelně
potřebuje
##lární
Stá
Polici
váž
##xus
umění
##astro
##ovský
neře
šel
závis
##šak
výmě
Dost
činnosti
vystoupení
Zdeněk
##stvím
propad
Ústav
##lid
roze
##ejt
těžko
Dva
ročníku
brex
##rum
vzhledem
Poté
##jích
trans
semi
dává
obleč
vážně
Ur
vyjedná
hypo
mistrů
##eli
##nily
najednou
politici
OSN
65
eta
##maz
někoho
DP
##tečné
ju
##livo
##eným
##minist
##adě
sme
Násled
sti
ochranu
##tro
ohledně
čase
##ána
dlouhé
inten
argum
ona
##oč
peč
odkaz
John
vystav
představuje
předchozí
někdejší
prezidentem
režimu
##rech
Slov
smy
Ondřej
objem
Afri
com
zvyk
analý
##ační
Bla
dobrovol
42
ste
##klád
uměle
Žád
zdrav
otázka
##vem
zabý
nast
konkrétní
##ay
chtěla
##ori
byzny
připomíná
##šetř
##ánu
Nejvyšší
serveru
strom
Tři
##átek
Německa
zaplat
san
39
odstra
At
výzkum
##áty
převá
400
##elní
podniku
Drahoš
##enie
stat
##klo
schůz
městské
Okamu
prv
2010
##bi
zavá
péče
is
tajem
uprchlí
Ministerstvo
2011
dár
žádnou
růstu
##sia
ků
cestou
obětí
##lených
diplomat
pořádku
Někteří
Kry
##terá
ano
šťast
stroj
musím
##ilu
##arak
##mili
##ovku
##pustit
vyvo
Největší
##vést
delší
##itou
lize
zbav
##nově
syr
##EZ
##stin
úro
Problém
domě
představit
ohrož
##gn
Evropská
hasičů
##háj
Len
investice
##ína
odmě
hní
odmítá
##jíma
##stoupí
zla
útoční
veřejné
přesu
Tato
##lod
Krá
Poslední
energie
skupině
##ph
vzrost
##větším
bur
charak
Donald
##ňování
##kola
dramat
ohro
fon
autobus
##inové
##adem
stavby
vyrábě
posil
představitel
##šuje
Masary
stál
##níkům
favor
Robert
soutěž
posledním
výjime
nejspíš
##entní
dvoji
bytů
sezonu
stru
neustále
nazna
Air
Ostrav
##eku
##gr
Milan
##ghá
##něný
##bere
##čková
nahrá
##of
Británii
##ktů
zvítěz
Fer
##islav
##drží
##áka
Brus
digit
##chová
nedě
revolu
druhá
##kovat
spolupráce
vyv
dalšího
agent
ochot
obvin
otec
mého
účin
Sýrii
44
neexist
částe
osobně
kabin
Jablon
Řek
Sal
hlou
##encí
dot
cykli
Hamáček
dalšími
##hro
hrál
pohybu
NATO
oslov
Brati
fa
far
##ovatelé
prezent
týká
##idla
##cová
přišlo
##esel
vzor
Kla
přís
mluvit
kontrolu
hov
Měl
německé
Lé
##neme
Západ
extrém
leží
kvalitní
##lépe
##kého
aktivní
redak
aspoň
##zivní
označ
##deň
##bro
opu
##voz
Ros
narod
radnice
moderní
##mana
veřejnost
poro
ulice
Euro
Pirá
##čík
rozhodla
přihlá
Patri
spu
##cher
všeho
##mun
názv
režisér
Auto
stačí
Kor
##působ
problémů
##jeli
zaslou
podeps
knihy
domov
##stan
jednozna
##ted
##rky
jiná
parku
generace
Si
jaře
počítá
hez
trvá
olympi
jinde
ukraj
##gram
150
silnice
Spojené
Prav
hle
##jících
uměl
speku
Zu
pilo
nalez
##ctví
##nie
takhle
##ota
zkušenost
Ir
##šková
Fil
##fe
##anů
##ody
##oče
přispě
dopravu
policii
##tka
##řetí
chtít
##telu
údajů
dohromady
##odní
pe
log
data
##die
zachy
Prostě
##énu
ČSL
Fot
závěre
##sat
Lab
obvykle
poslanci
cvič
vydání
Blesk
##horší
prozrad
##kým
obvinění
spravedlnosti
##aniel
republika
##nář
tep
víkendu
podezřel
##mout
poslanců
Nicméně
##smě
mění
48
##stro
lav
##ckými
Ač
Býval
##něji
obč
vztahy
přijít
desí
KDU
špič
neměla
##zdory
Terez
##těž
příklad
zved
poko
řetě
skó
##broj
historie
podnikatel
2020
proh
dali
##ivu
zasah
##šly
##jela
##jat
##sazení
Washington
##rí
kampaň
uzavř
izrael
##vnitř
##smus
soupeře
naposledy
nechat
uplynu
ukrajin
Přes
standard
##laci
Bor
Kateř
LN
dô
přestup
krize
přátel
##hav
##ovek
incid
zdravotnictví
propu
##tip
kol
bezpečnosti
aktuální
##řeli
jejíž
##ktiv
##něných
výš
Adam
obtí
Con
voda
Bohu
naho
Ap
som
##lejší
kolegy
##ěj
odvola
Izra
##však
Miloše
pozornost
Facebooku
rozhodli
péči
##enz
průměru
##DR
lednu
Většina
##řin
##sť
agres
##víti
žeb
třemi
přišli
důvodu
Dvo
Vla
cuk
Sparta
Net
názvem
Aktu
předsedy
##nka
glob
##leli
dodnes
chrá
##čily
příč
##mal
lokali
fond
##ski
otázky
MS
našli
##atři
Mora
mode
elektrá
dotace
##škod
##řením
pěk
##ess
Francii
problem
informoval
vyvola
památ
uvol
šet
dětmi
alternat
usil
Soud
pobo
plast
případů
Ivan
ač
hlubo
desítek
##dra
##vách
chodí
##bře
troj
ČEZ
tlak
nedale
omezení
nejbli
Senátu
##ovič
##enky
Cho
řidiče
pit
##ráček
Itálie
novým
mô
Některé
vítě
příležitost
informovala
sérii
hodnoty
Kraj
udělal
##stický
Nové
mír
Společnost
účet
říkal
hr
oceně
nebyly
kto
padesát
advok
trium
Počet
přiznal
ture
##rátu
pana
činnost
sítích
nie
děje
českou
požád
bal
zdarma
##rala
srovnání
slovo
193
Vše
násilí
kami
vozů
43
Ver
školství
princi
##ovic
vyjad
##hnu
počátku
diváků
zlat
##ladatel
##ip
Chor
kterými
Přit
##alou
výrobce
vrchol
##znamu
##slane
Bohužel
události
trenéra
vystup
Šéf
##ujú
naroz
Lidovky
##lal
obránce
nábo
přiblí
mostu
časem
##cené
roste
##vých
##čných
nehod
##nali
všude
českosloven
našem
rece
##ruhé
chci
##zev
##rovná
uvaž
kriminali
mou
##řky
ženu
##visí
sel
měsících
dvaceti
ohledu
rem
Všechny
##nová
třetím
prací
Jižní
Jihla
těsně
Facebook
##clé
##ány
poháru
týdne
nedostat
směru
Brna
členové
41
##lig
zpátky
Goog
zahr
spokoj
##městnan
Tim
plánuje
Pu
voličů
menš
cíl
cíle
série
Boleslav
##rin
##kojen
##jícím
klimat
Pel
nepoda
technologie
Kub
kilo
říci
##ujícím
regionu
spis
těla
rezer
##ociace
přizná
vedl
##ředu
překon
Bru
směř
posta
##krátka
##nál
elektř
řady
velvy
civili
Policisté
stanovi
##DP
Sestavy
nejvý
zápasech
Buděj
květnu
##mění
politice
##tla
koncert
semifinále
Lí
studie
dřív
Klad
##tvar
udělá
##leh
##hlasí
armády
Is
##zech
přiná
činu
##lent
ran
Gó
##ill
Ostravě
minuty
muzi
časop
Kali
##gres
fotografi
hav
luxus
El
přemýš
##alizace
##icích
##ády
lékaři
zauj
##řily
##čko
bývá
negativní
##hel
ostatních
odliš
ins
##klu
velkým
##itelně
poslal
##mluv
nájem
bol
##časně
##desát
##nce
##nemoc
nejča
inici
čtvrtfinále
vzpomín
Přitom
##reg
politiků
stejný
mali
##burg
závodu
dodrž
Er
##nové
kauze
přet
Tehdy
teror
##ovice
Slu
##ach
zadrž
březnu
vrace
sig
zdrojů
##nam
piv
Nes
nejlépe
##družení
milió
zvířat
Plzni
kontra
širo
Bro
oto
vznikla
nevím
nedáv
severo
tvůr
vez
##tala
polož
zábav
##čnou
odchodu
vyžad
##jiště
pomalu
49
politika
čtená
##pit
celkové
vrátí
upozorňuje
##pů
španěl
žebří
hlavou
úz
atra
největším
teploty
firmu
zahraničních
váš
Daniel
prodeje
soutěži
centrum
deníku
vodu
nedost
politiku
Ca
nef
inspek
##kan
##poz
##advaceti
západní
##dějí
##isa
##xe
vytvořit
zadr
Firma
##oboda
začaly
podezření
rakou
Václa
bom
hudební
##ládá
viděl
nemohl
herec
konzervat
zásob
Ed
##jong
podotkl
zprávě
mnou
slá
##pán
zni
silnici
Qu
##čel
dohodu
spousta
Des
navá
##ecku
reakci
rodinu
##cker
##timet
anga
Val
##stem
novinářům
Tro
klad
##růz
staré
Čína
povolení
ruského
Karo
stavební
článku
plné
horší
##tují
Vojtě
vyd
##ovicích
zdroje
psa
uplat
Pch
##znamená
nemám
##telig
možností
vrací
oznámení
ústavu
nechtěl
pán
195
úse
výda
Čá
##cát
Vzhledem
##tře
##kazuje
dokázal
Přestože
Fak
Fal
Krej
##letě
přesvědč
letiště
Řidič
##žas
výroby
anebo
##nete
##tví
##ložit
převez
ptá
hot
generální
věz
oslab
fron
mr
oči
##žnost
Prahu
##eda
komple
respek
schů
Kat
vytá
napsala
zaměstna
přítel
Cent
neúspě
zůstat
##itelné
Určit
##átů
Vid
vyzkou
respekt
chcete
##hala
onemoc
varian
pád
##pas
Musíme
Bra
baz
##zaci
souhlas
Francouz
jednotky
role
neuvě
alebo
exeku
Ostat
ich
##rant
poločas
kru
##one
##kladu
existuje
kos
senátor
##ůležitější
hřišti
čerst
kroky
##ipu
zaměstnanci
##ott
představení
##skok
##ade
##line
market
podpis
teor
malý
Severní
skončí
uzná
##čené
politických
občanů
zased
srdce
Výsled
##lích
##iac
zajistit
ministryně
demokraci
působil
pokračuje
Ovšem
úpl
vojáků
##ární
lik
##strá
##stit
doprov
správy
##nera
azy
pojištění
chud
vozidla
##úto
Sim
Kaž
##lému
noc
univerzity
seriálu
##hraje
jakým
zájmu
zodpověd
mzdy
sni
oznámila
najdete
slab
Olomouc
Československa
Niz
opakovaně
kdysi
barev
##ovatele
##ovaným
výrobu
kampaně
žít
saz
branky
##poví
dětem
musíte
##ima
úko
círk
eli
zní
výkonu
Belg
úroveň
##kém
chvíle
STA
We
nábožen
Barto
pohod
dávno
devíti
rozum
navý
poznamenal
míří
zvláštní
II
Čechů
každém
##lar
nehody
##ht
##kin
pru
lok
##cel
##řídit
snadno
víkend
zálož
##mali
##koval
nejbližší
zůstane
poplat
##loval
Důvod
matka
##nostní
intelig
Wal
každou
##ah
prev
sledovat
##teoro
sobot
prior
Viktor
jednoduché
##hodné
pravdu
Jam
životního
zu
Českého
Met
prosaz
takových
kultury
##dividu
firmě
dosah
Ostrava
osud
demonstra
názory
územ
veľ
##ito
##gal
strašně
spojení
nepříjem
návrat
##kry
##jších
druhým
červnu
příštího
rozsá
pó
##NB
Pavla
hypoté
polovinu
Více
vozu
47
52
obsad
vykon
Ture
koneč
Neby
týdnů
##áři
hvězd
##áře
vyhrát
Most
Sport
dist
##šte
plně
Číně
hledat
Rozhodčí
balí
Obě
Dlou
Tá
ruku
dozvě
##lom
centimet
Bul
poc
obhaj
Boh
imp
poptá
fotografie
státního
podmínek
vést
jaká
##čkem
Div
Czech
##jila
podívat
komplet
bet
doba
##lár
nemohou
pomáhá
dotaz
##mum
věd
##ávan
191
prosinci
tramva
dala
Zač
Kde
hejt
##nodu
51
##lela
branká
rostli
##čného
Nep
##lým
zbraně
Dán
připo
##slech
jím
dojde
nebezpe
poškoz
ekolog
žá
představí
sjezd
##šením
místních
##oty
verze
každo
Willi
euro
##iru
obavy
válce
pracoval
legisla
pomohl
boji
##čením
Tedy
##ban
student
František
dubnu
sociali
##star
míní
kře
kanclé
vysoko
##letou
šampionátu
absolu
událost
čekají
přez
meziročně
##řaz
##der
nechy
Mimo
##ica
STAN
##šený
59
trval
##ňák
nárůst
##iče
Jedno
ideální
##átora
Měli
##dol
58
53
fi
strach
vojenské
zemědělství
Piráti
fo
proběh
Naše
Peter
Dop
Vláda
vyjadř
##ult
budoucnosti
##gen
rodině
úča
objeví
Paří
ple
Úřad
kontakt
Pchjong
Ban
uvnitř
jinou
čtvrtletí
Com
referendu
TV
proná
dopis
ukázal
len
##inc
Chceme
libe
zůstal
##níkem
čeho
největších
utrpě
majetku
##nicí
##řídil
alkoholu
baví
ekonomiky
oblečení
zdr
ra
řidiči
vrtu
vedením
svobody
deník
nevz
budoucí
##hrát
snažil
údaje
čekat
vir
individu
##šný
hotelu
##vát
smyslu
##jdou
obháj
##dem
migrantů
##EF
2008
##rigin
mak
##tách
Zprá
57
dopředu
stupňů
bytu
představen
riziko
##ribu
vůz
armáda
rychlost
únoru
společné
mladé
zkla
radik
prostředky
návratu
postavit
obecně
koho
mech
těší
pacha
likvid
Ange
##žívá
Írán
dvanáct
nehodě
skr
gen
##ša
namí
pora
##rové
##lách
Mag
lin
úsmě
přichází
##vied
##moř
průvod
tábor
##nět
míru
síť
fungovat
Dem
bojovat
východní
bru
doč
použit
jenže
poně
##sket
komun
odkud
aniž
##šování
##kost
Státní
názoru
zapoj
britské
říjnu
příležitosti
snížení
hou
##tt
##mysle
nikoliv
nohy
vím
nabídku
85
##áta
osobních
moře
duel
##kcí
úžas
doslova
zábě
divadla
##iss
městech
form
600
vědět
Určitě
Vysoč
York
jezdit
##alé
týmy
dél
domluv
muslim
zajišť
##iť
průzkumu
##zejí
ztrat
částečně
jelikož
hráli
Mluv
trend
##rátil
jisté
věnovat
zr
dělají
nejmen
schod
novináře
Toto
##jícího
dobrou
##ria
pokro
##žby
##IN
odvá
Kur
tvar
praxi
novin
svoj
##bus
##lepším
Václava
tová
##áč
##ávání
jména
##žíme
Arg
žlu
prodloužení
používá
##vad
##ovej
seznam
show
##jas
Skri
Bal
##VO
spolo
přestože
56
posou
Pí
##cku
Př
jiným
pau
nikoli
##rový
##vó
stabili
nezná
poslou
robo
##teorolog
slouží
##dej
Twitteru
jídlo
Pot
dostanou
motiv
ohrožení
fanoušci
náměstek
##sson
pes
projekty
##žích
smrt
podě
Polá
vyslov
##angu
##amat
zajímavé
banka
Afghá
chytr
vyhrála
nemáme
##uju
##tonu
hranic
desig
coby
##pravu
letošním
stávající
druž
ras
správně
divo
obcí
zákro
maximálně
##enom
opozice
struktu
Ať
výhru
zabí
korup
ram
přeru
Iv
podání
zásah
silné
mladých
##centní
zakon
důvěru
uspě
##žily
nejdříve
##rátů
Tech
uzaví
zaháj
tvrzení
ped
refor
##spod
Vladimír
hmot
spočí
##stoupila
ryb
ga
Sám
vylep
čtr
budoucnu
disple
##šilo
##ove
Plí
patnáct
Podobně
hudeb
hromad
sráž
dar
jménem
svaz
gale
disci
##tin
financování
##leně
##ww
našel
koncent
třicet
##lových
##kovým
##nička
pražských
všet
soupeř
reprezentace
Gene
KL
##ola
vztahu
54
zprávu
dcera
plynu
Premiér
využití
kapitán
slíb
##dič
televizní
chá
##čtí
pojist
využívá
##anti
administ
##stvu
jediné
dveře
obo
dobrá
nějaká
ovo
www
ČNB
##řív
chlad
Případ
nedaleko
ročník
mateř
##hlav
malých
Cup
ori
zdo
Van
rozu
Sobot
CS
hlavních
Neu
sdělila
##rka
##ickými
infra
chyb
známý
Ústí
Čapí
2000
čemu
chuť
silný
Spolu
známé
##vlád
povede
včera
##ýká
Hlav
##ER
##advacetiletý
šir
##tar
postoj
závaz
interi
boje
sněmovny
rovnou
subje
##nut
pohád
trati
##eném
správní
týdnu
smut
##hali
venku
Group
Tyto
jedenáct
pole
koaliční
členy
konkrét
2009
odvolá
##ood
Stav
Dy
Douf
stíhání
Nikdo
zast
aktivity
##atel
brankář
##stických
daří
lehce
vteř
ruských
Nejd
Flor
##nesl
Rych
##ěh
Tepli
##lením
činí
Ligy
trestní
angaž
##bek
veřejných
třiná
vychází
cítí
Vedle
hledá
získali
zbyt
##rova
společného
Liberec
En
hníz
aplikace
výbu
rozhodu
závěr
klidně
##ovatelů
budoucnost
vozidel
##rna
##stického
##rover
daně
naje
minulých
Bran
##oden
##ičku
##ovské
obyčej
odhali
domní
zmen
požáru
vedou
přechod
##xy
štá
vyví
prázdn
navrh
##jili
spá
lídr
dolů
##oři
##nuti
oboru
přednost
Tohle
Jedna
ledě
kousek
servis
##evrop
##žky
centrální
Open
jejích
##agu
minimální
ulož
neleg
realiz
povrch
Meziná
blog
současně
Hok
##bod
vydal
zpěvá
nepodařilo
zhor
Moskva
Tady
kre
pali
dokáž
keď
##člen
##šová
kariéru
Jednou
##ík
##hrady
státech
vraždy
opa
pozn
Dokon
##ovému
pořádně
##ivé
1989
Nejvíce
##stil
odvolání
dosáhnout
BBC
zkrátka
##onom
Dení
kav
##ťa
vymě
niek
##táz
##áku
##ase
Slavia
Eva
naru
normální
Finan
##vahu
Karla
aktuálně
vrtulní
##dři
vyhled
Komet
tí
připravit
dvojnásob
##stům
Mari
turnaj
##esla
kulturní
zpěva
vozy
pozdě
závaž
začátkem
definit
##th
##lina
##hol
váleč
mláde
zločin
lyža
verzi
##ůvě
kanceláře
##zují
Českou
vyvá
1968
startu
zapla
předem
výsledku
koupit
##čují
##rák
změna
oficiální
Tomáše
termín
##ovacích
Země
argument
mezinárod
##top
přidal
zvy
klient
čtver
letní
##set
zaplatí
Šu
čeští
Gi
bab
sovět
slyšet
pokr
Nizozem
zjev
vyho
dovoz
vzduchu
akcí
planet
Sc
##ňky
##enia
Krist
Hru
fede
volbami
vodou
členem
Kateřina
Hrá
##obodu
ci
##áva
muzea
##ával
Tvr
##tah
rakov
svazu
sví
proku
fanoušky
objevil
rozhodne
##stická
Gab
rekor
Prov
veřejně
jar
Americký
čímž
shro
vyjde
##žilo
spoluhrá
běžné
##ováni
Skup
pokles
vzal
dalo
Bene
obvod
sílu
klá
rozpočet
##sili
nejhorší
skvěle
výhře
vzpomíná
škoda
špatné
##tení
chodit
debat
blízko
potvrdila
##att
ekonomické
třídy
##nických
najevo
##cka
hovoří
stupně
##eho
Lucie
cizí
potravin
##krad
port
Předseda
posád
vyhráli
MF
pivo
venkov
##čnosti
64
##pol
pořadí
částí
Chorvat
Red
ocit
žádost
nenech
##átka
hlavě
podruhé
tomuto
fanoušků
oficiálně
musejí
sest
##ling
ově
##žít
Tour
##ůžou
postupu
tenis
zpří
stylu
přesil
##avou
##tev
loňském
hovor
KLDR
Ang
většině
##jším
důsledku
zaplatit
Madr
##štím
dostatečně
Google
##nějšího
zvaž
##hnou
##erová
gu
nejdůležitější
Číny
uskuteč
##rné
Macron
bezp
novináři
zoo
hodině
##struktu
škola
promí
přel
##bar
zpí
srpnu
##zt
komunikace
tamní
Celkem
##ced
sebev
křesťan
Itálii
narozen
##ws
setká
im
°C
působení
orgán
Tho
ukázalo
Bývalý
der
zes
##nický
pěst
Změ
kříd
vyjádřil
odchod
mobilní
dlouhá
odborníků
Lou
sal
##álne
Pá
Štěpán
Dos
postavení
potře
Lad
##tku
##pří
trpí
školu
nikoho
např
podporuje
povinnost
čelí
##itím
and
sle
hřiště
elektro
##20
služba
##áno
klidu
speciali
polovina
řečeno
čtyřmi
prípad
Jedná
novém
záležitost
Ot
úsp
prokáz
přenos
pražském
příspěvek
uskuteční
Geor
Ab
##spek
sezná
kal
čet
odpor
ilu
demokracii
##vkou
hodnocení
##SS
vypo
manipu
Jinak
##lti
##inga
Am
dopoledne
##žije
poslanec
##kas
dostává
procesu
strav
změně
omluv
zrušení
ny
duelu
starosti
mim
Slovenska
poloviny
podpory
nedostatek
pravom
##ujícího
příbu
##ždění
vznikl
infrastruktu
vánoční
archiv
##vlá
vzít
Gar
Soci
řekli
požár
plány
Austrá
pomůže
umožňuje
Win
odpoč
název
třikrát
konkrétně
letadla
Kuci
budoucna
##pho
státních
Richard
sli
##leka
rodičů
Nikdy
zvířata
popsala
nesk
hospoda
víme
čtyřech
Město
stavbu
pražského
stejnou
udržet
zvíře
schopni
vypu
věde
navzdory
rozdě
##illa
demokraté
zm
drog
unii
Krejčí
##fekt
škody
##nské
prince
domácím
katastro
##sel
koncep
upřes
##chom
##ničky
pracovních
dosavadní
Žid
Jaké
trestu
##chou
zaměstnance
ocenění
origin
##brid
##stroje
silnic
2006
dřevě
##fy
velko
##něte
začnou
primátora
fig
68
skupinu
Postup
nebyli
##hradu
reagoval
##spět
##itelný
Dne
##ris
reakce
zachrá
podla
prefer
restaurace
poví
##balisté
turnaje
soudce
šla
PRÁ
nezbyt
dálnice
kariéry
fondu
Bruselu
##cin
nejčastěji
bron
vyst
##bytek
jednotlivé
##jmu
##orem
##řích
jedinou
skupin
konflik
Stát
##stánu
##střelil
přede
bodu
převážně
Plzně
##tex
##wa
českém
japon
řetěz
vym
lah
stránkách
Bře
dojít
William
imi
míry
sportu
##pozice
malá
kvalitu
zbytek
##gem
##zou
##chat
účel
##rej
styl
##itní
##mitu
zjistili
##vez
##tive
Ital
zob
podaří
en
##ovci
##šeli
##stky
premiérem
Angli
plzeň
penal
Náv
policistů
gólman
mlé
##lovou
vtip
určité
ocen
##BA
pokou
##ans
PRÁVO
Svat
Prac
povedlo
poby
pacient
vych
třetiny
##reag
##vent
##tace
odešel
draž
##hot
službu
nebezpečí
##pp
českým
vstupu
Saúd
Hasič
dané
šk
Cor
##seli
avšak
Již
Pale
nejsem
repor
žijí
politickou
kamen
herečka
soudní
stanici
##hlasu
zamě
##ovaném
##rozu
##dor
trpě
čísla
předchozích
pochází
Což
síti
##nova
##enské
Českých
##cházející
##hlédnout
kluci
maje
blíží
titulu
technologií
##ilí
ha
##časné
symboli
##vedla
hodinách
##ářů
dostatek
operaci
jednoznačně
Chá
##ráb
##istka
zavedení
##álové
2007
nechtějí
veškeré
záměr
tane
##lok
um
listu
vysokou
63
dosko
##stran
důraz
Em
tera
##inami
Svoboda
park
##anie
takovém
branku
slaví
ředitelka
800
Hokej
míč
všim
Podív
koalici
vhodné
nese
##ciu
vlaj
identi
nepřed
stavět
##cházel
podnikání
svobodu
Poche
pry
##něná
neh
vyplývá
zvu
častěji
předpis
byznys
projektů
Anto
manželství
Góly
##lis
opra
dest
akcií
Ven
vybrat
Merkelová
brexitu
Podľa
konstatoval
nespo
výsledků
##war
soubo
uvied
##telný
ukázat
##rku
##olf
Základ
Dr
pobře
výpově
probíhá
potřebují
##ávali
zpom
120
presti
77
domy
chyby
stává
##šťast
##SA
##znala
kád
nejlepším
spole
žebříčku
hlasy
raket
##adlo
snímku
potě
Vítkov
Vojtěch
naštěstí
hodnotu
sedí
##ruje
Inter
orient
Org
net
stará
budú
přináší
Kru
rozhodnout
##říme
FO
Původní
přístav
be
použití
pek
maďar
ohledem
##ano
##mání
inspi
##ens
momentálně
Vond
juni
vin
Úto
konzu
slovy
stadionu
medaili
##bil
poslane
takzvané
iP
##ier
##žují
Ježí
zvýšil
vojáci
naf
věnuje
##něla
ruský
##pětí
Afgháni
##lový
komory
nemoci
Alexand
pořadu
prospěch
##slanec
250
##livu
ktorá
kavár
současný
prohlíd
##produ
hnízdo
stranou
Bur
sněhu
centimetrů
důstoj
##běž
##hráli
modelu
dítěte
Michael
##ďte
SR
Times
##čtyři
připravuje
bateri
tréninku
vypadat
Pek
týmem
tie
zimní
náskok
telefonu
##rově
##izace
##ortu
premié
účasti
látky
organizací
samotné
Tat
všemi
hodnota
Hned
##pel
##cií
Někdy
##ránu
##kovy
Jon
vyhodno
Vždyť
##áda
##ET
##jednodu
mý
ali
##rová
Vladimi
##vist
Vítěz
rekonstrukce
##par
Hradec
dia
##com
neznám
smart
vnitřní
něhož
projevu
dvo
Marie
devad
Fr
##ať
nakup
##lují
hrají
Vlast
skutečnost
úlo
def
##domí
měsíčně
počítač
znásil
pohybuje
fázi
minister
Sez
moderni
severu
##ckem
zam
nabídky
relativně
říkají
sdružení
hlásí
Jar
##ění
dochází
materiál
Aktuálně
Sko
cestující
##stoupili
Fed
##žená
Ev
##mám
natolik
vyvolá
##ško
pres
nejrůz
psycholog
poněkud
Situ
koste
pracují
Jedním
odehrál
přízniv
překáž
rozví
Ministr
##lice
zařad
zk
##něním
##dělal
správa
top
pozná
prezidentských
porod
dozor
udělali
##had
Evropa
Radek
Chtěl
Mik
Polsku
facebo
##jíždí
Mark
vyzval
##šily
přestá
kryp
vozí
hodlá
představenstva
Člově
nejed
řídí
autem
jediná
rozhovor
vlastních
Kop
distribu
výhod
opráv
nádher
##dox
diploma
Snad
##óp
přej
##dám
nepřá
okru
dojem
čtvrté
náročné
bránit
díla
veřejného
slad
vystří
turisti
zvýšit
##ňoval
##enout
Donalda
kategorii
##BS
##rovou
##mrz
komplex
obrovské
rekonstrukci
Měst
char
nezaměstnan
duše
##tes
##hynu
otevřel
poznat
výzkumu
touto
úseku
neop
přijdou
snažit
Věřím
ge
kariéře
kapac
obrovský
##aku
##hned
Les
skvělé
Jas
ri
netu
uzavřel
obrá
trošku
dez
Univerz
##RA
##ney
Politi
použít
důvěry
přípravy
přírody
##obec
výtvar
pivov
kontrover
vzác
zimě
##nín
faktor
##álí
prezidentské
plný
Miku
vzdělávání
vybavení
Agro
Hou
rada
Fis
dostalo
kin
##itelem
62
Ol
čtvere
D1
Lede
dokud
##jímat
manželka
tlu
znalo
61
Marké
bývalé
intenz
vlastním
Londýně
##KA
výběru
povedal
##káři
celkově
obsahuje
##ecka
stres
##pres
Rober
uspořád
Jí
zran
bezpečnostních
zájmů
virtu
úkol
předlo
dovolenou
##obily
zámku
spon
oteví
neuvěřitel
pohla
##čeb
nepat
fale
##EN
ono
investiční
moto
ruka
##ston
horní
jednoduše
vydat
##žitek
ostatně
##vet
##obu
nechci
každá
zjistit
vyprávě
ostrav
Arch
##esto
kandidátů
bl
##kované
majitele
příštím
červenci
##oba
##padlo
Bi
biat
kontaktu
Pal
##rád
nejlepších
limit
##KO
##tivy
bilan
konference
mnozí
odborníci
99
##čt
##obili
poškod
Dol
řádu
##noj
těmi
okres
předsedou
Druhý
nárok
##řa
též
lidské
##nického
používat
basket
nabídne
kní
sank
Vr
zdaleka
##ole
##šší
byty
##stoupení
okr
##ovského
Mot
Proje
Míst
pryč
##tl
konkurence
skóre
##rození
##itor
věřím
##arch
##kládat
šat
##now
hrad
posledního
Náhradní
Veroni
americká
Bank
doprovod
Chce
pracovníků
procen
dálnici
mírně
trvat
Michaela
Či
Čechy
vze
doprava
místopředseda
summitu
potřeby
73
částku
Němci
zabývat
##mera
##tud
Orb
spokojen
zelen
##promi
maso
případy
tradič
##pem
patnácti
hejtman
vítr
jízdy
##onů
studentů
pet
skand
úspěchu
piva
##knout
kamer
otce
divadlo
tragé
bezpe
Stále
onemocnění
fotbalové
##blíž
Podívejte
##inová
okolností
nah
déle
týče
správné
populi
##nuje
obdiv
Harry
##so
koní
##lilo
obyvatelé
Vů
poklad
Nevím
triumf
popí
##kční
66
zó
##pil
stroje
věděl
hodnotě
Celý
tab
##stickou
azyl
Organiz
uživatelů
kapacit
odpověď
sekun
##jedou
Dokonce
dresu
Kvit
Cena
hotel
##nky
rána
železniční
Babišovi
potrest
Pre
##IS
Čong
##átoři
##sch
radní
očekávání
nejsil
kolon
##čném
Poslane
nahoru
Řed
jdou
studia
prud
Obec
oku
ochran
War
##oti
obří
zákazníků
Američan
požadavky
Důležit
dohled
Děti
dokázali
Mur
dám
Sm
přeprav
##mrtí
pokoj
legendá
Odbor
nebudu
kanad
majetek
ep
čínské
podobný
##ujte
rozpoč
72
kontroly
diskut
brání
komunisté
Indi
mnohé
dovolené
rozhodčí
##mpat
##livý
třiceti
nesmysl
dvojice
##ation
am
##šená
objevila
700
zahájení
Divá
začátek
Mak
odpo
Fic
Mor
naplán
překro
##vědomí
Sýrie
or
místnosti
76
zloč
takřka
zastavit
základních
připomín
přípravě
krásné
plyn
produkce
##cové
nástroj
všechna
marketing
##čch
exp
##kázala
##tější
odvez
Čím
##NA
neom
##votní
pádu
##skom
iPho
snažili
filmů
Bou
Byli
sebevraž
bon
##kono
##mann
kvalit
vidění
##vaku
Men
##aným
nemůžeme
posto
neznamená
jižní
snímek
vlivem
text
##wag
zůstala
poled
dílo
viděli
Bost
verdi
mediální
##zer
Sněmovny
ochrany
záleží
##ble
##onali
##razilo
##právní
Máte
Apple
horách
Sparty
Fo
##taci
staví
##zat
technické
##eld
abyste
domácích
##udíž
nastoupil
##gh
Domin
##ráží
připomněl
Řím
vyprac
podpořit
experim
##bám
##žením
You
oblastech
unikátní
zneuží
mechan
seznamu
##lební
uprostřed
##říč
pamat
Yorku
67
připoj
nejstar
novinář
nejrych
případné
nezapom
historické
trefil
klí
##avu
Čechách
Čtyři
chybu
nešlo
platfor
Trené
Zlat
Cy
##tugal
##nika
Barce
porušení
line
Mexi
zážit
senát
Skupina
##nia
Aráb
Srb
loď
zopak
tvář
nezisk
##nav
##antní
odbo
##agog
##kují
transak
##elů
bronz
Cal
inkas
dají
##cena
dělal
Pož
zájmy
Vide
koruny
##tomě
přání
##kolik
metra
záchranáři
##yer
odpovídá
gólů
##pád
velkého
můžu
##esa
splá
desát
zabývá
##rám
týdnech
očekávat
tru
##él
dopr
vyčí
útoky
lic
dění
jemu
neexistuje
informaci
elektrom
##lář
jediným
ukončení
odstart
uči
ulicích
krizi
schopnost
modely
rostou
Spe
##ademie
##hové
oblé
mnohdy
dlouhou
##vatelé
europo
ideolog
Ph
##mála
uvedli
Sh
##kyni
##zela
obranu
studi
Babišem
Bohemi
manže
sezon
##ádě
školách
náhodou
policej
##kswag
potíže
schopen
úspěšně
##stříc
zasedání
bul
operace
##nala
Rusové
předvá
maxi
Super
místy
článek
brát
Afghánistánu
arab
současného
##čín
sporu
zjišť
##uel
neho
smartpho
##žených
jíz
talent
minulé
78
##skal
zřej
##posud
##endy
##int
obci
souboj
mladý
minulém
CN
turnaji
##ose
ošet
##elop
##vost
oběti
Hodně
##telná
výkony
cvičení
tvrdil
akcie
##šiř
Meg
Často
vyřešit
spotřebitel
dých
příjmy
##žek
náhradní
##řený
měnit
spojené
##zené
Národního
zákony
příštích
Dále
globální
sbě
##ey
##nická
##tební
mikro
zvlášť
Zuz
Mluvčí
šli
##rot
objedná
Washingtonu
71
oběma
discip
Klu
včas
##šných
necelých
švéd
##icí
skle
Náhradníci
učin
kilogra
zázra
politik
Pchjongčch
Vesel
sbor
##mád
souladu
běžně
Ředitel
##lají
vzdělání
moz
tisíci
osoba
lékařů
umožní
vyjednávání
Důvodem
Agrofer
transpar
pravic
změn
vyda
dávat
Představ
vyni
Jedin
vraždu
řídit
stromy
vysoká
Mezinárodní
##nižší
občany
fanta
Klaus
kov
palá
čest
pokutu
ruky
blá
##dro
zep
Svobod
##dka
Olomouci
instituce
propo
politického
vazby
linky
##bat
pokry
Severo
Růž
hon
lidských
příbě
Velká
##niku
Liv
Americe
##raných
využívat
##omě
hom
rokov
blízkosti
##žitel
připad
Nabí
rodinou
stavba
nou
znal
##teriná
Labem
sáz
##dách
Rek
řem
vidím
##měry
##tám
aktivit
moderátor
##leno
průzkum
rychlosti
##gas
##leš
termí
začínají
teroristi
rozvod
okruhu
deleg
návrhy
vývoje
studenti
##wn
Ri
dech
objed
Duk
ušet
##čným
Ronal
zabránit
Kni
Zájem
přípravu
natáčení
Žena
##šan
Tele
Kli
Lev
hrozně
##LA
##čeho
Novot
dřívější
Stud
##kupu
multi
##ivě
Volkswag
##nych
účtu
údrž
môže
fas
192
komunistů
ľudí
##mní
##rické
následky
jihu
videa
našla
problemat
Bus
##kne
projedná
dcery
Mila
mraz
Všechno
Vedení
tradičně
Vých
jesky
vína
koná
politický
počítat
přistoup
##vané
elektřiny
##EC
##řiz
tlačí
lodi
vstříc
motiva
severokorej
takovým
##ložil
doprová
sjed
okna
skončit
soft
výu
##arů
Nejen
Cest
ihned
##žena
##utná
napě
Gre
##žnosti
##enda
vůdce
konkuren
##erční
##moc
kultur
shromá
doved
úmrtí
##řená
##likt
##ráku
trhy
##čený
Ant
Nejprve
podpora
ambas
inspekce
Člověk
úsek
sankce
přehled
Blesku
vodní
hudby
##oment
štát
kryptomě
maj
Mají
##lant
Kalou
##HD
noční
voliči
následujících
O2
Škod
prvky
Egy
neprav
turistů
zisku
##dic
výsledkem
Pořád
ucha
##éně
recep
nařízení
##ktoru
asistent
předpokládá
##idel
##nar
Zdeň
##morav
národního
kusů
respektive
přijetí
Jaroslava
utek
přírodní
snížit
kategorie
Los
evaku
##lali
naplno
výrobky
návštěvníci
FOTO
95
nemohli
válka
##rátit
Rumun
Gol
nešťast
Budeme
islám
Tereza
skončilo
Gra
stála
Část
dohoda
čela
##rových
##řák
přední
pohodl
rozsud
vodě
Reg
kontrol
dceru
spot
##vajících
##též
Kri
zadní
##tolog
souvisí
poradce
Plíšková
##äč
poměr
##jez
Nejlepší
úřadů
Karlovy
Cílem
politická
celek
kabinetu
remí
Té
znát
patrně
chvil
klientů
##desá
dovolit
rozšíření
asociace
##ille
##nesení
uvě
odvět
vytr
specif
Šim
ministrem
finančních
Can
Osob
##lala
Paříži
##IA
Chu
##kus
přizpůsob
##pen
usmí
textu
plu
##šovat
vypl
Meghan
poblíž
přil
hvězdy
doty
Hlavně
Cla
nechala
mluvil
zaměstnání
Don
nebudeme
britský
opera
Cha
##sní
Josefa
řeky
##procentní
většiny
##adla
forma
vyrábí
nalé
prosadit
vědci
otázkou
střede
zlepšení
##ára
##niky
##iskup
potřebné
překvapení
složení
Litví
Hasiči
zpracování
Kolik
přehlíd
průkaz
střetu
gym
##ete
specializ
propag
zrych
autě
Třetí
dy
##letu
##slanci
sjezdu
##gue
vyšetření
Staro
##řeš
jasno
##něna
##atiky
##ovanie
rozšiř
křižovat
paměti
pochval
nákladů
##mav
##ůr
nemělo
nemovitostí
pô
Nedá
##áb
nasaz
světových
##šná
##aném
81
írán
záslu
##šela
ukáže
odmítla
zážitek
##asy
knih
migrace
rostoucí
fungování
##EFC
profesor
sněmovně
69
##udi
materiálu
opoziční
veče
##enční
volič
závody
City
##léze
maximální
kruh
##elka
Návr
profesionální
bolesti
Sla
##pala
##štěv
##proti
Pardubice
cestujících
##sadil
podmínkách
bla
nastup
##vedli
##tečný
cizin
vysoký
##gar
##dající
##pela
James
tudíž
obráz
bolo
Moravě
Uber
nedůvě
armád
populární
hlava
předvo
vlak
Polsko
vydělá
dětství
východě
pouhých
sexuální
zdi
##aněk
komunál
Pospí
zabezpe
Výsledky
tráv
celos
doplnila
adresu
původu
magistrátu
##díl
propoj
Jeru
velkém
důvodem
problémem
provedení
##ráže
vyhov
CEFC
nechali
formou
kurz
##zeb
osobnosti
nabídnout
##míru
využívají
koord
##desáti
dotá
děl
automaticky
diplomacie
filmy
vlasy
knihov
Kost
mohu
migraci
soupeři
Hel
##och
stovek
muselo
##IC
vyč
##noucí
Napo
důležitý
##kalo
##líme
silně
Otáz
##bert
zaměstná
zdůraznil
vice
takti
Jindři
##běžně
obyvatele
chybět
hygi
pacientů
Ostatně
aku
##oevrop
sl
změní
jídla
##skup
diváci
##chař
2005
vztahů
##nula
potenciál
##šed
lékaře
##gnó
předná
Vánoce
metropole
Krem
hospodářství
viac
architektu
bratr
říkám
ukázala
velikosti
lek
poste
##isíce
důvody
výstavy
Blog
zásahu
##telně
držet
barvy
##chra
kancelář
městem
##počátku
prodeji
vrátila
muzeum
chla
Hradci
rozhodovat
Insta
soukromé
##adi
preto
obrat
SE
Liberci
##nku
##naj
zhodno
##liště
Léka
bytě
design
prozradil
##kační
přiví
##ristické
formě
Bol
##roční
stránky
Madrid
##řice
podobu
zmínil
pochopitelně
růž
Zemanovi
návštěvníků
190
Vyplývá
##wer
povinnosti
Chci
Rov
hř
##roval
##leji
večera
##letr
dívky
prostory
třetině
Vlt
angažmá
prostředků
okra
Sku
potvrzuje
##pádně
osv
2004
přijmout
doktor
percent
hvězda
zázemí
Poprvé
##íra
matky
fyzi
zkušeností
maximum
prezidentovi
##zací
nastavení
okup
podal
Velmi
domova
knihu
průmysl
Exist
mandát
hů
##fon
letišti
Ruskem
branek
atmosféru
Následně
##cený
##vateli
##myš
ohlá
jiní
výjimkou
polí
odboru
##strační
novič
##praví
##cházelo
Islám
84
Vrch
tat
kvality
Řekl
Rád
##lic
mrtvých
jel
jsi
přihrá
##líte
šedesát
trať
Příbra
rychleji
tich
##éri
Dar
##kaly
##ývají
##cion
techniky
##ůh
Invest
plno
médiích
htt
jednotek
zveřejnil
napětí
Sig
nekom
odejít
Pit
##lesk
zákazníky
slavnost
Inform
podepsal
Součá
rozlou
##bude
##klada
extraligy
##enek
##okrati
malí
švýcar
##plá
##itka
širší
Naštěstí
slovenské
spal
republiku
třídě
BM
vývoji
podiv
vědí
##odár
nápis
hodnotí
stanic
##und
osvět
komed
záchranné
někomu
vedla
investovat
pás
devadesát
Past
##caj
navaz
nemys
Hus
uklid
##ánek
Pala
zaru
bitco
rozvoje
nezvlád
událostí
##kův
strávil
námoř
opravy
Domá
##běhl
##pež
odhod
podporou
levic
výrobě
Karlovar
úvodní
isla
nek
slovenský
nomin
Turecko
vypro
Ková
zahrá
##ejme
připomí
hro
##iller
HDP
##pek
Ivana
uhlí
návštěvě
reprezentant
bili
černo
Sams
klasické
hodnot
##líbí
podniky
smrtí
vyžád
##cuje
bojovní
zlato
74
Dvě
Frý
německý
DNES
ekonomika
ulic
sloužit
dráhy
zpochyb
Prostěj
konfliktu
francouzské
nazvan
##ania
kauzy
místopředsed
AF
Zvlá
Zo
líbí
Matěj
přezdí
oživ
alkohol
Ček
Předpo
Moje
dotací
zjistil
Argent
##leného
lite
karty
Součástí
Erdo
Doufám
##ěli
Hua
sekund
obor
Původně
Blí
zdejší
Moni
akcion
pořada
Připom
komunikaci
online
ind
Své
##org
důkazy
tabulky
neschop
vypráví
utká
těšit
uj
##eri
převz
praxe
dikt
metropoli
##anem
##váte
soubor
narodil
dělní
řidičů
dnešním
##taj
##gor
maminka
stejném
Mayová
čast
pohon
ovoce
Diváci
##ida
silnější
produkty
ministerstvu
Jir
moři
##ičce
neuspě
nejm
důležitá
dohodě
##ložení
podobných
Stačí
Tý
##každ
mini
zpráv
úvodu
dvanácti
skla
Jakmile
##witter
detek
místem
##board
dostaly
##ínek
olomou
Američané
někam
bank
bolest
Pen
raz
filo
černé
tváří
pobyt
metru
matur
nestalo
Beneš
##chest
##los
##cest
justi
nedošlo
vysoce
##pení
odha
knize
Video
vdě
##teb
kres
##skoslez
Hnutí
##řeny
##ľad
nevyu
producent
konzervativní
shr
domácího
##každé
netr
hlasovat
systémy
meteorolog
spolupracovat
Okamura
Pět
malou
Svě
přepočtu
ukazují
##entně
problému
částky
Res
Šest
##atoli
skvělý
okamžiku
##lovi
##tečná
Sněmovně
##inský
##šíme
##muje
populace
IS
zjištění
těle
desetiletí
složité
Lá
dres
##ropu
měsíci
lhů
##tání
##jedině
sý
jet
záv
založení
nejist
dobou
Veli
surov
##koviště
automobilů
umístění
##fie
druhů
Můj
zaví
výhled
říkat
pobytu
ešte
zbý
Boj
mysli
zvyšuje
ponech
nepoved
##diční
jistotu
Musím
##mus
biatlon
zouf
##zvlá
Těž
tajné
88
Zku
##áček
##rovat
přispí
##formace
##ouště
týmů
italské
Zav
udr
##šim
nadě
doposud
dneska
dokumentu
zmiň
výdaje
##alán
Jaký
oblastí
Zna
doporučení
Dodal
pódi
soudem
Rakousku
Evropskou
Jaromír
##stou
pokračoval
kombin
Bulhar
vyboj
uchaze
skří
krajiny
ceně
vadí
##kvap
hosté
##stají
##meny
změnil
spolupracovní
##ovně
jakých
##ben
##bran
##vého
##čnost
něčem
objevily
##ózní
Jeruzal
##stěh
Rudol
odpovědnost
##ingapu
Pchjongčchangu
porovnání
postavil
výstavbu
##nuté
předchů
IT
Huawe
Lub
risk
##měsí
Měla
05
inspir
##stka
Později
Thom
druhy
ktorí
Eur
otevřít
prověř
scéně
##ins
zřejmé
out
vlastního
evropského
##alizaci
používají
tole
odstup
##bral
##něného
narození
dostav
taxi
##bylo
vyšlo
Evropu
opustit
spách
řekne
nabízejí
občané
Veronika
Ram
pova
žil
kráde
bere
##rim
Kau
organ
##lona
Prof
nestačí
výhrad
##šenou
britského
Hum
jih
##ávám
hvěz
druhu
můžou
##IT
poškození
nějakým
junior
veteriná
bavit
pojmen
83
léky
medicí
definitivně
##ždě
pokračování
zří
nízké
86
ztráty
##klí
##dky
Komuni
Dou
Ker
##ité
##árně
známá
pomáhat
##elem
##silí
Pirátů
nemohla
komentovat
ztrácí
##pera
metod
pracovníci
vesmír
Malá
79
připsal
##redit
Dvořák
žada
mužstvo
napříč
snaha
medaile
odpůr
Tře
vaší
přírodě
klesl
Kos
lan
jmenuje
Průměr
nefung
miz
daní
cig
##iteli
bojí
aktivně
##vale
##sudek
padesáti
manželkou
domácnosti
put
přivez
Pov
Zak
##ženou
letou
volit
novinářů
Film
fó
##zka
rychlé
zkon
obe
vysvětlit
jednalo
Lenka
organizaci
prohráli
##éma
Michala
##pání
vydala
##ičtí
Čas
Chod
popla
tlaku
stromů
##etnam
uprchlíků
digitální
Markéta
existují
jakého
budov
van
osu
migrační
ústavní
kapely
##čeno
zaúto
ropy
liga
##padl
ztrát
dávají
součást
stopro
detail
zlod
##řík
vysvětlila
Hit
##sné
2003
Projekt
##iel
češt
medzi
záložník
příbuz
brus
omy
##AR
pobřeží
rozhodování
následující
Miroslava
human
slune
šaty
založil
Bak
mých
učí
krátké
##irurg
boli
##sche
potká
##dík
vlaky
energii
zastupitelstva
##čová
kontin
areál
##ěla
dole
mluvčího
otevření
trénin
hrála
slibuje
nahradit
Boleslavi
82
uví
##rný
žádosti
zákonem
stránce
chyba
aplikaci
##AM
konat
##émi
87
##ló
##ktem
##vač
Karvin
##kázali
přístupu
Aleš
##vaný
Polska
ovlivnit
pojišťovny
kó
postavy
##čených
Horá
interpr
nabídka
zbytečně
vysílání
nebezpečné
Bratisla
suver
##něnou
hrách
smlouva
scény
Cam
##hopis
vyšel
grand
diskuse
náraz
2002
Novák
srovná
prohrál
Součas
věděli
nevý
Tou
##rami
prodávat
##šu
návštěv
Smer
Tř
výlet
stálo
starý
Far
zastře
ostatními
stíha
alternativní
uch
##alup
##luvy
Drahoše
Ali
pne
##áš
boku
světového
schopnosti
##hová
cha
lidská
Moc
zahradě
vysokých
reagovat
investic
Ovčá
linku
##mách
každoročně
odpověděl
vědomí
Tran
cla
##äť
Isla
naději
značně
posléze
doufám
značka
vyčer
Zde
benz
zajištění
situací
Londýn
Kot
Samot
Manchest
ztratil
Fu
##AS
George
šancí
Nemoc
plochy
ident
##stev
pale
Dalším
pobí
diváky
cca
partnera
ská
##izaci
zrušil
konstrukce
89
##áte
přístroj
##něk
Davida
zaznamenal
zemřela
dlouh
Šlo
##inací
zahrady
doplňuje
trápí
odškod
výstup
rozp
incidentu
nasazení
odsouz
gig
skončení
euroz
Pau
##ňující
rezign
MHD
povz
konkurenci
čisté
##stral
##álem
##dář
##tami
produkt
Hana
samé
kompletní
##abili
stolu
mimořádně
##grafie
rizika
##livost
Mir
ženou
##ardi
třetinu
voliče
jaderné
asistencí
zaned
optimi
motocy
inžený
palu
vnu
paradox
Orbán
##ass
Moto
dějin
přelomu
##ED
vydě
zdůvod
záznam
obchodních
návštěvníky
cítit
přijel
kandidáta
snímky
vypadalo
kniha
##jan
##OS
zůstávají
úpravy
nejnově
oper
Anna
dosa
volné
Ameriky
##cházela
koupil
bra
sex
týkající
podniků
duchu
teda
zásadně
nemovitosti
Krát
porazil
známo
majitelé
platy
##tok
hoke
##tové
hostů
soli
pořá
pohř
angličt
slep
##onem
##érů
nakou
vzkaz
sezona
hledání
komentoval
soukromí
130
sektoru
nejnižší
grandsla
Ceny
Vil
hně
##lými
trestné
##hnat
##vejte
Vod
informační
všeobec
ojedině
zpravidla
##vice
inde
Klá
##čne
Dal
Sovět
přiznala
pohybovat
##žu
hold
##níček
##imb
obchodů
krou
Slavie
kombinaci
cyk
skry
Měsí
##kyní
matem
nějakého
čistě
dnešního
Trenér
zahynu
##pul
Zajímav
světlo
vina
proslu
vypoví
pokle
Tentokrát
Ren
dřeva
##spodář
Uher
##artou
psychiat
Hil
návštěvy
sazby
rozli
místního
partnery
rodinné
Volkswagen
celosvět
návštěvu
Manžel
liší
neumí
okruh
zvě
##šev
brexit
##gazí
prodává
##lák
Letoš
##cvič
soutěží
masa
Andrea
rozhlas
voľ
Mnoho
##vení
naps
automobilky
##dlí
##ream
Ačkoliv
Maji
AFP
kritiku
brz
nimiž
zálo
nikomu
studenty
##brž
##livosti
rý
##mět
##ajn
nesku
Ladislav
Festival
val
dodat
pokusu
Poslanecké
##nální
migranty
páte
bola
koně
Zákon
##ivý
Návrh
##nují
čekal
fáze
ukrad
zjednodu
silnicích
Nečas
německého
restauraci
nejsilnější
půlno
##tisk
klasi
Opa
##ákem
zajímá
varuje
zakázky
Huawei
léto
kriti
##sím
nehoda
zastavil
##loni
výpad
štábu
zlepšit
##jo
Celsia
příjmů
01
Krit
bílé
uplynulých
Amaz
Vysok
varianta
Host
prohlí
manželem
vicepr
develop
##odob
jimi
koupel
bankovní
plus
šok
páté
severní
Karolína
reportá
poslance
Kvitová
nelíbí
paramet
časopis
vytvořil
připraven
německých
kompromi
denní
##ologické
kritizoval
##gramu
podobného
závodě
Než
Třin
Nejde
##seň
et
##ts
dostávají
Mladé
Zdá
##obi
záchranu
##entální
##ovosti
potraviny
##bili
##cených
##atená
tramvaj
malo
##ála
cigar
##burku
propagan
krve
reprezentační
Col
Řada
neboli
líčí
Eri
Sem
##rativní
##anech
způsobil
starých
vytvoření
přesvědčen
cu
zkrá
##dku
bli
##ome
Republi
##šena
##nomi
prvo
mozku
Jablonec
čoko
rekordní
třetího
upozornila
dokumenty
##rchu
lesa
Středoče
hli
troji
londý
fondů
##rist
##ere
jasný
##asu
kontex
trvalo
otevřené
třináct
##wal
dominan
Lib
zbraň
izo
##běhla
Rada
dosáhl
záležitosti
Skripal
Ukrajině
##zační
##sona
jedineč
demokratů
Izraele
střele
vyžaduje
Íránu
##denní
odvoláním
objemu
místosta
##dav
dívka
školní
vznikne
##úspě
##tálu
pozemky
##NS
devá
příběhu
pilot
tiež
doru
Bed
vzd
Lip
přesvědčit
Provoz
lodě
brankáře
ozd
výroba
hrub
SD
ný
Čeští
důchodu
představil
##komuni
##ádza
##skočil
považují
##astav
neut
##lací
brut
mezd
fan
##lera
zástupců
##mec
upřím
stavě
vzniknout
obžaloby
Jes
##livá
obslu
premiéru
scéná
Návště
Gal
jednak
Domácí
los
pracovi
##rnu
prodat
režiséra
##évod
přišly
Pospíšil
olympijských
boty
bojuje
terénu
Ukrajiny
naděje
patřil
zákonů
ohrom
bezprostřed
stanovisko
vyznamen
dobrod
anket
zvlášt
generálního
##mest
Ká
sleduje
minutách
holč
hledají
Roberta
nále
zdro
Fotbalisté
potá
Toron
skal
charakteri
čtverečních
Potom
vzhled
magistrát
mistr
puk
čtrnáct
modelů
Pelleg
Spí
fra
osobnost
nepochyb
menších
království
vším
Zda
##MS
##usu
pravé
světla
kilometru
Čtvr
##amer
##átorů
Králov
jád
vle
##dila
##iela
témata
přinesl
porazili
##inem
##elou
##ladel
sympat
diskusi
Moskvě
Bartoš
úsilí
věřit
Oh
Troj
##30
##ovny
Cupu
Hal
Koz
Kul
sestavě
##mější
Takové
bydlí
Zdroj
žiad
Libor
národa
monitor
dokážou
domin
duch
promluv
Juli
vládou
Národ
francouzský
spokojený
znak
kolegové
učit
obliče
literatu
zvýšila
Jer
uvedlo
Bílého
seriál
pravomoc
Brazí
firmou
zákonodár
nýbrž
Jun
Ostravy
pedagog
##ití
spat
protesty
produktů
##jmy
referendum
úraz
##ware
každoden
špatný
věnoval
nesouhlasí
útočníka
##apa
Kol
##jistili
Druhá
Gott
fotografií
##něny
zvýší
možno
výroky
priv
Angeles
nedovo
Mni
Nat
Up
##ng
##unda
gólu
labora
vynikající
##kovém
oběť
logi
těžce
Fakul
výborně
Vždycky
nahraz
Dis
zveřejnila
bomb
nynější
věk
Muze
Portugal
zemřelo
Chtěli
Bos
orgány
volebním
Tým
tržby
zvláště
podnikatele
odol
značek
verej
dluhopis
##hen
klíčové
Jist
komik
##ker
vyhra
##vár
##telství
Lar
zachránit
Cap
cestování
SU
Slez
Real
obran
středních
souvise
dl
zaklada
pomáhají
vrcho
představitelé
zobraz
doplň
Ide
NOV
kob
měste
třetina
zákazníci
tabulce
Il
##anec
chyst
atd
zavraž
Fischer
##čena
##šejí
Nedo
ul
integ
vybral
módní
tej
##ovkou
překvapivě
vozidlo
Jestliže
Singapu
snahu
otrav
Budou
##ničku
vážné
levnější
Ther
ap
mise
##inový
bun
dětské
kilogramů
mezitím
snadné
jede
klesá
Lin
##TV
##ovanec
nasad
tvrdě
Oprav
kým
tenhle
vlaku
hospodářské
nenávist
Olymp
zh
##sport
nepř
Slavii
extrémně
derby
jakékoliv
podílel
vyjádřit
znamenalo
známe
výrobků
Ilu
Mana
##opo
kluby
prohlásila
##esátiletý
##atřicetiletý
##cování
##toru
letu
pohár
zah
osobu
Ind
Náš
albu
kabinet
Mit
Sá
##riz
##ovanější
kartu
rozsudku
##skupení
výhodu
Chic
emoce
úva
##ovská
půdě
##hách
180
Patrik
ošetř
##lily
##nuli
ovlá
bývalá
debaty
Deník
##šer
##fle
plod
líto
##nickou
1998
Mladá
ubytování
Nig
Úste
##emp
ligu
regionální
pohlaví
##íd
##zky
vesmíru
Ci
##AL
postaví
škodu
ház
kritiky
GI
zamil
Nově
odsouzen
Nevid
stíhan
navrhl
Valen
penzi
##lumb
kot
nepou
fakulty
výhradně
##áváme
dla
##ovanými
osobností
nesmírně
atraktivní
liber
ničem
horo
lásky
agentú
##osexu
Sky
##rály
žádá
současných
Rozhodně
Maďarsko
##fil
veletr
ekonomiku
kontrolou
snížil
Asad
útě
##ryně
Vyšetř
malého
narazil
Situace
nejstarší
##icemi
jiném
Motor
##kodob
senior
CDU
jízdu
jara
tradice
Stanislav
Ly
projíž
oblíbené
odbě
záru
spolé
nímž
příběhy
odhadů
##organiz
##čování
důklad
fotky
06
Dev
kondi
Petro
opravd
držel
##ratší
konflikt
myšlenky
stali
##neho
Post
snaze
Vůbec
míře
léká
vyplá
jistý
dokázala
Fico
##fal
##reb
Procház
málok
vytváří
beton
dopravních
ředitelem
výstavby
navýšení
##rchest
nesmě
News
uvidíme
anony
volně
sociálně
připraveni
záko
dezin
##vik
zažil
##kládají
víte
zvolen
##řazení
musely
blízké
brněnské
zadá
trasy
elektrárny
##IE
##ademi
rychlostí
zakladatel
Letošní
Fre
urych
pověst
pneum
noviny
útoků
dálnic
har
nevadí
Zemanem
trestně
##ender
vyhlásil
požádal
##enku
sestra
##ont
##jením
finančně
komunisty
fotbalu
jihokorej
##ičkou
Evropského
výrobci
parkoviště
zmíněné
DPH
schůzce
##grace
schval
Velkou
naprost
zprostřed
významné
přinese
vítěze
FC
Lan
twitteru
##graci
rychlejší
partnerem
Blo
Zlíně
ub
##jně
##čkách
budově
Barrand
udělala
neplatí
vojáky
Guardi
nejsme
detaily
neštěstí
##ozí
volný
psát
teoret
přestěh
potřebujeme
Mes
NBA
celku
žádostí
odev
odstran
zpěvačka
##ající
výc
##cházeli
smluv
slovenského
Zuzana
##rini
##čata
látek
funkcí
hekt
dozví
mail
Pě
Sprá
##oboz
##ánské
daňové
Mad
neděl
rybní
odchy
letadlo
neobvyk
předpově
městských
přiznává
Max
##střel
Mont
OK
##zav
##zimu
Maďarsku
spisovatel
Zprávy
vámi
reprezentaci
##žný
##zie
stížnost
miliónů
gymná
BMW
jev
##kum
bak
##loží
přírod
slíbil
##ovců
krajské
1990
Nechci
luxusní
uviedol
kvó
vyf
##ovacího
podporovat
Starost
##obí
hodí
jinými
potřetí
CSU
dok
obsahu
odlož
Jágr
hudba
Zby
##CO
rozsahu
Fiala
budova
Há
nákupu
policisty
##álka
Afriky
domácností
##mel
univerzitě
##odě
účastníků
Pastr
pozd
##sey
pomohla
2001
analytik
hřbit
Kun
##nané
kalen
mem
loňský
samotný
ztrátu
Hlavním
rostlin
900
Korea
vyrábět
##něli
jeze
poskytuje
##amin
krab
drah
pečlivě
Doprav
ochraně
podstatně
referenda
mládež
08
91
zavola
změnila
zbavit
cm
našt
##lot
##pov
provozuje
uvidí
Naposledy
##jímají
absur
letecké
Faltý
Blan
klienty
Noviná
GIBS
Vím
##lka
navštív
komunálních
kyber
Histor
žán
nedělá
přijal
Peli
směje
testy
analýzy
hosty
Asociace
##toch
##tečnou
národů
Zákaz
osmdesát
kompet
Naj
Kod
##OL
poky
##eslo
magazí
vyšla
podpoře
Nym
metr
hmo
Zástup
obchody
ohroz
funkční
lodí
odvětví
##žto
usnesení
obrovskou
znamenat
skrze
svěř
Vegas
zkra
kolega
##ami
víno
##čela
Jihlava
Ger
kříž
##tef
Takový
Žiž
##cú
nezmě
hudbu
zjistila
##item
##ónu
uzavření
##ize
##nuto
Brněn
trestního
získání
vyzkoušet
trzích
Kolem
vteřin
objektu
vyhrož
videu
##kři
vzduch
##imbled
Vary
##BI
soudy
panel
ostře
2021
Výstav
válku
zaslouží
pěkně
##nese
členských
vzniká
doporuč
komunik
Rat
Ženy
Rakousko
virtuální
Nova
výstava
##landu
záchranářů
designé
Oproti
fenom
Phi
hnutím
pokaždé
investor
eti
Šlech
působit
taneční
##gon
rozporu
trénink
materiály
intenzivní
Hen
lob
zkom
súčas
nejdřív
podzimu
Gaz
vad
manžela
Autom
fotoapa
advokát
##roid
mladík
##lejí
##haz
##ford
herní
opatr
Lud
##inek
##eze
Putina
##ella
oddě
představují
myslet
odě
najdou
příjemné
nominaci
čtení
využil
zabil
předsedu
divadle
zvládnout
příjmu
dlouhý
autonom
pozoru
dokonale
dodávky
dveří
##ovkách
chránit
##udr
##advacet
##vami
incident
Oček
připadá
slunce
nabídl
##rambor
Kalifor
samoz
Alena
Ako
Spor
tari
tuhle
vyřad
čtyřicet
vysvětlení
potvrdit
jejímž
##řídí
cokoliv
informá
Občas
##eolog
##žoval
##bírá
bene
Čín
##50
chirurg
půli
##ago
úst
##kými
nezab
používání
zlom
zpěvák
Pred
Havel
Zdeňka
samy
astro
pozemků
vlastnictví
stret
vzala
jab
##sticky
##kojení
favorit
hub
##klon
##char
Janda
Koreji
vst
Takhle
čtvrtý
opo
##vníci
##ulý
agresivní
Pellegrini
Gala
jarní
homosexu
##řských
##cená
zajiště
##hoten
##štěn
##hraniční
hradu
Několik
komunistické
Barbora
##šených
##inásob
převzal
Červ
úspěšný
##nutie
##jů
spory
##alog
císa
ikon
##žívají
sklo
vrátili
kvalifikaci
used
státě
Berlíně
úsměvem
pest
##átem
strá
morav
státem
1000
só
##řát
dorazil
obsa
smet
závodů
větších
rozhodující
##erpo
německá
očima
seg
volba
vyhý
krátkodob
tradici
nástupu
Dyna
podzem
bezmála
miest
ostatním
Rou
projed
vyhod
##sů
přicházejí
britská
úspěšné
Dole
##čák
##pky
pohodě
očí
fyzicky
charakter
bři
turisty
tlakem
Dub
Kup
aviz
##otva
galerie
nepotřeb
Většinou
Dvořá
##OVÉ
Každá
Bohemians
hory
##ril
##jízd
##dejte
hrade
Rež
sedmdesát
šampionát
silná
částka
Uvid
vydrží
##ardu
##padla
pražský
kampani
##šují
##šík
poukaz
Krymu
##iaľ
dalšímu
olympijské
obrovská
schválila
potrvá
Ves
##covat
nádob
tabu
prosadil
dopadne
oslabení
duševní
krajského
objevili
Kuciaka
Av
##šnou
##PS
vyjed
klubů
Moravy
mezinárodních
hospodaření
##škem
trestného
Para
strategie
##rona
navštěv
zrušit
1948
ozbro
https
Jane
##ňovali
dispon
vazbě
prípade
některá
vybírat
personální
doskoků
Univerzity
žádném
United
Karlových
individuální
cir
rozděli
solid
vlh
projít
staly
zájemci
řez
##ovec
##vaj
každým
americkým
institucí
neděle
aero
souhlasí
líb
přítomnost
vyslech
politicky
Paříž
Moravskoslez
srov
sprin
komfor
Konkré
naučit
dynami
komunální
církve
vit
Kongres
interpret
##šeně
prošel
pokuty
Každo
zvá
stříbr
jídel
dělali
letadel
Jez
těžší
Europe
##ira
##čnější
##nau
líd
##rich
síla
vypově
hokejové
Philadel
07
LID
tend
stejná
toleran
nezas
modré
nikde
hloub
1918
ude
##dl
výhra
zneči
posílení
zraněných
vzrostl
vyvr
chová
vidíme
historických
Gru
Jem
##čků
dluh
extralig
humanit
Zí
fajn
jo
##číme
pardub
##ratislav
snažíme
##enec
vzbu
neměly
zákazu
DPA
filozo
půdy
žalobu
##enka
Víd
vesnice
stopy
Zimo
Zhruba
##ider
příkaz
odsu
myslel
spolku
Ester
Kad
##ret
nadá
měření
such
Velký
demokratické
soustředit
CZ
##omír
osobního
Philadelph
Mic
##stojí
záběry
##acích
##ally
správný
##INY
##TE
##OH
prozatím
ostrově
Oni
##ovést
brý
dotaci
nabídce
vzápětí
Samsung
##wy
zjevně
##ženo
##avil
přeč
snažila
posun
starosty
##ůjde
##ons
opon
Zdra
Spartě
těmto
##řský
##inovou
##ube
šéfem
autobusu
umělé
srovna
měsíční
Senát
háj
uva
##něno
vymez
##ount
Vala
efekt
##nových
známých
varoval
Zad
přínos
různými
stěh
katastrof
Istan
hráčem
Obchod
##armo
šikov
sníh
údo
odstav
Začí
čtvrti
podpořil
sval
nedokázal
veľmi
##kot
poznám
procenty
povrchu
##jek
##ality
převod
divadelní
přijímá
vlasti
správce
tribu
Malé
řeči
pokut
Moskvy
příspěv
Fab
milo
bývají
bezdom
tématem
demonstrace
Ona
##anová
odpadu
policaj
označení
vystoupí
poloost
zavraždě
ští
##žbě
dědic
pozadí
nahradí
92
110
popula
Sociální
zareag
Program
tématu
hád
##trá
fungují
nacionali
##čená
setr
##myslel
Ilustrační
zítra
dražší
West
Rakouska
byznysu
Erdogan
úmysl
##ies
##igna
firmám
dočasně
##ckej
nedostal
Vítkovice
Seznam
Energ
klo
##lum
Americká
ukončil
expert
brány
##tec
kůži
dobrodru
Hej
nosí
Pražský
ačkoliv
##UD
##myslet
devatená
Téměř
koč
##kovič
posud
přidat
##orní
náhrad
box
atmosféra
bor
vyrost
Ačkoli
Vin
##alisté
skutečné
bloku
ký
podél
##tré
právník
Bre
Smit
plní
ženě
##olven
zanech
Kav
nesti
majú
Karv
##que
inteligence
písně
generaci
sud
nada
budovu
predstav
výzvy
opustil
zlín
zóny
##vatelů
kandidatu
Grand
##chů
zatá
ovzdu
odborné
Play
Jihoče
revoluce
ska
##ss
Zápas
úc
Analyti
legendární
psal
svědomí
objevují
It
##škol
studií
otevře
neviděl
##ardy
kontě
větším
nevěděl
předlož
dopravního
evropský
Austrálie
NOVINY
##řství
##chvat
##lyw
radí
ránu
Soko
LIDOVÉ
objas
okolnosti
kvalifikace
Můžete
krev
masivní
navrhuje
hrdin
Blíz
Monika
příprava
##likvid
nedaří
parti
lát
##ôr
##niť
podat
Právo
studiu
nevidí
svědčí
sobotní
snow
sklon
##teľov
výšky
##vůj
Liberce
Eli
##řek
##čkami
sídlí
seniory
dopravě
značné
šestnáct
určitou
##nést
objekt
vrcholu
Merced
Sice
Tri
Člen
##áže
##antů
příčku
člověku
Dukla
variant
afri
Rudolf
současná
kauza
graf
vyskyt
pokusí
Austra
##zkou
osvěd
kapacity
##tých
debu
##stál
##vník
##lement
krajských
vzali
trase
příchodu
StB
průzku
chlapce
pocity
představu
##mito
##tovost
vývo
pádem
Mist
kmen
Kiska
brambor
sf
##ávala
##číst
každému
trenérem
##ženého
osmifinále
kouče
Ledecká
sjedno
otázce
pátrání
Šaf
##pustí
dívat
připravil
absolutně
##gran
##razily
scénář
spraved
narozeniny
kvalita
označuje
Číň
zastupitelství
Koreje
Iráku
##kladů
##chání
časy
světovou
imu
##ves
vylož
Branky
Liverpo
americkou
členství
hybrid
sazeb
##verné
jakém
ministrů
architekt
uděli
ľud
těhoten
výzvu
Veselý
##utor
##nesla
líst
Agrofert
austral
Především
samotného
Nedávno
party
zákazníkům
uzavřela
zajímavý
silni
##hlíží
kuchyně
mes
stred
Sněmovna
Peníze
volno
stupeň
nerv
Byly
navštívil
##oné
výhody
výnos
Pozor
Francou
nepochop
výkonem
Thomas
hrob
nezí
spojit
Adri
##jímavější
Tes
##žem
Topo
##ovanému
Společně
přinést
redakce
bari
zvyšování
##way
vyhnout
šíří
##rované
pozastav
snažím
dostupné
brig
necí
ofen
značku
Běl
pozemku
Nebylo
Mráz
shodu
vévod
##slov
svojí
autobusy
kated
oslavy
Wor
mzda
prád
přeh
sebevědomí
Vstup
bot
šoku
##isko
##tak
Nehoda
podobná
nohou
vzniklo
Agentu
jízdě
zma
##cech
minus
těžký
kritizuje
Black
vysla
starších
životem
Vzpom
pobočky
poločase
Plán
Št
chovat
vaši
volej
špin
odpovědi
Světového
kůrov
výživ
kamery
velvyslan
##těte
##zeli
omezit
poskytnout
Sedm
Cu
zása
ruská
jazyk
nedělní
podně
Fotbal
Blu
dočka
##med
využit
Minulý
loňské
vystud
nepatří
haly
##práv
Prague
šíření
Serg
Svit
ústřed
##štěné
materiálů
Důležité
97
infrastruktury
Pon
tmav
pořídit
##istům
##ejmen
Ekonom
nějakých
experti
zahrnuje
##mlou
##zová
písem
prst
platů
Johan
ublí
vinu
znič
##hna
dolní
Libere
vej
Teprve
životy
Bob
GDP
ign
Abs
##rn
##škou
##ativ
dosáhla
Antonín
04
bed
Františka
Izraeli
Nel
##šeno
stavbě
skončili
filmové
teplota
Fa
##15
zazně
##hající
##itelé
Strý
témat
klesla
bezpečí
Rud
##OR
##ticky
##avý
Krč
britských
##atý
##oder
Vyu
Johnson
odch
znepo
zavaz
říkali
lídra
Sama
kurzu
GDPR
##zl
kontrole
vlna
jmenování
Hospodář
zmír
sestavy
chat
běží
atent
nákladní
Egyp
podmí
muzik
nejrůznější
kostela
nahlá
##sela
přeje
krku
Švédsko
Nepo
drobné
spolehli
Hub
Ozná
##mutov
Ťok
tito
fotba
zkoušky
Mikulá
##ôsob
něž
developer
Glo
##stein
zápasem
pomoct
eleg
vlivu
##tický
##hlížet
šetření
uskupení
vstoupil
Jack
nesouhlas
islami
##oľ
nápoj
drti
systémů
mým
sená
##omá
##ánku
kroku
rozhlasu
zvládli
Plek
Prý
gólem
Turecku
vrtulník
katoli
tenkrát
historicky
Muži
Jenom
výstavu
Rady
naším
rozhodlo
láká
Led
Vset
stejného
lož
libere
##klop
Hvě
smu
obsaz
trž
PS
##átory
02
##ien
donu
zakoup
hý
slavné
Základní
##žku
legit
administrati
prestižní
Třinec
##arda
nejzná
tisku
otráv
kolegů
##vie
Výbor
nemůžu
samosp
kuchyni
zub
naklada
##mán
##torů
radnici
šper
iniciati
##úspěš
nebe
##náší
##stější
cukrov
krokem
Ander
navštívit
ovzduší
ab
zpočátku
##šce
##inen
##hrála
požaduje
##ital
sklá
nedokáže
prohrála
##zetí
časopisu
palestin
King
Něco
programy
Příč
figu
Jor
##řez
nejob
Pos
zastán
Můžeme
vyrazil
původního
získa
nechtěla
restaurací
hit
kuf
Ki
##eti
překonal
##market
udržel
zámek
Ovčáček
kandidovat
komplikace
Přer
Feder
##zia
##ske
##chově
maz
ženám
novými
Osm
One
##abá
váp
přímé
Hradce
standardní
zaost
##idy
##vede
těles
Anglie
GB
Ivo
Py
##nii
připou
variantu
ben
Úč
bouř
zvítězil
divize
turné
Černo
předchozím
portálu
jemuž
Mé
##kovo
respond
tempo
poly
přibý
Vojen
telefony
dosti
##ional
##atiku
zlikvid
##ward
zeměmi
##rálního
vyrovnat
vyrovnan
předměty
Arábie
##leni
pomohlo
očích
unav
##dán
##inění
tax
Paul
cítím
sponzor
##ražd
stůl
úspěchy
břehu
Slováci
Zejména
princ
zranil
plnou
160
drogy
nejmenší
Dosud
vnú
##dili
##kul
##loub
týdně
existence
olympiádě
zamest
jindy
Nejsem
podílu
reality
##ralo
strop
##stickým
Celkově
mrzí
Jel
Nu
##andr
Voda
kůže
HC
obez
##bytku
Island
##čovat
možných
SUV
proudu
odstranění
úkon
nadšení
osmnácti
spořitel
možný
počítače
frek
olej
##DC
dlouhodobé
živnost
hale
##stri
pocti
##hodný
novo
pravděpodobností
interiéru
##pět
věcech
##lebrit
nepřátel
##čov
okamžik
Arsen
lesů
spočívá
Chla
##riad
vedli
produkci
celost
těším
##field
špion
Slovin
Bon
##umím
dáv
červené
Celá
Rozhodnutí
neopráv
doufá
Varech
summit
Přem
##tul
Londýna
Daniela
##ranž
Jste
rozdá
rozdíly
památky
ŘSD
Olomouce
McC
98
##get
##ťák
##osu
stačilo
Fol
##sea
sklád
naprí
nemocnic
Někdo
séri
normálně
statistiky
utrpěl
sehnat
obchodního
nelegální
provinci
Švýcarsku
kosmet
napríklad
zapá
cerem
##ovacím
Připrav
federace
##xa
##áním
vynech
napí
počkat
vytvořili
varování
pasaž
tejto
hraní
vyrovná
vypořád
fotbalisté
přeci
saúd
zabezpečení
vizu
revoluci
palubě
Lak
##uba
##čelem
Takto
vyhlášení
CNN
##nový
##rátora
předsedkyně
##atřiceti
verdikt
Jelikož
dopady
podporují
plánování
obvinila
##snější
map
lež
znají
důležitější
řešením
##jád
##plu
##stitu
novely
Znoj
kys
mém
##ls
odůvod
##večer
chystají
##jíždět
Bir
správu
##kevní
propuštění
pracovala
Záchra
soukromých
nekoneč
Del
vyzd
těmito
##fikace
Budu
sledování
rezigna
pravděpodobné
osvoboz
##reet
výrazné
##alík
Novém
##bava
investorů
McD
Dana
apod
Maro
mladá
kdybych
zb
##foli
##minut
orchest
potla
zdravotních
Havla
svědky
kontextu
Gabrie
lůž
obu
volebního
listopad
Old
vydali
##ctva
provozní
##řská
##schop
netra
málem
novinky
Speci
France
##zec
niz
konzul
procento
Nejča
přesvědčení
vybudovat
nejvýznam
##ovol
kuli
berou
Ústavní
celo
##tejner
snahy
obličej
liberální
##žka
##lety
nástroje
##tán
##vaných
finance
##dělali
reklamy
svědků
bonus
obdržel
##ovává
mra
uráž
##iera
##enému
##lenka
cestov
##inout
psů
přistěh
mobili
mužem
03
vul
hoř
Tot
Řez
Střední
pozvá
rodák
Kate
krajský
Africe
##chla
něčím
absolutní
Pocheho
dřevo
vracet
rozdělení
radě
našim
autoři
1999
FBI
nutně
Sva
navzá
odhaduje
nizozem
předloni
nečekaně
Poslanci
##alosti
Podí
##třebí
##itá
kluk
##rálních
##líbenější
láz
##FA
déšť
Vondrá
ďalší
okamžit
telefonů
varianty
zneužívání
nejmlad
##áv
##gnosti
##út
rekre
smích
96
pota
zato
krásně
Trumpovi
Buď
basketbal
synem
rie
Šum
označila
závěrečné
čtrnácti
laborato
odstranit
##ezu
herci
fotografii
ďal
##bury
čistý
##roste
ponděl
marně
porno
postava
##skop
politolog
nedostatku
pronásled
novičok
##líka
##bují
kolech
nedod
úvodním
Elekt
Tem
##zely
Prahou
vidíte
zabezpeč
zůstalo
hal
nesly
lidech
profil
bek
nevá
vyřaz
rozpor
Konec
##gel
##UT
tahle
doj
##anci
léků
průběh
nejenom
láska
cukru
Generální
minutu
francouzského
Korej
slabší
Emman
Wimbled
srazil
##con
##haly
##zený
##ložka
Koneč
Radim
prozradila
Detro
zrc
procház
##ětřes
přiblížil
studium
##dží
parkování
agentuře
Nechtě
Dů
##bau
##př
##náři
zámo
plná
uzavírá
##edia
##skytují
plnění
Brusel
poptávka
lží
musli
Kolář
proběhne
vyplatí
odmítají
očekávan
důsledky
pyt
##itý
nahradil
Jihomorav
kas
nastoupí
##něně
tot
holo
pará
milovní
biolog
odkazem
##dcem
obvi
dobrého
jaro
##zít
větru
Holeš
Pob
##bel
##pce
##grační
množ
kabel
fyzické
jedenácti
politickým
##míra
žijící
Nejvyššího
rezerva
tet
neli
roka
právního
adres
cenou
nepomo
usnad
Zab
##ativně
##telnou
cestách
Trumpem
Berlín
vedlejší
originální
kádru
Dominik
##MA
zastoupení
##noprávní
tržeb
nepot
350
Kanada
farmá
Cesta
porazit
kamera
týkají
silnou
americkém
dopadlo
mm
policií
nejlepšího
##ženým
zvyklí
##letěl
Barrandov
##čkovi
##lip
##istky
##káme
tyč
dokončení
##leje
##říte
##burk
##hodně
mužstva
Buda
zvolení
shromáždění
##aková
vyspě
recy
Mach
senátu
porážku
##ejmenším
šik
##akce
zvěd
##děly
schůzky
vstoupit
##iva
##zlo
způsoby
Pomo
koncertu
album
poma
povod
##ránek
140
techniku
zachování
debatu
##rála
ztratila
Ježíš
doži
rock
Marka
Jána
##undai
Plá
expor
občerst
##kářů
svatého
zapotřebí
Zas
##hád
##aga
líp
Zemi
Tex
zachovat
nechybí
vloni
viděla
Jihlavě
připravený
Krym
Nevy
existenci
pohybují
inva
hodinou
nedokáž
členské
Přesně
střelec
dostupných
naznačil
##rne
obzvlá
Tomu
tváře
indi
Ruský
částech
Pár
##hlu
stranách
hovořil
doplně
záležitostí
záda
##měl
infek
rizik
zajistí
léčbu
koordin
člena
##tív
potý
Nemo
parlamentní
Kladno
baterie
Svou
##kládání
Československu
příspěvky
soustředění
zastupitelstvu
Kas
protě
Internat
získalo
##heim
Práce
expertů
##šou
řetězce
flor
mala
manaže
neomez
##kovaných
dlouhých
eura
vašeho
reálné
Strop
zakaz
termínu
##inec
##kuji
##těžší
##boře
##rij
komisi
Jaká
složky
syrské
figur
Litvínov
##rs
odborník
úvěrů
nere
##tyš
tomhle
palub
sestry
Jistě
##řeje
návrhá
Matt
podnikatelů
elitní
Černý
Steph
zadržela
navzájem
KHL
přijeli
příslu
současnou
zapar
tře
vždyť
##lanti
rozšířit
##lům
poslu
kontejner
bezplat
##ákist
##portér
vybraných
Thaj
nastal
##inské
dařilo
občanské
myšlení
Kab
kří
úm
##líček
dobro
##západ
setkal
Dříve
##ěje
přál
trénovat
emisí
##stanov
Top
dělám
sankcí
zkontro
vychy
vedlo
osobním
##brali
postavili
nepřija
přistup
společný
šesté
zůstali
lékařské
celebrit
Vysočině
facebook
rozpo
koncerty
Vladimíra
přirozeně
cizinců
Guardian
Vrá
##znak
poprav
přehá
kousky
Pákist
aud
sektor
##mund
váží
pokoji
úsměv
podobnou
zůstanou
kulturu
bel
##hám
##ánem
cestovní
bývalých
osmnáct
Gabriela
International
prosp
hokejisté
Rit
hand
mari
dobí
kapela
říkala
proud
Palest
##čnosť
nehodu
##jíme
##ivou
středově
systémem
příkladem
Frank
Spojen
kamarády
instru
spodní
trestný
vzpomí
lyžování
strategii
bombard
sotva
změnilo
nechtěli
děláme
zakázek
údolí
Sar
##izi
Maj
vyšpl
obraně
zmizel
Španělsku
okraji
AS
opozici
Švý
velikost
zájemce
sekundy
nejnovější
93
bio
Úda
Toho
rozhoduje
vybrali
mimořádné
bát
původních
##stiky
nějž
skupinou
Soukup
Bet
##urt
nemáte
oznám
Nest
Vino
liš
úvahu
zelené
lib
tituly
odmítli
Hyundai
Akademie
čekali
vůli
výrobní
imunit
Sand
rozsudek
chemi
vládne
Pardubic
un
ruskou
vrst
##válí
##leva
porazila
##bohat
Pražské
zadlu
kriminalisté
Avšak
Upozor
##vať
Mimochodem
tráví
chlu
nejp
pomohli
kauzu
Pardubicích
Kalousek
kandidáti
internetové
nařídil
Jihlav
středoče
světový
Krná
kabině
##ague
Anglii
##enský
chvá
mafi
Lize
turisté
považuji
polské
tramvaje
tragédi
porost
##alis
litrů
zbroj
##cich
##basti
Veřej
karet
##rkevní
porodu
zmrz
pochod
##tur
domnívá
##itky
##rud
páteční
logicky
Ode
spravedlnost
těhotenství
lák
odpoled
skrý
nemocí
potřebovat
pohřeb
súd
jakékoli
takzvaných
Navzdory
##cto
##zelo
pořádá
formy
kuchyň
kontroverzní
trendy
##zii
pokusil
ryt
dokumentů
papír
účelem
##rují
skan
střechy
zvět
##anty
##lámu
stejným
účely
těžká
##ajú
archeolog
kratší
vyzna
insta
rakety
zadarmo
portfoli
Micros
Dál
dopravce
havá
##fo
##hledy
zdravotním
hydro
požadavek
Deníku
žáků
##éři
zasa
příjezdu
způsobit
dolaru
povinné
přetr
zbytečné
elektronické
cítil
identifik
ada
##ňovala
akademi
představila
rychlý
##visti
Podobné
##čoval
polé
seda
opil
Soči
nezákon
reaguje
privat
pátku
##řského
kombinace
složitější
výsle
##žební
##dělo
kritice
pochopit
romanti
ačkoli
disciplí
94
přesun
tratí
autora
elektrické
náboženství
Předpokládá
církevní
##vojnásob
uzavřít
mezinárodního
pacienta
fanouškům
uc
##hlasil
pracovali
otevřeně
zuby
Zlína
terén
1992
efektiv
Hokejisté
OKD
Fanou
##gin
##leba
proslav
jakmile
niž
pacienty
dohodli
průměrná
extrem
elektromobil
##DE
přijede
uživatele
##koch
přijíma
čtyřikrát
povinností
europoslan
stri
Babišova
intenzivně
##jezdy
##amo
starat
##ládní
horiz
1996
významně
divadel
podrobnosti
dou
komora
jejímu
srde
##ross
son
##kovaný
herce
únor
Smí
##řeno
##novou
zazní
##ovania
sklep
zastupitelé
##čnej
##zoval
##bíral
nechceme
vraždě
Cit
čelit
Výsledek
dcerou
##clav
instal
dozorčí
##leti
##něným
##štěm
komisa
souboji
Plat
měří
skvělou
vydává
večeři
utí
##bírat
společnou
paříž
důležitou
##zar
##lií
Parla
nevíme
Akce
celkového
expozice
Mnozí
##terán
zpřís
Kuciak
Kři
##wski
nejúspěš
blok
Neza
fotbalistů
vyvrcho
štvr
volí
YouT
suverén
##sh
##obě
velvyslane
přelo
##mož
##znamy
Španělsko
##iích
pátý
pokoje
Postupně
Novotný
Fri
##rava
##istu
Kal
##ors
zavr
blíže
plochu
hráčům
sběra
##edu
výlu
přinesla
Der
koncept
ohni
Mali
závislosti
Fro
##žnější
##gie
##icko
poslat
scénu
zvládl
insolven
okraj
##žad
##hon
památku
prohře
##ácie
##liti
odd
strachu
studii
čínských
##milion
příčinou
postoje
rů
nejv
zablo
brej
Opravdu
ceremoni
##ki
##sání
největšího
Vladimir
Fe
veřejnoprávní
takzvaný
schůzku
Ostatní
Paci
##tních
##chta
dorazí
Nemám
správě
koncernu
##wan
spôsob
společenské
Nového
Šť
##dělní
Pokor
Musk
Současně
zkuše
průmyslové
územní
radikální
hří
##nostech
nevěří
spolupracuje
pozitivně
Sobotka
ocenil
Mili
##kument
rodinných
protěj
ukončit
úředníci
primárně
##islava
řemes
postu
stávají
podpoří
zasáhl
Žádné
Sí
##if
mimochodem
Rodiče
gastro
##avé
##mala
Stráž
##držela
Tuto
jmenoval
výzva
Karviné
Ondrá
uvědomit
povzbu
Krátce
Set
ment
trů
##inger
asij
železni
hrou
čerpa
chlapec
Sha
Christ
##kázalo
signá
mateřské
lidu
přepad
##atika
lese
Dag
soustav
zůstaly
volebních
výhry
chemických
Ope
inte
drama
Otev
##měrů
##nerová
koupi
zkrat
Port
kg
dělí
skvělá
Ana
Lav
přibývá
##pustili
některým
přátelé
strážníci
zklamání
ré
ster
architekton
stabilní
Japonsko
zpravodajství
##měsíční
##OZ
##dera
předmětem
signál
mest
##outu
drahé
Lze
##alej
nemusel
ústavy
předvolební
Čap
##tory
ekonomicky
nemění
velitel
rodičům
##LAF
léčeb
Bratislav
hezky
tís
OLAF
odstí
ruským
krém
rozhovory
jednodušší
příležitostí
daňových
energetické
odpovědnosti
agentur
půlnoci
vyznamenání
Bezpeč
stol
vyhlíd
šestnácti
činy
##ül
běže
Raku
kancléř
vyjadřovat
##elle
obřad
spadl
zneužití
SA
vykou
organizátoři
efektivní
bazénu
Těžko
##řina
obět
sucho
Kanadě
mládí
vyloučení
##povídá
Phili
Pastrňák
Che
158
kluky
korpo
napadl
Systém
Mr
Mel
pojede
vymá
##kovými
rozhodnutím
vítězů
lásku
1945
zodpovědnost
##mální
střely
krásný
policejního
Slá
nud
##enského
obtě
##hub
platnost
otázek
ranní
##jezdech
##ož
náhradu
##běžné
pracovníky
pane
##čat
nevin
Britská
obtížné
přemýšlet
svet
##hrade
zdaně
dluhy
dvojici
přispěl
naprav
desky
radši
sociálního
plnit
pustil
nedávné
Topolán
PP
roztr
exklu
hradě
pokuta
Konce
##týká
Zmí
pun
ustanov
##ázku
volbě
vyplat
smlouvě
užívání
dobrovolně
šťastný
Místní
3D
Las
odvod
##vosti
parta
vyšetřuje
podotýká
úkoly
##cejí
vzděla
debata
Turecka
Daily
Stanley
kně
##nského
##úp
zahrál
vyjít
nedosá
způsobu
Překvap
městského
zadrželi
Ford
Rok
##ije
Chel
doporučuje
Lang
svěřila
nejdraž
Vznik
Budějovicích
posádky
Boston
propojení
Každopádně
##ětřesení
Bit
##luvě
##rick
schválení
Škody
Krimin
Metro
pej
##lia
špatná
kandidáty
Těch
zraněním
Rodina
##řitelné
humor
Ken
bato
##erti
##artner
##óz
##etí
výsad
typy
Taky
##use
líčení
dospělé
Švýcarsko
##pustila
akadem
připravena
panuje
kriz
považovat
EET
zbývá
##sové
volan
center
třinácti
YouTube
zaz
svěde
##eňte
medvě
svát
vzájemné
Hlu
Urb
väč
##šia
slavný
sestup
prie
podlehl
českými
sad
připustil
rozv
zatí
očekávají
##nutý
hym
vesnici
druho
zbytku
vymýš
devadesátých
nepotvr
1993
průměrné
statistik
hmy
##IP
česko
problémům
##nský
##silo
##ďa
díly
Evropský
ovládá
1500
miliardu
nespl
stihl
bazén
Lau
út
rozvěd
##árka
klíčových
portál
Uvidíme
výbav
vůle
Nemys
připojení
mnoh
stačit
##fikaci
plát
titulů
Univer
lehké
úrovně
reklam
řádně
zahájil
ultra
##ňat
prosto
konto
nedokon
ekonomický
lepším
Davis
nástupce
Dnešní
##čtyřicetiletý
moji
expr
jediného
ostrova
ploch
##ničkou
triumfu
Ane
stromu
mlý
Dž
Tre
wor
##čkové
##10
agenta
Trest
rozsáhlé
Mike
belg
haz
spát
##dělování
mobilních
princip
dědictví
učení
##vaní
##hlý
##sáno
vzájemně
vzdálenosti
islámu
nejrychleji
úprava
jednomu
radi
tvůrci
bilionu
mříž
##spi
jíst
podobným
budování
číst
vysokým
pozornosti
přinejmenším
napadlo
Potřebu
##ye
##lam
databá
Skripala
Kristý
SMS
kW
trop
nab
motoru
##kovu
strojů
Caro
zavést
zástav
prosím
tvořit
místním
hospit
slovenských
mik
Vědci
vlny
zastavení
rodinného
vnímá
##ečka
měk
kořeny
Čiž
##ning
celých
obchodech
krásná
##regist
kř
uspět
nerov
Parou
motory
Merkelové
představitelů
experiment
přístroje
jízda
slavnostní
vojenských
dnem
##izer
##itelná
energií
Juvent
lyžích
zvažuje
nejrychlejší
obličeje
plech
##nt
výher
Potvr
inova
svěřil
Španělska
ša
autorů
potřeboval
elit
poto
vlastnosti
Obžal
jmenovat
zločinu
FI
Zná
kvalitě
League
Unie
##pekt
stři
Kdybych
selhání
znásilnění
System
osvětlení
##ženy
vypadají
objevit
koupila
Ukrajina
Odborníci
potápě
široké
Ronaldo
Jean
slavného
##jezdem
ambice
pamětní
nerozhod
dárek
odvolal
Bil
ateli
rej
táta
##ns
užít
novela
Závod
Třebí
použil
stole
píseň
1994
nepříjemné
Účast
zpro
Pho
příště
konop
spojuje
nepřízni
sněmovna
kali
psy
##ovné
jednoráz
krajů
počtem
Dostál
Sled
Uvedl
výjimky
displej
předsti
##iček
##ickému
rozehrá
Tábor
likvidaci
##řena
dočas
Jakuba
snímků
Sini
##sli
##vas
autenti
1997
zahájila
nervó
uprchlíky
uzavřena
překonat
genet
##ňte
##štej
##itativní
Petří
návrhem
Kometa
index
nechod
záhy
Výrob
starého
úkolem
fau
##ograf
##jistila
mínění
určené
planety
##movní
##šího
Trumpova
výrobců
zpoždění
legitim
gará
úder
##GB
nádr
##sadit
čtvrtém
Pražská
jednoduchý
Die
vstoupí
vyrazit
tyhle
běhu
sluš
obyt
evropskou
nominace
Mig
vstřelil
obsazení
provést
intele
svěřen
ochrán
Firmy
vědců
Amazon
viny
##cením
světová
uznal
Obecně
ČES
zabrá
Švédsku
dová
zádech
ztráta
znalosti
Nád
##šeny
mohut
##enách
Taková
organiza
zkusit
dozvěděl
prázdnin
úspor
Instagramu
Pelikán
ignor
pošt
##žejí
vzdal
obchodním
okolní
##ura
skrom
jednáním
Koukal
sebevraždu
nevo
probu
rozlo
nemluv
sbírky
##bin
záme
předvedl
popel
##dělala
Budape
chři
##bulu
##želo
střechu
extrémní
Wat
##lian
##vajú
##typ
##alice
##jdete
vyšších
psychicky
touží
Hude
vylé
akviz
čemuž
Požár
Zástupci
Pad
##VA
nabit
přispět
dovnitř
zajímavá
Wa
situáci
Jednání
činů
Indii
Dali
##nci
##ouští
##enství
pono
postupovat
čínského
zdán
ošetření
Str
kurd
tragédie
předčas
chrání
zvuk
dobrým
oken
známky
opakovat
Jindřich
sedět
poznání
klienti
vaš
posílit
kanceláří
biz
automobilka
kostel
Smo
obsta
řídil
světu
##cházely
solidar
##cenou
Nějak
postupem
závěry
zaměřit
román
Úřadu
##řely
účastní
vyrobit
##oo
vypla
platby
zlomen
Komise
učitelů
úprav
##otera
rohu
skli
Vaše
demonstran
regulace
spekulace
nahoře
rozměr
věž
##opat
Informace
Výraz
funkcion
zdravý
vyvolal
vezme
opí
##ness
roboti
Mia
ústup
zále
filma
Institu
sedmé
opravu
bojů
Android
fotbalový
obrazy
články
jaderných
ambici
Dům
přená
pronají
osudu
##bezpeč
přis
ledu
navig
tradičních
příspěvku
Lubomír
Ján
##řenou
##aneme
##ith
trvala
tržní
Organizace
Smith
nejoblíbenější
##ýr
zahrát
osmé
##brala
Kolumb
operátor
korej
aplikací
orgánů
##lování
##žnou
Indie
přestav
komunikací
vytvoří
vlož
prémi
podala
Příběh
Hradi
zaznamenali
facto
chvilku
Singapuru
Klíč
##DA
##anc
zátěž
##osť
Chomutov
snižuje
Teplice
okupa
paláce
Twitter
##maž
schopný
kytar
střediska
moderních
dosahuje
Oli
##EL
USD
pokusy
choro
defen
##gary
##ovateli
Víte
právem
dárky
nezbytné
Trá
##ous
královské
EP
Rum
had
##ceni
prodal
##ive
týdnem
vznikly
národním
##quare
čísel
dostanete
potvrdili
aneb
Simon
nepochybně
chalup
letních
připravené
Vyso
##platí
##obchod
nadsá
oběd
účastníci
Tvrdí
dav
dán
kard
zmín
##dé
##akar
Buff
odhal
principu
inženýr
technologii
vystoupil
vyrovnal
##ňové
##rozá
kandidátky
Paní
pustit
střída
##nava
Schwar
západních
hovořit
téhle
člověkem
prázdné
splnit
tehdejšího
bás
Vysočina
paradoxně
řím
##ejde
nároky
manželky
rodiči
extralize
niekoľ
velvyslanectví
Chelsea
##isto
příchod
minimum
Európ
sboru
dílem
změnou
výrok
Sdružení
pavil
##esť
reprodu
##veru
žádat
Seeho
zemědělské
zlaté
Svůj
pronik
totali
##hradě
Objev
produktiv
he
stoupl
Finanční
mine
Nevě
##érou
nabízet
obviněn
zdálo
Budějovice
prohlédnout
189
chodil
ploše
tvaru
odraz
soudí
Realu
##érie
##rosta
nastoupit
##káře
##hodil
mladého
##ňá
##čenou
napsat
zasáhla
transport
neřeší
Bůh
##chal
smů
známého
publikum
Bratislava
ileg
mané
pouště
Okamury
hezké
žili
##čané
otevřela
stíhá
sále
Rez
##prů
##eng
prochází
##kovaná
patrné
Dobře
Hodno
##livní
##anými
zajím
Sebasti
Romana
fotbalista
Žádný
psaní
Dok
zákazník
Hamáčka
podvodu
zapojit
vzdát
Sun
##plet
zdát
plánované
obhájce
mať
Anton
čtyřiceti
kritika
ryby
managem
úvěr
Pouze
paliva
oblo
kucha
Alžbě
limity
reformy
kalho
Libeň
##nosy
běh
Večer
internetových
tábora
dekla
Calgary
Mně
Ny
##oj
sepa
zařaz
souroz
Výstava
zástupkyně
diagnosti
nápo
veterán
chů
Vlastně
Moment
čte
##ding
##chi
spánku
##ámen
Pražského
přáteli
Dobrý
poplatky
dvor
Úspě
##áté
past
zakázku
bývalým
Jiřím
miliardá
sochy
upozorňují
otcem
otřes
spoločnosti
neskon
Art
kosti
letošních
pracovního
vlevo
poměru
rozvoji
vzdá
značkou
dětských
Život
kláš
hvězdou
##čo
potreb
těhot
čtvrte
zveřejnění
vzpomínky
Vra
vyhla
##arov
##mentem
perspek
barvu
zpřístup
vzestup
Nas
Žď
napadení
sun
Štef
##lora
strážníků
Oby
učeb
následovat
běžných
tajemství
World
sdělení
##ŽDC
česky
Radka
umělecké
poklesu
skončily
Ferra
##poved
##liny
počátkem
cukr
reálně
celkový
těs
pražská
vytvořila
dveř
guverné
Austrálii
připomínají
SŽDC
##OB
poraž
nereag
neudr
##dava
akcept
výšce
Tel
Zra
vyná
řešili
Ryb
zajišťuje
Dvou
sup
trasu
nekončí
výdajů
##líku
hodinky
svátek
Dej
Jitka
Ono
Pas
Von
##SK
cíli
závodech
Bay
společenství
Honza
zasla
tříd
tvorbu
Kel
##šin
rolí
Exper
Syn
přiznat
svobodě
Bílý
pochybení
lokalitě
Jour
bill
uvést
##cci
vychová
podlé
dni
zlev
##chozí
přips
##ovatelem
čtvrteční
vznikají
televizních
Slovácko
odpočí
nůž
##vým
Nejvíc
startem
svátky
konfron
holky
impul
Osobně
bro
tresty
divu
Roky
##vini
Janu
odborníky
Serge
přiznání
Mercedes
##ráty
##hrada
resortu
provincii
podmi
případem
literá
##čeného
Agentura
Hlad
zaměstnancům
sídlo
plic
##esty
nezlet
síle
manželku
Kovář
##ňka
nedal
prognó
morál
##lony
kontrolovat
ktorých
zkušený
dnešních
Hlas
Rost
odchází
přítomnosti
řadou
válkou
přidě
střelu
normali
proměnil
požádat
Belgie
poži
##dějící
kontrola
investory
zaplatil
bilanci
hygien
mrav
##voří
říz
Havlíč
##advacetiletá
zdrojem
##vence
##até
##avské
službách
posed
##lické
Prote
##árek
trestných
Spou
vyzvala
stranami
záři
zápis
zahraje
kdybychom
přemí
brněnského
šta
terčem
zdravé
namísto
poledne
Fanouš
Rot
##ump
##šelo
rovno
bydliště
hůř
Messi
jaz
##tním
komerční
veřejnou
nejspíše
##kovali
##ON
nestojí
předčasné
zemřeli
Ce
##řte
##nělo
##mej
##líky
##hrani
nezd
##ceméně
##kly
nemuseli
katast
turecké
lokální
Green
##ovem
Kaš
Zemřel
ovládl
izraelské
španělské
not
##níkovi
##volá
státním
zabav
Opět
tramvají
Bloom
Sáz
nejtěžší
nepovaž
Toy
operační
Lékaři
bos
návy
malým
socha
střelou
jihových
##UDr
fand
obý
náhle
výpověď
Hü
##fob
následné
dobrých
vysvětloval
diplom
Prima
legislativní
přestávce
Im
nacházejí
fotbalového
diskrim
Břez
Staroměst
Montre
Mun
sná
##habili
##vád
ministři
spojenci
Djo
Ul
##ectví
policista
podílet
významných
vydavatel
Sním
tj
zdě
pobav
zanik
zú
##talo
##alá
##rian
nemohu
připomína
vlnu
imigran
##raly
##sků
promile
stand
odo
##ovají
výkonný
Britové
Tan
##hto
týkat
dávky
podstatné
vzrostla
##později
Existuje
Dú
Ps
spolek
jídelní
trojice
prošla
totéž
##lovar
gólmana
Opat
civilní
evidentně
pravomoci
##hlou
##hnal
jedině
pití
BIS
Tok
certi
##šující
##itut
odměnu
poranění
mezinárodním
vnútra
Zřejmě
##tion
##kazují
kanon
sledoval
vzrostly
přítelkyně
##rce
severových
havar
vysokoškol
administrativní
rukama
Dolní
vyzdvi
nejbohat
##pravo
neustál
bojují
nemovitost
narodila
Land
##letým
1991
všemu
nedalek
bratra
usilovat
interiér
upřesnil
eurozóny
##šle
##váním
##hůru
vojenskou
absolvoval
Saúdské
Běloru
Dagmar
##chý
##inkou
Hrd
##cházení
připravují
komunismu
investoři
odehrává
věznice
Východ
samozřej
##vom
volbám
Tay
přijala
piat
jdu
nič
##čiť
podoby
##arab
Dlouho
zopakoval
světel
občanství
hokejistů
sportovních
expon
manu
Andrejem
Hašek
přibližuje
provádí
Japonsku
preven
jednička
Baník
okoment
Komerční
významný
zamířil
Výsledkem
##ire
##enc
vlaků
mód
brýle
poci
metody
objevuje
resort
pojišťovna
odně
Poč
##loužil
súvis
testování
okolních
poslucha
##skak
protá
##luva
záku
dělo
koupí
##bn
##terie
##ečo
##idně
##byl
nedokázali
Moder
vybudování
Piv
shá
hoří
navázat
spotře
prask
životu
##rního
##sion
##uber
starou
mistra
Víme
zvolili
##ville
tepel
##lywood
fotbale
Wolf
proží
##vátní
rozpad
jasná
přijali
občanům
Schiller
Ryan
Problémy
Trochu
Růžička
vší
odjel
středně
obchodování
počty
určitých
webových
Karviná
DNA
Ši
##itivní
##vádí
poradit
dílny
##pka
##racích
##amí
nejas
nátla
jednal
Vyt
premiéře
najv
Audi
IN
Th
##zování
nepřes
##leným
unijní
testu
Salvini
Clin
Kova
##četl
povstal
připravili
automobily
##bridge
poměry
nahrad
##ett
##vast
spar
##řetr
obvinil
délce
nemožné
Závě
Záleží
Ruské
dobrém
Spartu
rou
##tko
##nor
simu
exter
základny
Space
Příští
Říká
finální
Průměrná
Kle
Smet
##čující
##idlo
Chovanec
veřejném
Právu
anglicky
##novém
jednotka
reakcí
pevně
Bas
sudí
přesá
##jistil
Leg
otevřený
židov
designu
raci
##řuje
##raj
##rokra
bolí
##žijí
Kapit
minulost
najdeme
Liga
výpovědi
kapacitu
pořadatelé
Eliš
nejslav
účty
údajné
příznivci
Nemocnice
neplat
organizátor
##halo
##hoř
##namu
městu
ztvár
náročný
lesy
zima
názvu
Lis
Lind
sdru
akademie
parkov
##núť
Návštěvníci
vag
##levan
koupali
československé
zábra
malém
tajemník
Pravda
nedostali
konzulá
##éria
invali
král
poslali
ktorej
marihu
OP
útul
poslala
zastupitelů
remiz
Šlechtová
intelektu
Sala
úkor
vyko
Raj
##robí
##lika
kolektivní
partnerství
zahájí
vytvářet
tvorbě
##HM
centrem
Československo
poslaneckého
kybernet
##vej
vypr
nohu
padla
stavebních
přechodu
amat
##fit
bubli
cenné
kouření
Německá
portré
rud
hranicích
stížnosti
nízká
##řídila
pivovar
Příbram
kober
biskup
##plik
polep
nezůst
zastavila
posunout
paměť
rozumí
dec
ord
##dý
alerg
uvedení
platební
finančního
krále
tunelu
tuzemských
nepředstav
expan
##řejí
ods
restitu
blesk
nastří
matkou
národních
NASA
poznamenala
shodli
debatě
Milana
znamení
řadí
vnitrost
navrhla
datum
##hama
přesunu
Útočník
stoprocent
##ALER
Čili
Vzá
takzvaného
Capital
Sergej
Hled
fle
##nového
pomů
připraví
##mář
##kladem
plateb
mladšího
sop
##eba
##Autor
##skut
osvě
zásadě
konstatuje
iPhone
##ALERIE
profilu
běžný
uč
uš
šlech
##kánu
unij
srdci
strojí
muzeu
dodržování
kondici
##čich
##inám
zaregist
##rovoz
slyšel
nedostane
##anja
byto
talen
Karl
Helena
pochybnosti
Cít
IP
blon
obžalovaný
nosit
reklama
oceli
dějinách
terorismu
venkovní
ren
ukr
analy
provin
cílů
faktu
nezastav
unikát
argumenty
Považ
morální
jihlav
volného
proviz
Kope
##držet
umět
Boris
pil
von
##cs
##tebo
Slovenský
večerní
kostým
rezid
ženské
hrdina
Budějovic
Alexander
Lam
##zla
důležitých
zvládne
chor
prom
novému
Druhou
Mam
snou
uhra
politikou
Sedlá
zákrok
fru
system
levé
afghá
Technolog
tohto
silou
karlovar
##lonu
vyrů
##emiér
Moham
vlakem
stěž
mex
chlapci
utekl
Majitel
nejkrá
východu
technika
necelé
bulhar
Golden
Procházka
Vir
komer
##znali
vietnam
kilometry
samostatné
Venezu
motivaci
Cen
smo
##tovat
něčeho
##řich
vašem
výborný
probíhají
Hodo
teorie
transparent
usmívá
nefunguje
Niku
Rol
zahrad
historik
dráhu
Divad
bližší
úpravu
přijímat
Čermá
vládních
dělala
Nikola
doprovodu
poplatek
##bší
##ktech
Potřeb
parlamentních
Kvali
##vard
setu
Christi
spoluž
odešla
pomáhal
##ate
Horáček
antisem
mládeže
učitele
Dru
úniku
vyrazili
##idi
večí
##utnat
##ičtější
kompletně
Ek
##sie
kongres
matku
ochrana
zavražd
zdůrazňuje
nehrozí
uspořádání
Doležal
vašich
Zla
jeli
programů
určitý
využívání
##slo
novinka
osobě
Želez
nenápad
zastávky
věři
tvrdý
##mezí
Angela
ničemu
##wi
##ďme
nale
proběhla
##rub
Janem
činností
náměstka
parametry
blu
##ahuje
##ladě
rozes
děde
##žiť
změnám
##ceného
projevuje
předpisy
##tům
zemětřesení
postavu
Jaromíra
##čerej
návštěva
nezletil
akorát
zisky
jízdní
Kev
špe
##raději
partnerů
Strana
půjdou
justice
##roch
narů
obcích
nález
lístky
premiérka
Maďarska
porážce
prohlídky
předchůdce
snowboard
mýt
##kostí
nejak
panem
vnímat
žádají
##mdesáti
dotazy
Asii
reklamu
Ústavu
Bub
##rnou
##iti
odtud
italský
povědomí
dote
##ilton
obav
zaplav
menu
správnou
dodavatele
konkurenční
popularit
jdeme
tých
fronty
procentech
Mou
Nek
vzkázal
##znám
čekání
předeš
Naši
víceméně
nezvyk
natočil
úste
##manová
prodávají
inflace
##řídili
prestiž
grandslam
Dopravní
odvy
##rodil
konzult
uživatelé
garant
Chem
Hap
##řených
oznámili
otvor
duchovní
dveřmi
##něme
vytě
novelu
dluhu
myslíte
uvažuje
využili
texty
tunel
Kříž
nemůžete
1938
civilizace
schůze
epid
Klub
##álnej
speciálně
připomenout
majitelů
zmíněných
varují
Zimola
škr
##rých
náj
měny
odbory
stěny
povolání
Pražském
vzdělávací
nerozu
Sú
schrán
červenou
městská
potvrzení
spadá
někdejšího
přenosu
seděl
vyrovnání
##skoarab
##skytu
slalo
##řskou
nikam
informovat
Stavba
vd
##utter
soudkyně
Změna
zahynulo
Dama
##ťaz
protivní
pravou
odporu
výrazný
Police
##pie
technických
samotná
obvodu
##allye
Plus
##CH
##kora
brou
doporučil
Slovan
naznačuje
komunikovat
gril
straš
##itelných
dáme
Patří
##zala
##urnali
Strýcová
daly
##činy
##rusla
Stří
sluch
respektovat
dorazila
pramen
##anější
dopise
Rock
Mladí
kusy
zamít
tuzemské
hatt
lak
##mä
##lička
zády
náram
dž
##pila
dorazili
zasko
výstra
zahrada
Ing
fotku
nejbližších
Kre
telekomuni
##pisu
převzetí
přidává
pacienti
svatbu
olympijský
kopce
konečné
pauze
Záchranáři
##EM
intera
zeď
patře
silniční
poskytovat
písní
důkazů
redaktor
Simona
zajímat
záměrně
záhad
##zdrav
kontrolní
padl
odpovědět
jihoče
Paříže
Pchjongj
bezpečně
##ppe
toale
omlou
náročná
Štědr
galerii
nepovedlo
Cambridge
##enost
představy
přímý
170
Červen
##lejte
čínský
zjiště
souboje
##měs
##hodnot
tvrdé
Sav
plí
ritu
neří
##vyšším
mistry
perfekt
##celku
chov
svr
##šeného
##mall
##illi
vyzná
lidovci
jinam
brazil
##bie
##mál
##non
nelíb
##skych
teku
volbu
Hamilton
Orli
středeční
úvaz
##roš
neup
##skeho
##tiť
připravovat
přidala
odsouzení
výjimečný
lavičce
korupce
krevní
##štích
Teplo
Automobil
rap
##piš
přímém
pondělní
hrozilo
stránek
dokázat
nastart
Pitts
Bratislavě
zajistili
otro
ukrajinské
nechybě
zbytky
transakce
Sab
obrazu
ochotni
zamýš
hektarů
##tín
koleč
##alita
německou
symbol
Pamat
##skala
byrokra
##mie
##kos
##randu
##žiště
mnohých
manželé
asfal
Dánsku
konkrétních
Zpě
pul
##pri
##strace
myšlenka
dodržovat
nedodr
Koru
předběž
Rovněž
##tis
šéfka
obsadil
gymnázi
respondentů
navyš
neč
vyjíž
Stalo
##dice
činil
sexuálního
čokolá
##orá
nepamat
bojov
školky
Neviditelný
##áru
vedly
dvacát
patřila
priprav
posunul
anglické
elektráren
vyvíjí
Ac
##can
##hodná
studovat
kapitál
supermarket
obnovit
lince
psí
čel
##tivu
##isť
potkal
pravý
patřit
čaj
##enici
vyšetřovatelé
1995
shodují
##host
Street
Bělob
tajných
Navr
autobusů
výstavě
mála
čtvrtinu
panu
podpořili
vysíla
aliance
##rozápad
##voká
##álky
představa
##tejte
držitel
kouzel
Asie
dílu
dílů
stoupá
potenciální
hypoték
sma
##skl
##řele
##hyb
pops
kroků
nenávisti
niektor
pódiu
##neři
uvedené
##hovor
balon
Úřady
přijela
##číte
Čínou
komentáře
tarif
vnější
##pan
vyprav
##obou
zimu
vpravo
autorem
speciálních
armádě
Kó
##ival
pozic
pozůst
majiteli
univerzit
personál
vejce
Ferrari
zapl
sociálním
zvolit
ztratili
zážitky
Wood
vlastník
armádu
Nebyl
viceprezident
prostorách
kem
Mohou
nevyhnu
##ářské
Doma
realita
potvrdilo
Gazy
mozek
Tesla
##žád
##ismem
nejpozději
trvale
Bure
dočkal
zeptal
##šej
nezmění
##píše
brance
pozemek
450
prosazovat
Konkrétně
poni
sester
protek
##hodnější
pravidelné
Malý
úředníků
Sato
Zim
##ces
rehabili
čekala
podzimní
Pompe
inscena
otevírá
dámy
Mala
vině
Čo
##hony
věděla
ekonomického
##cenace
nutno
němuž
nejrůznějších
senátních
absurdní
##wyor
Tich
newyor
hrálo
oheň
##šenie
Park
naproti
schválil
Cle
Žal
pocházejí
##otou
úterní
##lační
obnovu
splat
účinky
předpokládat
zjistí
vybrala
Kremlu
místostarosta
Zásad
soudů
výstavba
komentuje
našimi
nemyslím
##alizovat
kosmi
Log
Vic
##imedia
slušně
plak
uply
názorů
rozvíjet
jeskyně
Kana
##pali
doklady
##čící
instala
##berou
zachra
jednoduchá
nemusíte
pozval
##tras
nákupy
nede
skep
objektů
finál
nesprav
svědectví
##níme
pronesl
rozt
získaly
komunity
související
obtěžování
lži
potýká
ohně
vyvolává
Harryho
Fanoušci
##bala
objekty
sníží
pachatele
zře
stu
odvahu
##ivnější
opravit
farma
obchvat
##tíme
projevy
Výji
ukázali
Spíš
##rol
negativně
pouhé
diesel
antu
sedmnáct
lesní
Vysoké
Jizer
Miss
linka
zbou
##iční
prohra
##ette
vyrovna
podali
obchodě
Pražané
zaznamenala
Klára
Lim
##skú
diam
Baš
Nedě
dosavadních
recept
Hráči
Zato
Prodej
stavebního
demokraty
ovlivňuje
##bení
##čina
##lovalo
listy
##myslem
zaměřuje
bohaté
analýzu
prosper
uhel
nebojí
nezveřej
pochopení
podezřelý
štaf
Iva
Vad
kámen
##stím
##ební
mláď
chytré
hřeb
Leo
scéna
mobilu
schůzi
kruhu
gender
příčin
soudního
Clinton
žila
##TP
##řelo
Odpově
starostka
Brabec
Windo
Pittsburg
##ieľ
přestal
Alb
upravit
hrů
ničeho
hrajeme
domem
aktivita
Rang
měřít
spojených
korunu
Zaměstnan
bezpečné
začínal
stupni
ox
##ceny
mysleli
ekonomickou
Bayer
schopna
skutečný
Horní
sportovci
analytiků
pachatel
platformy
##lné
##vál
##éž
##OM
volných
provo
Ruská
Trut
připravila
plocha
nebezpečný
Kluci
SNS
ir
##žností
##ceno
##rani
##dych
ničím
pěta
hrozbu
##formaci
gastronomi
lup
##ener
##elli
obory
prsty
stáli
trenéři
podpořila
užívat
scénáře
##fun
vydí
cokoli
jinému
Liby
Kanady
umožnit
nezávislé
nedostatkem
prokuratu
Peru
##toč
##stock
možného
velkými
utrá
Muzeum
málokdo
Bavor
příznak
##kovský
někým
podílí
plánů
potřebovali
prokurátor
rezignaci
Brand
Nash
kina
Náklady
chyběl
ozbroj
bitcoin
##cúz
nižších
Pil
sing
žádného
##kládal
hájí
AI
obecné
schválili
složek
prvků
egy
##ádala
##ftu
##chyby
základnu
perfek
psali
Maláč
textil
vyloučit
rostliny
továrny
Bostonu
Šafář
Nemyslím
ima
##ývat
dívku
ekonomice
obyvatelstva
místopředsedy
Řecko
jasnou
##gera
nízkou
zúčastní
hledali
zásoby
raj
##cib
papež
pololetí
Podobný
usiluje
kancléřka
Gabri
zachránil
Pekingu
Arab
IV
twe
žurnali
##nějí
##oman
rozhodnou
začína
kapitali
blaho
Wer
Zbroj
ado
pojetí
oblou
protis
bouřky
Silvest
Morava
uznání
antisemit
Gh
Rý
##icap
přesah
ekonomických
střídání
Forman
emise
umělců
##anjahu
es
fre
##ovová
##atě
spě
tepl
ktorého
Mayové
Vlasti
klimatu
Seehofer
Windows
Deb
EK
čili
##zená
neur
##sková
záměru
##rovým
trhů
jezdil
Netanjahu
Nejdříve
vyměnit
##nostmi
vzoru
##bliž
metry
zlata
Mos
##bilní
přehrá
##ffe
Opava
veletrhu
##kovala
jeví
Hradě
svatbě
italského
podotkla
žalobce
##eck
##teľa
##šíte
konala
plném
zasáhnout
veškerou
vytáhl
Mand
náladu
##več
pohledá
sledují
investici
masak
památek
Masaryk
hard
##skij
##alová
##kur
##omi
##avíř
pilí
člu
##sin
##što
##äz
Občan
Leon
vyloženě
talí
vcelku
nachy
##louho
volbou
způsobuje
divit
schopná
špatnou
hůře
oš
vyú
Nebu
##vanou
108
cizinci
prozkou
režii
zapojení
Cenu
Vik
##EK
##rátoři
letoun
trasa
vysokého
plánují
písmen
světem
Galaxy
Kro
vs
##mak
prvé
černý
významnou
předpoklád
mandátů
burze
hokeji
Jandač
Nejčastěji
Ped
Partner
různě
predsed
debut
prvot
kopí
pěší
188
ukázaly
podnikatelé
asisten
Chtěla
ztrátou
Gam
výpla
podmínku
podmínkou
svatební
zdánlivě
trestním
stvo
nájezdech
situacích
útokem
Koč
Hof
vrchní
fu
lab
svoboda
světovém
peněžen
západě
udržení
Vídni
##covou
##vír
Kolín
Věra
zvyšovat
penaltu
volantem
##bnb
##lky
##čno
##cep
Chris
Petrem
Robin
vybírá
vyvolala
převzala
Miami
nožem
pražskou
Britský
##bank
##oft
##šuk
##tační
novodob
Západu
Odmí
upozornit
Bern
civil
tvorby
fondy
korupci
omluvil
Satoran
##dím
##Square
##Small
##ledSmall
předmětů
Žádná
ohrožuje
FilledSmall
církev
Komety
##rozumi
manévr
FilledSmallSquare
##nin
##pak
##měří
nezaměstnanosti
diskutovat
ocení
##kazy
Aj
Sní
laj
##zan
odle
odmi
cestovat
101
Palestin
priš
inti
pravidlo
běžného
ideálně
Západní
skóroval
##US
oborů
divákům
##čtyřiceti
Jim
Och
sur
##láním
##rik
Pořad
váhu
rumun
Mezitím
Viet
institutu
Jablonci
Profes
fat
##řál
děs
##růstu
původním
Roy
Design
zaměstnavatel
uspěl
Šuma
prudce
dobrodružství
Som
Vok
řá
##ras
##rotech
vzhůru
zastaví
Mount
2022
přátelství
Katalán
konopí
Zví
Znovu
##dar
##lované
čtenáři
senátorů
Tor
Americké
většího
Herman
sportovců
##havý
lokality
Zvý
úd
##naly
##sce
rop
##vík
milimet
##ight
říkáte
symbolem
tragédii
golf
##nko
##ode
chleba
postupy
učitelé
##nutia
adap
##put
nebav
Mars
bojoval
asistence
důvěře
natož
Nechy
zimních
nakladatelství
pořízení
zaznamená
máma
řešil
##vinut
Masaryka
Ritti
mřížemi
Kandid
##bio
##ZS
zapad
obrátit
##cími
předčasně
milen
postavila
Černá
zmiňuje
vyvolat
křídla
Plekanec
##hm
##gmat
nadcházející
tip
reagovala
nedařilo
Studi
legenda
úžasné
fascin
pová
##ikou
##stý
znale
divid
tisková
nezávislost
nazývá
môžu
Sag
##atické
vývoz
##hlásil
průběžně
Inde
stoper
vybrané
Dostal
status
milost
##tát
trou
zamítl
pleti
##lelo
vypá
historický
dohodnout
Volby
zapomenout
sobotním
zázrak
##tochví
fik
##óně
zahaj
odví
nevyhov
zaměstnanec
výborné
velvyslanec
Dle
TA
##dž
reportér
##dáme
klienta
zmizí
probíhat
diplomatů
Def
sci
##enská
##luvní
kolekce
republikán
vají
Nemu
majitelem
rozhovorů
dokumentace
Airbnb
##burgu
babička
humanitární
horizon
pách
přijet
Poro
##igu
motorem
postrá
klesa
úvěry
přístavu
##udy
dojel
Podnika
tvrdit
setkat
momen
Ofici
##ňová
##dela
##avá
recen
upev
Alexandr
Jihlavy
miliónu
Gri
ukry
šty
##álek
##hovat
##kálu
Německem
vojenského
zvítězila
výbuchu
##nojmen
zamestnan
Wimbledonu
Umí
##hry
##gativní
##zali
##lana
##aktor
prohla
rovnak
objevilo
##ologie
vyjádřila
mandátu
Řidiči
##títe
lahví
harmon
Bau
##bl
##kujeme
věže
schválit
ambu
různá
Dmit
Salis
útvar
##enců
vězeň
obnovení
nehodlá
Kanaď
##atí
##nis
##vapí
##nesli
vážná
silným
Ondráček
Strany
kreativní
Marián
spoluhráči
Feli
##ecké
Anka
hejtmana
separati
osa
ČV
Sara
hostování
konstrukci
odškodnění
Had
Nos
vydržel
obklop
##víme
volném
##ovníci
sebevědom
odlišné
premiérovi
architektury
sluneční
daný
oleje
včerej
##dů
výhodou
uvede
studené
živočich
zvládla
##venství
Chášuk
vybere
ref
Alespoň
sněmovní
realitu
bankovnictví
hromadné
znem
nejdel
Centrum
nezaměstnanost
Hun
Platí
fit
misi
vstře
míra
přežití
páry
finančním
##čátek
čtvrtou
Amerika
Minim
Hynek
etapy
zabít
Klo
##king
zábava
způsobila
pětkrát
živé
Varš
Kob
dý
prek
##čež
arbit
střela
spotřebu
EÚ
Jur
UK
trap
slovenská
domluvit
Kriminalisté
Salisbury
fol
Ší
##aní
##čům
##řiv
##ladit
odeb
považován
##orepubli
kapitána
pochvá
pozdější
Hroz
Lán
porozu
##děte
nejhor
Posled
##tář
trofe
druhému
převzít
kontakty
zvítězili
prázdniny
benzí
Otec
##del
exminist
průjezd
písk
komunistického
Lep
dluž
nespráv
kontrakt
Vrba
ovládání
memo
iba
##děk
rozm
kolá
Zach
historického
nabídkou
##lostez
vnímají
příčiny
vyvolalo
Alexandra
Francouzi
Voz
han
hala
pustí
zájemců
nimž
trojnásob
handicap
Nok
##roděj
##lix
##tice
vyjmen
poskytl
střeše
Filipa
příslušníků
útočníci
deváté
Působ
##stní
##louží
nepůjde
jimž
návrhů
dítěti
stere
Mül
Pam
zmat
##díme
Vypadá
potřebujete
nevědí
kurzy
teroristické
dospělých
chemické
přirozené
Greg
##vkami
##cos
##PG
##rovaný
informuje
projektem
##onii
Siniaková
Ok
##mát
záchod
##konoš
teraz
Staněk
způsobilo
některými
úspěšná
Zucker
klientům
##ish
kdykoliv
nepom
Předtím
očkování
nádrže
##dová
beze
nezávislosti
Nejdřív
Dneska
##rná
##šiť
srb
dramatur
kolegyně
elektřinu
Deset
občerstvení
nastí
podr
slušné
motorů
závazky
neuvěřitelně
##její
dával
chtělo
Janou
nejmladší
službě
vítězné
ktorú
schopné
poslankyně
zajistil
priorit
Fox
odborá
obmě
spod
Kaza
páru
pěšky
pohot
nervy
podepsat
netradiční
rejstří
Příklad
snížila
technologické
praktické
rétor
tv
##ény
stejnojmen
##divé
zúčastnil
neuvěřitelné
komedie
agentúra
stoprocentně
Cru
ostu
uh
##šoval
akcích
dobách
podep
Kubí
zpomali
zloděj
est
##istou
##síme
lidského
tyg
firmách
Investi
##jížděl
odstupem
ľudia
Start
jub
##knu
porovná
##row
odpovídající
vražda
uplatnění
Brazílie
nervózní
Vám
apel
náru
Najednou
kritéri
pošty
pracovním
bob
mzdu
ony
##hospod
##kolo
obratu
klade
Lotyš
hypotéky
zdanění
aro
##kilomet
##zak
##low
provozovatel
atleti
zkoušku
přechá
rekordních
ohrozit
kv
sál
vstoupila
##ivá
vyšším
určen
zvýhod
evropská
Duba
soupeřem
skladby
uskutečnit
spotřeba
obsahem
##ňan
sešli
##ister
žijeme
dívek
demoli
##chaj
pošle
nejvyšších
Gaš
Informovala
Bratislavy
hmoty
ČVUT
##zených
černou
radu
Boe
##antně
přidali
žaloby
svatby
míče
přesné
export
dirig
unifor
penězi
Ass
výměnu
vězňů
skrývá
všiml
Chášukdží
Krum
Wel
omá
##ken
##fej
##deau
konání
Nejed
policistům
sníd
automobilu
zohled
odvet
přislíb
Momentálně
odnětí
Kari
vyzved
výhrou
Snažíme
příčinu
kamion
Nob
utra
##chádza
##aticky
pozmě
středisko
kritizují
##vatelem
pozvání
akt
platné
Metnar
popírá
lobb
záležet
zost
##óna
mostů
vysvet
centr
hodnotit
vize
barvách
prodejny
Putinem
Břeclav
jezera
Federer
zvolil
nenabí
předchozího
Juncker
bral
budí
rozez
relevan
zdob
kult
technicky
požadují
šar
vylu
Polí
inze
Česk
společném
živí
citoval
sportovního
každopádně
pleť
konzuma
palác
##oprav
##plav
přítele
nepřetr
půdu
Maxim
##valit
základu
Bloomberg
Cer
návod
celým
##tečných
čtvrtiny
výstavbě
odměny
Vsetín
Bag
sálu
##stiku
Petru
Výro
##rálním
kanceláři
potraviná
##jaté
Kristýna
##nína
rozjet
baru
populár
stránku
protestů
rakouské
MA
Šev
##hře
##niček
nepov
##livých
Tomia
působila
sousední
nápoje
Láz
##dla
Poj
Pop
stáhnout
medvěd
skok
zemím
##ctvo
##pík
pokračovala
Hov
Zůst
##bri
soudci
nemus
opatrně
prozraz
předpisů
Fakultní
zásahy
##cibiskup
##oře
Koment
rodinný
kávu
Media
Chomut
Okres
tank
Ša
##ške
##lastní
##letému
##nadva
upřed
pivovaru
každodenní
##out
##not
přežít
přečíst
jednatel
poskytování
charitativní
Koup
Moz
Sho
vpřed
komentář
prodejce
okupace
prvolig
NE
rozvá
rozmezí
Poda
Jose
teplotu
Litomě
etapa
Informoval
Manchesteru
bezprostředně
Bat
CIA
Sz
ostra
##otě
podnět
##árny
defic
příznivců
pretože
sešlo
výhoda
předních
viní
Taxi
chodili
sedmnácti
oficiálním
Větší
Američanů
sdílení
Íránem
obrázek
Stephen
FIFA
Eston
##něném
vězně
akté
##guay
garan
Příbrami
Brod
Řep
##cují
##álech
kopu
Tehe
rovnová
táboře
##nulého
##dějov
chytrých
mléko
nepotřebu
aspek
##uri
##stání
##odí
českému
zahájili
průměrný
motivace
samosprá
egypt
Has
Poru
##ray
##stika
explo
zdravotnické
popisoval
jazyka
jímž
proběhlo
##úry
##lak
##měrné
ČSOB
##dělají
Konečně
najmä
hokeje
uklí
##rií
nemocných
pirát
střelce
vražd
Pravděpodob
dřevěné
Jones
las
##cks
přibylo
nepřin
nějakém
mladým
kategorií
obvyklé
dodavatel
nápady
Chybě
charakteru
dôvod
srážky
##iger
týde
zakot
Model
Bohuslav
Čeká
misí
vytí
##rův
Anti
Leh
Ondřeje
Rap
látka
rozhled
vodov
##lerová
Matka
Armá
epiz
přesvědčený
definitivní
desáté
Nelze
racion
E15
##rey
soboty
špatného
nastane
Dánsko
Emmanuel
Nut
nabídla
vesel
užívá
Vondráček
zkomplik
Djokovič
##utterstock
pový
##cas
##lely
##čího
meziroční
tras
Skvě
oblíbený
komplexní
rozlišení
žáci
##ču
##ply
ručně
##vanější
notebo
uzavřen
zaměstnavatele
ďalšie
výslechu
##tely
##ave
nábytek
hyper
Trpiš
Matou
netuší
rezignoval
důkladně
rozmí
souboru
nohama
Lee
barok
Hradu
Pomá
blogu
Hilšer
Znám
##čte
Češka
průměrně
pětinu
sdělit
debak
nespokojen
ZDE
zle
Čun
kolena
píší
dostatečné
dítětem
katalán
subjekty
lat
pomysl
##livější
objevovat
##jíždějí
ukončila
kamarádi
příroda
relax
teplá
převezli
Doporu
získají
Gor
nejraději
##alian
##kret
Celé
cizince
##andardní
Indoné
Hud
jedou
##prí
hrani
##hlých
typické
Schillerová
##šské
##táž
bojovali
čekalo
demonstr
výcvik
Fica
říše
Prost
chyt
loňských
Tip
požádala
kriminální
Kyjev
vyhovuje
##letých
níže
soudců
uzá
partneři
Letné
pevné
Navrátil
##grafii
léčby
Belgii
stoprocentní
chorvat
twitter
##zne
nákla
náležit
##álny
odešli
115
##zvu
nakrá
jakými
zdvojnásob
těžby
blíž
Světové
priority
zmoc
vynu
Milošem
operací
spojence
výměnou
zadržení
územního
socialismu
všetky
PA
zažila
##omí
kameny
odehraje
Spol
Soupe
spolupracoval
##lynulo
zaměstnává
meč
zřízení
##nen
nejza
posel
klasický
nastavit
papíry
##ksho
Shutterstock
dluhopisů
dostávat
životo
mega
odehrála
dôchod
But
fut
exoti
žádným
##pliná
produktu
AfD
vítězem
příslušní
lam
##kau
##padesátiletý
##nostem
depres
městskou
zdravotního
5000
daném
##stov
dohrá
mojí
vězni
pláž
náročnější
##jezdů
Kanad
Lukáše
##ávna
Gran
suk
visí
sejde
##emen
zátě
stání
oznámen
Trag
Štěpánek
klání
dvací
městský
##ptat
##tvrté
nízko
Šťast
##IV
##mují
desetit
vztazích
kompen
komplikuje
Williams
Dynamo
zho
vzadu
rámec
Radnice
vyhrálo
zúčastnit
diagnó
dáma
Byť
regionech
požadavků
Louis
stresu
##randa
tepla
zele
hodit
bance
AC
Laj
Zam
únos
vědy
celní
##paň
přemě
naučil
slávy
lídrem
neuspěl
podzemní
přistěhoval
jela
bezd
Boží
Tomio
Dalších
modelka
nepodpo
Krajský
adek
th
##fí
##ťte
##emu
spoje
Kap
slavit
cituje
Googlu
Otázkou
aerolin
oranž
sor
věnují
##ieť
zver
činila
Baníku
Němce
Francouzský
posádka
velkolep
Corby
upřímně
##ádou
##iči
nutnosti
vládnout
Druhé
výjimku
skandál
Dukly
dezinforma
Fry
Zprav
sestře
posunu
##lú
##gos
dotáz
výtr
hledal
účastníky
uvádějí
korek
Syr
etap
ČD
##niny
##24
vítězka
alba
finali
DV
Son
##enut
marat
komisí
stažení
měsícem
##hneme
vhodný
umělci
tvůrce
realizaci
skandá
sek
nedot
loka
barva
migranti
perfektní
Sek
uto
úra
##šného
naka
konají
Nejsou
Lubo
duchov
klíčový
samostatně
##EFA
nouzi
ptal
##rných
zaží
nejpo
##líková
rány
drs
autorit
tempem
přiblížit
Jednot
svoju
Daněk
rys
##zujeme
Výzkum
Berg
ligové
vládnoucí
provedli
danou
klou
lž
nul
##elová
neplán
##drželi
balení
Spojenými
reporté
dosažení
pracoviště
kalendář
UEFA
celkových
patra
patři
obrana
senzor
dráze
neřekl
Chcete
Jediné
vydělat
magazínu
kartou
##lovala
prokaz
záznamy
předví
##bost
koruna
placení
následuje
viace
hovorí
Microsoft
ME
##zek
pond
přesou
##čeli
vodních
využije
drželi
##važuje
realitní
očiv
zamíří
bizar
Rangers
projde
##adel
nepromě
amatér
##inko
##tik
duši
Celou
médiím
personálu
kláves
Antoni
cyklostez
##škerá
Aero
ER
Wag
##ZP
nein
progres
účtů
některý
Finsko
klesly
##čtu
nepočí
předsednict
##prodá
Soros
Ústavního
opustí
prioritou
meteorologové
cigaret
Kir
##ian
náčel
Franci
zpětně
přírodních
Spousta
##orou
roh
celkovou
Hoff
brzd
##mysly
zaujal
mj
problé
projeví
Německý
##části
Slovenská
Maty
normy
nevidím
sbírku
klobou
##jelo
sklení
##ingem
evropském
##finál
půjčky
kamionu
Rath
Umě
jú
##ČR
##tedy
neus
zasta
##vák
##hrají
šéfku
Kontro
Víc
Nováková
nenávid
vyprávění
Prostějov
Hert
##čia
výděl
desku
Obam
vojsk
slavil
Charlot
Kongresu
přetrvá
znění
##káží
##estu
ČSÚ
vystupuje
sovětské
mléka
Manchester
odevzd
Rena
bavor
lez
éry
nárůstu
##syp
pokračují
otevřená
výběrové
novinkou
Maked
Hrozí
výhrady
kok
vítá
útočí
Refer
Mělo
Správ
architekta
nechává
příslušníci
nedostatky
čerstvě
promít
uchazečů
Sergeje
Ráno
ironi
Ústřed
konal
##ovanost
výroční
Wall
štáb
niekoľko
##tia
přiměř
středoevrop
Zpráva
nejedná
odhalení
Mnichov
##bauer
úplat
neov
prvenství
krva
Alp
kamaráda
spokojeni
Hr
PC
##éle
naráž
předal
jíž
bývalou
ředitelství
uzavřené
Joze
rezolu
bránu
Šed
##sor
sešel
prodava
vyhraje
kudy
navždy
verzí
olympijského
brněnský
nestane
Režis
ustanovení
Gale
Oz
poist
Náchod
Kratochví
nevěděli
chorob
poděkovat
##HMÚ
NK
##láv
lidskou
poukázal
ligových
levice
posílá
Musel
licenci
Velikono
Snímek
zorganiz
##czy
načas
rozpou
zápla
dokončit
prodejní
ženami
porušování
##řízené
Stock
křesel
linek
Vancou
Fle
oka
##dové
sekce
##onie
stály
platu
takovému
peči
ušetřit
UNES
##tým
neoz
nálep
##ládat
##viku
fakta
klasických
umělce
přizpůsobit
celoži
##nikov
##číka
Maria
hlasovali
kred
zastupitelstvo
Mladý
ziskem
vizi
přeháňky
stereoty
##vézt
podepis
stylem
Ředitelství
pist
priz
##dární
patri
zastupuje
odhadnout
vzdálenost
spáchání
flexi
pocí
##inského
nejvyšším
podlehla
veřejný
vypadal
přidá
Ministryně
staršího
analýza
odhalit
Rekonstru
zhrou
parádní
Čty
nekou
závisí
##ased
hostí
vyšetřovatel
odpovědí
táhne
oslaví
fotbalisty
přenes
třem
##livou
##šiu
budovat
porážky
průvodce
Chlap
celostátní
Švýc
Ocelá
Vas
psi
##ovna
##šeným
firemní
francouzských
Rusů
úřední
výjimečně
přivola
pravdy
dneška
vyzývá
marketingu
pokročil
doskoky
oprava
Mikuláš
Krnáčová
##tce
zastoup
tox
##koji
spisu
technického
Vietnam
bohatství
smutné
Islámský
Pes
##anov
vzru
##štině
protestu
Bohumil
Brad
heslo
mor
##ňáka
nesed
vozem
jakési
mnohokrát
pohádky
neznámý
přispívá
##ifer
##rále
přile
zelených
světle
doplnit
##cara
filmových
opuště
podpisu
Vltavy
problémech
fou
ptát
youtu
pokož
jakkoliv
souhlasu
celková
##rea
Produ
jistá
Vídeň
nenapadlo
takzvanou
mrtvé
kádr
perfektně
hesla
pobý
##jín
##tura
volání
##fika
komunika
voják
chlapců
olympiády
EC
fem
vynalo
obávají
motivy
##bot
##lovým
zpev
ponor
Starosta
##naje
##tík
##skách
rozhodnuto
nepočítá
vesměs
miluje
jednáních
Demokrati
Sokolov
Budapešti
geni
##stud
děv
zprovoz
výraznější
požadovat
hluboko
veterinární
Svazu
Psych
MUDr
##škov
##zách
přítelem
##telných
Vývoj
zapsal
jistou
lázeň
Sami
nezávislých
Silnice
zničit
Chorvatsko
Faltýnek
##wor
##čáři
čtvrtka
favorita
advokátní
bolšev
zámoří
She
atom
zot
##hři
##pili
nar
filhar
Kohou
##čenko
##RO
Dušan
gramů
vášni
##nutých
tendenci
upřednost
čtěte
##utsche
Mohl
105
uvědomuje
závěrečném
inscenace
ojediněle
Vet
cez
##erka
##nojem
chovají
čep
Boha
Foldy
olig
utop
##nc
moct
##saj
dešti
Krkono
Kučera
filmový
kamionů
prokázat
##wald
tát
koncov
pásmu
##řáb
reklamní
##rekonstru
hluboké
Otázka
Zé
##znal
##inst
zadání
obal
stár
ruchu
nedokázala
reprezenta
stěžují
příjemně
dějství
sdě
započ
rozman
nezbývá
zahraničního
fakticky
##átorem
usmr
umožňují
údržbu
Šmí
##žující
##meček
##hodli
Prvním
Moravec
pokusů
bouře
huri
emocí
nedělním
nejznámější
Pát
##cal
pohraniční
##řicích
##tací
návštěvníkům
kryptoměn
obzvlášť
FA
beru
utaj
##šina
koš
voči
neumož
neposlední
Obv
##cenár
všetkých
Barcelona
učinit
##sity
poslech
nema
toler
nástro
March
Reag
odborů
Server
hotové
Změny
pozdrav
osp
ohodno
##švi
přísně
kotní
volá
poznal
zvýšily
myšlenku
##ktivnější
konzervativ
AM
Cas
##linu
vypí
zajímavých
regulaci
teplé
čehož
Markle
Bár
Utkání
Šil
##čtější
nevšim
vypadl
Madridu
Skot
Komunisté
Současný
UNESCO
Pech
##hují
##tus
vojenský
Chtějí
Porsche
Charles
efektivně
olympiádu
lahve
Kalifornii
Rub
##řová
##EA
##ann
##cke
##idě
##pred
padlo
německém
provádět
medailí
plzeňské
parkovací
sýr
##AMU
##ákům
jedu
##igh
odpy
shop
křeslo
hloup
Mrázek
strojíren
Doz
Fred
okou
##waru
nevní
##kyňa
mosk
tret
lék
přijat
Němců
hrdiny
atmosféře
Premier
logické
Mol
lov
uzdrav
nemí
radosti
odborných
##ukle
aktivitu
kritiků
manažera
hydrome
sirot
##box
leck
dostaneme
nebudete
směrnice
postarat
křesla
slevy
rozpočt
akcionář
kompromis
šly
##ľu
##60
##nuta
rozk
šéfred
nejvyššího
strávit
seniorů
Tálib
něčemu
Nebude
stáří
správná
publici
označují
Cur
##íně
##ící
##šov
Poku
##myslu
Mohu
řece
pohřeš
lesích
stránka
Prim
románu
zazpí
súvislosti
##uti
poukazuje
##ike
China
Kučer
programem
zmíněný
univerzita
Většinu
##kej
##lami
##rádek
obrátil
prej
##žely
doplat
potvrzují
citovala
uprchli
odvysí
hydrometeorolog
##stilo
##chova
##ilová
##rovnat
lidovců
skú
Colora
studio
112
Váš
vyhro
sledovali
##bab
trvající
bílého
vnímání
monarch
seminá
maminky
zpravodajské
lokomo
has
základy
jakoby
trofej
filmového
čerstvé
znečištění
Gö
kub
šlá
##liví
##loně
týrání
tenistka
prostran
hokejový
přistání
papíru
Applu
Cra
cení
Šk
##rak
vyřazení
##stickém
nábytku
##lout
zabýval
##matu
připomněla
střílet
křeh
tatín
Híd
Vratislav
##kandid
##avých
investuje
zkouška
##afri
vyprávěl
PPF
bali
##běr
neprac
##ingové
krátký
pyrotech
potíží
respektu
kostele
zóně
krav
##istické
cizích
Akcie
hnízda
##odenní
blb
Hosté
VŠ
zařídil
##bay
Nejhorší
vítězstvím
levné
##cházejících
kontroverz
teoreticky
gratu
nař
##odpověd
stovku
patro
##age
trolej
Jersey
Zen
Zub
##tily
prožil
cosi
lidové
Podmín
novinku
čaroděj
pozorovat
##chera
zpracová
litr
jihomorav
předmět
úspory
vypořádat
##öm
vyrazí
##kar
##omy
##líků
Jednak
nevrá
nutnost
růstem
sloužil
menšin
pokrok
disponuje
devatenácti
Ever
Erb
##ula
125
překvapilo
Kdybychom
kávy
nástrojů
Současná
brutální
##izovat
Bug
zaps
nedb
Brook
celkovém
komplexu
Scott
předloň
sezonou
Instagram
Jesení
##ňost
##sahuje
Spartou
Tomášem
prodlu
železnice
##platek
holka
nejvýše
místostarost
nadace
smůlu
pondel
Zkrátka
hek
úklid
##vrat
##zované
nejlev
ministerstvem
Trumpův
##ongkon
dospělí
neoh
Jablonce
thaj
Řecku
Štras
##ide
##etní
tamních
Novým
##renia
paláci
sousedů
Japonska
koncertů
zahájit
Id
Rec
postoupil
sexy
##alitu
kerami
Výkon
neoček
havari
Divadlo
penalty
mizí
apa
##nát
pomohou
brzo
samotnou
čínská
Říkal
riadi
renom
##ňujeme
postře
nastat
letů
Podpo
Prokop
zprávou
tradičním
Mynář
Ligu
Dopl
ostravské
bilance
přilák
Ric
horské
špatném
lepšímu
informovali
hvězdu
##žte
##lady
##rodu
##obra
mapy
##árních
tratě
doplní
regionů
vystoupit
Růst
čes
##poli
Nejméně
podoba
chodce
hospody
polský
zabývají
vyvinu
směřuje
poslouchat
srážek
ujal
Toronto
horizontu
ukli
##vkách
##slou
proced
příčky
zataž
těžkou
Vás
Devět
##hlédl
mni
##nková
jedničky
##abet
řeknu
skládá
zvýšené
vrstva
uděláme
##enní
Rozdíl
Beran
severozápad
prosazuje
displeje
solidní
předat
##znají
dávek
Kolá
medz
kapitálu
Rem
##instal
##itého
buňky
Andreji
obtížně
hluboce
CSKA
fenomén
Bá
hl
šňů
##čar
news
##anka
##átko
##padne
hrací
nezajímá
termin
příspěvků
Dět
Kane
zaprac
kočky
##sii
sklí
Toman
souvislost
spadla
modernizace
##LČ
vyprod
evropským
jmenován
rodinám
dosáhli
Benj
štátu
hlídka
dějiny
kalendá
výhodné
jakkoli
##ckému
obsahují
úspěchem
nakupovat
facebooku
navazuje
připouští
Anebo
Potřebujeme
Gro
Zkou
spla
smluvní
Buch
láh
Filipí
Piráty
anonym
Ton
uta
##zující
rozb
##hodnou
zatiaľ
líbit
vaření
stoupla
poločasu
Us
prop
##plň
nadná
počtvrté
pustili
##nejšie
stříbro
Staré
problematiku
##áková
sejít
nemohlo
školá
##stoupily
neuvědom
republiká
nemluví
zábavu
Udá
Ukázalo
##stie
legendy
uložil
úlohu
##rudim
HD
rých
nejk
anim
životů
družstva
medicíny
protisměru
Podrob
##drou
##zením
vůd
držení
Nemá
Dívka
vojenská
získává
zodpoved
registr
oslovit
rezerv
připomínat
Skon
odci
odráží
jedničkou
technický
bydlet
dovez
jakýsi
našemu
vydržet
kořen
přestane
hyster
britskou
testů
Snažím
Igor
hel
##pond
nešet
oble
##luk
práve
Evropou
due
zákazníka
oblačno
polojas
procesy
trávní
dozvěděli
Istanbul
iniciativy
otisk
##nském
##chl
podzemí
##stice
koše
##ránilo
menším
koupili
nejvýraz
SELČ
Režisér
##věti
pravice
kolemjdou
úplné
Egypt
Čižinský
Havíř
sleč
ží
##stán
předved
Anděl
žádal
##štru
vyšetřovatelů
SaS
překvapil
Dlouhodob
pohonných
glo
##ovú
rozs
reviz
akční
##cházku
přešla
##sadili
přestat
hlasovalo
##rálně
pracovník
3000
demokratických
úrokových
řetězec
zaútočil
Vním
##cova
##vačka
ničí
krásnou
nezávislý
navštíví
tragické
##pku
##roví
prostred
soupeřů
Myslíte
sídla
Chybí
tuzemsku
statisíce
Začal
uviedla
Hři
napoj
##ident
Pokrač
Jednodu
snižování
paliv
dokazuje
příchodem
možném
Marta
krajská
State
samotném
2025
worksho
prostranství
bes
##řeně
##čnice
##rolog
##odo
zás
##terý
Marc
neudělá
zvýšenou
dotační
Haw
jednotlivými
královna
hmotnost
konkurenceschop
ambulan
Čtyř
##škové
Dokud
současném
Johna
Královéhrade
vánočních
miliónov
Kreml
nepotřebuje
Jev
##stři
##rovský
##iga
stávajících
spojená
existovat
posílat
Stropnický
##isku
všudy
kompon
přehlí
Obdob
pátrá
kurtu
zimy
Tatra
Cleve
Nan
Novou
asp
##škr
##nus
Češky
dlouhodobý
etapě
nalézt
přijímání
Home
zrekonstru
žáky
##40
možnou
Jarolím
krátkou
Milán
svojej
DPP
Kurz
knihovny
Správy
úkony
##hvě
vymysle
##kač
onen
senátní
programové
běžnou
startuje
mimořádný
utrpení
zasahovali
žluté
nápisem
##knutí
mluvili
automobi
svojich
věnovala
Sr
nábře
použili
čtenáře
Včera
Zat
halu
zahradu
Městě
suchu
plot
udržovat
Poláci
sborů
##ťou
takmer
##hrn
Švýcarska
Klause
opačném
kandidaturu
hazard
Policejní
##ťané
##mulá
2030
letiš
paše
Mareš
Ins
pláži
Plzní
Martinem
tréninky
restauracích
kapacita
znemož
uté
domech
##toto
zeptat
čtvrtina
vypadala
Minnes
kilometr
profese
podepsali
Internet
Bes
##onců
zamez
##ument
Vyz
krizí
překvapením
zraněno
věznici
dotázaných
##vili
##chálek
vyšetřují
navrch
Fortu
Chicago
List
Nen
hrůz
naděj
##cial
##tika
kluků
##matři
kritické
##kovicích
poradil
mladíka
postele
spáchal
##jme
prodala
střelcem
přehlídky
Ondráčka
##mažď
netýká
věnu
přežil
vlastními
léčba
poradí
vývojem
ohra
končet
červená
úrokové
##naugu
##ecký
##ventu
##zové
Lew
petici
detektiv
Ast
ujišť
##rkou
stín
rozbit
##tích
##rovnal
##kovej
snahou
známou
zraněn
Krmen
posudek
registru
Ful
sděl
##meme
##zpom
##ror
##isen
tuny
sluní
##štit
směs
magnet
utrpěla
Bělobrádek
##CA
nehraje
dohledem
hodil
hranicí
##ings
pracující
modlit
otočil
podpisů
dělníci
Australian
nejdražší
pomohly
nevad
vyhraz
zakázat
dokumentaci
tábory
rakovinu
Peking
Ideální
Sin
blý
hes
##iemi
##uz
sep
##rovaných
deska
sumu
##endum
Centra
Vladimira
ankety
oznámilo
estet
úrad
platnosti
serví
sněmovních
chuti
Varů
nahrávky
oprávnění
kulturních
voličům
Four
audi
prij
náhoda
Cohen
okno
Kyje
dvojí
modernizaci
Jasně
ozdob
University
okupaci
Ele
látku
##iteľ
##ujem
##telích
vysta
##nutá
nejvy
karos
##sexu
tendru
výraznou
italských
fakultní
improv
Olga
Gold
vyžádal
##jízdné
CO
NY
mel
neved
##rimin
spoluv
potkat
orgánu
Lidi
označit
##bourne
nepříliš
dosáhne
sídliště
odpovídat
ovládat
nečekal
pováleč
Bart
Fede
Uru
##mý
##ya
stád
přestoup
přijme
otci
Zajímavé
Jmen
Stí
Smr
odva
mosty
##lyn
zelenou
##čany
ovlivňovat
vhodná
Politici
##kultu
úpad
##eje
##aky
Jakou
zatě
bankro
půlhod
kuře
Expr
čistého
exped
Tuni
pít
sraz
zve
##hově
##sman
##lese
odstoupil
odstoupení
Jeff
Stro
noví
parť
Domní
rozvědky
hospitaliz
Dce
##číně
skladu
Dolín
neslu
##eniu
1969
zpoždě
příslušné
československého
ustav
##žším
prach
kriticky
láskou
Rusy
Irena
delegace
Sáblí
bin
vzbud
##inálu
krvi
All
sporů
Agrofertu
Národním
Podařilo
Úplně
##řském
pojed
nabou
rozsah
##ryho
krajích
představitele
Výmě
Význam
pravděpodobnost
číslem
Kamil
tvrdila
hypotéku
výbuš
slalomu
Fron
vily
dopustil
odstoupit
##izoval
pravo
ulicí
vstupní
aktuálním
soukromého
Zlí
pse
##imu
##hart
odbav
##obile
jakožto
##hynul
##hák
těžkých
euru
Hlavá
Každé
léčiv
primátorky
Svobody
spotřeby
Bö
Cast
Zám
##maji
##puště
##ostal
##berger
obyvateli
sněžení
památní
jihozápad
zúčastnilo
vydalo
holdingu
ozbrojen
Postav
deště
skot
dluhů
farmy
opustila
spořitelny
##čkal
zažili
vepř
##nder
sucha
legion
průmyslových
##júce
Aktiv
zraněný
výměně
šťastná
faul
závažné
ocitl
turistické
hlasem
otázkách
Dítě
ztrátě
výjimečné
##ránil
##ismy
sprch
životním
nemocnicích
perman
pohledem
Pirát
Severokorej
hrubého
Liverpool
Jenomže
ďalších
plem
##čeny
##skočit
popsat
přestala
postará
##IKA
odz
přivedl
##izované
zaklá
rektor
myslela
reprezentantů
kabiny
Švédska
uvažovat
subjektů
zločiny
Nobel
Referendum
daného
##din
dokola
prolo
##mující
##iška
způsobené
energetiky
basketbali
angličtině
odevz
moskev
Vez
retro
trav
##ix
##váb
##eced
kompak
Keď
dokážeme
seznámit
suroviny
reportáž
Bang
##dné
##tního
dospí
základem
Konz
vyhově
nutná
Sokol
Musíte
úvěru
zvyklý
pěkné
fix
duelů
zakončil
ambasády
##flex
průzkumů
Ala
Sněž
eroti
##lovali
Podstat
provok
červen
krajně
zraněné
generací
Těší
Netf
Situaci
Arsenalu
Hom
UN
VI
##ickej
služební
bývalí
stínu
profesní
kampaní
Bohuslava
Euró
Philadelphia
Začíná
Jordán
inovace
Lok
Viz
##sus
točí
##puštění
závodní
samotných
Zelení
zajímavou
1988
občana
úkolů
srdeční
Alo
scenár
##ght
##anům
zajíma
hojně
Prakti
paraly
obvinili
kamerou
Existují
##dalo
oddí
odrů
Ney
Zastup
Jednalo
Luž
dovedl
náznak
Skoro
Brat
gang
##žeh
přiby
prapor
##stevní
příběhů
Merkelovou
kontinentu
dron
mostě
##dává
napá
zpracovat
chutí
Polák
konkrétního
zvykem
una
šach
##enali
prin
veci
parkova
##ínský
krajině
otevřeli
pokusit
vykonávat
zakončení
Zvlášť
##eckonců
lokalit
slev
##atik
dálku
##ovatelné
kultura
synovi
hladinu
rekonstrukcí
vzájemných
japonské
zbývající
Pákistánu
Dun
Thi
##bru
##inten
##ision
jednost
státům
pravdou
krátkém
dosáhly
zkrach
stráví
Bezpečnostní
##dam
metoda
současným
základním
Letiště
desítkách
vládního
vyrovnané
důkazem
Východní
plnohodnot
napsali
fab
nejh
Počítá
minulostí
krásy
článků
vazbu
Omez
Oveč
##ovkami
pronaj
podvečer
přip
##inárod
##prezent
##ović
plach
dopisu
Herečka
převzali
Rij
pik
prota
voze
##statek
prezidentský
kanál
##renie
cyklu
publika
servisu
falešné
##FC
nedob
##deb
obává
předali
##dustri
Čínu
lásce
Nemáme
vlně
Budete
zasahovat
barevné
softwar
úvahy
Vietnamu
##IM
##spar
##vodní
osobou
kluka
Brou
Černé
jadernou
zanedb
špeci
AN
krych
##jov
taktéž
##isek
##busu
budoucího
dešť
Mate
středy
novinách
firmami
divák
udělalo
sportovce
fakultě
zasloužil
##pet
##ZE
minú
veřejná
trestnímu
##lass
právních
posílí
počítači
civilistů
Viděl
focení
##členné
množstvím
CH
fér
##zeno
##ôli
doch
odkou
významu
Market
vlastníkem
vítězný
vrah
přísnější
kriminalita
postaral
ČESKO
duelech
Zcela
mince
přeroz
rozhodly
Dokument
##livého
padá
schopností
Miloši
##ström
Vlta
demonstraci
verdiktu
stíhaný
útěku
prot
nechte
neobjev
konstatovala
stabilitu
vědecké
Eliška
smaz
##žba
nákladních
posoudit
srovnat
Parlament
poselství
Bot
Zvo
##pany
strý
##erie
##telným
Basket
dodávek
doplňky
splnění
přesunout
preventivní
zverej
člov
nejste
zákonu
dlouholetý
střelbě
vytvářejí
Průzkum
ovoc
Nabízí
Smeru
Starostové
Hab
Šeb
Šárka
##lně
##rovy
Českém
historickou
třídu
údajného
matce
korekt
software
křižovatce
Číňané
##dlo
##emato
hosti
pozicích
koleje
umělec
ohňost
Albert
sněhové
ochoten
vystřídal
kulturního
obrázky
cirku
nejdelší
Edu
##říkladu
protikandid
##ánů
bodem
ochla
kapsy
profesora
cizině
založili
##řemýš
ekologické
Židů
Smlou
Zoo
Tří
klik
odkry
dáno
Museli
arcibiskup
##cházím
hokejista
ztratí
koncepce
Požad
nedůvěry
pořádek
pátečním
Test
bratislav
##bky
užit
##rodila
ruční
legální
Světový
trvalé
Pís
hudebních
válečné
Znamená
Theresa
Ská
slon
popo
prvý
odejde
##here
dopadla
necháme
oboha
přístrojů
sparťan
##kru
dorost
pohroz
hrozbou
Norsko
Slunce
účastí
spoléhat
Fra
TSK
##taly
zajímají
Austr
propadl
urob
úna
půle
##áren
držela
platil
poskytla
##řídka
nábřeží
xeno
nahá
sekret
##átra
##šeň
Luke
přímou
##zeným
poplatků
připojit
##covi
kapli
banké
moderního
zvolila
Studie
jakousi
schůzka
Dosavad
žadatelů
vstoupili
##90
samet
Chalup
Ukrajin
odvolat
Service
brigád
Satoranský
ojet
##obraz
přep
mix
místu
Roland
redakci
přesvědčeni
realizovat
Výjim
Gir
##zovali
pokládá
výklad
přihlí
napoví
kliniky
původem
poskytne
Beat
Nadal
koncentrace
Fun
moti
příměří
třicát
dětského
európ
pochopil
##hlédnutí
jezdec
naslou
750
pruhu
balíček
Jeruzaléma
motocyk
##dan
Pok
věřil
##vanie
##romadě
posily
šířit
palce
kategoriích
Amb
##tování
zapí
vyvě
násko
chovu
Popu
##mostí
poukáz
kanálu
vstupenky
bílý
Američany
záchranného
módy
hmotnosti
zeleniny
odvezli
Cristi
Směr
##zší
neče
stok
##kupa
druhých
meta
Přece
herců
činit
Tahle
Sýkora
Gula
písnič
oslovil
nepřijatelné
Ran
nit
Ško
##knou
##chel
nemocný
pochlub
burzy
cibu
krádeže
Pán
Téma
bag
začiat
##stoupilo
otest
vstupem
##ácia
kamiony
principy
rekordy
zavolal
strikt
Vati
whi
domo
##itelů
přitá
ekonomická
kulat
skutečnou
tiskového
lehčí
nestačilo
Demon
zakladatele
natr
nastala
došla
nepovo
Lucem
ostré
aktivisté
kariéra
Masarykovy
##brojení
Vojtěcha
zklaman
Anderson
Lion
##stel
odchodem
##álnych
##éhož
schová
budovou
dnešek
Libu
Pavlem
ostr
láka
souhlasit
vyvíjet
bitcoinu
Krčmář
Ara
Brazil
Lov
pojem
narazí
výšku
mladist
horských
Tať
výkonnost
dětský
splnil
legislativy
délku
chápu
Kemp
pep
##čové
##isy
##islu
sved
exce
##rozhod
Jirá
místnost
šestý
padne
trénoval
bílých
faš
fronta
Kovan
Om
apo
##stění
##ujícími
půlce
kuřá
agenturu
vyžádala
podrobně
zákroku
zesnu
Jílek
posteli
Pul
sňat
##tilo
proběhl
vycházet
##jete
##sejí
časově
##radil
dálky
stouply
vypočítá
Adriana
Vzni
Zbytek
##enem
zažít
##rup
přízemí
Nau
mast
kach
zdobí
Vaň
svojom
ověřit
Kno
Kala
##itte
##talit
loňska
kupovat
pronájmu
zpomal
chaos
Sur
##erů
souhlasil
dávali
neudělal
chodníku
##nica
tlačit
vládnutí
Stejný
nedaleké
spoločnosť
učinil
saúdskoarab
Čermák
Smut
Počas
tebe
neprod
pouh
televí
vytla
Volební
pořadatel
Ukrajinu
počítají
utkáních
Frankf
##ivy
##inné
##berku
Vystud
drži
krajina
soutěžní
schopní
rozšířil
Nesmí
výuky
Wol
bas
vli
stanou
koši
stavebnictví
mrtvého
oceánu
Holding
herečky
muslimů
##yho
##riek
velmo
nebrání
naprosté
hlídat
webové
zvednout
rakoviny
Big
rival
##tic
##věta
nepla
nadst
Mode
absolvovat
poptávky
sliby
Kvap
##ňovaly
##ňuji
využila
nestačil
osvobod
hájit
Trav
##klou
##hrd
##gana
spokojení
##tečnost
podíleli
ducha
Legen
priest
Kuz
řízením
otevřených
##čítání
Pelhři
dvoch
zásluhou
vybojoval
házen
filozof
##bet
##nská
##čině
##gs
##pochyb
čtve
provedl
104
filmech
Nemůžeme
poradenské
odsoudil
divoké
Architek
Jediný
exkluzivní
Lat
Mem
dži
##koľ
##hlík
brankou
zraněného
inkasoval
inaugu
ujít
Stal
Skand
kupní
napojení
Katar
informácie
podávat
kohou
dialog
vůně
postavou
uzavře
220
Světovém
opustili
Útok
Barceloně
ozbrojených
holokau
Ghú
Bala
oří
päť
srozumi
##ravý
jedovat
máš
časů
pátém
Strakon
sdílet
soukromý
##adeř
rozhodují
kavárny
časté
Minu
brali
kel
zklid
##lisí
zažívá
##čníci
koň
obrazů
hladiny
kočár
Hospodářské
zev
Chile
Brzy
Nezá
##holm
Trpišovský
MP
únik
##zovala
##espond
##ezí
mořem
##alost
##letém
pracujeme
černá
čerpání
provozovatele
alb
Mex
tiskový
Vánoc
Přá
##mrt
narost
##mením
##livým
studoval
tiská
hereč
oficiálních
Svým
vyčís
černobí
Štědrý
Whi
##ári
zavě
výnosy
víru
##alogu
##šťál
krajinu
přátele
III
zařadil
ideologie
pochvaluje
líbilo
Abra
cé
##oven
náhrady
ostatky
term
kamarádů
Studenti
Analytica
Rest
WTA
vzp
právu
podlehli
popřel
klíčovou
širokou
Přid
struktury
nezapomenu
Kniha
tatínek
Profimedia
okomentoval
##érii
##ôže
##ôraz
ruko
odehrát
ochutná
vysvětlovat
umělou
velkému
účastnit
styku
Myš
praktiky
nervoz
formule
úroky
armádní
ublížení
elektromobilů
Bam
##lenými
##padalo
celky
##slaví
Strom
##lišti
vstupuje
podezřelé
Teplicích
slibují
komfort
devatenáct
nápojů
druholig
Hart
odtr
Jac
duely
čtvrtého
Běle
rostly
dostupnost
blázni
Nemusí
dno
##hnul
##éna
##Dance
věr
mafie
##hamu
popá
dlouhodobého
Troji
skrz
svojho
trpělivost
surovin
Brazílii
Energet
car
kvar
lich
qu
trvají
ležet
exhi
silného
mladou
##atikou
infar
vedoucího
neúspěšně
zkušební
##wic
##well
##post
průběž
chytil
loaj
počínání
zveřejnit
Druhým
konkrétním
znalost
Nymburk
teple
upou
onkolog
otřá
určena
Danko
bitvy
židovské
plzeňský
obejít
Nymbur
Jav
výslov
příjezd
nedostala
místností
zapůj
udělají
uvolnění
osmdesátých
taxislu
káz
nevyšlo
autorka
nemusela
opozičních
záchranky
primátorka
pánové
Istanbulu
Adol
##ming
##cek
##nickým
chroni
povstání
řešila
##fisti
překlad
kuri
info
Benát
Atlanti
menšinové
vracejí
vyjadřuje
připojil
Sme
irá
##ktivně
obrně
záchy
Naším
slušný
##plikace
jestliže
Někdejší
právním
blízký
francouzská
slabé
formátu
shromažď
Mexiko
Samotný
nejúspěšnější
Sat
doned
vylí
zápa
##tahu
přejít
zvon
##sadila
cenzu
členům
požadoval
zkoumání
délka
senátora
zčásti
##RU
##lař
Statisti
Marsu
kuchař
tajně
nástupem
spuštění
Aktuální
zbraněmi
donedávna
##íz
naivní
zavo
výky
umístit
jakýkoliv
Viktoria
maloobchod
Novinářům
schy
##órej
##orně
přivést
Počí
##baj
pozvol
rovině
prodejen
spravuje
droga
vyřeší
spotřebitele
propuštěn
fotek
Návrat
Saúdská
Paradox
##itých
##árna
krajní
predseda
eufor
umožnil
svateb
svatba
nevíte
Krás
pohodlí
jó
##iální
##ýva
pojí
zabra
##erre
víťaz
##zik
##fii
fungující
pripom
Letní
Bílém
klasickou
výběrového
výměna
šedesátých
identitu
hájil
lec
##lového
##kist
##smem
pojiště
prvek
lidský
##itelnosti
##lenky
běžen
Kaps
představovat
překra
provozovat
##štiny
přijatel
zrušila
##šieho
Kaliňák
zařadit
středečním
Správa
odpolední
Kevin
##hostej
Lepší
Klím
Sec
##koru
##chvá
nasto
##lující
čištění
hračky
##řábek
##áciu
založené
asistenci
momenty
pojišťoven
zlatou
##SSR
Měsíc
fotoaparát
Bratislave
Ptá
Třet
Tchaj
vet
veškerá
rozlu
společných
Komu
ciziny
nádraž
Nechceme
Řekla
úzce
hliníku
Global
poctivě
jednostran
Wind
##soli
dojed
rozbí
##icem
rodu
známy
zachoval
Noční
cyklisty
linie
Spíše
Zbyněk
Victor
poskytují
odjet
velik
nadš
##tečným
označením
barvě
nejdéle
odhadu
jaderného
shodně
správního
inspiraci
postoji
moderátorka
Sovětského
nejzajímavější
přehodno
##menty
nepřijde
založena
probíhající
sportovním
špičce
čtvereční
Pé
Tren
ďáb
výzku
##grad
vážím
staletí
hodnotou
Financial
četl
Kauza
Moravskoslezském
oddlu
Pokorný
instalaci
Charlotte
expozici
kurátor
Berdych
odpověděla
omezené
Beau
obžalovaného
Finsku
koncentra
Arábii
dřívějších
kód
zákoníku
úvazek
Kře
Sö
Sony
nat
##iness
měna
vzťa
rodné
Incid
podívejte
zaměřené
sebevražed
jimiž
Oldřich
Ras
šam
##daly
dosia
dopustit
proprac
hotová
Marx
studij
103
kandidátem
nuly
uvidíte
přihlásil
##oleslav
projednávání
projednání
vydavatelství
ČHMÚ
##řku
zásil
hraně
metro
Berlína
zájm
porce
prohlídku
arabských
Jirka
komiks
Zaměstnanci
Ciz
Hlí
##rních
##orit
zaují
vyrazila
chovatel
budoucích
nedojde
Celková
Tímto
báje
pěstování
faktory
Dominika
Cou
##yd
##oboleslav
##ovač
nadšený
tah
stejných
místními
neposkyt
186
pomáhali
##zápas
účetní
Barcelony
návštěvnost
celosvětově
připomínající
Dráž
zkola
##ávalo
##är
výzd
výška
##rovaná
časti
187
miliardář
Věděli
obránci
prezentovat
olympiáda
poškozené
Detroit
kalifor
Sebastian
billbo
polojasno
tor
upí
##ňovou
##emie
bankom
Alternat
zájmem
sáhnout
poznatky
Mexiku
neskutečně
Lor
znova
Pochop
##opar
zatčen
dávku
ráz
bílou
nebezpečná
léčbě
Toyota
Rekonstrukce
clou
ek
úle
svaly
##ktory
zatčení
Vyšší
připraveno
úterním
psychické
takzvaně
typů
sbírat
utkají
Podíl
Uvědom
chválí
Tolik
zablok
květiny
ktorom
Region
Hitler
##totož
Data
Ec
ďalej
nakládání
##nipe
ruském
##vaného
technikou
absence
konceptu
nádherné
benzin
prádlo
Schwarzen
Müller
můst
šof
##mid
vyjádřili
klubem
Jinými
hladina
uvědomil
StarDance
mostem
Smart
##řizování
Cannes
češtiny
Kell
postoupit
nehrál
podtr
##dují
jejími
radoval
američtí
zahraničním
unií
vlastníka
koupání
otevřenou
bílá
propadla
sazba
táborů
všetko
Olympij
svěřenci
Členové
Rakušan
Beč
##žných
##ckcha
##peže
ski
##novým
vypát
Soukupa
##blízka
Labe
velvyslance
skandálu
rokoch
vztek
##čian
závodit
fotbalová
Besky
chybějící
argent
podezřelého
spokojená
pruh
přejmen
těsné
Odhad
mantin
vaří
sestavení
bavili
přetí
Vrchní
odmiet
zataženo
Kut
načež
západu
předstí
##buch
opouště
průšvi
investigativní
Tělo
rozšíří
Svatop
kryptoměny
##iro
černého
##ovník
nesná
Jany
překladu
Berou
Těm
posouzení
reformu
sestři
Kadlec
Gen
Pic
sůl
##cový
##tos
odnesl
konaly
představili
Jedinou
pěsti
různým
internetového
významným
zařízeních
zmizela
statistického
jevišti
Hovor
SV
udrží
##iler
##tina
těží
Ston
čerpat
plamen
Babišův
Přišel
Liban
otře
přístupem
západním
pohotovost
vytváření
vysílá
schodiště
Nizozemsku
smartphonů
SEČ
Sigma
autonomní
Az
##alení
##vech
nestí
##ric
koli
prachu
leda
nezač
scén
touha
autobusem
daňového
nutí
Putinovi
jakoukoliv
uzavřená
Metropo
Otta
Institutu
Un
zlé
stre
vysloužil
nadprů
mluvilo
nevyře
Španě
1939
Zdravot
utéct
Dosavadní
ble
poři
##čína
##ctav
##vange
##pění
dceři
Benz
úni
spolumaji
školou
prodejem
obyvatelům
Opak
úrovní
adrenali
soustředí
drobných
šetří
spoluhráče
ofenzivní
pivní
##jal
##úra
##ovar
##říže
pragmat
napodob
##žité
zdravotnických
poloviční
znovuz
porota
hezký
Winnipe
tlumo
pneumatiky
úcty
novoroz
jaksi
spek
přejí
Došlo
stavbou
prodalo
širok
Václavském
Římě
písničky
závislost
smyslupl
pochvaloval
SSSR
##leném
inovat
dostávali
radostí
Kara
Ski
hudbě
Vánoční
propuště
dozvěděla
večeře
Mobil
Sán
Vej
##žene
regul
nazval
CzechT
ověř
nejkrásnější
Zase
cieľ
pochy
prošli
vymyslel
praní
stopu
připraveny
Nedvěd
sestavit
utrat
Zlatý
znepokoj
Tito
##rnách
##sily
sklada
##krem
kardi
konzum
hlášení
dramaticky
lokalitách
europoslanec
nouze
pôsob
lžíce
ade
snu
ponu
##něni
##itz
##stickými
vít
ovlivní
označili
Voráček
právníci
Carl
zastává
archivován
kolony
měřítku
jubile
Nord
Vit
prstů
##esporu
srd
vypadla
Kuba
##advacát
Macrona
Bývalá
důvěryhod
odpůrci
ES
Ukazuje
naft
dorazilo
##tisí
##taz
kdykoli
přehrady
zatop
Mary
cítila
Muel
dispeč
základe
učitelka
##letěla
Finance
šperky
kvan
téhož
vak
##řan
##šom
##ün
výstřel
##damu
neju
koka
##inační
##roub
hluk
tváři
Kladna
výhodnější
literární
Pompeo
Zpravodaj
Křes
dejte
mld
##jec
veget
řeknou
Nea
traktor
##zemní
krem
leteckých
společenských
dvojnásobek
Bush
jádro
pomalejší
vychytal
Nám
dráž
sny
##zil
##ráci
případný
vyplynulo
128
##lezl
blízkých
takzvaná
závazek
detailů
přepadení
##iků
zelená
Maz
neset
nevypadá
veliká
vyhlášen
konzer
neziskové
Are
ST
##iem
##nenie
jednadva
uvedeno
sklou
vlasů
věříme
Místopřed
prezentace
Západě
okrese
poloostrova
zvedl
##gov
nahlas
##telit
středoš
klien
určitá
mrtvý
dostupná
extraliga
šedesáti
vlajky
Lesy
Es
Gud
Ron
lhostej
schází
předložit
spoluzak
Autoři
překvapit
násilím
oslavu
ústřední
Juventus
pondelok
Wik
ujistil
zblízka
úhlu
neform
prvnímu
Kdysi
Čecha
upozornění
spojů
zavzpom
nevěděla
výbornou
Vítková
Atlé
Karolí
hacker
utorok
Uruguay
Emi
rychlob
Pavlík
Rozhodl
záchraně
zlepšuje
Rafa
vnímám
portugal
sází
podezřelých
Opavě
Vodaf
Opozice
příval
##oviště
##chají
kritéria
pošta
videí
##mark
tehdejším
deko
optimální
licence
brusel
vystudoval
najväč
Boeing
dží
fos
##nickém
##válec
syny
odpá
Hotel
vozovky
vyzvali
Československé
očekáváme
Antonína
trávit
látkou
Vrána
zastara
tma
skladatel
102
Muham
vyjadr
horké
hollywood
Regio
##In
##telnost
##hodin
kala
protiimi
republikou
Zemanova
absenci
bránil
tanky
plastové
ložnice
Nit
díle
vítěznou
aktivistů
##procent
Všude
oblíbená
hostující
ukrajinských
dočkat
baterií
poškodit
apart
předpovědi
Vale
pořídil
##etta
##nym
komoře
sílí
neumě
184
srdcem
Věděl
známým
ukaza
Nokia
##ser
předměstí
věro
##alizací
##ect
nežád
organizátorů
stížností
dopadnout
230
zlepšovat
chápe
přesilovce
slzy
Dakar
dik
pch
ujet
nastoupila
##skové
podává
revit
mask
politikům
##čiar
prezidentského
alp
zoolog
diskusí
Chemnit
Cat
davu
úmyslu
Čist
##štá
##35
##votí
výskyt
týž
vlastníků
požádali
komplikov
Dodala
Puig
přítelkyni
Bry
Ner
dně
eskal
##čkovou
##ilové
Cham
špičky
Martiny
probíhala
kinemato
odběra
kvóty
kalhoty
##bka
vykři
nejroz
Cheb
komunikační
Michálek
Abychom
uspokoj
válečných
Lisab
Zásadní
Plav
Sus
##čes
##enských
Pohá
koalí
letí
strategické
emis
nasbíral
senioři
analytici
posiluje
odhalila
pohlavní
dojmem
Sum
pta
ret
##akov
##all
proru
##ilý
vycházejí
volal
##živa
fungovalo
televizí
telefonní
muzikan
Kulhá
stredu
Příkladem
Brož
Zmi
##NÍ
##lete
stoj
prostředek
důležitým
pozorování
zkoumá
chyběla
mládě
stabil
uplynulém
rybář
Státního
objednat
Kauf
Jelínek
##rním
##vab
Popel
postavený
nepřišel
provedla
Loň
tvůrců
miminko
hero
neon
jedničku
Chví
chodila
cyklo
chybělo
Kladně
vyžadují
překážky
Organizátoři
slavnostně
Hájek
kempu
Chrá
Out
Zpočátku
##ency
zaba
nevylu
květin
nenav
úspěchů
elektrických
hypote
potěší
poledni
GT
kadeř
##ženě
##něch
zajít
koni
##busy
##urtu
možnosť
Marcela
##eňme
Protopo
tlač
televizním
vyhlásila
Středozem
gymnázia
Údajně
Jozef
Giu
##teple
##vacím
stáje
##berga
prosinc
obecní
Fren
Mid
##dza
##úpi
##LO
pohlí
nainstal
opery
rozhodčích
osam
Největším
Kolo
lávky
1967
hotovosti
úmyslně
xenofob
Dlu
ohla
##hně
reforma
zeleně
Francúz
dopravci
připravená
interní
krvá
##lův
svobodné
Rytí
##fikovat
Gól
zodpovědný
poděkoval
slevu
Vyšetřování
volejbal
osvobození
Šafářová
Bill
Čest
nejs
vola
možným
trenérů
běžná
únosu
rezervy
všimli
Smrt
promluvil
sprintu
Topolánek
Ariz
FK
cvi
potu
postě
předvedli
##lét
představiteli
potvrdí
zásadním
očist
očividně
Et
bale
záznamu
černých
potřebovala
Augu
Abych
podepsalo
pódium
letounu
Třinci
Třeb
učili
##jely
##ále
posk
##illy
##tická
Jejím
##ople
tenista
kouzlo
písku
barvou
investora
hrozby
plastových
obhajovat
stravování
faktorů
křižovatky
krádež
Asada
muzikál
Arsenal
zrcad
Adám
Drá
MM
RA
ukáž
vnou
##vel
##ovost
ses
##říčí
přivá
##ravé
##kovské
převahu
Stře
týžd
nadých
stojící
podniká
bará
Davidem
Wilson
vzácné
Lánech
omí
##taru
protoko
přebí
ruští
Bohem
solární
sedmý
Jure
sporty
nemusíme
úžasný
využitím
##koľvek
Seni
Zru
vinou
totalit
vystěh
##lund
nezúčast
##nějšími
nevyjád
Trumpovy
styli
rezortu
reagují
Ryana
dôležit
spontán
gy
##oud
##enčí
čtvrtě
Novela
nemusím
Štěch
kolegům
statut
kapacitou
dlouhém
dominantní
anketě
Ústeckém
Vytvo
Mul
Pilo
čtvrtá
hlasováním
Špat
nádor
zapojí
kamarádka
vystupovat
dovozu
zkontrolovat
hattrick
Zuckerberg
Dort
Křet
Svaz
gesto
##vl
dív
tyči
Tenhle
odbornou
národy
Tyg
umožnila
jazyky
domovů
směřování
vzpomínal
snižovat
pohodlně
Cir
##jö
zajat
##tie
Poh
lidstvo
tažení
útokům
určuje
zábradlí
Být
Novo
zez
##finan
zajistila
školení
Koncem
odmítnout
opakuje
Adama
Dodnes
inteligentní
Uberu
Zvláště
Cítím
sak
##inál
zařazení
kotou
rozhodnutie
##ction
Zdůraz
úspěšnou
psycho
plyne
Varša
cyklista
poroty
segmentu
požiad
rejstříku
památníku
Incident
Cli
Sud
sady
Brnem
institut
spojenců
brněnských
uspořá
favoritem
nejčastější
odpočinout
okrem
policejních
zářij
Kud
Lho
Okam
##óza
poľ
spik
uvedených
létat
Přijde
106
tieto
1200
převed
dostatečnou
odmítnutí
potomka
železnici
manažerka
ukrajinského
exekucí
polícia
shrnul
inspirovat
variantou
Got
dv
##srd
##ůstat
##ture
Podě
deň
osma
Dohoda
Koši
Roger
úspěšných
pátou
Herec
Všeobec
Mexika
nekvali
Lom
zhub
stranám
synd
hrály
nechají
107
objektivní
třída
111
Pay
považoval
usly
založit
podzimních
přítomných
obsadila
zpívat
petice
Anthony
vulg
Brig
Web
hově
##venci
##win
kapo
##pulár
tělem
změnách
nabíje
znáte
nemocné
protestní
bytové
převezme
Marian
Student
problematice
Viktora
gay
##ván
Soutěž
připomene
aktuálních
odehráli
etapu
otočit
##skutku
Muhamm
ťaž
##enko
neres
nápor
příko
příčce
spom
komod
žijících
slavných
prodloužit
Izraelem
odstartoval
dotyčný
Bulharsku
městečka
hřbitov
DJ
obrace
odstěh
výkup
repli
potkali
##uscit
běhat
částkou
Taj
polského
ostrovy
řešíme
Williamsová
zvláštního
Blízkém
sorti
Ovečkin
VW
##ínám
##jním
pohrani
odleh
##bach
zabrat
Zemanův
sofisti
##čeným
navrhnout
bitvě
Problémem
klíče
čtvrtečním
piatok
blondý
Gil
##iho
##šta
rozru
soužití
teena
##ičů
Mail
zakry
Přímo
fungovala
##psala
dopadl
nedalo
poruchy
Oscara
určený
československých
češtině
Hlubo
Damašku
Krkonoších
##cast
##lič
##tahy
##padesáti
treba
##ičně
stačil
radio
centrály
realitou
peklo
Palackého
##xabay
Půjde
Sol
zlepší
##pochyby
veterá
převyš
podmínkám
děláte
alkoholem
Ministerstva
nepodaří
Jamese
mieste
napravit
Třebíč
Řecka
##stát
##itom
##nosem
##ozá
Zaměst
##bory
##pomo
Deutsche
kyseli
Maso
odehrálo
příbuzní
symbolicky
problematické
Nick
##címu
výpravy
##iele
kritici
posila
EUR
kapelou
Typ
zahájením
náměstkyně
ovládla
formálně
melod
emb
##tění
jedeme
Neček
představoval
manča
základně
##korup
druzí
demonstrací
pauš
Sánch
plé
prohled
projet
Jednu
mužům
spojený
korespond
Němcová
královny
vyjednávat
spustí
široký
betlém
novinek
Vltavou
pokyn
spolehlivě
zákulisí
Ox
Pane
zch
##anen
jídlem
sídlem
shopu
výhrů
tanec
vzdálené
zaujala
frontě
subjekt
setrvání
Luboš
vmě
##gg
rozhoř
hradní
projektech
Juraj
Děčín
Nadace
podepsala
úseky
inteligenci
rafin
prázdninách
instalace
nerozumí
IK
Vrb
nehnu
zabere
obývá
nejzá
spoření
realizace
informacím
zachránili
pokoušel
senátoři
Wo
vis
##ac
##zena
##zum
##tero
##acek
pouli
pravého
Radio
Nemůže
Laur
pokusili
vydávat
bázi
nafty
vyčerp
londýnské
Liverpoolu
Sázavou
Sly
##chali
nalož
##orm
##els
##láh
Chrudim
kdokoliv
odmítal
ideálním
úspěšnost
milují
Such
evidenci
spustil
cukrá
přezkou
zpívá
námořnict
exportu
nelíbilo
dít
Matte
korid
atmosféry
jeskyni
##OHS
došel
volant
hráčky
Petrov
veřejností
Předsed
rázem
tranz
prodejci
obsahovat
##ívne
pronájem
gener
Rumunsku
růžové
zákonodárci
Vyšetřovatelé
Maláčová
Uvnitř
niečo
starají
středního
Průmys
kolekci
Hora
zmíněného
Slavií
letectví
majitelka
kolegou
syrských
##havé
Floridě
důrazně
hybridní
koupaliště
Porošen
parkovacích
BR
Soudce
kapel
převrat
bohatý
Tradiční
zahrn
zničil
##oterape
Pent
Uži
hity
mer
rallye
shled
osobám
obdobím
vyšetřovací
Turnaj
architekti
anglického
potvrdily
příznivce
autobusové
položil
potrestal
kvôli
Baj
Cre
zka
vysti
prk
Poslanec
zdat
Spart
počin
diskuze
Oscar
zapomněl
spisovatele
domluvili
odhalil
zaplacení
tisíciletí
nálezu
udělil
Šumper
Até
lem
##emokrati
##inz
jest
##rance
kameru
nabídek
chtěly
Babišovy
těžbu
lídři
kandidoval
kapes
##júci
Hulan
hotovo
Viktorie
zóna
NKÚ
ÚOHS
sezení
##ránili
Prostřed
nezak
Nejsme
desetinu
Obraz
Obvyk
zastupitele
založila
planetě
##olí
##AN
##wie
čelil
legraci
opäť
##prese
Veľ
plagi
platilo
chvílích
stěžuje
Unip
Nico
finiš
veškerý
Stavební
dotáhnout
literatury
magazín
Ig
RS
Xia
cister
kolej
minulou
Kušní
zkouší
slyší
signali
čtenářů
Islámského
příznaky
snem
##ury
##čnými
ženská
producen
##nejte
Neměl
právníka
starostou
polských
stanoviska
infrastrukturu
##hospodár
it
vô
čak
##něly
skuto
Zábran
bratři
ptáků
whisky
Aqu
hraz
zajímavější
##pot
vlák
##lník
sociolog
soudních
přímá
kaple
požárů
záchranná
pásma
toleranci
Nebudu
Sagan
Mlý
SK
Wen
##fity
##ďaka
##inkám
##nok
víry
Kaf
Obama
Obháj
uzavřeli
právníků
Dělá
1985
Plzeňský
Miller
vyprávět
##advacetiletého
opravě
Šti
nedají
prožívá
nezav
krajan
##iseg
asoci
přála
projevem
Hrubý
narozenin
kvalitních
klášter
Obyvatelé
nastínil
Tisíce
ule
pohl
##inter
##ektor
##ičom
##itelnou
sateli
##nergy
postupuje
jménu
šílen
samostatných
neděje
zadržen
##barev
Natá
pondělním
Kopecký
Klid
Mluví
##hard
desce
Chal
##tkách
mladším
##sonová
jednali
navrhli
průměrem
bitva
adrese
burzu
nejznámě
Christop
Dmitrij
šéfredaktor
##nských
##hování
##VM
postoupila
tisíců
informačních
dopravou
Hrade
1986
1980
konkurovat
příjemný
oslavil
nejmoder
agentúry
bakteri
rozpozná
unes
##ilem
##čnému
neumím
vymyslet
otepl
považujeme
Arno
##tation
Kamen
##monie
menšiny
vyslovení
zaplatila
inscenaci
Ťin
nedali
podá
přimě
##isou
Českem
Mohlo
polohách
asistenta
jezdili
bloky
zvyšují
přírodu
podnikat
odkazuje
navýšit
make
##obudějov
1905
neutrální
Klat
Nie
shoda
##čiště
pracovit
bíl
kolikrát
antibio
reálném
bojovníků
omylem
Gazdík
vévodkyně
totální
Atléti
##ňu
jedoucí
##itelnost
lepšího
běžném
zjistíte
odpočinku
zaměří
příbuzných
předstihem
Európskej
Lich
ču
##ppa
##hodl
občanských
Stalin
##onald
zakázal
udržuje
postižené
pěkný
žlutých
zákroků
##borat
##padě
hotely
aktiva
vyšly
atak
zkoumat
nenašel
jezdci
italská
dohodl
vylepšení
voľbách
úrazu
Hongkon
eko
mrk
##čká
##18
dokaz
rozpadu
pákist
určí
stanu
Děkuji
Kancelá
složitá
evidence
vylepšit
obrátila
nezvládl
Gašpar
džihád
Obra
##šp
plameny
kvalitou
Zlínském
Fakt
zaměstnavatelé
uspěli
Garros
Moderní
Vlá
##ovnu
předání
inje
trendu
nabízel
nevyz
Hosti
výrazným
fake
potřebných
dovolí
dodavatelů
Richarda
studentům
poškodil
smartphone
kruhy
Unik
##over
počá
doráž
vědec
neprů
##jeno
rychlého
Výhodou
mistrem
obžalovaných
neviděli
výměny
ztratit
obyčejné
Zájemci
Jeruzalém
Hur
Schu
Zrovna
cou
##cat
točit
silami
##back
bezesporu
svědek
rukoj
Zají
pravém
mluvila
Kamila
##fiel
Města
různo
zkoušek
Suchá
škodí
klíčová
bratrem
důchody
šetřit
Krajského
přiblížila
převezen
Brankář
Mistrov
náklaď
Unipetro
##KÁ
pohor
postoupili
##rážel
odved
začneme
bodech
sezóny
směsi
##jíždění
Slovácka
náboženské
poptávku
domnívají
specifické
cirkus
fiktivní
momentě
AR
V4
psem
##šků
předvést
##zdil
Tržby
240
Muslim
posilování
zvedla
přistoupit
místopředsedou
pociť
SZ
Člán
stovka
##líkem
##ranil
skály
válek
USK
Luce
South
otví
rezon
##enutí
letounů
bůh
##řou
##rtu
##lemi
##onová
vyna
trouf
nezmi
Mohli
párů
proslov
nováček
komplik
diskuzi
údržby
Fung
Spr
Tec
alar
hus
##atelné
##dilo
##žmo
podklady
##ravedl
##dost
##skočí
krajín
Luděk
evropskými
raketa
Drahošovi
koloni
Murray
Pravděpodobně
Raz
ol
ranou
umi
##bes
##činu
##lich
nálada
modr
Byd
věnovali
Tamní
nevíd
Mnohem
čtenář
matematiky
Nation
úpravě
##rovali
namě
nera
hotelů
##izof
milióny
ruká
hraniční
starším
banku
##ština
kultuře
Rai
výzvou
brněnském
režimem
formace
Zkuste
Antonio
Učitel
gló
Žít
Žene
##čely
podce
svi
##hradí
desať
zabili
rekon
líčil
lékařka
Věříme
výrazněji
kandidátce
Mladík
prevenci
cestovního
medvěda
celoživotní
Gon
Rá
snů
urg
##vec
##áli
##grant
##stvem
vyhaz
##ever
Costa
Výběr
historií
hrozba
procesů
komplikací
discipliná
rakovinou
upřesnila
spotřebitelů
konzulátu
provincie
Christian
týchto
##okem
##HO
##láz
##síd
váz
informacemi
přestali
slalom
Music
Que
suveren
Vídně
Gav
##mím
nadějí
nejhů
těl
znali
##tivý
rychlá
tvořily
prodejů
obrazovky
nazý
vyhledávání
zaplatili
cizího
vyfot
##ME
##kař
záření
sym
pána
resuscit
stávajícího
Výstaviště
Hir
pel
##mod
##škovou
našlo
podoz
##bírali
bezvědomí
114
Steve
špičkové
Publi
liberál
slavnostním
meteorologů
atentát
Fou
PK
##ium
obdrží
podvoz
chý
##bol
převaž
Někde
odhady
##ácii
Fernan
plastů
Ježíše
ticho
císař
běženců
wi
##endech
naříz
prova
nepůsob
čáry
ochránit
výchovy
vznikající
zastavili
##bodový
křídel
pokouší
dovednosti
Sci
Skal
##alým
předávání
trvání
jistotou
Richter
##ICE
##šedesátiletý
lídrů
suché
Primátor
Akci
Wale
##byj
opouští
noze
rozdílem
milá
poradenství
elimin
Magist
lístek
zaznělo
Alžběta
okouz
Cry
##stad
zaj
předsud
##fort
pohromadě
médii
založen
setkali
##teľom
počítačů
##africké
vytáhnout
Kö
Lot
žel
##ečer
##énem
přilo
přešel
značnou
vodí
nevys
kulo
moderním
nepřítele
Michalem
vzorky
Sobotky
předvoleb
vyrovnaný
Manu
prošlo
##ráti
všed
##razíte
uvedly
čip
přehn
Stru
čtvrť
ČSA
potřebnou
zastával
úzké
kreativ
zesí
Jemenu
Předpokládám
Ků
PET
ustá
##Too
##rané
##koalice
zdôraz
##ánský
domku
malými
suma
Arce
##hnete
##oroční
chemie
přineslo
##přítom
orientaci
asistencemi
Ústřední
zón
##tiny
##dami
zaty
Moj
zahradní
slovní
nedává
směrech
koncern
jazykem
transakcí
pravicové
Valaš
nespraved
Hop
sád
##ib
pojedou
narazila
naklo
neme
druhej
případnou
skutečností
McG
Edenu
Business
astronomi
katolické
Bod
Jmé
Lag
##Station
##enul
##skov
mainst
##cháme
##trem
německým
obratem
účastník
nepřiměř
regionálních
nepřímo
##škin
Vysvět
hospodářský
šťá
Žďár
Lö
nostal
papri
podíváme
vyjel
Málok
napadne
hudbou
prevence
hudebního
Bohemia
Ščas
##sl
##geni
proni
##letů
šéfovi
podvody
důchodce
farmě
udělám
podpisy
Strážníci
m2
##uge
##TC
##émě
Podez
dobří
vítězného
rozšířila
Chytil
přestupek
neznámé
##členná
zásluhy
všeobecně
PlayStation
Chášukdžího
medzinárod
Bom
Kně
Mlá
##řiny
přeta
konver
Strán
tenist
samém
změnami
centrech
úřadům
proměnit
dosavadního
zaujme
vývozu
rezervace
Montrealu
začínající
Jerem
dale
##hľad
pob
##skočila
kritický
kandiduje
technickou
svátku
pracovně
věřící
Starší
uplynulé
Nebyla
dočká
svítí
termíny
avizoval
brambory
figuruje
vydírání
nedbalosti
Konzervat
pum
učil
##ckera
obdržela
takoví
připis
přílo
Informaci
Horák
Domaž
sídle
grafi
dohad
Lídr
zaujmout
Wein
Italové
prohlídce
nádobí
sféře
zezadu
cedu
slog
##orož
##cových
##rácie
##onské
rozkaz
lesk
dostanu
tahou
Záme
##sána
113
výsledcích
výrobou
britském
samotným
sloup
##být
mobilního
##prodávanější
Arcelor
Delo
KP
Koda
Svá
vou
##ator
vydělal
##řici
##pele
Zastav
bělo
podílela
Pacha
velikono
vojska
prezentaci
Připomněl
Půl
##cht
mincí
stáhl
chodím
jedince
##linka
1987
trávě
mimořádnou
neofici
AV
Alice
Mis
prošetř
##rátila
spojí
členka
výrobních
hasiče
penze
provádě
neexistují
manipulace
omyl
zdůvodnil
##bližne
zpožděním
Neymar
##ope
##viny
##gner
pritom
nábor
chut
Pojišťov
známí
jedinců
Dukov
našly
nenas
vzorem
zachytit
Netoli
double
Kapitán
Gaj
Způsob
vskutku
Žlu
##odivu
inzer
Radovan
slyšeli
tempu
hlídky
samostatného
prověřit
zábavy
houby
pacientům
elegantní
Nechtěl
nastřílel
TASS
##opravdy
Tal
případném
úspěšní
sochu
textů
sbírá
Stojí
profesionálních
Hanz
přesune
digitálních
místopředsedkyně
diktatu
dluhopisy
cenách
##cifer
výpočet
prasat
krasob
##tečného
ministerstev
nemusejí
Miloslav
prodaných
citlivé
svahu
uskutečnila
Rádi
potažmo
Favor
NP
Peč
kedy
uchy
ŽK
##Mit
zar
obtěž
zpr
volna
##hledech
zabij
##kládali
Jugos
kupuje
zdůraznila
porážek
Rose
Divadla
Nizozemsko
zeleninu
voľby
potrebné
Vlastimil
Hö
LED
Všem
evolu
##oma
Pohled
reorganiz
prase
##oté
##háme
pasti
léčit
Vešker
zdravotně
kupují
důsledkem
řádově
složil
##omorav
Eng
pokyny
dramaturg
desetitisíce
mesta
##vený
##xit
##chnout
##rodí
přesný
společná
papr
vodo
postavené
dostatečný
kritizovali
přihlásit
pojistné
bezprostřední
kvót
Blue
Klí
Riv
##skav
##torátu
##cková
##esy
Pošt
vín
##ovanosti
tvrdou
správným
profesí
názorem
pohyboval
obviněný
alternativu
kancléřky
strukturu
předváno
Mirek
Paroubek
Hot
prohléd
##vače
##ivých
osloven
nevhodné
109
Karlín
##štat
vařit
sumy
Celkový
Schick
súdu
Zlaté
elektromobily
íránské
vyčist
Jeruzalémě
Očekává
recykla
ISS
ON
kemp
lva
##úru
##ezení
jedny
vzpou
##stávají
##endem
hladce
porážka
vyrábějí
obsadili
linii
smartphony
neschopnosti
Islanders
IB
ded
ocelá
piz
podříz
přesnou
Náměst
doping
bylin
185
Slovenské
Nechá
zemědělci
Stanciu
naučí
pauzu
zločinů
recepty
přivezl
Média
vizuální
Experti
Blá
Rab
##TI
##teče
doklad
vyrůst
##ezuel
měnové
##bavě
reform
leč
##letní
samého
pracujících
kolejí
priem
považována
střelby
ochranou
stěže
žalud
balík
pocitu
Teplic
Městské
Dukle
Upřím
Mrzí
bala
fará
##ml
sema
##arilo
prsa
přijedou
strane
##ánského
dáte
auty
podobném
##manem
zvolí
Bílé
dohodly
Stutt
dráha
doufat
tvorba
Vlastní
netušil
knížky
šatů
Štrasburku
##Mittal
LA
davy
##Foto
zacházení
##ried
kdežto
cestovatel
obchodníci
zmínila
obrovským
prodl
zlepšila
Říha
hotový
podlahy
zaměření
znalostí
Trutnov
Puigdem
AB
Dim
Dvoji
IC
Sti
mobily
##torát
česk
##cházejícím
školního
otevřeno
důvěrou
sousedství
1950
variantě
nekompromi
posudku
##asedmdesáti
Bli
Tony
fé
dohlí
připravoval
Muže
bojových
nabídli
Beroun
poslancům
přesněji
domácnost
vážný
odhalili
Chorvatsku
shromážd
chystané
nepomůže
CE
prvními
filmem
otevřena
zavřít
Vladislav
realitě
daňový
oblíbenou
diplomatické
podnikatelské
Mezinárodního
dvora
vzhledu
chlubí
inovativní
mz
Žili
##FO
zasaz
vyvar
Proz
předsedovi
kontroluje
Británií
MeToo
překvapivé
nepřekvap
Stef
smířit
okamžiky
Irsku
připojí
##gorit
sedmdesátých
mesia
pasažérů
Detroitu
tetování
soustavy
parkovišti
Šmíd
Dřív
bál
Špa
##žemi
vyma
##rovaného
vídeň
kaš
uveden
Rein
odborníka
východním
Step
spadlo
##orient
padesátých
kriminality
ohlásil
Faltýnka
Lucembur
Xiaomi
ArcelorMittal
Dvakrát
Svěd
zvr
##ohled
##jer
##MI
spekt
nezdá
zakázáno
kompenz
Halep
neode
dospěl
hrdý
elektrický
uplatnit
displeji
odpočinek
zvířete
letouny
Chebu
Dum
Klas
mzd
vtedy
neos
odsud
##sadí
##atolog
čekáme
pozemní
##oněme
lyže
kritizovala
litru
Stol
Dostali
Pravidel
smutný
federální
riad
Petrohradu
Hapal
Podnikatel
Elect
uvo
vtr
doopravdy
##lánu
přídav
##ington
následujícím
službou
kandidátku
řidičům
zajímavosti
hlubší
monit
nepřekon
emotivní
přítelkyní
výbuch
Židé
městečku
nesmějí
Hodonín
globali
##bici
##zdí
zařídit
##tivě
sousedy
procentního
říkáme
##dělil
hodnotil
nulu
Vánocích
advokáta
maďarské
fyzik
mizer
Trans
kufru
milimetrů
deficit
zpest
opě
##berk
135
650
bomba
muslimové
Renault
vlo
šup
##ea
pria
účastnil
bezpečnostního
varovala
předpoklady
##pouště
turecký
ilegální
výtrž
GALERIE
šum
##čeni
##šič
zác
příklady
opod
nedoporu
výrobek
úvodních
pasivní
jakoukoli
bomby
zpomalení
Vítkovic
Dallas
cigarety
Hřib
Energy
##tet
neub
sejdou
##stopad
##léb
ruší
premiéry
berlín
strávili
nastává
Chápu
porodila
přednášky
zhodnotil
pohřbu
havárii
##ava
##icy
nechut
Pres
účinku
životnost
řadách
přímého
zavedla
vraždou
přerušení
babičky
křesťanství
odstartuje
akutní
obstará
mláďata
Foldyna
halé
idi
dorazit
##ckrát
Stad
Čechům
umístil
titulní
obviněných
seznámil
Archiv
osudy
stěhování
Egyptě
Matthe
Nezapom
guvernér
nejslavnější
##trat
zaplně
vecí
výhledem
rozměry
##rigu
satelit
novele
logo
Koalice
uznat
autosal
##perto
Celkové
zveřejní
stupň
zvládá
požáry
španělský
chytrý
Základem
Třince
skaut
##plyv
GPS
Sad
Stě
Sty
zkrát
zkres
Čel
Šind
##řují
##ávaly
##arin
nálady
stán
Doh
stanoví
soutěžích
pervit
podstaty
Mladou
Tvrdík
Journal
##ite
##glo
vyrobí
odem
závid
předpoví
obchodníků
investičních
regiony
Andrew
pasáže
odvetě
Plaga
špinavých
Shi
usp
##álku
##číková
tepli
děkuji
cítili
hokejisty
volili
myslíme
typický
blockcha
nalezli
poboček
Frýd
výpadek
nezměnilo
Hvězd
Fried
zkolab
Dře
Dia
Vládní
ptali
pochodu
zastřelil
zahynul
Vyjád
##čanů
##řeným
pyšní
Irsko
manipulaci
námořní
neoprávněně
šatech
Divadle
Pořada
adekvátní
zmá
##ťaž
##raví
##peři
protiúto
spoluob
interven
ostří
rybí
hrozil
vyhlásili
Hay
Salc
herectví
srážce
renes
interaktivní
prozrazuje
hovězí
Nom
rut
Šang
štít
##žovala
##gó
##ózy
prohru
##álnější
způsobí
výsledkům
nebýt
Letň
vojáka
slavnosti
vstupné
poskytnutí
masové
doporučují
zasahuje
maklé
pobřežní
odpůrců
výcviku
Totten
zakazuje
výlety
mapu
týka
vedené
volieb
pohonem
odpadů
sanit
úložiště
dozvíte
nejvýznamnější
Melbourne
Hradiště
Glas
Šla
poty
neje
##celi
letním
##kovic
##bík
čínskou
nesmíme
kopec
naplnit
Claude
rozdělit
frekvent
vrstvy
Sel
##blo
##jav
##tkou
rozdělí
součtu
ředitelky
klubový
působící
Bílá
klimatické
riskovat
Paula
Odpověď
Výroba
životopis
zprvu
Bri
rô
řeku
účten
pětina
kanalizace
titulem
režie
vrácení
iDnes
žalobě
slz
Přemýš
Šumavě
Namí
Tit
éře
Živ
##níčka
dočasné
promyš
##orty
mole
##mag
##sať
nadměr
##jícími
nesna
listů
Snažil
legislativa
Banky
vápna
folkl
Penta
Sor
nakolik
rozliš
pravdě
snazší
kolegu
panely
kauzou
letadle
1942
rozumě
zpěvačky
transparentní
přehlídka
zákoně
legitimní
relevantní
Ya
##hodných
##stop
##žijeme
##vědčuje
Repor
hlasitě
kritickém
profesi
ryze
vyhrály
Světová
1978
mouky
Belgič
rozumu
dostáváme
destinací
teroristických
totálně
kříže
Poved
that
obrát
předs
nezpochyb
Střel
procentům
historickém
Rož
minimali
opakované
bytových
nápadem
zastávce
nevznik
sovětských
spoluhráč
výtvarné
suverénně
Ple
Zlod
pus
špí
##jou
##ďka
pořídí
síni
domlou
dálniční
Vítek
výběrem
posunula
Stanislava
Korn
zlatý
Desít
Vysočiny
organismu
farmace
go
puber
##čnú
##liť
##stičtí
##stupuje
pouť
skôr
Aneta
tipy
postaven
krk
Mika
Alber
Peš
syrského
Patrick
mrazu
utkáním
Disney
hloubky
udeřil
fatální
pričom
dopravním
bývalému
pláže
versus
rozdílné
univerzální
1984
kamarádky
příslib
selhá
Brown
motivovat
uskutečnil
Speku
udrželi
Palestinci
akademii
nechodí
ztě
##12
##romu
zabud
vynik
motý
ing
letům
##loup
##tern
##kováním
páteř
filt
Kola
dařit
velitele
dovolená
pohybovala
provází
spolkové
##letět
##dorf
vlajku
Cab
##toval
docházet
##atá
##arla
přived
mohol
##hraní
ombud
psala
fungoval
Duch
venkově
dohodla
židle
modelem
vytrvalo
dočkali
rukojmí
zom
##cing
docházelo
##náren
##ico
zatkla
spolujezd
Inf
##ránce
nevyšel
základna
zlomil
Josep
posílila
momentu
nula
Začala
záměrem
spolehnout
komedii
sklonku
Haj
oliv
ÚS
šlap
##cer
nájezd
hlasu
nikým
##hledě
dodávat
Kram
svaté
zúčastnili
financovat
reálný
##mluvu
čerstvý
rameny
zásahů
terape
House
Výrobce
miliardáře
Kazach
Mobile
##řípadě
vest
##hlasem
koukat
Miko
sobotního
dokážu
Hráli
koncepci
akumulá
gigant
invazi
Rakuš
snídani
White
úspo
oddech
##hodinové
pozí
tudy
bezvý
bezpochyby
převa
popřípadě
##hlého
libyj
metrech
klima
dopla
##ražené
Heř
klíčovým
odpovídají
nielen
Jednoho
schody
nelegálně
##attle
splácet
Severoat
Lob
dým
##bon
dome
##kuřá
##cki
hotovost
kaza
schizof
strávila
palivo
hrdinů
zajímalo
oddlužení
bří
ohlas
uleh
zřiz
##oka
nasá
##zivě
Takzvan
zakrý
čtvrtině
primář
tvrdili
Silva
vyrobené
odhodla
Pchjongjang
Dolínek
Moderátor
ptají
Šoj
##uš
stranické
každých
koleno
bojové
speciálním
dovolání
bloků
průměrnou
kopci
farmu
spustila
zpěváka
Murín
Frýdek
aplik
Sarko
Osla
truh
##ivo
##rel
##ôd
poisť
##ungu
paktu
smál
##trest
Francií
LeB
##pustilo
omezuje
odsouhlas
ocel
soukromá
Nepři
štvrtok
nástrojem
Pev
SS
lad
Čt
##áteční
prona
stráže
##ladí
zákonné
karta
ovlivňují
příjmení
vyloučeno
videorozhod
Chystá
generálním
přemýšlí
uspěla
ukradl
holčička
Oliver
nalezení
Pila
Thu
krů
výdě
rozchodu
##bají
nezodpověd
##oupa
hráčka
Colou
úřadující
generála
preci
přesunul
úplný
##cionální
identifikovat
těhotná
Otro
Vraž
zazá
##dez
##ester
Narodil
Několi
třicí
jižních
liet
technologických
optimali
Menší
oběťmi
marihuany
dvůr
uveřej
ženách
##wo
##lenie
seš
zasti
reperto
nemohly
##naný
##ujme
upozornili
zásadních
nenašli
ukončili
určených
konstrukcí
Sobě
aktivních
zkušenostmi
Nizozemska
identity
Tokiu
zre
##AA
proboj
kolen
násle
mužské
speciálního
udělení
kupříkladu
synte
Seri
Norsku
##kánské
elity
nedokážu
útulku
neurčit
Irá
NS
žilo
nekal
vyhlí
##rubí
##chody
##řadí
Vyše
Oblíb
pokračovali
nulou
nosorož
požadavkům
mlčí
atrakce
faktorem
okresní
Jméno
Hara
Květ
Malo
ctí
fal
##áry
##stek
vyk
preb
věkem
lidstva
patřilo
průkop
neuvid
forvard
##poziční
Opavy
porušuje
potravy
olympijská
dramatické
Conte
pitné
Edmon
nepovažuje
Dov
gala
načer
prosk
Power
leto
volají
nepřemýš
##graph
slun
Paris
slabý
aktualiz
půjček
Light
úředníky
zaměstnavatelů
Zvláštní
Kalifornie
potaz
demonstrantů
Vzápětí
Prostor
uchová
##cující
netají
dol
##tickou
##řejší
chováním
maleb
nadšen
placené
projevil
americkými
tvrdá
historická
Lete
početní
rytí
lukra
obyčejný
přesilovky
hliník
rybníka
mistryň
Nechybí
Obvykle
Liš
ucházet
vlou
##brav
##cra
nerad
##bosti
konalo
určení
pořádný
oznámí
automobilový
porucha
odměna
Demok
Nejdůležitější
blížící
propagaci
nazvaný
Červenka
Křesťan
následek
CD
Islan
##roka
sesu
docí
dolož
spoleh
tuku
modrá
mému
horko
##ceným
archivu
tradičního
kolaps
neodpoví
startů
extraligu
brankáři
komunita
rozumět
Eric
Dvouhra
náskokem
RegioJ
Ole
pobou
vykres
pravomo
aukce
##manžel
platforma
približne
trénuje
nádvoří
Steven
důchodů
vyslovil
zoufal
záznamů
Urban
tweet
bílkov
Digit
Plo
Uvedla
##gová
zámin
čisti
vyjas
Krkonoš
trenéry
hodinek
usmě
vyhrávat
čemž
agresiv
netre
Městský
onoho
oživit
vyskytuje
tmavé
Petříček
pavilonu
znovuzvo
René
smer
väz
vicem
nač
##edie
dokládá
vykaz
nájmu
legrace
nadříz
##viště
populaci
porušil
klavír
deklar
burza
muzikálu
salát
oborech
jakéhokoliv
zkušeb
Dcera
Zver
oznam
uši
nádrž
Neb
nadšeně
nedoz
středisku
##naté
úřadě
Domini
##redi
předpoklad
poznamenává
sázka
doprovází
uvěz
nabád
management
jihovýchodní
Gabriel
God
Jord
kár
##žír
Stovky
##ysl
Možnost
provede
rychlou
Letech
ukončí
hrudní
čistou
Stoch
vnitřních
uměleckých
hranicemi
vteřiny
vesmírné
obličeji
obranné
Přerov
integrace
Juventusu
unijních
uhradit
Gard
Jab
Vitá
##ll
neúčast
neznají
vymaz
##počí
návaz
##stající
komor
ochutnat
nočních
vytvor
Papež
develo
mono
očak
Naval
zvítězit
chrámu
nedostanou
formální
softwaru
Obchodní
femin
Ori
##tého
##ratem
##mos
Zách
klukům
živoči
podíváte
hormon
používal
desítce
Musil
jízdné
zpravodajských
balkon
neznámého
chválil
Sarah
memorandu
barokní
Corbyn
nejlevnější
Sub
Šance
##pend
##zli
nastoupili
##ativu
##arev
odcházejí
záva
nádrží
předvedla
choval
živě
vysou
draftu
akcii
pomáhala
##ashion
předposlední
vybírají
široká
komunit
vypovídat
Lakers
lázně
řemeslní
Palestinců
neonaci
Chra
Mrt
Uz
rezident
##vacích
vejde
miesto
chytře
pětiny
celému
Mela
kariér
Drag
nedostatečné
rameno
havárie
##žaduje
Armáda
Tvá
jablon
čelní
roků
##nutou
##žitý
Začátek
Nejspí
Názor
##myslí
stěží
klubové
lehká
počítačové
mesiac
proslavil
Ach
hap
##řic
oplá
přehledem
kuku
algorit
skutečných
podpořilo
nepřítom
ztrácejí
dohodou
myšlenkou
zasáhly
pruhy
vedoucích
doživotí
Vokřál
hitem
tlou
neoby
zastra
vystřelil
##tici
##náře
##měte
přivedla
##řizuje
předě
větu
velcí
##ivého
pozůstat
stagn
značení
těža
Jiřímu
##nicemi
legálně
Pep
natočit
zavedl
1970
slíbila
Morris
švédské
pôvod
útěk
súčasnosti
Tesco
Sáblíková
sadu
tek
zba
##ovom
##láci
##buji
##lovaných
##čik
reprezentanti
zachová
přípravou
Pomeje
prezidenti
regula
naznačují
princezna
předejít
nemyslí
Hertl
Lewis
nehnuteľ
Hovo
Kem
Plu
Práv
sati
##pii
##ináv
vůdcem
##beru
vyšli
volnou
přestřel
některého
mužstvu
regene
jízdních
zpravodajský
oslovila
izraelský
pohřb
nakoupit
tolerance
meste
##deaux
Benjamin
Brá
túto
##enskou
##inos
##ardo
##ámy
bohu
pouští
protikorup
rub
Obje
stěžoval
rezort
stihnout
pamatuje
chlape
Krmenčík
##řeného
##pilo
předkola
hoře
překvapí
##endel
Schne
hlásit
bitvu
židovského
izraelského
Hokejový
alian
lanovky
odškodné
vynález
CO2
Pentag
Baví
kloub
##99
neot
##embra
##atch
##nuty
inklu
pravá
##leman
přeplně
##plní
tašky
povy
nevyt
zabila
velikostí
hydra
Trén
zavede
nominan
nechávají
preference
nadsázkou
Článek
Finále
Mó
dus
edit
##iter
##xí
namo
chát
máslo
##kovice
##léd
##išť
traum
popra
šestou
padlých
Juan
komplikované
nákupní
zapomenut
Císa
Banka
katastrofa
remízu
holding
žánru
ceremoniálu
Strnad
SpaceX
##uklear
trávníku
##isegrád
ró
##skep
##akes
##věst
##vozu
buněk
středním
vraha
teplot
##hradské
půjdu
konstatovat
stanovené
tureckého
křídlo
zachránila
odstartovala
Hitle
Měsíce
Kočner
riaditeľ
Pořadatelé
##bas
##ake
##átcích
sveta
##hánět
kontinu
Odpoledne
##tona
Libercem
předpokladu
pochopili
americkému
Stuch
majetkem
časopise
pokroku
rasismu
poloostrově
ambiciózní
reflekt
Čunek
ospravedl
dani
jog
##žních
##hého
##hané
pohov
##zející
oplo
pravdi
většin
zabití
zrani
povinně
dovede
Strach
Ledecké
Titu
##dák
Naproti
půvab
##mena
tendr
protiv
tisících
Záh
soudit
významná
Time
Jihokorej
vracel
arabské
multikultu
zoufale
Energie
drtivé
bytost
Award
Bek
Love
Madu
přimět
příliv
přepravu
silných
dokončil
Holub
pravidly
Duka
hospodě
důvěra
Tampa
stoupání
hospodářského
jazyků
zavádí
přispěla
bavíme
Spoluprá
Osobní
benefit
Speciální
laboratoře
Partners
air
janu
##AP
prok
podráž
Českým
politickými
zveřejnili
poradců
vzděláním
názvy
africké
nečekané
pokrý
http
zbývajících
Průměrný
zvážit
obuv
rekreační
chemiká
Rittich
Origin
##isky
zasí
podlož
##bah
bezú
akredit
použila
tamního
mladými
##gusta
mysliv
odborná
175
##ration
sociálními
pohr
Ukrajinou
migrantům
Snap
sladké
olomoucké
Phoeni
Kelly
nedeľu
příslušníky
Aho
MI
zajetí
obsá
svod
Colum
sobota
Raději
podporoval
1982
spadají
obnovy
fyzických
navázal
kinech
orchestr
Fur
ožen
pavou
ubývá
##stily
##itým
žele
přichy
Zapom
Nejvý
stanicích
Vítě
##bera
navrhne
fanoušek
Opav
nechápu
užívají
Patrika
spustit
Bordeaux
mírný
Technické
managementu
tolerovat
Jek
Rev
S9
##elin
##šinou
##ovských
naby
##meran
věda
sklu
váhy
Prince
obětem
zkusil
skutečná
zvol
nechtělo
plynov
trefu
proměnila
##terak
křesťanské
cyklus
zálohy
Čínská
domorod
FS
Rut
kví
##ensku
rozměrů
##tíž
boom
bojích
deale
zahrají
##hlejší
pěstí
dusí
doplnění
##balistky
Armé
stropu
nastud
prezentuje
naleznete
Cav
konven
těžit
osmdesáti
Některá
Však
vstupenek
pivot
Harris
zavádění
pobočku
Dlouhé
chápat
sekundu
Majitelé
nepřid
cukroví
osamě
trofeje
zásady
dolu
splní
potrubí
říkalo
nepozná
Saint
zmíněná
umoc
zbylých
utrpěli
topení
administrativa
rozloze
ige
přer
##alové
podpí
##kole
másla
dívá
nadcházejících
Vele
těžkým
hrozné
paragraf
hlíd
1979
tvůrčí
taktiku
hrobu
lhůtu
Středočeského
Teploty
Dro
evange
ujel
odhlas
výslu
nadšením
Chan
Spolo
rády
vyhlášky
přáli
Vac
Beck
sestavu
##indl
muslimské
Čapího
Nosek
Místopředseda
festi
nést
##ličky
##rálu
pras
patent
##ínky
##orth
členov
nabídnou
Krista
živý
Europo
##vacího
designér
Záchran
Kok
Oce
Sup
konverz
##upl
reci
zvané
aukci
soudruh
dvouleté
městy
premiérky
laborat
zkoušce
překvapila
##ničce
klasického
zaznamenaly
sdílí
##ejtman
útočníků
implement
operačního
svátcích
Hodnota
HR
Jie
Octav
petro
##řovat
přibude
##žíte
vysu
politickém
##vania
##pravách
umělá
Tajem
spousty
zoologické
kontaktní
rostla
úředník
promění
uspořádat
legendárního
Červený
nereál
vnitrostra
Řepka
Jevgeni
kelím
Credit
heli
kory
ohledech
##list
dojet
##obo
napůl
budoucím
časech
Marcel
vodop
##psat
Samu
##blíže
touhu
jednotlivce
umístěna
bulvá
rozvodu
zhodnocení
zahrád
Express
Chvíli
Youn
flo
##líci
##loví
##enést
časť
zkusí
milé
zneužívá
zasáhne
přinášejí
motivem
kalku
Rumunsko
Prostějově
Středočeském
invaze
opilý
Francis
CIT
##uma
##tuje
##čič
##zce
zaob
zamrz
věřili
letního
##eňa
organizuje
zapal
úřadem
jedinci
soko
##komisa
znamenal
revoluční
dotkne
exekuce
konečném
Jonat
rozšiřovat
Obžalovaný
Fly
Zv
gesta
Čch
odprac
odcest
##lákat
násob
předložil
léčí
Hosp
jednotku
divné
výrobcem
reprezentovat
úspěšného
pátrají
inspiru
Všechna
továrně
družstvo
zvuku
Netflix
Dat
EM
furt
gum
##jdeme
##LS
##neu
ruch
Chovan
autu
soudru
hokejového
Kraus
získávat
chore
1972
závislé
tvrzením
uvězně
odhodlání
Bulharsko
monarchie
Kovanda
Sánchez
Lóp
Niss
ukládá
##hující
přenést
jezí
##nicky
##dici
rukách
Chru
##roblém
plánem
##pers
sedmdesáti
ukázky
přidáme
##keř
1981
bibli
postel
půjčku
italskou
elektronických
klesat
poroste
spekulovat
rakouský
přelom
umím
Knight
koupelny
florbal
databáze
Šťastný
fabri
##vými
záver
Princ
denuklear
##radičně
desetkrát
116
profit
lavičky
likvidace
Bednář
schvalování
Ráda
uložit
žer
užil
pětadvaceti
kouř
##iju
omezený
střílel
bydlel
komentátor
trávník
zpravoda
publikace
tajná
zuba
vicepremiér
zvědav
ECB
vypočítává
Aplikace
dab
##manipu
ulicemi
pohyby
pokusila
4000
##myšlení
Upozornil
nemuselo
nevadilo
Sak
nebere
útocích
hlavičkou
podílem
kvalifik
partnerka
zneškod
##stitut
Písku
##rážejí
Kostel
nedokážou
imigrantů
Fog
Pů
Seb
ladě
##ovskou
##chové
##cely
předběžné
prarod
opis
zápor
cenných
těžbě
postavena
základního
zkuste
čtvrtým
2500
lákají
Meli
vrstev
západního
otočili
##demokrati
##ING
zmluvy
alias
Human
otravy
##ountry
Doktor
normalizace
Dor
Šel
##80
toa
##valem
zásu
svědci
žádnému
fotbalových
partnerky
přemo
šťastné
naváz
zjevné
jízdou
nazvané
brutálně
##štof
veliký
nežádoucí
Flo
Link
SN
umy
##tz
##gers
příplat
Polo
##izací
znalec
červených
ponú
ligový
upřesňuje
biatlonu
vyplý
rozšiřuje
neschopnost
Analytici
bezdrát
Půj
dna
##stali
věta
věty
##hradech
Anny
Nápad
Novinkám
dolar
blízkého
telefonicky
dílčí
vysílat
prvkem
Ronalda
celostát
manažeři
koktej
Vadí
otra
##icím
neopak
odklá
##láp
beznad
důsledek
změnily
Souček
závodník
umíme
omezí
internetový
střídá
vzorků
klimatizace
průzkumy
Maminka
Českomorav
Colours
Camp
non
nestra
##ráme
##rátem
vyjet
##valech
##émy
##kovského
Teor
Výše
pětadvacet
přesvědčil
vydávají
extremi
ostrovech
1976
##atřicet
hudebník
vrtulníku
specialista
omluvit
přehlídku
nepřetržitě
bok
pud
uchop
ztotož
##ákovi
namal
nejez
##ilé
##ezi
##entil
přístře
##telnosti
Dokáže
břeh
obyvatelstvo
prostorem
nechcete
tanků
povahy
uzávě
Raiffe
D5
Uved
##žkou
##zím
pohledy
vystře
kostí
jisk
nezku
pouta
stánku
zvenčí
světovým
mysl
bojovala
Britské
ktorým
dodávku
kilometrech
##pustné
Schul
pochlu
samostatný
Denisa
Kubera
rozumné
přivítá
doktora
tance
##jon
##II
zamyslet
##tických
##omoc
koř
žádní
chytit
plavání
Brň
vyšetrov
ztro
europ
##ruslení
Serena
litoval
fyzickou
automatické
analýze
vystupoval
betonu
##lárních
překážek
benzinu
srovnal
kanonýr
Gregor
kolemjdoucí
adep
shodou
utě
##žným
náleží
prácu
##kovní
sednout
stanovit
117
záchvat
testovací
čínským
podvodů
směřovat
kanadský
iPhonu
Severoče
navštívila
Ztra
Žit
##řenější
##žitelné
##cil
##trover
##líčka
inovací
těšil
deprese
osad
modu
přesta
provozování
opatřením
stanovil
přenech
fakultu
uvolnit
srovnávat
Games
Mistrovství
Lady
gr
kino
##alem
##tovou
##čou
##lině
##iner
##aned
zamo
##eton
vytip
kafe
Martín
ledové
správci
drahý
Myslel
desítkami
vládnou
nuceni
Benda
louce
umělecký
hledala
ušetří
propojit
nejvýznamnějších
Econom
Které
Saz
dary
trénu
ležel
##ečtí
pustila
školních
Slovák
manažerů
Mnohé
kamarádem
luxusních
1953
rozšiřování
lhůty
Kenn
katastru
Bureš
image
Minimálně
přestoupil
Avi
hip
##sali
##pacit
plan
projevit
Prí
Reprezent
životních
Karlova
podílejí
spravod
##anásob
penia
zimním
naplnění
displejem
obojí
Helsin
nekoment
zahrála
Frýdku
přispívají
zmírnění
doteď
oční
##coval
##ars
karav
##ivým
boho
##ránily
komunistický
takovými
klasická
Angely
kamenné
maďarský
diktátor
skříň
valné
kritikou
promluvit
Žižkov
vyhrožoval
informácií
nezasá
Parlamentu
Koruna
Oceláři
týždeň
vich
vchodu
vino
##úš
##arová
##idů
zánět
##ranti
Nejstar
Současné
německy
položit
Jiné
vztahuje
jakýkoli
konstrukt
signat
Magda
zákroky
zhoršení
nenechal
Thomp
distribuci
pokladny
Cestou
gymna
arogan
autoritář
Bis
Šen
##rování
##tam
poklid
##skí
##kovanou
domovy
podíval
Rozhovor
Trh
spojenectví
##báři
exekuci
argumentuje
nejdůležitějších
připomínky
organismus
##střelu
potýkají
čerpací
zotav
Stones
Raiffeisen
Ou
Tvůr
Ulice
imun
včel
##CW
##tahuje
napsáno
sluší
pěve
přitaž
pražští
1983
záložníka
nechystá
faceboo
Jediným
angličtiny
prokuratura
pašerá
Laz
##hie
##labí
##ets
kotel
smýš
dokonalé
získané
provozovatelé
Německé
plánoval
##ženém
slavnou
ústavního
zruší
jmény
poradci
zasněž
hladinou
křiv
Honor
sazbu
Začali
Městská
Orbána
Samotná
hrubé
dominuje
##TVS
doporučuji
abstra
Taylor
Nutno
zhotov
JAR
fú
##žeme
došli
dopoled
##řete
parf
dokonalý
Rey
oznámit
Neměli
##ongol
Napsal
##fektiv
krásných
leteckou
prohlub
Štěpánka
zónu
Žižkově
lístků
oteplování
poisťov
Jung
##liktů
nestá
nevede
mapě
komis
parazit
Andy
manif
manželce
střecha
nastavené
postižených
módu
##pozič
Central
FOTOG
sluchátka
Index
vicemist
daná
uhli
##tovi
##nům
##atra
předběžně
##líp
Podnik
tamním
Matej
Champion
Petry
následků
ráj
divizi
##efek
dodávají
Ročně
odmítlo
nějakému
sídlišti
Doba
kleno
určená
rozhodčího
Cykli
anonymní
##inásobný
Dvořáka
Varšavské
Deloitte
CP
aprí
Švej
##jom
##yl
##BO
neru
dopadu
vynes
##tající
##util
celníci
neproz
##ander
tyče
nemůžou
##hers
vysokými
známek
Termín
Nepří
##ovečer
Rumunska
Šimon
literaturu
Rolling
Automobilka
Kulhánek
##čuk
##gl
##ceho
koření
neznal
zdlou
expres
##čice
##kodra
Nemůžu
ofsaj
Syd
##covia
hospodářskou
Koreou
doufají
majitelům
transplan
odlišný
záběrů
délky
Městského
armádou
levicové
pohotovosti
českobudějov
raně
vyše
bezmoc
čáru
časový
autech
Jap
Jágra
daních
##běhlo
střechou
nepřiz
Meziříčí
nezávislí
koncertní
sousedním
ovládli
Atlan
ukrajinský
příběhem
nastupoval
Develop
zpřísnění
Rybář
Sedláček
##éla
##chám
rozd
vědu
##plod
váze
dětskou
otevřou
dozadu
zpoplat
Zprávám
ilustrační
lázní
disciplíny
expanzi
Kennedy
usou
Škola
##ačtyřicetiletý
zastí
výslech
měřit
popáté
areně
Lidem
prodával
neoch
zapojili
Vánoci
prvorepubli
teorii
dozvědět
pneumatik
nedělního
facebookovém
libovol
Bayern
Komentář
FOTOGALERIE
Mý
neškod
##ican
průhled
Takovou
leden
sportů
skvělým
dlouhodobou
Diam
##znamenal
nebezpečných
nacistické
bavilo
odvolací
globálního
platformu
navštívili
epidemie
Mountfield
harmono
filharmonie
žalu
##CE
##inho
##cej
trhem
##lentní
Machá
starém
činem
neodpovídá
Harley
Macro
360
bankovních
##ínala
tramvajové
čokolád
koordinátor
Lukeš
Upřímně
oké
with
##žného
##stovi
##níkov
##rač
obávat
##nevě
volat
mailu
neporu
##icová
čerpá
starob
metodu
takovéto
aktuálního
zlatých
teroristy
nepravděpodob
Amazonu
trojici
Krčál
Faj
Hilla
##dily
##sovou
##encie
##něnými
nepomá
##icku
padají
poslancem
##jížděli
komentářů
prodejců
svobodně
Donaldem
vyzkoušel
úplne
##ENT
ochranné
Vinohradech
epidemi
Investice
haléřů
CR
Uzav
ove
##ínat
##anky
##rávní
řekněme
##icu
Chi
Recep
krásu
Karlově
výkonného
prevád
Peuge
ústavních
stěžovat
obecních
260
nízký
vyřešení
soustředě
##jatý
památkou
dopisy
Cestující
nastupuje
Oznámil
solidarity
Namísto
Bad
Dak
epo
srazila
##lines
##aki
výjezd
mučení
vzory
Marii
Slovenskem
potřebná
čísle
střelci
Arm
zakázané
hospodářských
protestovali
sexuálních
Kamará
přestupu
nájemní
chudé
ateliéru
Teherán
Dam
##strov
power
odboj
##ácha
půlku
zdejších
##pěl
číslech
totožnost
anglický
prodloužil
střetnutí
statistický
důchodců
kontaktovat
zdokon
severokorejského
absurd
odchovanec
nejpopulár
Drob
Hard
##gové
stý
odložit
##lun
hořet
neproje
rodí
Nejlépe
patřily
Tenkrát
odhalí
slavili
posílají
demokracií
reformě
Georg
konflikty
zřítil
pardubické
rizikové
Vettel
Cleveland
Jurečka
Nich
upadl
##bát
##antu
sté
##dělat
potre
lebo
Stor
hrabě
prezidentu
značný
zdravá
koučem
##gate
slovem
manželů
očekávali
poloze
Zelených
##finálové
##pouští
nekontro
vědomím
bavil
izraelských
front
závazků
klíšť
pořádají
brzdí
břicha
audit
zatížení
Vara
mů
##ön
výskytu
Infor
chodbě
krátká
vrátane
starostu
Švédové
##cenění
neúspěchu
táborech
Italský
inkasovali
architekturu
švýcarské
navštívilo
tendence
necítí
jazz
prokazatel
##cť
##wart
##ôvod
##nier
pravil
##érem
Intel
Inspek
útočit
Lidové
##ffen
automobilového
Těsně
Prix
dostupný
spotřební
šedé
stravy
kavárně
odvezla
Investment
nápisy
choroby
Hron
Jok
Pin
Rop
soš
##ňovalo
##šným
dotý
odklad
##isch
věcem
dialogu
podobnými
trestnou
opravovat
úřadech
rodinném
Fotografie
letectva
požadavku
oceán
uživatelům
##oriad
nalezen
terorismus
ocitla
Televize
Láska
nárazu
Froome
vyrovnali
Sop
Tar
##uru
posty
poměrů
procházku
sau
černém
plýt
Předchozí
vlastníci
službami
zkoušel
hospodár
spolupracují
zapojil
vědeckých
zmap
samospráv
Salah
protiimigrační
Dvojice
Zet
hno
naráží
##hom
vyskytují
přírůst
přežila
##rostit
Příliš
Zelený
slovenským
riziku
starostů
pasu
obnovitelných
závislá
uprchlíkům
specializuje
obzvláště
sběratel
vyplatit
supermarketu
billboardy
Kodaň
Helsinkách
Znojem
vjezdu
pokaz
obhá
víra
autory
##krou
USB
##jímal
Auta
vystoupila
zavin
Osud
alkoholi
Severním
vytápění
žlutou
Američanka
dohledu
nešťastné
Larsson
Hvězda
Philip
potoka
systematicky
motocyklů
bist
##ain
##coni
##ňovací
##šák
narazili
Kami
červený
britským
sníma
doporučila
typicky
publiku
sliboval
pomaleji
církevních
drogami
Přin
art
##éz
##gru
pořiz
##skar
roztom
##tujeme
přeživ
desiat
prezidentů
dáváme
##novy
domovní
týdenní
vzniklé
##ktivu
odhadem
paralel
prohlášením
nechápe
idnes
registraci
oblibě
stezky
chráněné
rasi
Týden
Virgin
Malaj
syndrom
příšer
poutní
léčení
žádoucí
##heimu
šéfové
doplňují
výchovu
Davidson
nízkým
spadne
vážnou
přemýšlel
##tinent
stravu
vitam
dočkala
Okamžitě
Jekatě
Hill
Všet
Zveřej
##šé
Vyh
zdali
schopny
technická
pixabay
operátora
dospělosti
ozval
nafuk
obdivu
odsouzený
zakoupit
kláštera
oškli
odvíjí
ERÚ
Aha
Nisou
frá
##vory
##cup
##tete
##chách
Spolek
jasným
Ameriku
vaším
zavřené
zahraničními
Tram
maminkou
Denis
navrhoval
výuku
Republiky
výbavy
odolá
vajíčka
regulovat
tmy
##gher
##ÚK
seděli
semín
##ráním
##dosti
dostával
Mast
nesl
technik
Objem
nákladního
získávají
lékařskou
vypočí
neskôr
spokojenost
olomoucký
znaky
CV
Ein
Hed
ZU
Zou
hľad
oněch
##gren
sekci
přihod
nejcen
Poško
splet
velry
nepri
vyslých
mladších
novinára
migra
podnikateli
rizikem
nedávném
dvojnásobný
nedůvěře
vanil
bakal
portfolia
kardiná
pomůcky
Kvapil
López
squ
##aut
##čkám
posvát
občanského
zlobí
partnerkou
zvolený
vozidle
Ondra
zvládnou
biop
zlepšil
architektů
příjemná
oblíbeným
zajišťují
Spoluprac
Klim
uvali
##ačka
##fung
##zovaný
##chala
neš
##itost
##itisí
##adlem
záli
maily
přežili
kolejích
založený
obrazovce
Slovácku
Ostrov
přirozenou
individuálně
zopakovat
nouz
Režie
Tayy
obchvatu
##omanžel
Ankara
nejhorším
ema
##ženými
##ónů
nejsla
tenisu
stavem
Berlus
Justin
nevěřil
sbírce
vyloučen
naučili
Beneše
destinace
poslanecké
překročení
pracovišti
Hall
zlomek
agenturou
YPG
ist
udí
##rana
zdvi
staří
změnili
zasvě
Těším
odpovídal
procesor
jízdenky
soukromou
Airbus
vítězi
schodech
prokurat
vyčísle
Portugalsko
integraci
vyjížděli
holokaustu
teenager
Hoš
Wiz
osaz
Šty
potop
##sklad
##ládal
vegan
##lenku
sahá
slunci
Přij
začínala
koaličních
půjdeme
sbírka
sousedé
Koud
Kouč
prohrávali
dodatečně
káv
Charlie
iniciativu
nefun
Centrální
rybník
zdolal
Telefon
vyjednat
afrických
tratích
Nenech
Týká
hůl
kned
Ťien
##fet
##anské
vyměř
##tického
##nán
veľa
letěl
hora
##vyklá
##stojní
Vyzkou
nikterak
ČSS
Konf
Míša
symboly
mandáty
odvolala
Houston
dělníků
dlouhého
šokující
Thajsku
fla
mis
nahlédnout
dokáží
zastal
##elsen
##tivou
##omíra
obalu
chatu
reží
volali
##kovaného
kdekoliv
##lence
silvest
námitky
plody
Karlem
živel
bohatou
cyklistů
spekuluje
Francouzská
exekutor
obhajobu
identifi
zvuky
překážkou
zahynuli
vyrostl
Spojeného
vzpomínám
Fy
LM
##iní
vykli
vyvinut
Stroj
##vajícím
prezidentskou
počest
Všim
tiskovou
stavebním
víkendech
##TON
Strama
550
piloti
nepříjemný
Hruška
Oficiální
racionální
Colorado
Sydney
Din
OĽ
iR
Ču
##ziv
##cip
odrad
spr
chodník
hledáme
svolá
Víta
směny
vesele
Řekli
vlajkou
přihrávku
vzestupu
nerespekt
Kněží
Méně
##iditel
náboj
Chr
##vaným
současnému
zdražení
řidička
používali
##anika
reagovali
Suár
vědomi
Líbí
Mostě
zesnulého
Wars
nesmyslné
major
hygienické
##wicz
AHL
Cros
Natu
Santa
Válka
Ztrá
oné
vďaka
##gale
##oviny
##leze
seděla
prokázal
prošly
##kyň
napom
skut
Přibli
zahraničných
nebem
poskytli
Komplet
zkoušet
André
ukazovat
popisu
Společnosti
absolvent
Slune
proběhnout
obhájit
##šedesáti
chaosu
Nedostatek
poukazují
Konečný
Výrazně
Zadr
hem
užili
hrající
Institut
##ínka
ženský
slavná
Joh
poznali
cele
použitím
řetězců
Avivu
Řezníček
Skála
Schwarzenberg
Zlo
kaka
vlek
##ctá
##aktivní
##orys
obavu
##mace
vzdor
nadpo
následovala
pořádání
platný
kultiv
videok
upravené
natáčet
vybudoval
obohat
sestrou
inspirace
Torontu
Blanka
Libereckém
Dostálová
Aspoň
Oč
nešel
sestru
proté
nejprodu
Nagy
chybou
##systém
Joe
bloká
proměn
pevnou
demokratický
bakterie
Smíchov
Karlsson
čokolády
řádech
Zélandu
Emil
##via
##átech
##70
##zz
##rome
dort
##meš
vypě
##běhne
Velkým
omezování
usvěd
napadli
Moravu
tělocvič
potenciálně
cyklisté
falešných
marketingový
uvěřit
malíř
naprostá
Pchjongjangu
vzpamat
záchyt
nedala
vysp
nejprodávanější
Prosím
Zahraniční
Kaše
Bystri
několikanásob
155
listiny
znevý
půjčit
nominací
podrobností
chudobou
korupční
Vítězství
kontinent
koupelně
Znojmo
Emmanu
signály
OPCW
Nikulina
free
Galerie
Kapsch
Magistrát
Juni
Kang
Trop
chodu
gh
lám
čelo
víře
Kaz
velkorys
kapito
##lobá
konkurz
obnoven
stihli
Kubiš
poplatku
dosahují
nenechá
policejním
Profesor
kato
##ženi
přívě
přístro
potkala
pouhý
devát
##coin
útočné
koule
Martinu
lékařem
stupních
otevřeném
dokázaly
280
Olomoucký
ovlivňování
zpěv
startovat
nepodí
přirozený
dobrovolníků
digitalizace
vítězí
kvalitnější
odpůrce
Kritici
Mnichově
McDav
insolvenční
obřadu
ultraprav
snouben
telekomunikační
Bauer
laser
Makedonie
Tlu
vnik
##lku
proplá
zada
##ekonom
přijíždí
##lovce
Inspi
agendu
skutečným
rodinnou
Dahl
kombinací
papíře
vnitřního
zbavil
pilotů
pitom
zničení
onemocněním
Začátkem
narušení
kníže
honorá
##akespe
Tesa
##hing
##tery
nečin
zámoř
výt
##vedoucí
přečetl
čaje
zveřejněné
štěstím
Podobná
odpovědný
zdravého
Vidím
oživení
Renata
brzké
nasadit
Příčinou
McDonald
Wagner
Bav
Pec
Sw
sčítání
##cz
##rového
náhod
protiprávní
mistryně
##movým
baráž
drahá
filmová
slovenskou
stroji
emisní
přinesly
regulá
Masarykova
utrpělo
muslimských
pohádka
budúc
pátečního
Erik
bizarní
uher
žralo
##ow
##vené
##ór
sestava
##hop
##tězí
vele
dětech
celovečer
Vyp
Toma
soc
složitý
sestavování
kůň
plasty
atrakcí
liberali
inspirací
příbuzné
vrcholem
Zdravotní
Unikátní
East
Nena
Pur
Sb
Slad
iné
rent
##aNO
##enze
odděli
rozpá
##hur
začátky
Kolíně
Rozhodu
různí
televizního
otevřen
založená
pochopitelné
hlásil
náměstkem
cvičit
vyhoštění
novičoku
krátkodobé
vyslal
Protest
Center
rozsví
Počasí
Restau
Kus
Shar
ZŠ
dém
##žbu
##HOV
##enčních
rolích
pris
Polan
pracovalo
##řelé
##ínal
nejlepšími
##hanem
Hamburku
sdělili
najel
vládním
UniC
jezdila
##živu
kritizovat
Panny
užíval
účinné
formát
Generál
důstojník
specifický
maturit
neobvyklé
prohlašuje
Matyáš
Vancouveru
Eti
tk
zbě
##žou
##áše
##ür
zariad
nejch
##louvá
přesahuje
nemluvě
zapis
vznikat
Petera
střelba
kauz
obviněného
Ukrajinci
zemědělských
potřebuji
oblíbených
Slováků
nečeká
kontrast
záběr
poslouží
vypracovat
pořadatelů
vděčný
fóra
Petrohrad
Kavka
youtube
Obvině
zavolat
zbabě
Bun
ROZ
RTVS
##vém
##titu
věčně
objektiv
Koho
bývalém
skočil
pátého
Sevilla
2023
reduk
euroskep
zhoršuje
sezonách
Skuh
lhůta
taxikáři
Národnej
havaroval
Libye
pohrozil
##tle
poní
nesla
prodali
zasy
##nesou
přepis
zvrátit
hraju
nedočka
##litrů
##hera
duo
běžným
tvořili
francouzským
Monte
Bartošek
Dánska
Podpora
HIV
uložení
zalé
##inet
zava
zákeř
rozpoz
chutná
míň
jakož
##hami
dostání
##itelného
dobru
síně
sezónu
kdokoli
Britů
sloužila
hostům
zasáhlo
elektrického
prozradit
špičku
účetnictví
trvalý
destru
výhledu
odolnost
Veselí
sjednocení
Svitav
Trávní
nahradila
Pej
Sie
##raty
##enstvo
jeviště
podvo
přiv
rozchod
praví
napomá
hodina
nadřaz
##štil
Disku
posuzovat
##pána
gramot
tajemníka
Masarykově
distanc
rekordu
Chorvatska
Koncert
předčasných
Pittsburgh
Událost
nejhez
peniaze
OĽaNO
Bron
con
##čností
nezpůsob
skleně
stavy
veřejným
šestkrát
Příprava
Bať
osmý
vrátím
levého
zmínit
komentáři
poruchou
přípravné
samice
Pomoc
##kinson
odvezl
dědeček
nepotřebují
nařčení
výtržnictví
kvě
sav
##bé
poti
chaty
nejná
akrob
symp
dávám
##ránci
Boy
připravujeme
Hock
##hradila
společenský
primátorem
vážnější
ranních
genoci
jádra
zlikvidovat
bombardování
chůze
samosprávy
Vodafone
National
semafor
Koudelka
Zisk
##čci
##šiny
##rající
##diť
depor
přitah
Lidl
ostud
očekával
Sche
ryba
zvířaty
pasá
drony
Scé
tlačítko
pohodlné
vlhkost
Koukalová
severovýchodě
nátlak
heslem
Vliv
kině
štud
##lini
předcházet
rozjel
##daj
mířil
##razd
Stone
cenové
Musela
piráti
Trna
##adať
Budova
nezávisle
hrdinové
vědomě
stihla
Atmosf
globálním
stanoviště
vyhledáva
Ladislava
percenta
metodou
holčičku
privatizace
schránky
##funkční
Desítky
Golf
Vendu
sat
##řenými
##ňme
##něnému
##nig
Zahradní
prostitut
pásu
Babišově
##klidu
podmínkami
jednají
levněji
probíhalo
setkala
jezdců
nízkých
hrajete
antimon
obhájil
amne
zjišťují
objednávku
Konkrétní
vzpomínat
Staroměstském
jídelníčku
všudypřítom
lukrativní
Champions
mráz
Šul
##žková
##rio
napriek
##ovější
miesta
##četla
Marse
##naná
nemalé
##čáka
plác
plochou
dlužní
zvládat
posílil
povedala
Ryt
projevilo
vrcholné
rakouského
úžasná
silničního
přistupovat
portfolio
Systemu
totalitní
invalid
Nezávis
Hillary
Pab
vrat
##žur
##11
##úr
odpí
##avky
korunách
Evropském
Jiní
nedostup
plynů
táhnou
Havlíček
nepřežil
Dobrá
Dobré
1974
ocenila
dotáhl
Povodí
naprostou
benefity
European
Philadelphie
garáže
nereagoval
Šilhavý
Dohromady
NR
Vu
love
ud
Šab
Švé
polní
##dací
##tain
modrou
dopravců
obyva
##cour
společnostmi
Věří
hasičům
přesvědči
Romů
ostrovů
necelý
Slovanu
španělského
vozíku
distribuční
Tesly
Liberecký
Zmínil
zpronevě
Kreuz
intim
Gali
Jisté
fe
srazilo
únie
##qvist
nasy
propadu
##muzí
##álna
končit
tré
##preced
nezam
Reich
Koali
Allen
repres
daty
vydán
Japonci
ohrožují
průvodu
Zeměděl
ocenit
Trojkoalice
zareagoval
Vondrou
Bašára
odpyká
Kornfe
Ep
dut
jam
napína
nadčas
samý
pohybli
požadovali
nepřiprav
Pražanů
Volvo
účinek
vypracoval
vyprošť
akcionáři
Ludvík
akceptovat
stárnutí
Ari
Vari
otu
##ente
##skali
přát
##žející
mírou
##růj
ruskými
větve
Revolu
sledujeme
##vajícího
Dead
hluku
inflaci
Starý
bereme
herecké
Vladimí
uprchlíci
položek
radikálně
pekel
Samsungu
##tefak
zanechal
smutek
vyhlídky
PL
brala
glos
obdrželi
odklon
##lud
##lovy
Jeřábek
Proces
způsobily
připravovali
Luk
obrací
olympion
##úča
natočila
šif
znamenají
prosadila
sláv
maďarského
Gulaš
gynek
pravomocí
Dir
Zp
ego
##xel
##ils
kalam
dělost
nadstav
vyprov
následkem
rovná
sledovala
vrátilo
Schmid
zvládneme
Kampaň
přestupku
850
[...]
